!
,
,</w>
,০
,০</w>
,০০</w>
,০০০</w>
.
.</w>
</w>
?
।
।</w>
॥
ঁ
ং
ং</w>
ংশ</w>
ঃ
ঃ</w>
অ
অং
অং</w>
অংশ
অংশ</w>
অংশগ্রহণ</w>
অংশত
অংশত</w>
অংশব্যাপ
অংশা
অংশি
অংশী
অংশু
অংশু</w>
অংশুর</w>
অংশুল</w>
অংশে
অংশে,</w>
অংশে</w>
অংশে।</w>
অংশের</w>
অংশোগ্রহ
অংশ্
অক্
অক্ট
অক্টা
অক্টাই
অক্টার
অক্টাল</w>
অক্টিন
অক্টিন</w>
অক্টে
অক্টেন
অক্টেন,</w>
অক্টেন</w>
অক্টো
অক্টো</w>
অক্টোগ
অক্ট্যান্
অক্যান্
অক্যুলার</w>
অক্যুলেশন</w>
অক্রম
অক্রিয়া
অক্রী
অক্রুর</w>
অক্রূ
অক্রো
অক্লান্ত
অক্লান্ত</w>
অক্লার্
অক্ষ
অক্ষ</w>
অক্ষে</w>
অক্ষের</w>
অক্স</w>
অঞ্চলে</w>
অঞ্চলের</w>
অতি
অতি</w>
অতিক
অতিক</w>
অতিকথা</w>
অতিকামিতাকে</w>
অতিকামিতার</w>
অতিকায়
অতিকায়</w>
অতিক্র
অতিক্রম
অতিক্রম</w>
অতিক্রমন</w>
অতিক্রমনে</w>
অতিক্রমে</w>
অতিক্রমের</w>
অতিক্রান্ত</w>
অতিক্ষ
অতিত
অতিতথ
অতিতী
অতিতে</w>
অতিন
অতিনাট
অতিনির্মাণ</w>
অতিন্দ্রিয়</w>
অতিন্দ্রী
অতিন্দ্রীয়</w>
অতিল
অতিলো
অতিহ্র
অথ
অথ</w>
অথবা</w>
অথা
অথার</w>
অথার্
অথার্য়
অথি
অথিতি</w>
অথিয়ে
অথে
অথে</w>
অথেন
অথেন্
অথের</w>
অধ
অধর
অধরা</w>
অধরাই</w>
অধরার</w>
অধর্ম
অধর্ম</w>
অধর্মা
অধর্মান্ত
অধর্মীয়</w>
অধা
অধাত
অধাতু
অধাতু</w>
অধাতুর</w>
অধার্মিক,</w>
অধার্মিক</w>
অধি
অধি</w>
অধিক
অধিক,</w>
অধিক</w>
অধিক।</w>
অধিকংশ</w>
অধিকন</w>
অধিকন্ত</w>
অধিকন্তু
অধিকন্তু</w>
অধিকমাত্রায়</w>
অধিকরণ
অধিকরণ</w>
অধিকরণের</w>
অধিকর্তা
অধিকর্তা</w>
অধিকা
অধিকা</w>
অধিকান</w>
অধিকান্ত</w>
অধিকার
অধিকার,</w>
অধিকার</w>
অধিকার।</w>
অধিকারও</w>
অধিকারকে</w>
অধিকারি
অধিকারি</w>
অধিকারিক</w>
অধিকারিনী,</w>
অধিকারী
অধিকারী,</w>
অধিকারী</w>
অধিকারীদের</w>
অধিকারীর</w>
অধিকারে
অধিকারে,</w>
অধিকারে</w>
অধিকারে।</w>
অধিকারের</w>
অধিকিংশ</w>
অধিকৃত
অধিকৃত</w>
অধিকৃতির</w>
অধিক্রম
অধিক্রমন</w>
অধিক্ষেত্র</w>
অধিক্ষেত্র।</w>
অধিক্ষেত্রে</w>
অধিক্ষেত্রের</w>
অধিত</w>
অধিত্ব
অধিত্য
অধিন
অধিনা
অধিনায়
অধিনিয়
অধিনী
অধিনে</w>
অধী
অধীত</w>
অধীন</w>
অধীনে</w>
অধীর</w>
অধু
অধুরা</w>
অধুরে,</w>
অধ্ব
অধ্বং
অধ্য
অধ্যা
অধ্যাত্ম
অধ্যাত্ম</w>
অধ্যাত্মসা
অধ্যানের</w>
অধ্যায়
অধ্যায়,</w>
অধ্যায়</w>
অধ্যায়।</w>
অধ্যায়ে
অধ্যায়ে,</w>
অধ্যায়ে</w>
অধ্যায়ে।</w>
অধ্যায়ের</w>
অধ্যু
অধ্যেতাকে</w>
অন
অন</w>
অন।</w>
অনগণ্য</w>
অনগে
অনগ্র
অনগ্রা
অনা
অনা</w>
অনাড়
অনাত</w>
অনাতা
অনাতের</w>
অনাত্তা
অনাত্তা</w>
অনাত্তার</w>
অনাত্ম
অনাত্মা</w>
অনাত্মান</w>
অনাত্মানের</w>
অনাত্মায়</w>
অনাত্মার</w>
অনান
অনান্য
অনান্য</w>
অনাম
অনামন্ত্রিত</w>
অনামা</w>
অনামিকা
অনামিকা</w>
অনামিকায়</w>
অনামিকার</w>
অনায়া
অনায়া</w>
অনার
অনার</w>
অনারও</w>
অনারারি</w>
অনারারী</w>
অনারি
অনারিয়া
অনারে
অনারে</w>
অনারের</w>
অনার্
অনার্ঘ
অনার্য
অনার্য</w>
অনার্যা</w>
অনাল
অনি
অনিক
অনিক</w>
অনিকেত</w>
অনিকের</w>
অনিক্
অনিক্স</w>
অনিতা</w>
অনিতার</w>
অনিত্য
অনিনি</w>
অনিন্দ</w>
অনিন্দা
অনিন্দিতা</w>
অনিন্দ্য
অনিন্দ্য</w>
অনিয়
অনির্
অনির্দি
অনির্ব
অনির্বা
অনির্বাচ
অনির্বাচিত</w>
অনির্ম
অনির্মা
অনিল
অনিল</w>
অনিলা</w>
অনী
অনু
অনু</w>
অনুযায়
অনুযায়ী</w>
অনুযায়ে</w>
অনুর
অনুর</w>
অনুরণ
অনুরণিত</w>
অনুরণিত।</w>
অনুরণে</w>
অনুরণের</w>
অনুরা
অনুরু
অনুরূ
অনুরূপ</w>
অনুরো
অনুর্
অনুর্ব
অনুর্বর
অনুর্বর,</w>
অনুর্বর</w>
অনুর্বরতার</w>
অনুলি
অনুলিখ
অনুলিখন।</w>
অনুলী
অনুলে
অনুলেখ
অনুল্
অনুষ্ঠ
অনুষ্ঠিত</w>
অনুসারে</w>
অনে
অনে</w>
অনে।</w>
অনেক</w>
অনেন
অনের</w>
অনো
অন্
অন্চলে</w>
অন্ত
অন্ত</w>
অন্তর্
অন্তর্ঘাত
অন্তর্ঘাত</w>
অন্তর্ত
অন্তর্তী
অন্তর্ব
অন্তর্বর্তি</w>
অন্তর্বর্তিক</w>
অন্তর্বর্তী
অন্তর্বর্তী</w>
অন্তর্বা
অন্তর্বাস</w>
অন্তর্বি
অন্তর্বিভাগে</w>
অন্তর্বৃত্ত
অন্তর্বৃত্ত</w>
অন্তর্বৃত্তের</w>
অন্তর্ব্যাপ্তি
অন্তর্ভুক্ত</w>
অন্তর্ম
অন্তর্মস্তি
অন্তর্মু
অন্তর্মুখ
অন্তর্যান্ত্রিক
অন্তর্যাম
অন্তর্যামিন্
অন্তি
অন্তিকা
অন্তুর</w>
অন্তে
অন্তে</w>
অন্ত্য
অন্ত্য</w>
অন্ত্যা
অন্ত্যে
অন্ত্যে</w>
অন্ত্যো
অন্ত্র
অন্ত্র,</w>
অন্ত্র</w>
অন্ত্র।</w>
অন্ত্রীয়</w>
অন্ত্রে,</w>
অন্ত্রে</w>
অন্ত্রের</w>
অন্দ
অন্দোল
অন্দ্র</w>
অন্ধ
অন্ধ</w>
অন্ধা
অন্ন</w>
অন্বয়
অন্বয়</w>
অন্বিত</w>
অন্বিতা</w>
অন্বিষ্ট</w>
অন্বী
অন্বে
অন্ম
অন্মু
অন্য
অন্য</w>
অন্যতম</w>
অন্যদিক,</w>
অন্যদিক</w>
অন্যদিকে,</w>
অন্যদিকে</w>
অন্যদিকে।</w>
অন্যদিকের</w>
অন্যদিন</w>
অন্যদিনে</w>
অন্য়
অন্যা
অন্যা</w>
অন্যাতম</w>
অন্যান
অন্যান</w>
অন্যানগুলির</w>
অন্যানা</w>
অন্যান্ন</w>
অন্যান্য
অন্যান্য</w>
অন্যান্যের</w>
অন্যায়
অন্যায়,</w>
অন্যায়</w>
অন্যায়ের</w>
অন্যে
অন্যের</w>
অন্যো
অফ</w>
অফি
অফিক
অফিনি
অফিলি
অব
অব</w>
অবং
অবন্ধু
অবয়
অবর
অবর</w>
অবরণ
অবরা
অবরু
অবরো
অবর্
অবর্ণ
অবর্ণ</w>
অবর্ণিত</w>
অবর্তমানে</w>
অবর্তী
অবল
অবলা
অবলা</w>
অবলি
অবলিক</w>
অবলিখন</w>
অবলিখনের</w>
অবলী
অবলু
অবলে
অবলেখ
অবলো
অবলোকন
অবলোকন.</w>
অবলোকন</w>
অবলোকিত</w>
অবলোকিতেশ্বর,</w>
অবলোকিতেশ্বর</w>
অবলোকিতেশ্বরের</w>
অবস্থ
অবস্থা
অবস্থা</w>
অবস্থাই</w>
অবস্থাও</w>
অবস্থাকার্য
অবস্থাকালীন</w>
অবস্থাকালে</w>
অবস্থাকে
অবস্থাকে</w>
অবস্থাকে।</w>
অবস্থাত
অবস্থাতে
অবস্থাতে</w>
অবস্থান
অবস্থান,</w>
অবস্থান.</w>
অবস্থান</w>
অবস্থান।</w>
অবস্থানগত</w>
অবস্থানগুলি
অবস্থানগুলি</w>
অবস্থানগুলিকে</w>
অবস্থানগুলিতে</w>
অবস্থানগুলির</w>
অবস্থানগুলো</w>
অবস্থানগুলোর</w>
অবস্থানভে
অবস্থানে
অবস্থানে,</w>
অবস্থানে</w>
অবস্থানে।</w>
অবস্থানের</w>
অবস্থান্ত
অবস্থাপ
অবস্থাপ্রাপ্ত</w>
অবস্থায়
অবস্থায়,</w>
অবস্থায়</w>
অবস্থায়।</w>
অবস্থার
অবস্থার,</w>
অবস্থার</w>
অবস্থারও</w>
অবস্থি
অবস্থি</w>
অবস্থিত
অবস্থিত</w>
অবস্থিত।</w>
অবস্থিতি
অবস্থিতিত</w>
অবস্থিতির</w>
অবস্থির</w>
অবস্থের</w>
অবা
অবাং
অবাংলা</w>
অবাইনারি</w>
অবাণি
অবাত
অবাত</w>
অবাদান</w>
অবাদেবী</w>
অবান্ত
অবায়
অবারও</w>
অবারিত</w>
অবার্
অবি
অবিকল</w>
অবিকৃত
অবিকৃত</w>
অবিক্রিত</w>
অবিক্ষ
অবিত
অবিধ
অবিন
অবিনয়ের</w>
অবিনা
অবিনি
অবিন্দু</w>
অবিন্য
অবিবা
অবিবাং
অবিবে
অবিয়
অবিয়াল
অবিল
অবিলু
অবিশু
অবিশেষ
অবিশ্
অবিশ্ব
অবিশ্বা
অবিশ্বাস</w>
অবিশ্রান্ত</w>
অবিষ
অবিষে
অবিষ্
অবু
অবে
অবৈ
অবো
অবৌ
অব্
অব্দে</w>
অব্বা
অব্য
অব্য</w>
অব্যব
অব্যবস্থা</w>
অব্যবহার</w>
অব্যবহৃত</w>
অব্যা
অব্যাপ
অব্রা
অব্রি</w>
অব্রিটিশ</w>
অব্রে</w>
অব্র্যান্
অভ
অভ</w>
অভবিষ্য
অভব্য
অভব্য</w>
অভা
অভাগ
অভাব
অভাব</w>
অভাবই</w>
অভাবী
অভাবী</w>
অভাবীদের</w>
অভাবে
অভাবে,</w>
অভাবে</w>
অভাবের</w>
অভায়ান
অভার</w>
অভারতীয়</w>
অভালে</w>
অভি
অভি</w>
অভিক</w>
অভিকর্
অভিকা
অভিকা</w>
অভিক্রম
অভিক্ষ
অভিক্ষে
অভিতা
অভিতা</w>
অভিন
অভিনয়
অভিনয়,</w>
অভিনয়</w>
অভিনয়।</w>
অভিনয়া
অভিনয়া</w>
অভিনয়ে
অভিনয়ে</w>
অভিনয়ের</w>
অভিনি
অভিনী
অভিনীত</w>
অভিনে
অভিনেত
অভিনেতা
অভিনেতা</w>
অভিনেতাই</w>
অভিনেতাকে</w>
অভিনেতাদের</w>
অভিনেতান
অভিনেতানিয়
অভিনেতায়</w>
অভিনেতার</w>
অভিনেতারা</w>
অভিনেতারাও</w>
অভিনেত্রী
অভিনেত্রী,</w>
অভিনেত্রী</w>
অভিনেত্রীদের</w>
অভিনেত্রীর</w>
অভিনের</w>
অভিন্
অভিন্ন</w>
অভিন্য</w>
অভিয়
অভিয়ানের</w>
অভিল
অভিলা
অভিলেখ
অভিলেখ</w>
অভিলেখা
অভিষে
অভিষেক</w>
অভু
অভুক্ত</w>
অভূ
অভে
অভো
অভোগ</w>
অর্
অর্ঘ
অর্ঘা
অর্চ
অর্চনা</w>
অর্চা</w>
অর্চার্
অর্চি
অর্জন</w>
অর্ণ</w>
অর্থ
অর্থ</w>
অর্থা
অর্থাত
অর্থাত</w>
অর্থাত্
অর্থাত্ত্বিক</w>
অর্থাত্ম
অর্থান
অর্থানে
অর্থায়
অর্থার</w>
অর্থার্
অর্থে
অর্থে,</w>
অর্থে</w>
অর্থে।</w>
অর্থের</w>
অর্প
অর্পিত
অর্পিত</w>
অর্পিত।</w>
অর্পিতা</w>
অর্পিতার</w>
অর্ব</w>
অর্বা
অর্বি
অর্বিতাল
অর্বু
অর্ম
অর্মার
অর্মি</w>
অর্য
অর্যা
অ্যা
অ্যা</w>
অ্যাই
অ্যাইন্
অ্যাইস
অ্যাত
অ্যাতো</w>
অ্যান
অ্যান,</w>
অ্যান</w>
অ্যানগা
অ্যানয়
অ্যানা
অ্যানা</w>
অ্যানাই
অ্যানাইসো
অ্যানাট
অ্যানাটি
অ্যানাটে
অ্যানান
অ্যানাম
অ্যানামো
অ্যানায়
অ্যানার
অ্যানারো
অ্যানার্
অ্যানাল
অ্যানাল</w>
অ্যানালাই
অ্যানালাইসি
অ্যানালি
অ্যানালিন</w>
অ্যানি
অ্যানি</w>
অ্যানিউ
অ্যানিউপ্
অ্যানিকে</w>
অ্যানিকোনি
অ্যানিম্যা
অ্যানিম্যাল
অ্যানিম্যাল</w>
অ্যানিম্যাল্
অ্যানিয়
অ্যানিয়া</w>
অ্যানিলা</w>
অ্যানিলি
অ্যানী</w>
অ্যানে
অ্যানে</w>
অ্যানের</w>
অ্যানেলি
অ্যানো
অ্যানো</w>
অ্যানোলি
অ্যান্
অ্যান্ত
অ্যান্তো
অ্যান্দ্র
অ্যান্দ্রিয়া
অ্যান্দ্রো
অ্যান্য</w>
অ্যাম
অ্যাম</w>
অ্যামন</w>
অ্যামনি
অ্যামনে
অ্যামস্টার
অ্যামস্টু
অ্যামস্টে
অ্যামস্টেল
অ্যামহার্
অ্যামা
অ্যামাই
অ্যামাইন
অ্যামাইন</w>
অ্যামাইনগুলির</w>
অ্যামাইনা
অ্যামাইনো</w>
অ্যামান্
অ্যামায়ে
অ্যামার
অ্যামারান্
অ্যামারিলি
অ্যামারিলো</w>
অ্যামাল
অ্যামি
অ্যামি</w>
অ্যামিকা
অ্যামিকার</w>
অ্যামিকাল</w>
অ্যামিটার</w>
অ্যামিন
অ্যামিন</w>
অ্যামিনগুলি</w>
অ্যামিনা
অ্যামিনে</w>
অ্যামিনের</w>
অ্যামিনো
অ্যামিনো</w>
অ্যামিনোগ্
অ্যামিয়
অ্যামির</w>
অ্যামিল
অ্যামিলিন</w>
অ্যামিলিয়া</w>
অ্যামিশ</w>
অ্যামে
অ্যামেন</w>
অ্যামেনো
অ্যামেন্
অ্যামেলি</w>
অ্যামেলিতা</w>
অ্যামেলিয়া</w>
অ্যামো
অ্যামো</w>
অ্যাম্
অ্যাম্প
অ্যাম্পিয়ার
অ্যাম্পিয়ার,</w>
অ্যাম্পিয়ার</w>
অ্যাম্পিয়ারের</w>
অ্যাম্পু
অ্যাম্পুল</w>
অ্যাম্পের</w>
অ্যাম্ব
অ্যাম্বা
অ্যাম্বার
অ্যাম্বার</w>
অ্যাম্বারে</w>
অ্যাম্বারের</w>
অ্যাম্বিয়েন্
অ্যাম্বির</w>
অ্যাম্বিশ
অ্যাম্বিশন</w>
অ্যাম্বু
অ্যাম্বুরি</w>
অ্যাম্বুলে
অ্যাম্বুলেন্
অ্যাম্বুল্যা
অ্যাম্ব্যা
অ্যায়
অ্যায়</w>
অ্যায়ার্
অ্যার
অ্যারা
অ্যারা</w>
অ্যারাই
অ্যারান
অ্যারানে
অ্যারামাই
অ্যারি
অ্যারিন</w>
অ্যারিনে
অ্যারিয়া
অ্যারিয়ান
অ্যারিয়ান</w>
অ্যারিয়ে
অ্যারু
অ্যারে
অ্যারে,</w>
অ্যারে</w>
অ্যারেন
অ্যারেনা
অ্যারেনা</w>
অ্যারেনায়</w>
অ্যারেনের</w>
অ্যারের</w>
অ্যারো
অ্যারো</w>
অ্যারোগা
অ্যার্পা
অ্যার্পিন</w>
অ্যাল
অ্যাল</w>
অ্যালা
অ্যালা</w>
অ্যালাই
অ্যালাইন
অ্যালাইন,</w>
অ্যালাইন</w>
অ্যালাইন্
অ্যালান
অ্যালান</w>
অ্যালানাই
অ্যালানাইন</w>
অ্যালানিন</w>
অ্যালানের</w>
অ্যালানো
অ্যালামনাই</w>
অ্যালামনায়ে
অ্যালামো
অ্যালায়ে
অ্যালায়েন্
অ্যালার
অ্যালারিকের</w>
অ্যালারু
অ্যালার্
অ্যালার্ম
অ্যালার্ম</w>
অ্যালি
অ্যালি</w>
অ্যালিক
অ্যালিক্
অ্যালিক্যান্
অ্যালিক্স</w>
অ্যালিতে</w>
অ্যালিন</w>
অ্যালিনা</w>
অ্যালিনে
অ্যালিয়া
অ্যালিয়া</w>
অ্যালিয়ান
অ্যালিয়ান্
অ্যালিয়াম</w>
অ্যালিয়ার</w>
অ্যালিয়েন</w>
অ্যালির</w>
অ্যালিল
অ্যালিল</w>
অ্যালিলের</w>
অ্যালী
অ্যালু
অ্যালে
অ্যালে</w>
অ্যালেন
অ্যালেন,</w>
অ্যালেন</w>
অ্যালেনিয়া</w>
অ্যালেনের</w>
অ্যালেনো</w>
অ্যালেন্
অ্যালো
অ্যালো</w>
অ্যালোকে
অ্যালোকেশী</w>
অ্যালোকো
অ্যাল্
আ
আই
আই</w>
আইউ
আইউপি
আইন
আইন,</w>
আইন.</w>
আইন</w>
আইন।</w>
আইনগ
আইনগত</w>
আইনগুলি
আইনগুলি</w>
আইনগুলিকে</w>
আইনগুলিতে</w>
আইনগুলির</w>
আইনগুলো</w>
আইনগুলোর</w>
আইনগ্রন্
আইনা
আইনা</w>
আইনাইন</w>
আইনান
আইনান</w>
আইনারো
আইনি
আইনি</w>
আইনি।</w>
আইনিক</w>
আইনির্
আইনী
আইনী,</w>
আইনী</w>
আইনে
আইনে,</w>
আইনে</w>
আইনের</w>
আইনো</w>
আইন্
আইব
আইবা
আইবা</w>
আইবারিয়ান</w>
আইবাস</w>
আইবি
আইবি</w>
আইবিতে</w>
আইবির</w>
আইবু
আইবে
আইবেলিনের</w>
আইব্যান্
আইব্লি
আইস
আইস,</w>
আইস</w>
আইসফিল্
আইসবার্
আইসব্রে
আইসমর্থিত</w>
আইসম্যান,</w>
আইসম্যান</w>
আইসহা
আইসা
আইসা</w>
আইসি
আইসি</w>
আইসিং
আইসিং</w>
আইসিতে</w>
আইসিনো
আইসিয়া
আইসির</w>
আইসে</w>
আইসেত
আইসেন
আইসের</w>
আইসো
আইসো</w>
আইসোগ্যামা
আইসোগ্যামি</w>
আইসোলা</w>
আইসোলে
আইসোলেশ
আইসোলেশন</w>
আইসোলো</w>
আইস্
আইস্টোলা</w>
আইস্তালা
আইস্মার্
আক্রম
আক্রম</w>
আক্রমন
আক্রমন</w>
আক্রমনাত্
আক্রমনাত্ম
আক্রমনে</w>
আক্রমনে।</w>
আক্রমনের</w>
আক্রমা
আগ
আগ</w>
আগত</w>
আগভাগে</w>
আগভান</w>
আগা
আগা</w>
আগাত</w>
আগাতা</w>
আগাতে</w>
আগানগ
আগানা</w>
আগানিতে,</w>
আগানো
আগাম
আগাম</w>
আগামসী
আগামা</w>
আগামার্
আগামি
আগামি</w>
আগামু
আগামে
আগামে</w>
আগামো
আগায়
আগায়,</w>
আগায়</w>
আগায়ে
আগার
আগার,</w>
আগার</w>
আগারালা</w>
আগারু</w>
আগালার
আগি
আগিয়া</w>
আগু
আগু</w>
আগুর্তে
আগুল
আগুলে</w>
আগে
আগে,</w>
আগে</w>
আগে।</w>
আগের</w>
আগো
আগ্
আগ্মন</w>
আগ্র
আগ্রহ
আগ্রহ</w>
আগ্রহতে</w>
আগ্রহান্বিত</w>
আগ্রহী</w>
আগ্রহে
আগ্রহে</w>
আগ্রহের</w>
আগ্রহো
আগ্রা
আগ্রা</w>
আগ্রাতে
আগ্রাতে</w>
আগ্রায়</w>
আগ্রার</w>
আগ্রি
আগ্রি</w>
আগ্রু
আগ্রে
আগ্রো
আছে</w>
আছে।</w>
আত
আত</w>
আতথানি</w>
আতম</w>
আতা
আতা</w>
আতাই
আতাই</w>
আতাত</w>
আতাতুর্
আতানা
আতামালে
আতামি
আতায়া
আতায়াল</w>
আতার</w>
আতারা
আতারা</w>
আতারি
আতারীন</w>
আতালান্তা</w>
আতাল্
আতি
আতি</w>
আতিক,</w>
আতিক</w>
আতিক।</w>
আতিকা
আতিকার</w>
আতিকাল
আতিকুর</w>
আতিকুল</w>
আতিক্রান্ত</w>
আতিন</w>
আতিনা</w>
আতিয়া
আতিয়া</w>
আতিয়াতে</w>
আতিয়ে
আতিয়েন</w>
আতির</w>
আতিল</w>
আতিলা</w>
আতিলার</w>
আতী
আতী</w>
আতু
আতু</w>
আতুর</w>
আতুল</w>
আতে
আতে</w>
আতেন
আতেন</w>
আতেনা</w>
আতেনি
আতেনিয়ার</w>
আতেনে</w>
আতেনের</w>
আতের</w>
আতেলিয়ের</w>
আতেলো
আতেশ
আতো
আতো</w>
আতোল</w>
আতোলের</w>
আত্
আত্ত
আত্তা
আত্তা</w>
আত্তাইনিয়</w>
আত্তার,</w>
আত্তার</w>
আত্তার।</w>
আত্তারি
আত্তারি</w>
আত্তারের</w>
আত্তি
আত্তি</w>
আত্তিয়া
আত্তিয়া</w>
আত্তিলা</w>
আত্তী
আত্ত্ব
আত্ব
আত্ব</w>
আত্বরক্ষ
আত্বিক</w>
আত্ম
আত্ম</w>
আত্মত
আত্মতু
আত্মত্যা
আত্মনি
আত্মনিয়
আত্মনির্
আত্মস
আত্মসং
আত্মসম
আত্মসমর্থ
আত্মসমা
আত্মসমালো
আত্মসম্মা
আত্মসম্মান
আত্মসম্মান</w>
আত্মসম্মানিত</w>
আত্মসর্ম
আত্মসহান
আত্মসহায়
আত্মসা
আত্মসাতের</w>
আত্মসাত্
আত্মসু
আত্মস্থ</w>
আত্মস্থান
আত্মস্বার্থ
আত্মস্বার্থ</w>
আত্মস্বার্থের</w>
আত্মস্বী
আত্মস্মৃতি</w>
আত্মহারা</w>
আত্মা
আত্মা</w>
আত্মাতে</w>
আত্মান
আত্মান</w>
আত্মান।</w>
আত্মানু
আত্মায়</w>
আত্মার</w>
আত্মারা</w>
আত্মারাম</w>
আত্মিক
আত্মিক</w>
আত্মিকরণ</w>
আত্মিয়</w>
আত্মে
আত্মের</w>
আত্মো
আত্র
আত্রা
আত্রা</w>
আত্রাই</w>
আত্রাখালি</w>
আত্রান্ত</w>
আত্রে
আত্রে</w>
আত্রো
আধু
আধুনিক</w>
আধুরি</w>
আধুরে,</w>
আধুরে</w>
আন
আন,</w>
আন.</w>
আন</w>
আন।</w>
আনগু
আনগুলে
আনগেল</w>
আনতু
আনতু</w>
আনতুর</w>
আনয়
আনা
আনা,</w>
আনা</w>
আনা।</w>
আনাই
আনাই</w>
আনাটি
আনাটের</w>
আনাটোল
আনাটোলিয়াতে</w>
আনাড়
আনাত
আনাত</w>
আনাতা
আনাতে
আনাতে</w>
আনাতো
আনাতোলি
আনাতোলি</w>
আনাতোলিয়া
আনাতোলিয়া</w>
আনাতোলিয়ান</w>
আনাতোলিয়ায়</w>
আনাতোলিয়ার</w>
আনাতোলী
আনাতোলীয়</w>
আনান</w>
আনানা
আনানা</w>
আনানে
আনানের</w>
আনান্দ</w>
আনান্দ্রা</w>
আনাম
আনাম</w>
আনায়</w>
আনায়া</w>
আনার
আনার,</w>
আনার</w>
আনারি
আনারী,</w>
আনার্
আনালা
আনালাভ</w>
আনি
আনি</w>
আনিক</w>
আনিকা</w>
আনিকেত</w>
আনিকেতো
আনিকো</w>
আনিত</w>
আনিতা</w>
আনিম্যা
আনিয়া</w>
আনিয়াত</w>
আনিয়ানিয়া
আনিয়ে
আনিয়ে</w>
আনিয়েছিলেন</w>
আনির</w>
আনিল</w>
আনী</w>
আনীত</w>
আনীয়</w>
আনু
আনু</w>
আনুর</w>
আনুল</w>
আনুলিয়া
আনে
আনে,</w>
আনে</w>
আনে।</w>
আনেত্তে</w>
আনেন
আনেন,</w>
আনেন</w>
আনেন।</w>
আনের</w>
আনেল
আনো
আনো</w>
আন্
আন্ত
আন্ত</w>
আন্তর্
আন্তর্জাতিক</w>
আন্তর্পরি
আন্তর্বিদ্যাল
আন্তর্বিষয়
আন্তর্মহা
আন্তর্য
আন্তা
আন্তানা
আন্তানানারি
আন্তার
আন্তারা</w>
আন্তারি
আন্তার্
আন্তি
আন্তি</w>
আন্তিকা
আন্তিয়াল্
আন্তিলীয়</w>
আন্তুলের</w>
আন্তে</w>
আন্তো
আন্ত্রান্তের</w>
আন্ত্রিক</w>
আন্দ
আন্দল
আন্দলি
আন্দলো
আন্দা
আন্দানার,</w>
আন্দামান
আন্দামান,</w>
আন্দামান</w>
আন্দামান।</w>
আন্দামানি</w>
আন্দামানে</w>
আন্দামানের</w>
আন্দার
আন্দারি
আন্দারিকি</w>
আন্দাল</w>
আন্দালা
আন্দালি
আন্দালিয়</w>
আন্দালিয়া
আন্দালী
আন্দালু
আন্দালু</w>
আন্দালে
আন্দি
আন্দিকো
আন্দিয়ান</w>
আন্দির</w>
আন্দীয়</w>
আন্দু
আন্দু</w>
আন্দুল
আন্দুল</w>
আন্দুলিয়া</w>
আন্দুলিয়ার</w>
আন্দে
আন্দেলিত</w>
আন্দো
আন্দো</w>
আন্দোল
আন্দোলিত</w>
আন্দোলের</w>
আন্দ্রা
আন্দ্রাজ</w>
আন্দ্রি
আন্দ্রি</w>
আন্দ্রিক</w>
আন্দ্রিয়
আন্দ্রিয়া
আন্দ্রিয়া</w>
আন্দ্রিয়ার</w>
আন্দ্রু
আন্দ্রে
আন্দ্রে,</w>
আন্দ্রে</w>
আন্দ্রেতে</w>
আন্দ্রেনিক</w>
আন্দ্রের</w>
আন্দ্রো
আন্দ্রো</w>
আন্ধ
আন্ধা
আন্ধা</w>
আন্ধার
আন্ধার</w>
আন্ধারে,</w>
আন্ধি</w>
আন্ধ্যারা</w>
আন্বার</w>
আন্য
আন্যান্
আন্যু
আফ
আফ</w>
আফল
আফলা
আফল্যা
আফা
আফাই</w>
আফান
আফান</w>
আফানা
আফানিয়া
আফামিন</w>
আফার
আফার,</w>
আফার</w>
আফার।</w>
আফারিত</w>
আফার্
আফি
আফিকোনা
আফিনি
আফিয়া</w>
আফিল</w>
আফিলি</w>
আফে
আফেন্দি</w>
আফেন্দী
আফের</w>
আফো
আফোগা
আফ্
আফ্রা</w>
আফ্রাম</w>
আফ্রামো
আফ্রি
আফ্রিকা
আফ্রিকা</w>
আফ্রিকাও</w>
আফ্রিকাতে
আফ্রিকাতে,</w>
আফ্রিকাতে</w>
আফ্রিকাতে।</w>
আফ্রিকান
আফ্রিকান,</w>
আফ্রিকান</w>
আফ্রিকানা
আফ্রিকানা</w>
আফ্রিকানার</w>
আফ্রিকানি
আফ্রিকানিউ
আফ্রিকানে
আফ্রিকানের</w>
আফ্রিকান্
আফ্রিকায়
আফ্রিকায়,</w>
আফ্রিকায়</w>
আফ্রিকায়।</w>
আফ্রিকার</w>
আফ্রিকার।</w>
আফ্রিকী
আফ্রিকী</w>
আফ্রিকীয়</w>
আফ্রিকের</w>
আফ্রে
আফ্রো
আফ্রো</w>
আফ্রোগায়ানি
আফ্রোগায়ানী
আফ্রোগায়ানীয়</w>
আব
আব</w>
আবং</w>
আবই
আবছ
আবন্ধ</w>
আবয়
আবয়</w>
আবর
আবর</w>
আবরণ
আবরণ</w>
আবরণে</w>
আবরণের</w>
আবরা
আবরার
আবরার</w>
আবরারু
আবরারুল</w>
আবরারে,</w>
আবরী</w>
আবরু
আবর্
আবর্ত
আবর্তিত
আবর্তিত</w>
আবর্তিত।</w>
আবর্তে</w>
আবল
আবলা</w>
আবলি
আবলিখানা</w>
আবলু
আবা
আবা</w>
আবাই</w>
আবাড়
আবাদ
আবাদ</w>
আবাদা
আবাদান</w>
আবাদি</w>
আবাদী</w>
আবাদে
আবাদে</w>
আবাদের</w>
আবান</w>
আবায়
আবায়</w>
আবায়া
আবায়া</w>
আবার
আবার,</w>
আবার</w>
আবার।</w>
আবারও</w>
আবারী</w>
আবারো</w>
আবার্
আবাল
আবাল</w>
আবালু</w>
আবাস</w>
আবি
আবি</w>
আবিকারের</w>
আবিদ</w>
আবিবে</w>
আবিবে।</w>
আবিবের</w>
আবিয়া</w>
আবিয়ান</w>
আবির</w>
আবিল</w>
আবিলা</w>
আবিলে
আবিষ্
আবিষ্ট
আবিষ্ট</w>
আবী
আবী</w>
আবীর</w>
আবু
আবু</w>
আবুর</w>
আবুল
আবুল</w>
আবুলের</w>
আবৃত
আবৃত</w>
আবৃতি</w>
আবৃত্ত</w>
আবৃত্তি
আবৃত্তি</w>
আবৃত্তিকারী
আবৃত্তিতে</w>
আবৃত্তির</w>
আবে
আবে</w>
আবেত
আবেন্
আবের</w>
আবেল
আবেল</w>
আবেলা</w>
আবেলি
আবেলি</w>
আবেলিয়ান</w>
আবেলীয়</w>
আবেলের</w>
আবেশ
আবেশ</w>
আবেশন</w>
আবেশিক
আবেশিক</w>
আবেশিত</w>
আবেশী
আবেশীয়</w>
আবেশে</w>
আবেশের</w>
আবো
আবো</w>
আবোল
আবোল</w>
আব্
আব্ব
আব্বা
আব্বা</w>
আব্বাদ</w>
আব্বায়
আব্বার</w>
আব্বাস</w>
আব্বু
আব্বো
আব্বৌ
আব্র</w>
আব্রা
আব্রা</w>
আব্রাম
আব্রামো
আব্রি
আব্রিকো
আব্রু
আব্রু</w>
আব্রো</w>
আম
আম</w>
আমত
আমত</w>
আমতা</w>
আমতার</w>
আমন
আমন</w>
আমনা
আমনা</w>
আমনে
আমন্ত্র
আমন্ত্রণ
আমন্ত্রণ</w>
আমন্ত্রণে</w>
আমন্ত্রণের</w>
আমন্ত্রি
আমন্ত্রিত
আমন্ত্রিত</w>
আমন্ত্রিত।</w>
আমন্ত্রের</w>
আমন্রণ</w>
আমসা</w>
আমসুল
আমস্টার
আমস্টার্
আমস্টে
আমস্টেল
আমহারা
আমহারা</w>
আমহারিক</w>
আমহারিকের</w>
আমহারীয়</w>
আমহার্
আমা
আমা</w>
আমাই
আমাইন্দ
আমাত
আমাতু
আমাতুল</w>
আমাতে
আমাতের</w>
আমাত্য</w>
আমান
আমান,</w>
আমান</w>
আমানগঞ্জ</w>
আমানা
আমানাত</w>
আমানি</w>
আমানিয়া</w>
আমানুর</w>
আমানুল</w>
আমানুল্
আমানের</w>
আমানো
আমানো</w>
আমান্
আমান্তিয়া</w>
আমামির</w>
আমামের</w>
আমায়
আমায়,</w>
আমায়</w>
আমায়।</w>
আমায়া
আমায়া</w>
আমায়েন</w>
আমার
আমার,</w>
আমার</w>
আমার।</w>
আমারও</w>
আমারা
আমারা</w>
আমারালের</w>
আমারি</w>
আমারিকার</w>
আমারী</w>
আমারু</w>
আমারে</w>
আমারেলো</w>
আমারো</w>
আমার্থ
আমার্থ</w>
আমাল
আমাল</w>
আমালা
আমালিকের</w>
আমালিয়া</w>
আমালু
আমালে
আমি
আমি</w>
আমিকে</w>
আমিতি
আমিত্ব</w>
আমিত্বের</w>
আমিন
আমিন,</w>
আমিন</w>
আমিন।</w>
আমিনগা
আমিনা
আমিনা</w>
আমিনার</w>
আমিনি
আমিনি</w>
আমিনিকাড়
আমিনিয়
আমিনিয়া</w>
আমিনী
আমিনী</w>
আমিনীর</w>
আমিনের</w>
আমিন্তো
আমিয়ে
আমির</w>
আমিল
আমিল</w>
আমিলা
আমিলাই
আমিলী
আমিলী</w>
আমিশা
আমু
আমু</w>
আমুর,</w>
আমুর</w>
আমুরিয়া</w>
আমুরুর</w>
আমুরে</w>
আমুরে।</w>
আমুরের</w>
আমুরো
আমুর্
আমুল
আমুল</w>
আমুলের</w>
আমূল
আমূল</w>
আমূলে</w>
আমৃত্তি</w>
আমৃত্যু
আমৃত্যু</w>
আমে
আমে</w>
আমেত</w>
আমেন
আমেন</w>
আমেনা</w>
আমের</w>
আমেল</w>
আমেলা</w>
আমেলার</w>
আমেলি</w>
আমেলিয়া</w>
আমেশা</w>
আমো
আমোগা</w>
আমৌ
আম্
আম্প
আম্পানের</w>
আম্পায়ার
আম্পায়ার,</w>
আম্পায়ার</w>
আম্পায়ার।</w>
আম্পায়ারও</w>
আম্পায়ারকে</w>
আম্পায়ারি
আম্পায়ারিত্ব
আম্পায়ারিত্ব</w>
আম্পায়ারিত্বের</w>
আম্পায়ারে
আম্পায়ারের</w>
আম্পারো</w>
আম্পিনগ
আম্পিয়ার</w>
আম্পু
আম্পে
আম্পেনাম</w>
আম্পেল</w>
আম্পেলু
আম্ব
আম্ব</w>
আম্বর
আম্বর</w>
আম্বরিয়া
আম্বরের</w>
আম্বল
আম্বা
আম্বা</w>
আম্বাতো</w>
আম্বাত্তুর</w>
আম্বাদ
আম্বাদ</w>
আম্বান</w>
আম্বান।</w>
আম্বানি</w>
আম্বানির</w>
আম্বার</w>
আম্বারায়</w>
আম্বার্তো</w>
আম্বালা
আম্বালা</w>
আম্বালায়</w>
আম্বালিয়ারা
আম্বালিয়ারা</w>
আম্বি
আম্বি</w>
আম্বিয়া
আম্বিয়া</w>
আম্বিয়ায়ে</w>
আম্বির</w>
আম্বিলিকালি
আম্বু
আম্বে
আম্বেল</w>
আম্বো
আম্বো</w>
আম্ব্রিন</w>
আম্মা
আম্মা</w>
আম্মান
আম্মান,</w>
আম্মান</w>
আম্মানার</w>
আম্মানে</w>
আম্মানে।</w>
আম্মানের</w>
আম্মামা</w>
আম্মামের</w>
আম্মার,</w>
আম্মার</w>
আম্মারকে</w>
আম্মারা
আম্মারের</w>
আম্মাল
আম্মালু
আম্মি
আম্মি</w>
আম্মিত
আম্মিত</w>
আম্মিয়ান
আম্মু
আম্মু</w>
আম্মুলে
আম্মো</w>
আম্যু
আম্র
আম্র,</w>
আম্র</w>
আম্রা
আম্রাতা</w>
আম্রিকে
আম্রে
আম্রে।</w>
আম্রেলি</w>
আয়
আয়,</w>
আয়</w>
আয়।</w>
আয়া
আয়া</w>
আয়াত
আয়াত</w>
আয়াতু
আয়াতুল্
আয়াতে,</w>
আয়াতে</w>
আয়াতের</w>
আয়াতোল্
আয়ান,</w>
আয়ান</w>
আয়ানের</w>
আয়ান্
আয়াম</w>
আয়ামানামে</w>
আয়ামে</w>
আয়ামেলি</w>
আয়াম্বিক</w>
আয়ার
আয়ার,</w>
আয়ার</w>
আয়ার।</w>
আয়ারকে</w>
আয়ারে,</w>
আয়ার্
আয়ালা</w>
আয়ে
আয়ে</w>
আয়েত</w>
আয়েন
আয়েন</w>
আয়েনি
আয়েন্দ্রী</w>
আয়ের</w>
আয়েল</w>
আয়েলে</w>
আয়েশ
আয়েশ</w>
আয়েশত
আয়েশা
আয়েশা</w>
আয়েশার</w>
আয়েশী</w>
আয়েশের</w>
আয়ো
আয়ো</w>
আয়োগ
আয়োগ</w>
আয়োগের</w>
আয়োগ্য</w>
আর
আর,</w>
আর</w>
আর।</w>
আরও</w>
আরকে</w>
আরক্ষ
আরণ</w>
আরণ্য
আরণ্য</w>
আরয়</w>
আরহ
আরহ</w>
আরহা</w>
আরহার্
আরহি
আরহু
আরহে
আরহেনিয়া
আরা
আরা</w>
আরাই
আরাই</w>
আরাইস</w>
আরাখ
আরাজ</w>
আরাতামা</w>
আরাতে</w>
আরাতের</w>
আরাত্রিক</w>
আরাত্রিকের</w>
আরান
আরান</w>
আরান্
আরাম
আরাম</w>
আরামা
আরামাই
আরামি
আরামিক</w>
আরামে
আরামে</w>
আরামের</w>
আরায়া
আরায়া</w>
আরার,</w>
আরার</w>
আরারা
আরারাত</w>
আরারিয়া</w>
আরারে</w>
আরাল
আরাল</w>
আরালের</w>
আরি
আরি</w>
আরিক</w>
আরিকমে
আরিকা
আরিকা</w>
আরিকারা</w>
আরিকের</w>
আরিক্যারি</w>
আরিত
আরিতা
আরিতো
আরিন
আরিনা</w>
আরিয়
আরিয়া
আরিয়া</w>
আরিয়ান
আরিয়ান</w>
আরিয়ানা</w>
আরিয়ান্
আরিয়াম
আরিয়াল</w>
আরিয়ালুর,</w>
আরিয়ালুর</w>
আরিয়ে
আরিয়েন</w>
আরিয়েল
আরিলে
আরী
আরী</w>
আরু
আরু</w>
আরুল
আরুল</w>
আরুলিয়
আরূ
আরে
আরে</w>
আরে।</w>
আরেনা</w>
আরেন্
আরেন্য
আরের</w>
আরো
আরো</w>
আরোগ্য
আরোগ্য</w>
আরোগ্যে</w>
আরোগ্যের</w>
আরোল
আরোল</w>
আর্
আর্ঘ
আর্ঘান্দা
আর্চ
আর্চ</w>
আর্চা
আর্চাই</w>
আর্চার</w>
আর্চার।</w>
আর্চারি</w>
আর্চারে
আর্চারের</w>
আর্চি
আর্চি</w>
আর্চিয়া
আর্চে
আর্চে</w>
আর্চের</w>
আর্ত
আর্ত</w>
আর্তা</w>
আর্তাকে</w>
আর্তি
আর্তি</w>
আর্তির</w>
আর্তু
আর্তুর</w>
আর্তুরো</w>
আর্তে
আর্তে</w>
আর্তের</w>
আর্থ
আর্থ</w>
আর্থা
আর্থা</w>
আর্থাই
আর্থান
আর্থার
আর্থার,</w>
আর্থার</w>
আর্থার।</w>
আর্থারকে</w>
আর্থারাই
আর্থারে</w>
আর্থারের</w>
আর্থি
আর্থিক
আর্থিক,</w>
আর্থিক</w>
আর্থে
আর্থে</w>
আর্থের</w>
আর্প</w>
আর্পিতীয়</w>
আর্বর</w>
আর্বরে</w>
আর্বরের</w>
আর্বান</w>
আর্বানা
আর্বানের</w>
আর্বার,</w>
আর্বার</w>
আর্বি
আর্বিকা
আর্বিল
আর্বিল</w>
আর্বিলের</w>
আর্বী,</w>
আর্বেলা
আর্বো
আর্বোগার</w>
আর্ব্রি
আর্ম
আর্ম</w>
আর্মস,</w>
আর্মস</w>
আর্মসের</w>
আর্মস্ট
আর্মস্ট্র
আর্মহার্
আর্মা
আর্মানিয়া
আর্মান্
আর্মার</w>
আর্মারি
আর্মারি</w>
আর্মার্
আর্মি
আর্মি</w>
আর্মিকে</w>
আর্মিতে,</w>
আর্মিতে</w>
আর্মিন</w>
আর্মিনিয়া
আর্মিয়া</w>
আর্মির</w>
আর্মে
আর্মেন</w>
আর্মেনি</w>
আর্মেনিয়
আর্মেনিয়</w>
আর্মেনিয়া
আর্মেনিয়া</w>
আর্মেনিয়াতে</w>
আর্মেনিয়ান
আর্মেনিয়ান,</w>
আর্মেনিয়ান</w>
আর্মেনিয়ামে
আর্মেনিয়ায়</w>
আর্মেনিয়ার</w>
আর্মেনী
আর্মেনীয়</w>
আর্মের</w>
আর্ম্
আর্ম্বারের</w>
আর্য
আর্য</w>
আর্য়
আর্য়া
আর্যা
আর্যা</w>
আর্যো
আর্রা
আর্রিয়ান</w>
আল
আল</w>
আলা
আলা</w>
আলাই
আলাই</w>
আলাইন</w>
আলাইনা</w>
আলাইব্রিতে,</w>
আলাত
আলাতু
আলান
আলান</w>
আলানা</w>
আলানি
আলানি</w>
আলানিয়া
আলানিয়া</w>
আলানিয়ায়</w>
আলানিয়ার</w>
আলানো</w>
আলান্দুর,</w>
আলান্দুর</w>
আলাম
আলাম</w>
আলামত</w>
আলামস
আলামা
আলামি
আলামিকে</w>
আলামিন</w>
আলামিয়া</w>
আলামু</w>
আলামে
আলামো
আলামো</w>
আলাম্বু
আলায়
আলায়</w>
আলায়া</w>
আলার</w>
আলার্
আলাল
আলাল</w>
আলালের</w>
আলি
আলি</w>
আলিক</w>
আলিক।</w>
আলিকরাম</w>
আলিকা</w>
আলিকিন</w>
আলিকে</w>
আলিকো
আলিখ
আলিতি
আলিতে</w>
আলিন
আলিনগ
আলিন্দ্র
আলিয়
আলিয়</w>
আলিয়া
আলিয়া</w>
আলিয়ান</w>
আলিয়ায়</w>
আলিয়ার</w>
আলিয়ারহা
আলিয়ে
আলিয়ে</w>
আলির</w>
আলিলা</w>
আলী
আলী,</w>
আলী</w>
আলীদের</w>
আলীয়</w>
আলীর</w>
আলু
আলু</w>
আলুর</w>
আলুরি</w>
আলুলা</w>
আলে
আলে,</w>
আলে</w>
আলেখ
আলেখন</w>
আলেখনের</w>
আলেনা</w>
আলেনিয়া</w>
আলেন্তে
আলেল্
আলেশা</w>
আলো
আলো</w>
আলোক
আলোক,</w>
আলোক</w>
আলোকনির্মাতা
আলোকম
আলোকমান</w>
আলোকমালা
আলোকমালা</w>
আলোকমিতি
আলোকমিতিতে,</w>
আলোকর
আলোকরা
আলোকা
আলোকায়
আলোকি
আলোকিক
আলোকিক</w>
আলোকিত
আলোকিত</w>
আলোকিত।</w>
আলোকিতা</w>
আলোকীয়</w>
আলোকে
আলোকে,</w>
আলোকে</w>
আলোকে।</w>
আলোকেই</w>
আলোকের</w>
আলোকেশ্বরী</w>
আলোকো
আলোক্
আলোগুলি</w>
আল্
আল্প
আল্প</w>
আল্পতে
আল্পাইন</w>
আল্পির</w>
আল্পেনগ্
আল্প্
আল্বর</w>
আল্মু
আল্মেশ্বরী,</w>
আল্যা
আস
আস,</w>
আস</w>
আসদ্
আসন</w>
আসফ
আসফ</w>
আসফা
আসফান্দিয়ার</w>
আসফার</w>
আসফাল্
আসফি</w>
আসফোল্
আসবা
আসবা</w>
আসবার
আসবার</w>
আসবে
আসবে,</w>
আসবে</w>
আসবে।</w>
আসবেন,</w>
আসবেন</w>
আসবেন।</w>
আসবো</w>
আসম
আসম</w>
আসমতি</w>
আসমতী</w>
আসমা
আসমা</w>
আসমাই</w>
আসমান,</w>
আসমান</w>
আসমানি</w>
আসমানী</w>
আসমানের</w>
আসমায়ে</w>
আসমার</w>
আসমারা</w>
আসমারামা
আসমারায়</w>
আসমারার</w>
আসমারিয়া</w>
আসমির</w>
আসমের</w>
আসর
আসর,</w>
আসর</w>
আসর।</w>
আসরকে</w>
আসরা</w>
আসরানি
আসরানী</w>
আসরাম
আসরার
আসরার,</w>
আসরার</w>
আসরারু
আসরারুল</w>
আসরি</w>
আসরে
আসরে,</w>
আসরে</w>
আসরে।</w>
আসরের</w>
আসহা
আসহামা
আসহিতে</w>
আসা
আসা</w>
আসাই
আসাই</w>
আসাগেল</w>
আসাতি
আসাতে</w>
আসাত্রু
আসাত্রু</w>
আসাধার
আসান
আসান</w>
আসানি
আসানের</w>
আসানো
আসাম
আসাম</w>
আসামতি
আসামা</w>
আসামাত্র
আসামাত্র</w>
আসামাম</w>
আসামি
আসামি</w>
আসামিকে</w>
আসামির</w>
আসামে
আসামে</w>
আসামের</w>
আসায়</w>
আসায়।</w>
আসার,</w>
আসার</w>
আসারি</w>
আসারিয়ান</w>
আসাল
আসাল</w>
আসালা
আসালা</w>
আসালু
আসি
আসি</w>
আসিকোল</w>
আসিক্স</w>
আসিতে</w>
আসিন</w>
আসিনি
আসিনি</w>
আসিয়
আসিয়া
আসিয়া</w>
আসিয়ান
আসিয়ান</w>
আসিয়ানে</w>
আসিয়ানের</w>
আসিয়ারি</w>
আসিয়ালাতিন</w>
আসিয়ের</w>
আসির</w>
আসিরি</w>
আসিরিন।</w>
আসিরিয়</w>
আসিরিয়া</w>
আসিরিয়াত
আসিরিয়ান</w>
আসিরিয়ার</w>
আসিল</w>
আসিলেন</w>
আসী
আসীন</w>
আসীর</w>
আসু
আসু</w>
আসুর</w>
আসুরা
আসুরিক</w>
আসুরের</w>
আসুলিন</w>
আসে
আসে,</w>
আসে</w>
আসে।</w>
আসেন
আসেন,</w>
আসেন</w>
আসেন।</w>
আসেনা,</w>
আসেনা</w>
আসেনা।</w>
আসেনি
আসেনি</w>
আসেনি।</w>
আসেন্
আসের</w>
আসেলা</w>
আসো
আস্
আস্টা
আস্টার</w>
আস্টেলো
আস্ট্রাখান</w>
আস্ত
আস্ত</w>
আস্তা
আস্তা</w>
আস্তানা
আস্তানা,</w>
আস্তানা</w>
আস্তানাটির</w>
আস্তানাতে</w>
আস্তানায়</w>
আস্তানার</w>
আস্তামু
আস্তারা
আস্তার্তের</w>
আস্তি</w>
আস্তিক
আস্তিক</w>
আস্তিক্য
আস্তিন</w>
আস্তুর
আস্তুরি
আস্তুরিয়া
আস্তুরিয়ান
আস্তুরিয়ান</w>
আস্তুরিয়ার</w>
আস্তুরিয়ে</w>
আস্তুরীয়</w>
আস্তে
আস্তে</w>
আস্তো
আস্ত্রাই
আস্ত্রাখান</w>
আস্ত্রো
আস্থা
আস্থা</w>
আস্থান</w>
আস্থানা
আস্থানা</w>
আস্থানায়</w>
আস্থায়
আস্থায়</w>
আস্থার</w>
আস্পারা
আস্পার্
আস্পে,</w>
আস্পেন</w>
আস্পেনের</w>
আস্বাদ
আস্বাদ</w>
আস্বাদন</w>
আস্মো
আস্যাই
আস্যারিয়ান</w>
আস্রের</w>
আহ
আহ</w>
আহওয়ার</w>
আহত
আহত</w>
আহতা
আহতাল্
আহন</w>
আহয়
আহল</w>
আহলে</w>
আহা
আহা</w>
আহান
আহান</w>
আহাম
আহামারী</w>
আহাম্ম
আহাম্মদ</w>
আহাম্মে
আহার
আহার</w>
আহারে
আহারের</w>
আহারো
আহার্য</w>
আহাল</w>
আহালি
আহালি</w>
আহালে</w>
আহি
আহিত</w>
আহিন
আহিয়া</w>
আহির</w>
আহিল্যা</w>
আহু
আহুরা</w>
আহৃত</w>
আহে
আহে</w>
আহের</w>
আহো
আহো</w>
আহ্
আহ্তাল্
আহ্বান
আহ্বান,</w>
আহ্বান.</w>
আহ্বান</w>
আহ্বান।</w>
আহ্বানে</w>
আহ্বানের</w>
আহ্বায়
আহ্ম
আহ্মা
আহ্মে
ই
ই</w>
ইং
ইং</w>
ইংরে
ইংরেতি</w>
ইংল্যান্
ইউ
ইউ</w>
ইউই
ইউই</w>
ইউইং
ইউইং</w>
ইউইউ</w>
ইউইউপি</w>
ইউইউপির</w>
ইউইনে</w>
ইউনি
ইউনি</w>
ইউনিউ
ইউনিক</w>
ইউনিকম</w>
ইউনিকর্
ইউনিকর্পো
ইউনিকা
ইউনিকো
ইউনিক্
ইউনিক্রে
ইউনিক্স</w>
ইউনিনি</w>
ইউনিনে
ইউনিয়
ইউনিয়</w>
ইউনিয়ন</w>
ইউনিয়নের</w>
ইউনিয়াও</w>
ইউনিয়ানে</w>
ইউনিয়ানের</w>
ইউনিয়ের</w>
ইউনির</w>
ইউনির্
ইউনিলামেলার</w>
ইউনিলি
ইউনিল্যা
ইউন্
ইউপ
ইউপ</w>
ইউপরাই</w>
ইউপর্
ইউপা
ইউপার্
ইউপি
ইউপি</w>
ইউপিক</w>
ইউপিতে</w>
ইউপির</w>
ইউপে
ইউপ্যা
ইউভা</w>
ইউভার্
ইউভাল</w>
ইউভি
ইউভি</w>
ইউভিত্তিক</w>
ইউভেন,</w>
ইউরো
ইউরো</w>
ইউরোল
ইউল্যা
ইউল্যান</w>
ইতিহা
ইতিহাস.</w>
ইত্যা
ইত্যাতি</w>
ইন
ইন,</w>
ইন.</w>
ইন</w>
ইন।</w>
ইনগ
ইনগার্
ইনগু
ইনগুলি</w>
ইনগুলিকে</w>
ইনগুলিতে,</w>
ইনগুলিতে</w>
ইনগুলির</w>
ইনগুলো</w>
ইনগে
ইনগেল
ইনগোল
ইনগোল্
ইনগ্রা
ইনগ্রাম
ইনগ্রাম</w>
ইনগ্রি
ইনগ্রে
ইনভে
ইনভেন
ইনভেন্
ইনভেশন</w>
ইনয়ে
ইনা
ইনা</w>
ইনা।</w>
ইনাইন</w>
ইনাটাম</w>
ইনাত
ইনান
ইনান</w>
ইনানা
ইনানা</w>
ইনানাই
ইনানী</w>
ইনানের</w>
ইনান্
ইনাম
ইনাম</w>
ইনামি</w>
ইনামিনো</w>
ইনামুল</w>
ইনামেল</w>
ইনায়াত
ইনায়াত</w>
ইনায়াতুল্
ইনায়াতের</w>
ইনায়েত
ইনায়েত</w>
ইনায়েতে</w>
ইনার
ইনার,</w>
ইনার</w>
ইনার।</w>
ইনারাই
ইনারান,</w>
ইনারি</w>
ইনারির</w>
ইনারে</w>
ইনারের</w>
ইনার্
ইনাল
ইনাল</w>
ইনালের</w>
ইনি
ইনি</w>
ইনি।</w>
ইনিউ</w>
ইনিকে</w>
ইনিক্স</w>
ইনিত
ইনিন.</w>
ইনিয়া
ইনিয়া</w>
ইনিয়ায়</w>
ইনিয়ার</w>
ইনিয়ার্
ইনিয়ে
ইনির</w>
ইনিলি</w>
ইনিল্যা</w>
ইনী,</w>
ইনী</w>
ইনে
ইনে,</w>
ইনে</w>
ইনেত্তা</w>
ইনেত্তাকে</w>
ইনেত্তার</w>
ইনেন
ইনেন,</w>
ইনেনে
ইনের</w>
ইনো
ইনো</w>
ইনোল</w>
ইনোলাইন</w>
ইনোলিন
ইনোলিন</w>
ইনোলিনের</w>
ইনোলো
ইন্
ইন্তা
ইন্তা</w>
ইন্তার
ইন্তি
ইন্তিকালের</w>
ইন্তে
ইন্দ
ইন্দা
ইন্দা</w>
ইন্দানগ
ইন্দানা
ইন্দার
ইন্দালুরে</w>
ইন্দি
ইন্দিকা
ইন্দিকা</w>
ইন্দিয়া</w>
ইন্দির</w>
ইন্দু
ইন্দু</w>
ইন্দুর
ইন্দুর</w>
ইন্দুল
ইন্দে
ইন্দের</w>
ইন্দেশ্বরী</w>
ইন্দো
ইন্দো</w>
ইন্দোগা
ইন্দোগায়ানি
ইন্দোগায়ানিজের</w>
ইন্দোগু
ইন্দোগ্যা
ইন্দোগ্রিক</w>
ইন্দোগ্রী
ইন্দোল
ইন্দ্
ইন্দ্র
ইন্দ্র,</w>
ইন্দ্র</w>
ইন্দ্র।</w>
ইন্দ্রকে</w>
ইন্দ্রা
ইন্দ্রানি</w>
ইন্দ্রানী</w>
ইন্দ্রায়
ইন্দ্রি
ইন্দ্রি</w>
ইন্দ্রিয়
ইন্দ্রিয়,</w>
ইন্দ্রিয়</w>
ইন্দ্রিয়া
ইন্দ্রিয়ের</w>
ইন্দ্রীয়</w>
ইন্দ্রু
ইন্দ্রে
ইন্দ্রের</w>
ইন্ধ
ইন্ধর
ইন্ধা</w>
ইন্ধু
ইন্ধু</w>
ইন্য
ইন্যা</w>
ইন্যাম
ইন্যালো
ইব
ইব</w>
ইবই
ইবই</w>
ইবছ
ইবছর</w>
ইবন্দ</w>
ইবন্দু
ইবরহু
ইবরা
ইবরা</w>
ইবরায়।</w>
ইবরার</w>
ইবরি
ইবরের</w>
ইবর্তমান</w>
ইবলা</w>
ইবলাতে</w>
ইবলি
ইবা
ইবা</w>
ইবাংলা
ইবাংলা</w>
ইবাই
ইবাইস</w>
ইবাড়
ইবাণি
ইবাত
ইবাতা
ইবাদ
ইবাদ</w>
ইবাদাত
ইবাদাত</w>
ইবাদাতের</w>
ইবাদান</w>
ইবাদি
ইবাদি</w>
ইবাদী
ইবান</w>
ইবানী</w>
ইবানে
ইবাম
ইবাম</w>
ইবামে</w>
ইবার
ইবার,</w>
ইবার</w>
ইবারহার্
ইবারা
ইবারা</w>
ইবারিকা
ইবারে</w>
ইবারের</w>
ইবার্
ইবালি
ইবালো
ইবি
ইবি</w>
ইবিতে</w>
ইবিনা</w>
ইবির</w>
ইবু
ইবু</w>
ইবুর্
ইবুল
ইবে
ইবে,</w>
ইবে</w>
ইবে।</w>
ইবেত
ইবেন,</w>
ইবেন</w>
ইবেন।</w>
ইবেন্
ইবের</w>
ইবেল
ইবেলা</w>
ইবেলিন</w>
ইবো
ইবো</w>
ইবোলা</w>
ইবোলায়</w>
ইবোলার</w>
ইব্
ইব্চায়
ইব্ব
ইব্ব</w>
ইব্বি</w>
ইব্বে</w>
ইব্বের</w>
ইব্যক্তির</w>
ইব্যা
ইব্যা</w>
ইব্যে
ইব্রহ
ইব্রা
ইব্রি
ইব্রীয়</w>
ইব্রু</w>
ইব্রে
ইব্র্যা
ইস
ইস,</w>
ইস</w>
ইসংখ
ইসংস্
ইসকল</w>
ইসঙ্গে</w>
ইসদ
ইসদের</w>
ইসন</w>
ইসফা
ইসব
ইসব</w>
ইসবং
ইসবা
ইসবার</w>
ইসবি
ইসবু
ইসবুর্
ইসবের</w>
ইসবেল
ইসব্যা
ইসভান</w>
ইসমত</w>
ইসময়</w>
ইসময়ে</w>
ইসময়ের</w>
ইসমস্ত</w>
ইসমা
ইসমা</w>
ইসমাই
ইসমাত</w>
ইসমাতিহ
ইসমান</w>
ইসমার্
ইসমাল</w>
ইসমূ
ইসমেনা
ইসমো
ইসমো</w>
ইসম্মানে</w>
ইসম্যান,</w>
ইসম্যান</w>
ইসরা
ইসরা</w>
ইসরাই
ইসরাত</w>
ইসরায়েল
ইসরায়েল</w>
ইসরায়েলি
ইসরায়েলি</w>
ইসরায়েলিয়</w>
ইসরায়েলির</w>
ইসরায়েলী
ইসরায়েলী</w>
ইসরায়েলীদের</w>
ইসরায়েলীয়</w>
ইসরায়েলে,</w>
ইসরায়েলে</w>
ইসরায়েলের</w>
ইসরার</w>
ইসরূ
ইসরো
ইসরো</w>
ইসর্
ইসহ</w>
ইসহা
ইসহো
ইসা
ইসা</w>
ইসাং
ইসাই
ইসাইন,</w>
ইসাও</w>
ইসাথে</w>
ইসান
ইসান</w>
ইসান।</w>
ইসানির</w>
ইসানী</w>
ইসানের</w>
ইসান্ধ
ইসাম
ইসার</w>
ইসারয়েলী</w>
ইসারহু
ইসারার</w>
ইসারের</w>
ইসাল
ইসাল</w>
ইসালানের</w>
ইসাহা
ইসি
ইসি</w>
ইসিং</w>
ইসিক
ইসিকে</w>
ইসিন,</w>
ইসিন</w>
ইসিনে
ইসিয়া
ইসিয়ান,</w>
ইসিয়ানা
ইসিয়ানা,</w>
ইসিয়ানা</w>
ইসিয়ানার</w>
ইসির</w>
ইসু
ইসু</w>
ইসুরিতে</w>
ইসুলাই
ইসে
ইসে</w>
ইসেন
ইসেন,</w>
ইসেন</w>
ইসেন।</w>
ইসেনগুলি
ইসেনের</w>
ইসেনো</w>
ইসেন্
ইসের</w>
ইসেরা</w>
ইসেল
ইসেল</w>
ইসেলিন।</w>
ইসেলের</w>
ইসো
ইসো</w>
ইসোগাই</w>
ইসোল
ইসোলা</w>
ইসোলের</w>
ইস্
ইস্চে
ইস্ট
ইস্ট,</w>
ইস্ট</w>
ইস্টন</w>
ইস্টা
ইস্টা</w>
ইস্টার
ইস্টার</w>
ইস্টার।</w>
ইস্টারের</w>
ইস্টার্
ইস্টার্ণ</w>
ইস্টি
ইস্টি</w>
ইস্টিক
ইস্টিক</w>
ইস্টিক্স</w>
ইস্টিয়া</w>
ইস্টিয়ার</w>
ইস্টু
ইস্টে
ইস্টে</w>
ইস্টের</w>
ইস্টেশন</w>
ইস্টো
ইস্ট্র
ইস্ট্রা
ইস্ট্রো
ইস্ত
ইস্তা
ইস্তা</w>
ইস্তাই
ইস্তান
ইস্তানা</w>
ইস্তানায়</w>
ইস্তানার</w>
ইস্তাম্বুল
ইস্তাম্বুল</w>
ইস্তাম্বুলে
ইস্তাম্বুলে</w>
ইস্তাম্বুলের</w>
ইস্তার</w>
ইস্তারি</w>
ইস্তি
ইস্তিক</w>
ইস্তিকলাল</w>
ইস্তিন
ইস্তে
ইস্তো
ইস্ত্রিকরণ</w>
ইস্ত্রে
ইস্ত্রেন
ইস্থ
ইস্থানে</w>
ইস্থার</w>
ইস্পা
ইস্পাত
ইস্পাত</w>
ইস্পাতে</w>
ইস্পাতের</w>
ইস্পানি
ইস্পানোলার</w>
ইস্পায়ারি
ইস্পার</w>
ইস্পারা
ইস্পারার্
ইস্পার্
ইস্পি
ইস্পেন্দিয়ার</w>
ইস্পো
ইস্প্য
ইস্মার্
ইস্য
ইস্যা
ইস্যু
ইস্যু</w>
ইস্যুর</w>
ইস্রা
ইস্রাই
ইস্রায়েল
ইস্রায়েল</w>
ইস্রায়েলি
ইস্রায়েলি</w>
ইস্রায়েলী
ইস্রায়েলী</w>
ইস্রায়েলীয়</w>
ইস্রায়েলে</w>
ইস্রায়েলের</w>
ঈ
উ
উ</w>
উই
উই</w>
উইং
উইং</w>
উইউ
উইউ</w>
উইউইন</w>
উইউপি
উইকে
উইকে</w>
উইকেন
উইকেন্
উইকের</w>
উইন
উইন,</w>
উইন</w>
উইন।</w>
উইনগে
উইনাম</w>
উইনার
উইনার</w>
উইনার্
উইনি
উইনি</w>
উইনিক
উইনিক</w>
উইনিয়
উইনী
উইনীয়</w>
উইনে
উইনে,</w>
উইনে</w>
উইনের</w>
উইনো
উইন্
উইব</w>
উইবাদী
উইস
উইস</w>
উইসন</w>
উইসমান,</w>
উইসমান</w>
উইসমারে</w>
উইসর
উইসা</w>
উইসাম</w>
উইসু
উইসের</w>
উইসেল</w>
উইসো
উইস্
উইস্ট
উইস্পিয়ান
উচ্চ
উচ্চ</w>
উচ্চট্র্যা
উচ্চল
উচ্চা
উচ্চার
উচ্চারণ
উচ্চারণ</w>
উচ্চারণে</w>
উচ্চারণের</w>
উচ্চারিত
উচ্চারিত</w>
উচ্চারিত।</w>
উচ্চার্য
উচ্চে</w>
উচ্চের</w>
উঠ
উত্ত
উত্তথা
উত্তম</w>
উত্তর
উত্তর,</w>
উত্তর</w>
উত্তর।</w>
উত্তরও</w>
উত্তরকে</w>
উত্তরণ
উত্তরণ</w>
উত্তরণে</w>
উত্তরণের</w>
উত্তরহ
উত্তরহি
উত্তরা
উত্তরা</w>
উত্তরাখ
উত্তরাখন্
উত্তরান্ধ
উত্তরায়
উত্তরায়</w>
উত্তরার</w>
উত্তরার্
উত্তরী
উত্তরী</w>
উত্তরীয়</w>
উত্তরে
উত্তরে,</w>
উত্তরে</w>
উত্তরে।</w>
উত্তরেনাটো
উত্তরের</w>
উত্তরেশ্বরের</w>
উত্তরো
উত্তা
উত্তানা
উত্তার
উত্তারা
উত্তারী
উত্তাল
উত্তাল</w>
উত্তি
উত্তী
উত্তু
উত্তুরে</w>
উত্তে
উত্তো
উত্তোল
উত্তোলিত
উত্তোলিত</w>
উত্তোলিত।</w>
উত্ত্য
উদ্
উদ্দেশ</w>
উদ্দেশে
উদ্দেশে</w>
উদ্দেশে।</w>
উদ্দেশ্য
উদ্দেশ্য</w>
উদ্দেশ্য়ে</w>
উদ্দেশ্যা
উদ্দেশ্যে
উদ্দেশ্যে,</w>
উদ্দেশ্যে</w>
উদ্দেশ্যে।</w>
উদ্দেশ্যের</w>
উদ্ধ
উদ্ধর
উদ্ধরণ</w>
উদ্ধা</w>
উদ্ধার
উদ্ধার,</w>
উদ্ধার</w>
উদ্ধারও</w>
উদ্ধারণ
উদ্ধারণ</w>
উদ্ধারা
উদ্ধারে
উদ্ধারে</w>
উদ্ধারের</w>
উদ্ধু
উদ্ধ্ব
উদ্পো
উদ্ব
উদ্বন্ধ
উদ্বর্ত
উদ্বর্তিত</w>
উদ্বা
উদ্বান্তু</w>
উদ্বায়
উদ্বার</w>
উদ্বি
উদ্বু
উদ্বৃতি</w>
উদ্বৃত্ত</w>
উদ্বৃত্তের</w>
উদ্বে
উদ্বেল</w>
উদ্বেলিত</w>
উদ্বো
উদ্য
উদ্য়
উদ্যা
উদ্যান
উদ্যান,</w>
উদ্যান.</w>
উদ্যান</w>
উদ্যান।</w>
উদ্যানগুলি</w>
উদ্যানগুলিতে</w>
উদ্যানগুলির</w>
উদ্যানগুলো
উদ্যানগুলো</w>
উদ্যানগুলোর</w>
উদ্যানে
উদ্যানে,</w>
উদ্যানে</w>
উদ্যানে।</w>
উদ্যানের</w>
উদ্যে
উদ্যেশে</w>
উদ্যেশ্য</w>
উদ্যেশ্যে</w>
উদ্যো
উদ্যোগ
উদ্যোগ</w>
উদ্যোগাল
উদ্যোগি</w>
উদ্যোগে
উদ্যোগে,</w>
উদ্যোগে</w>
উদ্যোগের</w>
উদ্র
উদ্রু
উদ্রে
উন্
উন্তিয়া
উন্তু
উন্দ
উন্দারা</w>
উন্দে,</w>
উন্দে</w>
উন্দেতে</w>
উন্দের</w>
উন্ধ
উন্নয়
উন্নয়</w>
উন্নয়ের</w>
উন্মত্ত
উন্মত্ত</w>
উন্মত্তা</w>
উন্মত্তের</w>
উন্মনা</w>
উন্মা
উন্মাতাল
উন্মাতাল</w>
উন্মু
উন্মুখ</w>
উন্মে
উন্মো
উন্রু
উপ
উপ</w>
উপক্ষ
উপক্ষেত্র
উপক্ষেত্র</w>
উপজেলার</w>
উপড়
উপড়</w>
উপড়ে</w>
উপত
উপতথ
উপতে
উপত্য
উপত্যা
উপদ
উপদর্শ
উপদর্শন</w>
উপদল
উপদল</w>
উপদলে,</w>
উপদলে</w>
উপদলের</w>
উপদান</w>
উপদান।</w>
উপদানগুল
উপদাহী</w>
উপদূ
উপদে
উপদেব
উপদেশ
উপদেশ</w>
উপদেশা
উপদেশে</w>
উপদেশের</w>
উপদ্বী
উপদ্র
উপদ্রু
উপর
উপর,</w>
উপর</w>
উপর।</w>
উপরও</w>
উপরা
উপরাজ্য
উপরাজ্য</w>
উপরাজ্যে</w>
উপরাজ্যের</w>
উপরাষ্ট্র
উপরি
উপরি</w>
উপরিকাঠ
উপরিচ
উপরিচিত্র
উপরিত
উপরে
উপরে,</w>
উপরে</w>
উপরে।</w>
উপরেনি
উপরের</w>
উপরো
উপরোল্
উপর্য
উপর্যু
উপর্যুক্ত
উপর্যুক্ত</w>
উপর্যো
উপা
উপা</w>
উপাড়ায়।</w>
উপাতি
উপাতে</w>
উপাত্ত
উপাত্ত</w>
উপাত্তা
উপাত্তে</w>
উপাত্তের</w>
উপাত্য
উপাত্যে</w>
উপান
উপান্ত
উপান্ত</w>
উপামে
উপায়
উপায়,</w>
উপায়</w>
উপায়।</w>
উপায়ে
উপায়ে,</w>
উপায়ে</w>
উপায়ে।</w>
উপায়ের</w>
উপার
উপার,</w>
উপার</w>
উপারি</w>
উপার্
উপার্চা
উপার্থ
উপাল</w>
উপালামুস</w>
উপালি
উপালি</w>
উপালিকে</w>
উপালির</w>
উপি
উপি</w>
উপিন</w>
উপিন্দ
উপিল</w>
উপিলের</w>
উপু
উপুর
উপুর</w>
উপুল</w>
উপূ
উপে
উপেন
উপেন,</w>
উপেন</w>
উপেনে
উপেনের</w>
উপেন্দ্র
উপেন্দ্র,</w>
উপেন্দ্র</w>
উপো
উপোল</w>
উপোলের</w>
উপোল্
উপ্
উপ্ত</w>
উপ্পা
উপ্পালা
উপ্পি</w>
উপ্পিনা
উপ্পু
উপ্পু</w>
উপ্পেনা</w>
উপ্র</w>
উপ্রতি</w>
উপ্রভাবিত</w>
উপ্রেতি
উভ
উভ</w>
উভবিষ
উভা</w>
উভাইস</w>
উভাব
উভারিলা
উভার্
উভাল
উভি
উভি</w>
উভির</w>
উভে
উভে</w>
উভেন
উভেন</w>
উভেনের</w>
উভেল্
উভো
উভোগ
উল্
উল্ম</w>
উল্যা
উল্যা</w>
উল্যান্
উল্যে
উল্লেখ
উল্লেখ</w>
উল্লেখনীয়</w>
উল্লেখযোগ্য</w>
উল্লেখে</w>
উৎ
উৎ</w>
উৎপা
উৎপাত
উৎপাত</w>
ঊ
ঋ
ঌ
এ
এ</w>
এই
এই</w>
এইউ
এইউ</w>
এইচ
এইচ</w>
এইচলাইন</w>
এইচলু
এইচে</w>
এইচের</w>
এইচ্ছ
এইন
এইন</w>
এইনগে
এইনার</w>
এইনিয়া
এইনের</w>
এইন্
এইবলে</w>
এইবার
এইবার,</w>
এইবার</w>
এইবারও</w>
এইবি
এইবিষয়ে</w>
এইবেলা</w>
এইব্
এইব্যারি
এইস
এইস</w>
এইসকল</w>
এইসব
এইসব</w>
এইসবের</w>
এইসময়,</w>
এইসময়</w>
এইসময়ে</w>
এইসমস্ত</w>
এইসমস্যার</w>
এইসার</w>
এইসি
এইসি</w>
এইসিক</w>
এইসে
এইসেন
এইসেলে</w>
এক
এক,</w>
এক</w>
এক।</w>
একই</w>
একজন</w>
একটি</w>
একথা</w>
একন
একন</w>
একনা
একনা</w>
একনায়
একনি
একনে
একন্
একম
একমত
একমত</w>
একমন
একমনে</w>
একমা
একমাই
একমাত্
একমাত্র
একমাত্র</w>
একমাত্রা</w>
একমাত্রিক</w>
একমানু
একমানুষের</w>
একমালিকানা</w>
একমি
একমু
একমুখ
একমে
একমের</w>
একমৌসু
একম্যান</w>
একর
একর,</w>
একর</w>
একর।</w>
একরত্
একরা
একরাতে</w>
একরাতের</w>
একরাম
একরাম</w>
একরামু
একরামুল</w>
একরার
একরি
একরু</w>
একরূ
একরূপ</w>
একরে
একরে</w>
একরের</w>
একর্
একল
একলা
একলা</w>
একলাইন</w>
একলান্
একলি
একলে
একলোক</w>
একলোকাই
একলোগু
একা
একা</w>
একাই
একাই</w>
একাইনো
একাউন্
একাজ</w>
একাতে
একাত্ত
একাত্ব
একাত্ম</w>
একাত্মতা
একাত্মতা</w>
একাত্মতার</w>
একানি
একান্
একান্ত
একান্ত</w>
একান্তিক</w>
একান্তে
একান্তে</w>
একান্দ</w>
একান্ন</w>
একাম
একাম</w>
একামুখ
একাম্রার</w>
একায়ে
একার
একার</w>
একারণ
একারণে</w>
একারিয়া</w>
একারোল
একার্
একার্থ
একাল</w>
একালের</w>
একি
একি</w>
একিন।</w>
একী
একীন</w>
একু
একুরিয়ামের</w>
একূ
একে
একে,</w>
একে</w>
একেই</w>
একেছ
একেতে
একেন
একের</w>
একেশ্বর
একেশ্বর</w>
একো
একো</w>
একোনের</w>
একোল</w>
একোলেন্
এক্
এক্ট
এক্ট</w>
এক্টার</w>
এক্টি
এক্টে</w>
এক্টের</w>
এক্টো
এক্টোগ
এক্তা</w>
এক্তি</w>
এক্তিয়ার
এক্তিয়ারে</w>
এক্তিয়ারের</w>
এক্তেশ্বর</w>
এক্তো
এক্মাত্র</w>
এক্মুরের</w>
এক্র
এক্রয়ে
এক্রাই
এক্রি
এক্রিলিক</w>
এক্রে
এক্রো
এক্র্চে
এক্লাম্প
এক্ষ
এক্ষণ</w>
এক্ষেত্রে
এক্ষেত্রে,</w>
এক্ষেত্রে</w>
এক্ষেত্রে।</w>
এক্স</w>
এখানে</w>
এছাড়
এছাড়া
এছাড়া</w>
এছাড়াই</w>
এছাড়াও</w>
এছাড়ার</w>
এটি</w>
এতে</w>
এন
এন,</w>
এন.</w>
এন</w>
এন।</w>
এনং</w>
এনগ
এনগা
এনগা</w>
এনগান
এনগানি
এনগানো
এনগানো</w>
এনগাম
এনগালি
এনগি
এনগিয়
এনগিয়া
এনগু
এনগুলি</w>
এনগুলির</w>
এনগে
এনগেলার্
এনগো
এনগোলো</w>
এনগ্যা
এনগ্যালা
এনগ্র
এনভেলা
এনা
এনা</w>
এনাই
এনাট
এনান
এনান্
এনাম</w>
এনামুল
এনামুল</w>
এনামেল</w>
এনামেলে
এনামেলের</w>
এনায়
এনায়েত
এনায়েত</w>
এনায়েতুর</w>
এনায়েতুল্
এনার
এনার</w>
এনারেতির</w>
এনারো
এনার্
এনাল
এনালাই
এনালাইসি
এনালি
এনালের</w>
এনি
এনি</w>
এনিউ
এনিকি
এনিক্
এনিক্স</w>
এনিতে</w>
এনিম্যা
এনিম্যাল
এনিম্যাল</w>
এনিয়া
এনিয়ে</w>
এনিয়েলো</w>
এনির্
এনিলিনে</w>
এনে
এনে,</w>
এনে</w>
এনেছ
এনেছিল,</w>
এনেছিল</w>
এনেছিল।</w>
এনেছিলেন,</w>
এনেছিলেন</w>
এনেছিলেন।</w>
এনেছে</w>
এনেছে।</w>
এনের</w>
এনো
এনোলা</w>
এনোলের</w>
এন্
এন্তা
এন্তি
এন্তো
এন্ত্রে</w>
এন্দার
এন্দে
এন্দ্রে
এন্দ্রো
এন্যান
এফ
এফ</w>
এফাতে</w>
এফার্মি
এফালা</w>
এফি
এফি</w>
এফিক
এফিয়াল
এফিয়ালি
এফে
এফে</w>
এফেন
এফেন্দি
এফেন্দি</w>
এফেন্দিকে</w>
এফেন্দিয়ের</w>
এফেন্দির</w>
এফেন্দী
এফের</w>
এফেল
এফেশী
এফো
এফ্রাত</w>
এফ্রায়ে
এফ্রে
এফ্রো
এব
এব</w>
এবং
এবং</w>
এবই
এবইনি
এবছ
এবছর</w>
এবয়</w>
এবর
এবরি
এবরু</w>
এবল
এবলা</w>
এবলি
এবা
এবাং</w>
এবাংলা</w>
এবাদ
এবাদি
এবাদি</w>
এবাদুর</w>
এবাদুল</w>
এবাদুল্
এবান্
এবাম
এবার
এবার,</w>
এবার</w>
এবার।</w>
এবারও</w>
এবারহার্
এবারে</w>
এবারের</w>
এবারো</w>
এবার্
এবি
এবি</w>
এবিধায়</w>
এবিন
এবিনো</w>
এবিয়েতে</w>
এবির</w>
এবিল
এবিলি
এবিশার</w>
এবিষয়
এবিষয়ে</w>
এবু
এবুল
এবে
এবে</w>
এবেনি
এবেনে
এবেল</w>
এবেলা</w>
এবেলের</w>
এবেল্
এবো
এব্
এব্য
এব্যান্
এব্যাপারে</w>
এব্রা
এব্রি
এব্রিয়ে</w>
এব্রো</w>
এব্র্যান্
এম
এম</w>
এমত
এমত</w>
এমতা
এমতিকিতিকি</w>
এমন
এমন,</w>
এমন</w>
এমন।</w>
এমনি
এমনি</w>
এমনিতে
এমনিতে</w>
এমনী
এমনো</w>
এমস</w>
এমসি
এমসি</w>
এমসিকে</w>
এমসিতে</w>
এমসির</w>
এমহা
এমহার্
এমা
এমা</w>
এমাই
এমানিয়াম
এমানিয়ামের</w>
এমানু
এমান্
এমাম</w>
এমামি</w>
এমার
এমার,</w>
এমার</w>
এমার্
এমার্যাল্
এমাল
এমালিন,</w>
এমি
এমি</w>
এমিকে</w>
এমিন,</w>
এমিন</w>
এমিনি
এমিনে
এমিনে</w>
এমিনেন্
এমিনের</w>
এমিনো
এমিনো</w>
এমির</w>
এমিল</w>
এমিলা
এমিলা</w>
এমিলি
এমিলি</w>
এমিলিয়া
এমিলিয়া</w>
এমিলিয়ানা
এমিলিয়ারো
এমিলির</w>
এমিলের</w>
এমিলো</w>
এমিল্
এমিশ
এমিশি</w>
এমু</w>
এমুর</w>
এমুলেশন</w>
এমে
এমে</w>
এমেনের</w>
এমেন্
এমের</w>
এমেল</w>
এমেলাইন</w>
এমেলিন
এমেলিন</w>
এমেলিনের</w>
এমেলিয়া</w>
এমো
এমো</w>
এম্
এম্প
এম্পা
এম্পায়
এম্পায়ার,</w>
এম্পায়ার</w>
এম্পায়ার।</w>
এম্পায়ারে</w>
এম্পায়ার্
এম্পার
এম্পারার</w>
এম্পারিয়
এম্পি
এম্পি</w>
এম্পিয়ারের</w>
এম্পিলায়</w>
এম্পু</w>
এম্পে
এম্পো
এম্প্যায়
এম্প্রিয়ার</w>
এম্প্রে
এম্ব
এম্বার</w>
এম্বি
এম্বুরির</w>
এম্বুলেন্
এম্বে
এম্বোলি
এম্ব্যানি
এম্মানু
এম্মে
এম্মে</w>
এম্র</w>
এম্রি</w>
এর
এর,</w>
এর</w>
এর।</w>
এরও</w>
এরপর</w>
এরহাই</w>
এরহার্
এরা
এরা</w>
এরাই
এরাই</w>
এরাও</w>
এরাজ</w>
এরাজ্যের</w>
এরাতো
এরান</w>
এরানি</w>
এরাম</w>
এরামি
এরায়</w>
এরার</w>
এরাল
এরি
এরি</w>
এরিক
এরিক</w>
এরিকা
এরিকা</w>
এরিকে</w>
এরিকো</w>
এরিক্স</w>
এরিতে</w>
এরিন.</w>
এরিন</w>
এরিনা
এরিনা,</w>
এরিনা</w>
এরিনাতে।</w>
এরিনায়</w>
এরিনার</w>
এরিয়া
এরিয়া</w>
এরিয়াতে</w>
এরিয়ান
এরিয়ান</w>
এরিয়াম</w>
এরিয়ায়,</w>
এরিয়ায়</w>
এরিয়ার</w>
এরিয়াল</w>
এরিয়েল
এরিয়েল</w>
এরির</w>
এরিলিনিয়া
এরু
এরুলিয়া</w>
এরূ
এরূপ</w>
এরে
এরে</w>
এরেন
এরেনা</w>
এরেনায়</w>
এরেনার</w>
এরো
এরো</w>
এরোগ</w>
এরোল</w>
এর্
এর্বল্যান্
এর্বার্
এর্মনি</w>
এর্মান
এর্যা
এল
এল</w>
এলা
এলা</w>
এলাই
এলাই</w>
এলাইন.</w>
এলাইন</w>
এলাইস</w>
এলাইসা</w>
এলান</w>
এলানিন</w>
এলাম</w>
এলামা
এলামে</w>
এলামো
এলায়
এলায়ে
এলায়েন্
এলার</w>
এলারার</w>
এলারি
এলার্
এলার্র্
এলি
এলি</w>
এলিক
এলিকে</w>
এলিক্
এলিতালিয়া
এলিতে</w>
এলিন
এলিন</w>
এলিনা</w>
এলিনি
এলিয়
এলিয়</w>
এলিয়া
এলিয়া</w>
এলিয়ান
এলিয়ান</w>
এলিয়ানা</w>
এলিয়াল</w>
এলিয়ে
এলিয়েন
এলিয়েন</w>
এলিয়েনেশন</w>
এলিয়েন্
এলিয়ের</w>
এলির</w>
এলিল</w>
এলিলের</w>
এলী
এলু
এলু</w>
এলুর</w>
এলুরু
এলুরু</w>
এলুরের</w>
এলুল</w>
এলে
এলে,</w>
এলে</w>
এলেও</w>
এলেন
এলেন,</w>
এলেন</w>
এলেন।</w>
এলেনা</w>
এলেনের</w>
এলেনো
এলের</w>
এলেল
এলেল</w>
এলেলের</w>
এলো
এলো</w>
এলোকেশী</w>
এল্
এল্ম
এল্যু
এস
এস,</w>
এস.</w>
এস</w>
এসং
এসংখ্যা</w>
এসকল</w>
এসদ্বৈ
এসদ্রা
এসন</w>
এসফা
এসফিয়ে
এসফো
এসব
এসব</w>
এসবই</w>
এসবা
এসবাংলা
এসবাংলা</w>
এসবান</w>
এসবি
এসবি</w>
এসবিকে
এসবিকে</w>
এসবিতে</w>
এসবিন</w>
এসবির</w>
এসবুর</w>
এসবে
এসবে</w>
এসবের</w>
এসবৈ
এসব্রি</w>
এসমন্
এসময়
এসময়</w>
এসময়।</w>
এসময়ে
এসময়ে</w>
এসময়ের</w>
এসমস্ত</w>
এসমস্তের</w>
এসমা
এসমাই
এসমাত</w>
এসমি
এসমে
এসম্পর্
এসম্পর্কে</w>
এসম্যা
এসর
এসর</w>
এসরা</w>
এসরাজ
এসরারুল</w>
এসরির</w>
এসরে
এসহ</w>
এসহা
এসা
এসা</w>
এসাই
এসানে</w>
এসানের</w>
এসাম</w>
এসায়া
এসার,</w>
এসার</w>
এসারকে</w>
এসারা
এসারি
এসি
এসি</w>
এসিকে</w>
এসিক্
এসিতে</w>
এসিনিল
এসিনো</w>
এসিন্ধ</w>
এসিয়া</w>
এসিয়াতিকা
এসির</w>
এসিরিয়ান</w>
এসিলা
এসু
এসুরেন্
এসে
এসে,</w>
এসে</w>
এসে।</w>
এসেই</w>
এসেছ
এসেছিল
এসেছিল,</w>
এসেছিল</w>
এসেছিল।</w>
এসেছিলাম
এসেছিলেন
এসেছিলেন,</w>
এসেছিলেন</w>
এসেছিলেন।</w>
এসেছিলো
এসেছিলো</w>
এসেছে</w>
এসেছে।</w>
এসেছো
এসেছো</w>
এসেন
এসেন</w>
এসেনে</w>
এসেনের</w>
এসেন্
এসের</w>
এসেল</w>
এসেশো
এসো
এসো</w>
এস্
এস্চ্যা
এস্টন</w>
এস্টা
এস্টার</w>
এস্টার।</w>
এস্টারও</w>
এস্টারের</w>
এস্টার্
এস্টি
এস্টি</w>
এস্টে
এস্টেল</w>
এস্টেলা</w>
এস্টেলের</w>
এস্টো
এস্ট্যা
এস্ট্রা
এস্ট্রাখানের</w>
এস্ট্রাল</w>
এস্ট্রি
এস্ট্রেলা</w>
এস্ট্রো
এস্ট্রো</w>
এস্ট্রোলো
এস্তা
এস্তাতু
এস্তানি।</w>
এস্তিনি</w>
এস্তু
এস্তে
এস্তেত</w>
এস্তেতে</w>
এস্তের</w>
এস্তেলা</w>
এস্তো
এস্ত্রে
এস্ত্রেলা</w>
এস্থার</w>
এস্থেতি
এস্থেনো
এস্প
এস্পা
এস্পানি
এস্পানিয়া</w>
এস্পানোলা</w>
এস্পারে
এস্পি
এস্পিনো
এস্পে
এস্পো
এস্প্
এস্প্যানি
এস্প্রে
এস্বান্
এস্যাই
এস্যো
এস্রাজ
এস্রাজ</w>
ঐ
ঐ</w>
ও
ও,</w>
ও</w>
ওঠ
ওয়
ওয়,</w>
ওয়</w>
ওয়।</w>
ওয়া
ওয়া</w>
ওয়াই
ওয়াই</w>
ওয়াইউ</w>
ওয়াইন
ওয়াইন,</w>
ওয়াইন</w>
ওয়াইন।</w>
ওয়াইনগুলি</w>
ওয়াইনগুলিকে</w>
ওয়াইনগুলির</w>
ওয়াইনারি</w>
ওয়াইনি</w>
ওয়াইনি।</w>
ওয়াইনির</w>
ওয়াইনে
ওয়াইনে</w>
ওয়াইনের</w>
ওয়াইন্
ওয়াইবরি</w>
ওয়াইবি
ওয়াইবি</w>
ওয়াইবিকে</w>
ওয়াইবিকেতে</w>
ওয়াইস,</w>
ওয়াইস</w>
ওয়াইসম্যান</w>
ওয়াইসার</w>
ওয়াইসি
ওয়াইসি</w>
ওয়াইসির</w>
ওয়াইসেনার,</w>
ওয়াও</w>
ওয়াড়
ওয়াড়</w>
ওয়াড়া
ওয়াড়া</w>
ওয়াড়ায়,</w>
ওয়াড়ায়</w>
ওয়াড়ার</w>
ওয়াড়ে</w>
ওয়াত
ওয়াত</w>
ওয়াতা
ওয়াতা</w>
ওয়াতাই
ওয়াতাই</w>
ওয়াতান.</w>
ওয়াতান</w>
ওয়াতানা
ওয়াতানির</w>
ওয়াতানে
ওয়াতামা</w>
ওয়াতার</w>
ওয়াতারা
ওয়াতারা</w>
ওয়াতারি</w>
ওয়াতারু</w>
ওয়াতি
ওয়াতি</w>
ওয়াতিন
ওয়াতিনী</w>
ওয়াতিনীতে</w>
ওয়াতিয়া</w>
ওয়াতির</w>
ওয়াতিল</w>
ওয়াতী</w>
ওয়াতু
ওয়াতু</w>
ওয়াতুর</w>
ওয়াতুল</w>
ওয়াতে
ওয়াতে,</w>
ওয়াতে</w>
ওয়াতেন।</w>
ওয়াতের</w>
ওয়াত্তা
ওয়াত্তার</w>
ওয়াত্তে</w>
ওয়াত্য</w>
ওয়াত্রা</w>
ওয়ান
ওয়ান,</w>
ওয়ান.</w>
ওয়ান</w>
ওয়ান।</w>
ওয়ানগ
ওয়ানগঞ্জ</w>
ওয়ানগি
ওয়ানগি</w>
ওয়ানা
ওয়ানা,</w>
ওয়ানা</w>
ওয়ানাও</w>
ওয়ানামি</w>
ওয়ানামে
ওয়ানার</w>
ওয়ানি
ওয়ানি</w>
ওয়ানি।</w>
ওয়ানিতে</w>
ওয়ানিন্দু</w>
ওয়ানিয়া
ওয়ানির</w>
ওয়ানী
ওয়ানী</w>
ওয়ানীয়</w>
ওয়ানীর</w>
ওয়ানে
ওয়ানে,</w>
ওয়ানে</w>
ওয়ানের</w>
ওয়ানো
ওয়ানো</w>
ওয়ান্
ওয়ান্ত
ওয়ান্ত</w>
ওয়ান্তালালা</w>
ওয়ান্তি
ওয়ান্তি</w>
ওয়ান্তের</w>
ওয়ান্দ</w>
ওয়ান্দি</w>
ওয়ান্দে
ওয়ান্দের</w>
ওয়ান্দ্রে
ওয়াম
ওয়াম</w>
ওয়ামন</w>
ওয়ামা
ওয়ামা</w>
ওয়ামাত্র
ওয়ামাত্র</w>
ওয়ামান</w>
ওয়ামানুষের</w>
ওয়ামার</w>
ওয়ামারুর</w>
ওয়ামালা</w>
ওয়ামি
ওয়ামিকা</w>
ওয়ামিল</w>
ওয়ামিলী
ওয়ামুল্
ওয়ামে
ওয়ামে</w>
ওয়ামেন</w>
ওয়ামের</w>
ওয়ামো
ওয়াম্প</w>
ওয়াম্পে</w>
ওয়াম্রা
ওয়ায়
ওয়ায়,</w>
ওয়ায়</w>
ওয়ায়।</w>
ওয়ায়া
ওয়ায়া</w>
ওয়ায়াত
ওয়ায়াত</w>
ওয়ায়াতে</w>
ওয়ায়াম্বা</w>
ওয়ায়ারের</w>
ওয়ায়ে
ওয়ায়ে,</w>
ওয়ায়ে</w>
ওয়ায়েত</w>
ওয়ায়েতে
ওয়ায়ের</w>
ওয়ায়েল</w>
ওয়ার
ওয়ার,</w>
ওয়ার</w>
ওয়ার।</w>
ওয়ারও</w>
ওয়ারকে</w>
ওয়ারহ
ওয়ারহল</w>
ওয়ারহা
ওয়ারহাম</w>
ওয়ারহে
ওয়ারহোল
ওয়ারহোলের</w>
ওয়ারহ্যামার</w>
ওয়ারা
ওয়ারা</w>
ওয়ারাও</w>
ওয়ারাখ
ওয়ারাত</w>
ওয়ারাতে</w>
ওয়ারান</w>
ওয়ারানা</w>
ওয়ারায়</w>
ওয়ারার</w>
ওয়ারালালের</w>
ওয়ারি
ওয়ারি</w>
ওয়ারিক
ওয়ারিকিয়া
ওয়ারিকে</w>
ওয়ারিতে</w>
ওয়ারিতে।</w>
ওয়ারিন</w>
ওয়ারিনা</w>
ওয়ারিনে</w>
ওয়ারিয়
ওয়ারিয়া
ওয়ারিয়া</w>
ওয়ারিয়ার</w>
ওয়ারিয়ার।</w>
ওয়ারিয়ার্
ওয়ারির</w>
ওয়ারী
ওয়ারী,</w>
ওয়ারী</w>
ওয়ারীতে</w>
ওয়ারীর</w>
ওয়ারু
ওয়ারু</w>
ওয়ারুল</w>
ওয়ারে
ওয়ারে</w>
ওয়ারে।</w>
ওয়ারেন,</w>
ওয়ারেন</w>
ওয়ারেনে</w>
ওয়ারেনের</w>
ওয়ারেন্
ওয়ারের</w>
ওয়ারো
ওয়ার্
ওয়ার্চি</w>
ওয়ার্তি
ওয়ার্থ
ওয়ার্থ</w>
ওয়ার্থার,</w>
ওয়ার্থার</w>
ওয়ার্থারের</w>
ওয়ার্থি
ওয়ার্থিতে</w>
ওয়ার্থে</w>
ওয়ার্থের</w>
ওয়ার্প</w>
ওয়ার্পে</w>
ওয়ার্পের</w>
ওয়ার্বা
ওয়ার্ম
ওয়ার্ম</w>
ওয়ার্মান</w>
ওয়ার্মি
ওয়ার্মিয়া</w>
ওয়ার্মিয়ামা
ওয়ার্মিয়ার</w>
ওয়ার্মের</w>
ওয়ার্ম্যান,</w>
ওয়াল
ওয়াল</w>
ওয়ালা
ওয়ালা</w>
ওয়ালাও</w>
ওয়ালাতে
ওয়ালাতে</w>
ওয়ালানি</w>
ওয়ালায়,</w>
ওয়ালায়</w>
ওয়ালার
ওয়ালার</w>
ওয়ালারা</w>
ওয়ালাল</w>
ওয়ালি
ওয়ালি</w>
ওয়ালিক</w>
ওয়ালিকে</w>
ওয়ালিতে</w>
ওয়ালিয়
ওয়ালিয়া</w>
ওয়ালিয়ার</w>
ওয়ালির</w>
ওয়ালী
ওয়ালী,</w>
ওয়ালী</w>
ওয়ালীদের</w>
ওয়ালীর</w>
ওয়ালু
ওয়ালে
ওয়ালে,</w>
ওয়ালে</w>
ওয়ালে।</w>
ওয়ালেন
ওয়ালেন</w>
ওয়ালেন্
ওয়ালের</w>
ওয়ালেশীয়</w>
ওয়ালেশে</w>
ওয়ালো
ওয়ালো</w>
ওয়াল্
ওয়াল্যা
ওয়ে
ওয়ে,</w>
ওয়ে</w>
ওয়ে।</w>
ওয়েত</w>
ওয়েতি
ওয়েতু
ওয়েতে
ওয়েতে,</w>
ওয়েতে</w>
ওয়েতে।</w>
ওয়েতের</w>
ওয়েন
ওয়েন,</w>
ওয়েন</w>
ওয়েনয়
ওয়েনা</w>
ওয়েনাই
ওয়েনি</w>
ওয়েনে</w>
ওয়েনের</w>
ওয়েনো
ওয়েন্
ওয়েন্দি</w>
ওয়ের</w>
ওয়েল
ওয়েল</w>
ওয়েলা
ওয়েলার
ওয়েলার,</w>
ওয়েলার</w>
ওয়েলারের</w>
ওয়েলার্
ওয়েলি
ওয়েলিন</w>
ওয়েলিয়া</w>
ওয়েলিয়ান</w>
ওয়েলিয়াম</w>
ওয়েলীয়</w>
ওয়েলে
ওয়েলে</w>
ওয়েলেন
ওয়েলেন্
ওয়েলের</w>
ওয়েল্
ওয়েল্যান্
ওয়েশ
ওয়েশ</w>
ওয়েশ্বর,</w>
ঔ
ক
ক,</w>
ক</w>
ক।</w>
কং
কং</w>
কংশ</w>
কটি</w>
কথা</w>
কদের</w>
কন
কন,</w>
কন.</w>
কন</w>
কন।</w>
কনগ
কনগুলি</w>
কনগুলির</w>
কনগুলো</w>
কনগো
কনগ্
কনগ্রা
কনগ্রি
কনগ্রে
কনগ্র্যা
কনভে
কনভেন
কনভেনার</w>
কনভেনিয়েন্
কনভেনেন্
কনভেন্
কনভেশ
কনভেশন</w>
কনয়</w>
কনয়ে
কনয়ের</w>
কনা
কনা,</w>
কনা</w>
কনা।</w>
কনাই
কনাও</w>
কনাট
কনাট্য
কনাট্য</w>
কনান,</w>
কনানীয়</w>
কনানে</w>
কনাম
কনাম</w>
কনামা</w>
কনামার</w>
কনামারা
কনামারা</w>
কনামারার</w>
কনামে
কনামে</w>
কনামের</w>
কনায়
কনার
কনার,</w>
কনার</w>
কনারও</w>
কনারকে</w>
কনারি
কনারির</w>
কনারী</w>
কনারের</w>
কনার্
কনাল</w>
কনালী</w>
কনালীর</w>
কনাল্
কনি
কনি</w>
কনি।</w>
কনিউ
কনিক
কনিক,</w>
কনিক</w>
কনিকা
কনিকা</w>
কনিকাম</w>
কনিকায়</w>
কনিকায়ে,</w>
কনিকাল</w>
কনিকালার</w>
কনিকে</w>
কনিকেন</w>
কনিকের</w>
কনিকেল</w>
কনিকো</w>
কনিক্যাল</w>
কনিক্যালি</w>
কনিক্যালের</w>
কনিক্স</w>
কনিতে</w>
কনিনা
কনিয়
কনিয়ার্
কনিয়েল</w>
কনির</w>
কনির্
কনির্বা
কনির্বাচ
কনির্মা
কনির্মাণ</w>
কনির্মাতা</w>
কনির্মাতার</w>
কনির্মূল</w>
কনিল</w>
কনিলের</w>
কনী
কনী,</w>
কনী</w>
কনীয়</w>
কনে
কনে,</w>
কনে</w>
কনে।</w>
কনেন
কনের</w>
কনেল
কনেল</w>
কনেলি
কনেশিয়াম
কনেশিয়াম</w>
কনেশিয়ামের</w>
কনো
কনো</w>
কনোগ্রা
কনোল
কনোলি</w>
কনোলির</w>
কনোলো
কন্
কন্ত
কন্ত</w>
কন্তম</w>
কন্তি</w>
কন্তিনি</w>
কন্তু
কন্তু</w>
কন্তে</w>
কন্তের</w>
কন্দ
কন্দ</w>
কন্দর্প
কন্দর্প</w>
কন্দর্পের</w>
কন্দলায়</w>
কন্দলি</w>
কন্দলী</w>
কন্দলীর</w>
কন্দা
কন্দা</w>
কন্দারিয়া</w>
কন্দি
কন্দি</w>
কন্দিতা</w>
কন্দিয়া</w>
কন্দিয়াই</w>
কন্দু
কন্দে</w>
কন্দের</w>
কন্দো
কন্দো</w>
কন্ধ
কন্ধ</w>
কন্ব</w>
কন্বী</w>
কন্বের</w>
কন্যা
কন্যা</w>
কন্যাই</w>
কন্যাও</w>
কন্যাতে</w>
কন্যানগ
কন্যামুখ
কন্যার,</w>
কন্যার</w>
কন্যারা
কন্যারা</w>
কন্যারাও</w>
কন্যারূ
কন্যু</w>
কন্রা
কম
কম</w>
কমত</w>
কমতি</w>
কমতিয়ার</w>
কমতিয়ারের</w>
কমতী
কমতে
কমতে</w>
কমতের</w>
কমত্য
কমত্য</w>
কমত্যে</w>
কমত্যের</w>
কমধ্য
কমন
কমন,</w>
কমন</w>
কমনা
কমনির্মা
কমনী
কমনীয়</w>
কমনে
কমনে</w>
কমনেনো
কমন্
কমন্ত</w>
কমন্দ
কমস
কমসংখ
কমসি
কমসের</w>
কমসো
কমস্
কমস্ট
কমহা
কমা
কমা</w>
কমাই
কমাইউ
কমাতিয়ার,</w>
কমাতিয়ারের</w>
কমাতে
কমাতে,</w>
কমাতে</w>
কমাতে।</w>
কমান
কমান,</w>
কমান</w>
কমান।</w>
কমানগা
কমানা
কমানো
কমানো</w>
কমান্
কমান্দ
কমাম</w>
কমায়
কমায়,</w>
কমায়</w>
কমায়।</w>
কমায়ে
কমার
কমার</w>
কমারা</w>
কমারি</w>
কমারির</w>
কমারের</w>
কমার্
কমার্র্
কমি
কমি</w>
কমিক
কমিক,</w>
কমিক</w>
কমিকটি</w>
কমিকনে</w>
কমিকারি</w>
কমিকি</w>
কমিকে</w>
কমিকের</w>
কমিকো</w>
কমিক্
কমিক্স</w>
কমিতে</w>
কমিন
কমিন</w>
কমিনি
কমিনির</w>
কমিনো</w>
কমিন্
কমিয়ে
কমিয়ে</w>
কমিয়েছে।</w>
কমির</w>
কমিল
কমিলাতু</w>
কমিলান</w>
কমিলানের</w>
কমিল্
কমিল্যানের</w>
কমিশ
কমিশন</w>
কমিশান,</w>
কমিশান</w>
কমু
কমু</w>
কমুক্তির</w>
কমুখ
কমুখ</w>
কমুরে,</w>
কমুরে</w>
কমুরের</w>
কমুরো
কমুরো</w>
কমুলিন</w>
কমূ
কমূল
কমূল</w>
কমূলের</w>
কমূল্য</w>
কমৃত</w>
কমে
কমে,</w>
কমে</w>
কমে।</w>
কমেছ
কমেছিল,</w>
কমেছে</w>
কমেছে।</w>
কমেন
কমেন,</w>
কমেন</w>
কমেনগা
কমেনা
কমেনি
কমেনিয়া</w>
কমেনী</w>
কমেনীয়</w>
কমেনের</w>
কমেন্
কমের</w>
কমেল
কমেল</w>
কমেলা
কমেলা</w>
কমেলায়</w>
কমেলার</w>
কমেলার।</w>
কমো
কমোগ
কমোলি
কমৌ
কমৌসু
কম্
কম্প
কম্প</w>
কম্পক্ষে</w>
কম্পরাম</w>
কম্পর্
কম্পা
কম্পা</w>
কম্পাই
কম্পানি
কম্পানি</w>
কম্পানি।</w>
কম্পানিকে</w>
কম্পানিয়
কম্পানিয়া</w>
কম্পানির</w>
কম্পানী
কম্পানী,</w>
কম্পানীতে</w>
কম্পানীর</w>
কম্পার</w>
কম্পারি
কম্পারে
কম্পার্
কম্পাল
কম্পি
কম্পিকে
কম্পিত</w>
কম্পিত।</w>
কম্পিয়া
কম্পু
কম্পে
কম্পেনাতো</w>
কম্পের</w>
কম্পেশার</w>
কম্পো
কম্পো</w>
কম্প্যা
কম্প্যানিয়
কম্প্রে
কম্প্রেশ
কম্প্রেশন</w>
কম্প্রো
কম্ব
কম্ব</w>
কম্বল
কম্বল</w>
কম্বলীর</w>
কম্বলে</w>
কম্বলের</w>
কম্বা</w>
কম্বাইন
কম্বাইন</w>
কম্বাইন্
কম্বার
কম্বার</w>
কম্বি</w>
কম্বিন</w>
কম্বিনে
কম্বিনেশ
কম্বিনেশন</w>
কম্বিয়া
কম্বিয়াল</w>
কম্বু
কম্বো
কম্ব্যা
কম্ব্রে</w>
কম্ব্রে।</w>
কম্ম
কম্মা
কম্মের</w>
কম্যা
কম্যান
কম্যান,</w>
কম্যান</w>
কম্যান।</w>
কম্যানাম্যান</w>
কম্যানের</w>
কম্যান্
কম্যার</w>
কম্যু
কম্রিক</w>
কয়ে
কয়ে</w>
কয়েকটি</w>
কয়েছে।</w>
কয়েত
কয়েত</w>
কয়েন
কয়েন</w>
কয়েনে</w>
কয়েনের</w>
কয়ের</w>
কয়েল
কয়েল</w>
কয়েলে</w>
কয়েলের</w>
কয়েলেশ্বরী</w>
কর
কর,</w>
কর</w>
কর।</w>
করও</w>
করকে</w>
করণ
করণ</w>
করণা
করণালী</w>
করণিক</w>
করণে</w>
করণের</w>
করত
করত</w>
করতা</w>
করতাম
করতাম</w>
করতাল
করতাল</w>
করতালি</w>
করতালির</w>
করতে
করতে,</w>
করতে</w>
করতে।</w>
করতেছ
করতেছিল।</w>
করতেছিলেন</w>
করতেছিলেন।</w>
করতেন
করতেন,</w>
করতেন</w>
করতেন।</w>
করতের</w>
করতো
করতো</w>
করত্
করয়ে
করহ
করহ</w>
করহয়
করা
করা</w>
করাই
করাই</w>
করাইবে
করাও</w>
করাজ
করাজ</w>
করাজন
করাজাতীয়</w>
করাজের</w>
করাজ্য
করাজ্যের</w>
করাত
করাত</w>
করাতাল</w>
করাতি
করাতি</w>
করাতে</w>
করাতে।</w>
করাতেন,</w>
করাতেন</w>
করাতেন।</w>
করাতের</w>
করাতো
করান
করান,</w>
করান</w>
করান।</w>
করানা</w>
করানের</w>
করানো
করানো</w>
করান্
করাম
করাম</w>
করামত</w>
করামা
করামা</w>
করামাত্র</w>
করামি</w>
করামির</w>
করামু
করামুল</w>
করামের</w>
করায়
করায়,</w>
করায়</w>
করায়।</w>
করায়ায়</w>
করায়ে
করার
করার,</w>
করার</w>
করার।</w>
করারও</w>
করারা</w>
করারো
করাল
করাল</w>
করালী</w>
করালে
করালে,</w>
করালে</w>
করালেও</w>
করালেন</w>
করি
করি</w>
করিক
করিক,</w>
করিক</w>
করিকটি</w>
করিকল</w>
করিকা</w>
করিকাল</w>
করিকালীন</w>
করিকে</w>
করিকের</w>
করিত
করিত</w>
করিতা
করিতা</w>
করিতায়</w>
করিতে</w>
করিতে।</w>
করিতেছ
করিতেছিলেন।</w>
করিতেন,</w>
করিতেন</w>
করিতেন।</w>
করিন
করিন</w>
করিনা</w>
করিনা।</w>
করিনি
করিনি</w>
করিনি।</w>
করিনী</w>
করিনে
করিনের</w>
করিন্
করিয়
করিয়া
করিয়া</w>
করিয়ানি
করিয়াম্মা
করিয়ার</w>
করিয়ালামা</w>
করিয়ে</w>
করিয়েছ
করিয়েছিল,</w>
করিয়েছিল</w>
করিয়েছিল।</w>
করিয়েছিলেন
করিয়েছিলেন,</w>
করিয়েছিলেন</w>
করিয়েছিলেন।</w>
করিয়েছে</w>
করিয়েছে।</w>
করিয়েন্তে
করির</w>
করিল
করিল</w>
করিলা
করিলা</w>
করিলি
করিলে</w>
করিলেন
করিলেন,</w>
করিলেন</w>
করিলেন।</w>
করী
করী,</w>
করী</w>
করীতে</w>
করীদের</w>
করীর</w>
করু
করু</w>
করুর,</w>
করুরি</w>
করুরী</w>
করুল</w>
করুলী</w>
করুল্
করূ
করূপ</w>
করে
করে,</w>
করে</w>
করে।</w>
করেছ
করেছিল
করেছিল,</w>
করেছিল</w>
করেছিল।</w>
করেছিলা
করেছিলাম
করেছিলাম</w>
করেছিলে,</w>
করেছিলে</w>
করেছিলে।</w>
করেছিলেন
করেছিলেন,</w>
করেছিলেন.</w>
করেছিলেন</w>
করেছিলেন।</w>
করেছিলো
করেছিলো</w>
করেছে</w>
করেছে।</w>
করেছেন</w>
করেছেন।</w>
করেত
করেত</w>
করেতার</w>
করেতে</w>
করেতেন</w>
করেতেন।</w>
করেন
করেন,</w>
করেন.</w>
করেন</w>
করেন।</w>
করেনগণিত</w>
করেনা,</w>
করেনা</w>
করেনা।</w>
করেনি
করেনি</w>
করেনি।</w>
করেনে</w>
করেন্
করের</w>
করেল
করেল</w>
করেলেও</w>
করেলেন।</w>
করেলো
করো
করো</w>
করোগ
করোগি</w>
করোগুল</w>
করোগুলি</w>
করোগুলির</w>
করোগুলো
করোগুলো</w>
করোগে</w>
করোল
করোল</w>
করোলা</w>
করোলি
করোলি</w>
করোলে
করোলো
কর্
কর্চ
কর্চা
কর্চার্
কর্ণ</w>
কর্ত
কর্তা
কর্তা</w>
কর্তাও</w>
কর্তাকে</w>
কর্তাদের</w>
কর্তামূল
কর্তায়</w>
কর্তার,</w>
কর্তার</w>
কর্তারা
কর্তারা</w>
কর্তারাই</w>
কর্তারাও</w>
কর্তারূ
কর্তাল</w>
কর্তালা
কর্তিত</w>
কর্তী</w>
কর্তীর</w>
কর্তু
কর্তৃ
কর্তৃক</w>
কর্তৃত</w>
কর্তৃত্ত্ব</w>
কর্তৃত্ত্বের</w>
কর্তৃত্ব
কর্তৃত্ব</w>
কর্তৃত্বর</w>
কর্তৃত্বা
কর্তৃত্বে</w>
কর্তৃত্বের</w>
কর্তে
কর্তে</w>
কর্তেছ
কর্ত্ত
কর্ত্রী
কর্ত্রী,</w>
কর্ত্রী</w>
কর্ত্রীর</w>
কর্প
কর্প</w>
কর্পরের</w>
কর্পা
কর্পুন
কর্পুরী</w>
কর্পূ
কর্পে
কর্পের</w>
কর্পো
কর্পো</w>
কর্ব
কর্বি</w>
কর্বু
কর্বেল</w>
কর্বেলের</w>
কর্ম
কর্ম</w>
কর্মত
কর্মনি
কর্মনিয়
কর্মনী
কর্মনের</w>
কর্মস
কর্মসং
কর্মসংস্থান
কর্মসংস্থান,</w>
কর্মসংস্থান.</w>
কর্মসংস্থান</w>
কর্মসংস্থানে</w>
কর্মসংস্থানের</w>
কর্মসঙ্গ
কর্মসফল
কর্মসমন্বয়
কর্মসময়ের</w>
কর্মসমর্থ</w>
কর্মসমূ
কর্মসম্পা
কর্মসহ</w>
কর্মসহায়
কর্মসা
কর্মসি
কর্মসু
কর্মসূ
কর্মসূর্চী</w>
কর্মস্
কর্মস্থ
কর্মস্থান</w>
কর্মহারা</w>
কর্মা
কর্মা</w>
কর্মাধ্য
কর্মাধ্যা
কর্মানু
কর্মায়
কর্মার</w>
কর্মি
কর্মিক</w>
কর্মিল</w>
কর্মে
কর্মে</w>
কর্মে।</w>
কর্মেন্দ্রিয়,</w>
কর্মেন্দ্রিয়</w>
কর্মেন্দ্রিয়ের</w>
কর্মের</w>
কর্মো
কর্ম্ম
কর্ম্ম</w>
কর্ম্মের</w>
কর্ম্যা
কর্ম্র
কর্য
কর্য</w>
কর্যে,</w>
কর্যে</w>
কর্যের</w>
কর্র্ম
কল
কল</w>
কলা
কলা</w>
কলাই
কলাই</w>
কলাইন
কলাইন</w>
কলাইনে</w>
কলাইনের</w>
কলাইবানি</w>
কলাইসম</w>
কলাও</w>
কলাত
কলাতি
কলাতিনে</w>
কলাতিয়া</w>
কলাতী
কলাতে
কলাতে</w>
কলান
কলানি
কলাম
কলাম</w>
কলামনার</w>
কলামন্
কলামসহ</w>
কলামা
কলামি
কলামৃত্যু</w>
কলামে,</w>
কলামে</w>
কলামেন্
কলামের</w>
কলামোলিখন্দেশ্বর</w>
কলাম্
কলাম্ব</w>
কলাম্বা
কলাম্বাই
কলাম্বাইন</w>
কলাম্বাস</w>
কলাম্বি
কলাম্বিয়া
কলাম্বিয়া</w>
কলাম্বিয়াতে।</w>
কলাম্বিয়ান</w>
কলাম্বিয়ায়</w>
কলাম্বিয়ার</w>
কলায়
কলায়,</w>
কলায়</w>
কলায়।</w>
কলার
কলার,</w>
কলার</w>
কলার।</w>
কলারও</w>
কলারকে</w>
কলারাম</w>
কলারি</w>
কলারির</w>
কলারে</w>
কলারেন</w>
কলারেনের</w>
কলারেন্
কলারের</w>
কলারো
কলার্
কলাল
কলাল</w>
কলালা</w>
কলি
কলি</w>
কলিক</w>
কলিকা</w>
কলিকাতা
কলিকাতা</w>
কলিকাতায়</w>
কলিকাতার</w>
কলিকান</w>
কলিকারও</w>
কলিকারকে</w>
কলিকাল</w>
কলিকালে</w>
কলিকুলি</w>
কলিকে</w>
কলিক্যাল
কলিক্যাল</w>
কলিখ
কলিখন</w>
কলিখন।</w>
কলিত
কলিত</w>
কলিতে</w>
কলিন
কলিন,</w>
কলিন</w>
কলিন।</w>
কলিনাড়
কলিনি</w>
কলিনে</w>
কলিনের</w>
কলিন্
কলিয়
কলিয়া
কলিয়া</w>
কলিয়ায়</w>
কলিয়ার</w>
কলির</w>
কলী
কলী</w>
কলীন</w>
কলীর</w>
কলু
কলু</w>
কলুর</w>
কলুল</w>
কলে
কলে,</w>
কলে</w>
কলে।</w>
কলেখ
কলেছ
কলেজ</w>
কলেতে</w>
কলেত্তে</w>
কলেন
কলেন,</w>
কলেন</w>
কলেনা</w>
কলের</w>
কলেলে।</w>
কলো
কলো</w>
কলোক</w>
কলোকিয়াম</w>
কলোগ
কল্
কল্প
কল্প</w>
কল্পত
কল্পতে</w>
কল্পদ্রু
কল্পর
কল্পরাজ্য</w>
কল্পরূ
কল্পরের</w>
কল্পা</w>
কল্পায়</w>
কল্পার</w>
কল্পিক
কল্পিক</w>
কল্পিক।</w>
কল্পিকের</w>
কল্পিত
কল্পিত</w>
কল্পিত।</w>
কল্পে
কল্পে,</w>
কল্পে</w>
কল্পে।</w>
কল্পের</w>
কল্মা
কল্য
কল্য</w>
কল্য়া
কল্যা
কল্যান</w>
কল্যানগ
কল্যানান
কল্যানী,</w>
কল্যান্
কল্যারেন</w>
কল্যে</w>
কল্যের</w>
কা
কা</w>
কাই
কাই</w>
কাইং
কাইউ
কাইউ</w>
কাইত্যা</w>
কাইন
কাইন,</w>
কাইন</w>
কাইনগ
কাইনা
কাইনা</w>
কাইনাম্যা
কাইনিন
কাইনিন,</w>
কাইনিন</w>
কাইনিন।</w>
কাইনিনগুলি</w>
কাইনে
কাইনেন</w>
কাইনো
কাইনো</w>
কাইন্
কাইব
কাইবার</w>
কাইবারারি</w>
কাইবাল্
কাইবো
কাইবো</w>
কাইব্
কাইস
কাইস</w>
কাইসা
কাইসা</w>
কাইসান
কাইসান</w>
কাইসার</w>
কাইসারে
কাইসার্
কাইসি
কাইসিনা
কাইসিলিয়া
কাইসেই</w>
কাইসো</w>
কাইস্
কাউন্
কাউন্দিয়া</w>
কাও</w>
কাছ
কাছাড়
কাছাড়</w>
কাছাড়ে</w>
কাছে</w>
কাছে।</w>
কাছো</w>
কাজ</w>
কাঠ
কাড়
কাড়</w>
কাড়া
কাড়া</w>
কাড়ার</w>
কাড়ে</w>
কাত
কাত</w>
কাতা
কাতা</w>
কাতাই</w>
কাতাকে</w>
কাতাতে
কাতাতে,</w>
কাতাতে</w>
কাতান</w>
কাতানা
কাতানা</w>
কাতানার</w>
কাতানিয়ায়</w>
কাতানির্
কাতানে
কাতানের</w>
কাতান্দু
কাতাম
কাতাম</w>
কাতামিতে</w>
কাতায়
কাতায়,</w>
কাতায়</w>
কাতায়।</w>
কাতার
কাতার,</w>
কাতার</w>
কাতার।</w>
কাতারকে</w>
কাতারা
কাতারা</w>
কাতারি
কাতারি</w>
কাতারিকে</w>
কাতারিনা
কাতারিনা</w>
কাতারিয়া</w>
কাতারী</w>
কাতারে
কাতারে</w>
কাতারে।</w>
কাতারের</w>
কাতাল
কাতালা</w>
কাতালান
কাতালান,</w>
কাতালান</w>
কাতালান।</w>
কাতালানে
কাতালানে,</w>
কাতালানে</w>
কাতালানো
কাতালীয়</w>
কাতালু
কাতালো
কাতি
কাতি</w>
কাতিকে</w>
কাতিতে
কাতিতে,</w>
কাতিতে</w>
কাতিন
কাতিয়া
কাতিয়া</w>
কাতির</w>
কাতিল</w>
কাতিহার</w>
কাতী
কাতী</w>
কাতীত</w>
কাতীয়</w>
কাতু
কাতু</w>
কাতুর
কাতুর</w>
কাতুরা</w>
কাতুরে</w>
কাতুল</w>
কাতুলিকে</w>
কাতুলী</w>
কাতে
কাতে,</w>
কাতে</w>
কাতে।</w>
কাতেন</w>
কাতের</w>
কাতেল</w>
কাতো
কাতো</w>
কাতোলিক</w>
কাতোলী</w>
কাত্ত
কাত্তা
কাত্তাই
কাত্তাই</w>
কাত্তান</w>
কাত্তানে
কাত্তিয়াম</w>
কাত্বার,</w>
কাত্ম
কাত্মা
কাত্যা</w>
কাত্যায়
কাত্র
কাত্রা
কাত্রা</w>
কাত্র্
কান
কান,</w>
কান.</w>
কান</w>
কান।</w>
কানগ
কানগণ</w>
কানগা
কানগি
কানগুলি</w>
কানগুলিতে
কানগুলিতে</w>
কানগুলির</w>
কানগুলো
কানগুলো</w>
কানগুলোকে</w>
কানগুলোর</w>
কানয়
কানা
কানা,</w>
কানা</w>
কানা।</w>
কানাই
কানাই</w>
কানাট</w>
কানাটা</w>
কানাড়
কানাড়া
কানাড়া</w>
কানাত
কানাত</w>
কানাতে</w>
কানাতের</w>
কানান</w>
কানানা</w>
কানানীয়</w>
কানানের</w>
কানাম
কানামা
কানামাইসিন,</w>
কানামারা</w>
কানায়</w>
কানার</w>
কানারা
কানারায়
কানারি
কানারি</w>
কানারিকে</w>
কানারিনিয়
কানারিয়া
কানারিয়া</w>
কানারিয়ায়</w>
কানারিয়ার</w>
কানারির</w>
কানারীয়</w>
কানারের</w>
কানাল
কানাল</w>
কানালি
কানি
কানি</w>
কানি।</w>
কানিউ</w>
কানিক
কানিক</w>
কানিকা
কানিকাই
কানিকারী</w>
কানিকাল
কানিকাল</w>
কানিকে</w>
কানিকের</w>
কানিক্
কানিক্যাল
কানিক্যাল</w>
কানিক্স</w>
কানিজের</w>
কানিত
কানিতা</w>
কানিতে,</w>
কানিতে</w>
কানিন</w>
কানিনা</w>
কানিনের</w>
কানিয়া
কানিয়া</w>
কানিয়ান</w>
কানিয়ার</w>
কানির</w>
কানির্মিত</w>
কানী
কানী</w>
কানীদের</w>
কানীন</w>
কানীয়</w>
কানীর</w>
কানে
কানে,</w>
কানে</w>
কানে।</w>
কানেনগো
কানের</w>
কানেলি</w>
কানেলো
কানেল্
কানেশি
কানো
কানো</w>
কানোগান</w>
কানোগ্রা
কান্
কান্ত
কান্ত</w>
কান্তা
কান্তা</w>
কান্তাই
কান্তার</w>
কান্তারা</w>
কান্তি
কান্তি</w>
কান্তিক</w>
কান্তিয়ান</w>
কান্তির</w>
কান্তিলাল</w>
কান্তু</w>
কান্তুর
কান্তে</w>
কান্তের</w>
কান্তেশ্বরা</w>
কান্তো
কান্তো</w>
কান্দ
কান্দ</w>
কান্দর্
কান্দলিয়া</w>
কান্দা
কান্দা</w>
কান্দান</w>
কান্দানায়</w>
কান্দানিয়া</w>
কান্দাম
কান্দাম</w>
কান্দার
কান্দার,</w>
কান্দার</w>
কান্দারি</w>
কান্দারিকে</w>
কান্দারিয়া</w>
কান্দারের</w>
কান্দাল</w>
কান্দালা</w>
কান্দালার</w>
কান্দালি</w>
কান্দাহার
কান্দাহার,</w>
কান্দাহার</w>
কান্দাহারকে</w>
কান্দাহারে</w>
কান্দাহারের</w>
কান্দি
কান্দি</w>
কান্দিকে</w>
কান্দিতে</w>
কান্দিয়াতে</w>
কান্দিয়ান
কান্দিয়ান</w>
কান্দির</w>
কান্দিল</w>
কান্দী</w>
কান্দু
কান্দু</w>
কান্দুলিয়া</w>
কান্দে</w>
কান্দেতে</w>
কান্দের</w>
কান্দোলি
কান্দোলি</w>
কান্দ্রা
কান্ধ
কান্ব
কান্বর,</w>
কান্মো
কান্য
কান্য</w>
কাম
কাম</w>
কামত
কামত</w>
কামতা
কামতা</w>
কামতায়</w>
কামতার</w>
কামতারাজের</w>
কামতারাজ্যের</w>
কামতি
কামতেশ্বর</w>
কামতো</w>
কামন
কামনা
কামনা,</w>
কামনা</w>
কামনা।</w>
কামনায়</w>
কামনায়।</w>
কামনার</w>
কামনিক</w>
কামনিকো
কামন্দ
কামস</w>
কামসা</w>
কামসাল</w>
কামসাহিত্য
কামসিং
কামসূ
কামসে
কামা
কামা</w>
কামাই
কামাই</w>
কামাত
কামাত</w>
কামাতা
কামাতা</w>
কামাত্ম
কামান
কামান,</w>
কামান.</w>
কামান</w>
কামান।</w>
কামানগুলি</w>
কামানগুলিতে,</w>
কামানের</w>
কামানো
কামানো</w>
কামায়াইন</w>
কামার
কামার,</w>
কামার</w>
কামারহা
কামারা</w>
কামারান</w>
কামারার</w>
কামারি</w>
কামারিয়া</w>
কামারী</w>
কামারু
কামারু</w>
কামারে
কামারের</w>
কামার্
কামার্ত</w>
কামাল
কামাল</w>
কামালি</w>
কামালী</w>
কামালু
কামালুল</w>
কামালে
কামালের</w>
কামি
কামি</w>
কামিক</w>
কামিকা
কামিকো</w>
কামিটার</w>
কামিতা
কামিতা</w>
কামিতাও</w>
কামিতাকে</w>
কামিতামে</w>
কামিতায়</w>
কামিতার</w>
কামিতে</w>
কামিন
কামিন</w>
কামিনাল
কামিনি</w>
কামিনি।</w>
কামিনী
কামিনী,</w>
কামিনী</w>
কামিনীর</w>
কামিনেনি</w>
কামিনো
কামিনো</w>
কামিন্
কামিয়া
কামিয়া</w>
কামিয়ে</w>
কামিয়েছিলেন।</w>
কামির</w>
কামিল
কামিল</w>
কামিলা
কামিলা</w>
কামিলিয়া
কামিলের</w>
কামিলো</w>
কামিল্
কামিশ</w>
কামু
কামু</w>
কামুর</w>
কামুরা</w>
কামুরু
কামুল</w>
কামুলা</w>
কামুল্
কামূর্তি
কামূর্তি</w>
কামে
কামে,</w>
কামে</w>
কামেন
কামেন</w>
কামেনি
কামেনিকো
কামেনিকো</w>
কামের</w>
কামেল</w>
কামেলা</w>
কামেলার</w>
কামেলের</w>
কামেশ্বর</w>
কামেশ্বরের</w>
কামো
কামো</w>
কামোগা</w>
কামোল
কাম্
কাম্প
কাম্প</w>
কাম্পানা
কাম্পানার</w>
কাম্পানিয়া</w>
কাম্পানিয়ার</w>
কাম্পানো
কাম্পার
কাম্পার</w>
কাম্পালা
কাম্পালা</w>
কাম্পালাতে</w>
কাম্পালায়</w>
কাম্পালার</w>
কাম্পি
কাম্পিনা
কাম্পিলি
কাম্পু
কাম্পে
কাম্পে,</w>
কাম্পো
কাম্পো</w>
কাম্ব
কাম্ব</w>
কাম্বলাম্বর,</w>
কাম্বা
কাম্বা</w>
কাম্বাদো
কাম্বার
কাম্বার</w>
কাম্বালা
কাম্বালার</w>
কাম্বাস</w>
কাম্বি
কাম্বিক</w>
কাম্বিকা</w>
কাম্বিয়া</w>
কাম্বুর</w>
কাম্বে</w>
কাম্বো
কাম্বো</w>
কাম্বোল
কাম্ব্রিয়ান</w>
কাম্মা
কাম্মা</w>
কাম্মার</w>
কাম্মালার</w>
কাম্মিনাতিতে</w>
কাম্মুলা</w>
কাম্মেল
কাম্মেল</w>
কাম্মেলের</w>
কাম্য
কাম্য</w>
কাম্যা
কাম্যু
কাম্যু</w>
কাম্যুর</w>
কায়
কায়,</w>
কায়</w>
কায়।</w>
কায়া
কায়া</w>
কায়াত</w>
কায়ান
কায়ান</w>
কায়ানা
কায়ানাই
কায়ানিন.</w>
কায়ানী</w>
কায়ান্
কায়াম
কায়াম</w>
কায়ামা
কায়ামা</w>
কায়ামাত</w>
কায়ামার</w>
কায়ামে</w>
কায়ায়</w>
কায়ার
কায়ার</w>
কায়ার।</w>
কায়ারিয়ান</w>
কায়াল
কায়াল</w>
কায়ালি
কায়ে
কায়ে,</w>
কায়ে</w>
কায়েত
কায়েত</w>
কায়েত্
কায়েন</w>
কায়ের</w>
কার
কার,</w>
কার</w>
কার।</w>
কারও</w>
কারকে</w>
কারক্ষ্যা
কারণ
কারণ</w>
কারণা
কারণালি</w>
কারণি
কারণে</w>
কারণের</w>
কারণ্ড
কারণ্য</w>
কারয়
কারয়ের</w>
কারহ
কারহার</w>
কারহার্
কারহু
কারহে
কারা
কারা</w>
কারাই
কারাই</w>
কারাইন.</w>
কারাও</w>
কারাখ
কারাখানা</w>
কারাখানার</w>
কারাখানি
কারাখানী</w>
কারাজয়া
কারাজি
কারাজি</w>
কারাজির</w>
কারাজীবন</w>
কারাত
কারাত</w>
কারাতাই</w>
কারাতুল</w>
কারাতে,</w>
কারাতে</w>
কারাতের</w>
কারান
কারান</w>
কারানার</w>
কারানিকোলো
কারানিনার।</w>
কারানী,</w>
কারানে</w>
কারান্
কারান্ত
কারাম
কারাম</w>
কারামত</w>
কারামতিয়া</w>
কারামন
কারামা
কারামাতার</w>
কারামাতিয়ান</w>
কারামাতের</w>
কারামান,</w>
কারামান</w>
কারামানি
কারামানিকা</w>
কারামানোগ্
কারামায়</w>
কারামি</w>
কারামু
কারামুক্তি</w>
কারামুক্তির</w>
কারামের</w>
কারাম্বা
কারায়
কারায়</w>
কারায়।</w>
কারার
কারার,</w>
কারার</w>
কারারক্ষ
কারারু
কারাল
কারাল</w>
কারালা
কারালে</w>
কারালো
কারাল্
কারি
কারি</w>
কারিক
কারিক,</w>
কারিক</w>
কারিকদের</w>
কারিকন
কারিকর
কারিকরণ
কারিকরণ</w>
কারিকরণের</w>
কারিকরা</w>
কারিকল</w>
কারিকা
কারিকা</w>
কারিকাতে</w>
কারিকামিল
কারিকায়</w>
কারিকার</w>
কারিকালান</w>
কারিকুলাম</w>
কারিকুলামের</w>
কারিকুলার</w>
কারিকে</w>
কারিত
কারিত</w>
কারিতা
কারিতা</w>
কারিতাকে</w>
কারিতাতে</w>
কারিতায়</w>
কারিতার</w>
কারিতে</w>
কারিত্ব</w>
কারিত্বের</w>
কারিন,</w>
কারিন</w>
কারিনা,</w>
কারিনা</w>
কারিনাম
কারিনার</w>
কারিনি
কারিনী,</w>
কারিনী</w>
কারিয়
কারিয়</w>
কারিয়া
কারিয়া</w>
কারিয়াতিতে</w>
কারিয়ান</w>
কারিয়ানের</w>
কারিয়ার</w>
কারিয়ারের</w>
কারিয়ে</w>
কারির</w>
কারিলে
কারিলের</w>
কারিলো</w>
কারী
কারী,</w>
কারী</w>
কারীতে</w>
কারীদের</w>
কারীয়</w>
কারীর</w>
কারু
কারু</w>
কারূ
কারে
কারে,</w>
কারে</w>
কারে।</w>
কারেতে
কারেন
কারেন,</w>
কারেন.</w>
কারেন</w>
কারেন।</w>
কারেনি</w>
কারেনিন,</w>
কারেনিনা</w>
কারেনে
কারেন্
কারের</w>
কারেল</w>
কারেলা</w>
কারেলিয়া
কারেলিয়া</w>
কারেলে</w>
কারেশ্বর</w>
কারেশ্বরে</w>
কারো
কারো</w>
কারোল</w>
কারোলি</w>
কারোলিনার</w>
কারোলিন্
কারোলু
কার্
কার্চানি
কার্ত
কার্ত</w>
কার্তা
কার্তা</w>
কার্তাঁ
কার্তাতে</w>
কার্তায়,</w>
কার্তায়</w>
কার্তার
কার্তার</w>
কার্তি
কার্তি</w>
কার্তিক
কার্তিক,</w>
কার্তিক</w>
কার্তিকা</w>
কার্তিকাই</w>
কার্তিকি</w>
কার্তিকী</w>
কার্তিকে
কার্তিকের</w>
কার্তিয়ে</w>
কার্তু
কার্তে
কার্তেলের</w>
কার্ত্
কার্ত্তিক</w>
কার্ত্তিকের</w>
কার্থ
কার্থা
কার্থারি
কার্থি
কার্থি</w>
কার্থির</w>
কার্থে
কার্থে,</w>
কার্থে</w>
কার্প
কার্প</w>
কার্পা
কার্পান
কার্পে
কার্পেনা</w>
কার্পেন্
কার্পেন্তিয়ে
কার্পের</w>
কার্পেলের</w>
কার্পো</w>
কার্ব
কার্ব</w>
কার্বলিক</w>
কার্বা
কার্বাই
কার্বাইন</w>
কার্বাইনের</w>
কার্বানায়
কার্বি
কার্বি</w>
কার্বিতে</w>
কার্বী</w>
কার্বুরে
কার্বে</w>
কার্বের</w>
কার্বো
কার্ব্যুর</w>
কার্ম
কার্ম</w>
কার্মা
কার্মা</w>
কার্মাই
কার্মান</w>
কার্মানের</w>
কার্মি
কার্মিক,</w>
কার্মিক</w>
কার্মিনে
কার্মে</w>
কার্মেন</w>
কার্মেল</w>
কার্মেলি
কার্মো
কার্য
কার্য</w>
কার্যদি
কার্য়
কার্যা
কার্যাল
কার্যে
কার্যে</w>
কার্যের</w>
কার্যো
কার্রা
কার্রামায়</w>
কার্রেন্
কাল
কাল</w>
কালা
কালা</w>
কালাই
কালাই</w>
কালাইন</w>
কালাইস</w>
কালাত</w>
কালাতি
কালাতি</w>
কালাতীত</w>
কালাতু
কালান
কালান,</w>
কালান</w>
কালান।</w>
কালানি
কালানি</w>
কালানী</w>
কালানে</w>
কালানের</w>
কালান্
কালান্ত
কালান্দা
কালান্দার,</w>
কালান্দার</w>
কালান্দারের</w>
কালান্দার্
কালাম
কালাম</w>
কালামা
কালামা</w>
কালামান্দালাম</w>
কালামি
কালামু
কালামুল্
কালামে</w>
কালামের</w>
কালামেশ্বর</w>
কালাম্ব</w>
কালাম্বে</w>
কালাম্মা</w>
কালায়</w>
কালায়া</w>
কালায়াত</w>
কালায়ার</w>
কালায়েনের</w>
কালার
কালার</w>
কালারান্
কালারি
কালারি</w>
কালারু
কালারের</w>
কালার্
কালালিয়ামে</w>
কালি
কালি</w>
কালিক
কালিক</w>
কালিকল
কালিকা
কালিকা</w>
কালিকান
কালিকাম
কালিকু
কালিক্
কালিখাই</w>
কালিত
কালিতা</w>
কালিতারা</w>
কালিতে</w>
কালিন
কালিন,</w>
কালিন</w>
কালিনগ
কালিনা
কালিনানের</w>
কালিনার</w>
কালিনারায়
কালিনিন</w>
কালিনিনগ্রা
কালিনী</w>
কালিনো
কালিন্দি</w>
কালিন্দী</w>
কালিন্দীর</w>
কালিয়
কালিয়া
কালিয়া</w>
কালিয়াই
কালিয়ানগ
কালিয়ানি
কালিয়াম
কালিয়ার
কালিয়ারা</w>
কালির</w>
কালী
কালী,</w>
কালী</w>
কালীতে</w>
কালীন</w>
কালীয়</w>
কালীর</w>
কালু
কালু</w>
কালুর
কালুর</w>
কালুরি
কালুলু</w>
কালে
কালে,</w>
কালে</w>
কালে।</w>
কালেও</w>
কালেখা
কালেতু
কালেতে</w>
কালেন</w>
কালেন।</w>
কালেনা
কালেনে</w>
কালেনের</w>
কালেন্
কালেন্ত
কালের</w>
কালেল
কালেশ্বর
কালেশ্বর,</w>
কালো
কালো</w>
কালোকা
কালোকে</w>
কালোকো
কালোগ</w>
কালোল</w>
কাল্
কাল্তো
কাল্প
কাল্প</w>
কাল্ব</w>
কাল্মিকিয়া</w>
কাল্মিকিয়ায়</w>
কাল্মিকিয়ার</w>
কাল্য</w>
কাল্যান্
কি
কি</w>
কিং
কিং</w>
কিক
কিক,</w>
কিক</w>
কিকটি</w>
কিকর
কিকরণ
কিকরণ</w>
কিকরণের</w>
কিকরা
কিকরা</w>
কিকরে</w>
কিকলী</w>
কিকলো
কিকা
কিকা</w>
কিকাই</w>
কিকাত</w>
কিকায়া</w>
কিকার</w>
কিকার।</w>
কিকার্
কিকি
কিকি</w>
কিকিকে</w>
কিকিতে</w>
কিকিন্দা</w>
কিকিয়
কিকিয়া
কিকির</w>
কিকু
কিকুর</w>
কিকুর্
কিকে
কিকে</w>
কিকে।</w>
কিকের</w>
কিকো
কিকো</w>
কিক্
কিক্রি</w>
কিক্স</w>
কিছ
কিছু</w>
কিত
কিত</w>
কিত।</w>
কিতা
কিতা</w>
কিতাই
কিতানাম
কিতানো</w>
কিতামুরা</w>
কিতায়</w>
কিতার</w>
কিতারো
কিতাল
কিতি
কিতিক</w>
কিতে
কিতে,</w>
কিতে</w>
কিতে।</w>
কিতেন</w>
কিতো
কিতো</w>
কিত্
কিত্তা</w>
কিত্তিক্যা
কিত্ব
কিত্ব</w>
কিন
কিন,</w>
কিন</w>
কিন।</w>
কিনগায়
কিনগুলি</w>
কিনগুলিকে</w>
কিনগুলো
কিনয়
কিনা
কিনা,</w>
কিনা</w>
কিনা।</w>
কিনাও</w>
কিনাড়া
কিনাড়া</w>
কিনাড়ায়</w>
কিনান</w>
কিনানা
কিনানা,</w>
কিনানা</w>
কিনানি</w>
কিনানীয়</w>
কিনানের</w>
কিনাম
কিনায়</w>
কিনার,</w>
কিনার</w>
কিনার।</w>
কিনারা
কিনারা</w>
কিনারায়</w>
কিনারার</w>
কিনারে
কিনারে,</w>
কিনারে</w>
কিনারে।</w>
কিনারেতে</w>
কিনারের</w>
কিনি
কিনি</w>
কিনিতে</w>
কিনিনি</w>
কিনিনি।</w>
কিনিয়া
কিনিয়া</w>
কিনিয়ার</w>
কিনিয়ারে
কিনিয়ারের</w>
কিনির</w>
কিনী
কিনী,</w>
কিনী</w>
কিনীদের</w>
কিনীর</w>
কিনে
কিনে</w>
কিনে।</w>
কিনেছ
কিনেছিল,</w>
কিনেছিল</w>
কিনেছিল।</w>
কিনেছিলেন,</w>
কিনেছিলেন</w>
কিনেছিলেন।</w>
কিনেছিলো
কিনেছে</w>
কিনেছে।</w>
কিনেন,</w>
কিনেন</w>
কিনেন।</w>
কিনেনি
কিনেনি</w>
কিনেনিকে,</w>
কিনেনির</w>
কিনের</w>
কিনো
কিনো</w>
কিন্
কিন্ত</w>
কিন্তা</w>
কিন্তানা</w>
কিন্তি
কিন্তু
কিন্তু</w>
কিন্তে</w>
কিন্ত্ত</w>
কিন্ত্তু</w>
কিন্দ
কিন্দা</w>
কিন্দাহ</w>
কিন্দি
কিন্দি</w>
কিন্দু</w>
কিন্দ্রি
কিন্ধ</w>
কিন্ধ্যা</w>
কিন্ধ্যার</w>
কিন্যা
কিয়
কিয়</w>
কিয়া
কিয়া</w>
কিয়াই
কিয়াও</w>
কিয়াত</w>
কিয়াতি
কিয়াতি</w>
কিয়াতে</w>
কিয়ান
কিয়ান,</w>
কিয়ান</w>
কিয়ান।</w>
কিয়ানা</w>
কিয়ানার</w>
কিয়ানি
কিয়ানি</w>
কিয়ানির</w>
কিয়ানে</w>
কিয়ানের</w>
কিয়ানো
কিয়াম
কিয়াম</w>
কিয়ামত</w>
কিয়ামতের</w>
কিয়ামা
কিয়ামাত</w>
কিয়ামুল</w>
কিয়ামের</w>
কিয়ায়</w>
কিয়ায়।</w>
কিয়ার
কিয়ার,</w>
কিয়ার</w>
কিয়ারা</w>
কিয়ারি
কিয়ারু
কিয়ারো
কিয়ার্
কিয়াল</w>
কিয়ে
কিয়ে,</w>
কিয়ে</w>
কিয়ে।</w>
কিয়েছ
কিয়েছিল</w>
কিয়েছিল।</w>
কিয়েছিলেন</w>
কিয়েছিলেন।</w>
কিয়েত</w>
কিয়েতি
কিয়েতে</w>
কিয়েন
কিয়েন</w>
কিয়েনে</w>
কিয়ের</w>
কিয়েল
কিয়েল</w>
কিয়েলা
কিয়েলের</w>
কিয়েল্
কির</w>
কিল
কিল</w>
কিলা
কিলা</w>
কিলাই
কিলাত</w>
কিলান্দেশ্বরী</w>
কিলাম</w>
কিলামুখ</w>
কিলাম্মা</w>
কিলার
কিলার,</w>
কিলার</w>
কিলারের</w>
কিলি
কিলি</w>
কিলিক
কিলিক,</w>
কিলিক</w>
কিলিকিয়া
কিলিকিয়া</w>
কিলিকের</w>
কিলিকোল্
কিলিক্
কিলিন
কিলিনো
কিলিয়া
কিলিয়া</w>
কিলিয়ান</w>
কিলিয়েন</w>
কিলির</w>
কিলু
কিলে
কিলে,</w>
কিলে</w>
কিলেন</w>
কিলেনের</w>
কিলেন্
কিলের</w>
কিলো
কিলো</w>
কিলোক্যাল
কিলোক্যালো
কিলোগ্রাম
কিলোগ্রাম</w>
কিলোগ্রামসে
কিলোগ্রামে</w>
কিলোগ্রামের</w>
কিলোলা
কিলোলি
কিল্
কিল্যা
কী
কী,</w>
কী</w>
কীত</w>
কীতে</w>
কীদের</w>
কীন</w>
কীয়</w>
কীর</w>
কু
কু</w>
কুর
কুর,</w>
কুর</w>
কুর।</w>
কুরও</w>
কুরকে</w>
কুরতার</w>
কুরয়া</w>
কুরহ
কুরহা
কুরা
কুরা</w>
কুরাই
কুরাই</w>
কুরাইন,</w>
কুরাও</w>
কুরাজি
কুরাতু
কুরাতুরা</w>
কুরান
কুরান</w>
কুরানি</w>
কুরানিকে</w>
কুরানে</w>
কুরানের</w>
কুরান্
কুরান্দীর</w>
কুরাম</w>
কুরায়
কুরায়</w>
কুরার</w>
কুরারের</w>
কুরাল</w>
কুরি
কুরি</w>
কুরিকা
কুরিকি</w>
কুরিকু
কুরিকু</w>
কুরিকে</w>
কুরিক্ষেত্রে</w>
কুরিত</w>
কুরিতি
কুরিতে</w>
কুরিন
কুরিন</w>
কুরিনা
কুরিনা</w>
কুরিনার</w>
কুরিনের</w>
কুরিনো</w>
কুরিয়
কুরিয়া
কুরিয়া</w>
কুরিয়াম</w>
কুরিয়ামের</w>
কুরিয়ায়</w>
কুরিয়ার
কুরিয়ার,</w>
কুরিয়ার</w>
কুরিয়ার।</w>
কুরিয়ারে</w>
কুরিয়ারের</w>
কুরিয়াল</w>
কুরিয়ালে</w>
কুরিয়েন্
কুরিয়েল
কুরির</w>
কুরিল
কুরিলি</w>
কুরিলো
কুরী
কুরী,</w>
কুরী</w>
কুরীতে</w>
কুরীয়</w>
কুরীর</w>
কুরু
কুরু</w>
কুরুর</w>
কুরুরাজ্যের</w>
কুরুল
কুরুলিয়ার</w>
কুরে
কুরে</w>
কুরে।</w>
কুরেতি
কুরেন্
কুরের</w>
কুরেশ
কুরেশ</w>
কুরেশি
কুরেশি</w>
কুরেশির</w>
কুরেশী
কুরেশী</w>
কুরেশ্ত</w>
কুরেশ্তের</w>
কুরো
কুরো</w>
কুরোগ
কুর্
কুর্ঘ
কুর্ত
কুর্তা
কুর্তা</w>
কুর্তাই</w>
কুর্তার</w>
কুর্তি
কুর্তি</w>
কুর্তুলু
কুর্তোল্
কুর্থি</w>
কুর্ব
কুর্ব</w>
কুর্বাই</w>
কুর্বানভের</w>
কুর্বি</w>
কুর্মালি</w>
কুর্মি
কুর্রা
কুল
কুল</w>
কুলা
কুলা</w>
কুলাই
কুলাইনীর</w>
কুলান</w>
কুলানামানো</w>
কুলানের</w>
কুলাম
কুলাম</w>
কুলামে</w>
কুলামে।</w>
কুলামের</w>
কুলায়
কুলার
কুলার,</w>
কুলার</w>
কুলারি
কুলারের</w>
কুলার্
কুলাল</w>
কুলি
কুলি</w>
কুলিক
কুলিকা
কুলিকু
কুলিকে</w>
কুলিকের</w>
কুলিত</w>
কুলিন
কুলিন</w>
কুলিনারি</w>
কুলিন্
কুলিয়া
কুলিয়া</w>
কুলিয়াত</w>
কুলিয়ার
কুলিয়ে</w>
কুলির</w>
কুলী
কুলী</w>
কুলীদের</w>
কুলীন</w>
কুলীর</w>
কুলু
কুলু</w>
কুলুর</w>
কুলে
কুলে,</w>
কুলে</w>
কুলে।</w>
কুলেও</w>
কুলেখাড়া</w>
কুলেন</w>
কুলেনিয়াম</w>
কুলেন্
কুলের</w>
কুলেশ
কুলেশ</w>
কুলেশন</w>
কুলেশে
কুলেশ্বর</w>
কুলো
কুলো</w>
কুলোকি
কুলোগুরু</w>
কুল্
কুল্যা
কুল্যাইউনিয়
কুল্যান্
কুল্যার</w>
কুল্যে</w>
কুল্যের</w>
কূ
কূর্
কূর্চ</w>
কূর্ম
কূর্ম</w>
কূর্মা
কৃ
কৃত
কৃত</w>
কৃতা
কৃতা</w>
কৃতায়
কৃতি
কৃতি</w>
কৃতিক
কৃতিক,</w>
কৃতিক</w>
কৃতিক।</w>
কৃতিকরণ</w>
কৃতিকর্ম
কৃতিকা
কৃতিকায়
কৃতিকারী</w>
কৃতিকারীর</w>
কৃতিকি
কৃতিকী
কৃতিকৃত
কৃতিকে</w>
কৃতিত
কৃতিত</w>
কৃতিতে
কৃতিতে,</w>
কৃতিতে</w>
কৃতিতে।</w>
কৃতিত্ত্ব</w>
কৃতিত্ত্বের</w>
কৃতিত্ব
কৃতিত্ব</w>
কৃতিত্বে
কৃতিত্বে</w>
কৃতিত্বের</w>
কৃতিনির্
কৃতিয়ান</w>
কৃতির</w>
কৃতিলা
কৃতিলাভ</w>
কৃতিহিসা
কৃতী
কৃতী</w>
কৃতে
কৃতে,</w>
কৃতে</w>
কৃতে।</w>
কৃতের</w>
কৃত্তি
কৃত্তিকা
কৃত্তিকা</w>
কৃত্তিকার</w>
কৃত্য
কৃত্য</w>
কৃত্যা
কৃত্যায়
কৃত্যে</w>
কৃত্যের</w>
কৃত্রি
কৃষ
কৃষ</w>
কৃষণ</w>
কৃষ্
কৃষ্ট
কৃষ্ট,</w>
কৃষ্ট</w>
কৃষ্টি
কৃষ্টি</w>
কৃষ্টির</w>
কৃষ্ঠ</w>
কে
কে,</w>
কে</w>
কে।</w>
কেই</w>
কেছ
কেছিল</w>
কেছিল।</w>
কেছিলেন,</w>
কেছিলেন</w>
কেছিলেন।</w>
কেছিলো</w>
কেছে</w>
কেছে।</w>
কেত
কেত</w>
কেতা
কেতা</w>
কেতাও</w>
কেতাকে</w>
কেতান</w>
কেতামাল্
কেতায়
কেতায়</w>
কেতার</w>
কেতি
কেতিক</w>
কেতিকরণ</w>
কেতিকরণের</w>
কেতিকা</w>
কেতিকী
কেতিকৃত</w>
কেতিনিয়</w>
কেতিলের</w>
কেতী</w>
কেতীর</w>
কেতু
কেতু</w>
কেতুর</w>
কেতে
কেতে,</w>
কেতে</w>
কেতে।</w>
কেতের</w>
কেতো
কেত্ত
কেন
কেন,</w>
কেন</w>
কেন।</w>
কেনগুলি</w>
কেনগুলোর</w>
কেনা
কেনা,</w>
কেনা</w>
কেনা।</w>
কেনান</w>
কেনানা
কেনানা</w>
কেনানী
কেনানে</w>
কেনার</w>
কেনারাম</w>
কেনারামের</w>
কেনারের</w>
কেনি
কেনি</w>
কেনি।</w>
কেনিউ</w>
কেনিনা</w>
কেনিয়
কেনিয়</w>
কেনিয়া
কেনিয়া</w>
কেনিয়াতে
কেনিয়াতে,</w>
কেনিয়াতে</w>
কেনিয়াত্তা</w>
কেনিয়ান</w>
কেনিয়ায়,</w>
কেনিয়ায়</w>
কেনিয়ার</w>
কেনির</w>
কেনী
কেনী</w>
কেনীয়</w>
কেনীর</w>
কেনে
কেনে,</w>
কেনে</w>
কেনেন</w>
কেনেন।</w>
কেনেনারে</w>
কেনেনি</w>
কেনের</w>
কেনেল
কেনেল</w>
কেনো
কেনো</w>
কেন্
কেন্ত</w>
কেন্তা</w>
কেন্তি</w>
কেন্তুলি</w>
কেন্তো</w>
কেন্দ
কেন্দা</w>
কেন্দার
কেন্দার</w>
কেন্দি</w>
কেন্দিয়া</w>
কেন্দু
কেন্দু</w>
কেন্দুলি</w>
কেন্দুলীতে</w>
কেন্দ্
কেন্দ্র
কেন্দ্র,</w>
কেন্দ্র</w>
কেন্দ্র।</w>
কেন্দ্রও</w>
কেন্দ্রকে</w>
কেন্দ্রহল</w>
কেন্দ্রা
কেন্দ্রাতি
কেন্দ্রি
কেন্দ্রি</w>
কেন্দ্রিক
কেন্দ্রিক,</w>
কেন্দ্রিক</w>
কেন্দ্রিক।</w>
কেন্দ্রিকী
কেন্দ্রিত</w>
কেন্দ্রিত।</w>
কেন্দ্রিন</w>
কেন্দ্রিয়</w>
কেন্দ্রী
কেন্দ্রী</w>
কেন্দ্রীন</w>
কেন্দ্রীয়</w>
কেন্দ্রুর</w>
কেন্দ্রে
কেন্দ্রে,</w>
কেন্দ্রে</w>
কেন্দ্রে।</w>
কেন্দ্রের</w>
কের</w>
কেল
কেল</w>
কেলা
কেলা</w>
কেলাই
কেলান
কেলানিয়া</w>
কেলান্তান.</w>
কেলান্তান</w>
কেলান্তানে</w>
কেলার
কেলার,</w>
কেলার</w>
কেলারের</w>
কেলি
কেলি</w>
কেলিকা
কেলিকে
কেলিকে</w>
কেলিন
কেলিনি</w>
কেলিয়
কেলিয়া</w>
কেলিয়ান</w>
কেলির</w>
কেলী
কেলু
কেলে
কেলে,</w>
কেলে</w>
কেলে।</w>
কেলেও</w>
কেলেখার</w>
কেলেতে</w>
কেলেন।</w>
কেলেন্
কেলের</w>
কেলেশ্বরী</w>
কেলো
কেলোকা</w>
কেলোগ
কেলোগ</w>
কেলোগের</w>
কেল্
কেল্প</w>
কেল্পা</w>
কেল্যান্
কেশ
কেশ</w>
কেশত</w>
কেশন</w>
কেশা
কেশা</w>
কেশান</w>
কেশানি</w>
কেশার
কেশার</w>
কেশারী</w>
কেশাস,</w>
কেশাস</w>
কেশাসমধ্য
কেশাসে
কেশাসে</w>
কেশাসে।</w>
কেশাসের</w>
কেশাস্পর্ব
কেশি
কেশি</w>
কেশিকে</w>
কেশিন
কেশিন</w>
কেশিনী</w>
কেশিয়া
কেশিয়া</w>
কেশিয়ান</w>
কেশিয়ার</w>
কেশির</w>
কেশী
কেশী</w>
কেশীয়</w>
কেশীর</w>
কেশু
কেশে
কেশে</w>
কেশের</w>
কেশেল
কেশো
কেশ্বর,</w>
কেশ্বর</w>
কেশ্বরী</w>
কেশ্বরীর</w>
কেশ্বরের</w>
কো
কো</w>
কোগ
কোগা
কোগান</w>
কোগাম
কোগারিয়
কোগালি
কোগুল</w>
কোগুলি</w>
কোগুলো</w>
কোগো
কোগো</w>
কোগ্রা
কোগ্রী
কোন
কোন,</w>
কোন</w>
কোন।</w>
কোনও</w>
কোনগুলিকে</w>
কোনগুলো</w>
কোনয়া
কোনা
কোনা,</w>
কোনা</w>
কোনা।</w>
কোনাট</w>
কোনাতে</w>
কোনান
কোনান</w>
কোনানা
কোনাম
কোনাম</w>
কোনামি</w>
কোনামির</w>
কোনায়</w>
কোনার
কোনার,</w>
কোনার</w>
কোনারি</w>
কোনারের</w>
কোনার্
কোনাল
কোনাল</w>
কোনি
কোনি</w>
কোনি।</w>
কোনিউ
কোনিকা</w>
কোনিকার</w>
কোনিকাল</w>
কোনিজেতি</w>
কোনিয়া
কোনিয়া</w>
কোনিয়ান,</w>
কোনিয়ান</w>
কোনিয়ানের</w>
কোনিয়াম</w>
কোনিয়ামের</w>
কোনিয়ারা
কোনিয়ারা</w>
কোনিয়াল্
কোনিয়ে
কোনির</w>
কোনী</w>
কোনে
কোনে</w>
কোনেন</w>
কোনের</w>
কোনেল</w>
কোনেশ্বর
কোনেশ্বর</w>
কোনো
কোনো</w>
কোনোগির</w>
কোনোলি
কোন্
কোন্দল</w>
কোন্দা
কোন্দা</w>
কোন্দিলে
কোন্দু
কোন্দেলে</w>
কোন্দো
কোন্দো</w>
কোন্যা
কোন্রা
কোল
কোল</w>
কোলা
কোলা</w>
কোলাই
কোলাই</w>
কোলাইসি
কোলাতা
কোলাতা</w>
কোলাতে</w>
কোলানো</w>
কোলান্
কোলাম</w>
কোলামা
কোলামাইন</w>
কোলামিন</w>
কোলায়</w>
কোলার
কোলার</w>
কোলারা
কোলারি
কোলারিকে</w>
কোলাল</w>
কোলি
কোলি</w>
কোলিক</w>
কোলিকাল</w>
কোলিকো
কোলিন</w>
কোলিনে
কোলিনের</w>
কোলিন্দা</w>
কোলিন্দ্রে
কোলিয়
কোলিয়া
কোলিয়া</w>
কোলিয়ারি
কোলিয়ারি</w>
কোলিয়ে
কোলির</w>
কোলিলা
কোলী
কোলী</w>
কোলীদের</w>
কোলু
কোলুরে</w>
কোলে
কোলে</w>
কোলে।</w>
কোলেত</w>
কোলেতা</w>
কোলেনগ
কোলেন্
কোলের</w>
কোলো
কোলো</w>
কোলোকো
কোলোকো</w>
কোল্
কোল্যা
কোল্যান্
কৌ
কৌশ
কৌশন</w>
কৌশানী</w>
কৌশাম্বী</w>
কৌশাম্বীর</w>
কৌশিক,</w>
কৌশিক</w>
কৌশিক।</w>
কৌশিকনালী
কৌশিকা
কৌশিকাও</w>
কৌশিকি
কৌশিকী
কৌশিকের</w>
কৌশ্
ক্
ক্চ
ক্চারাল</w>
ক্চারে</w>
ক্চি</w>
ক্চে
ক্চ্
ক্ট
ক্ট,</w>
ক্ট</w>
ক্টন</w>
ক্টা
ক্টা</w>
ক্টাই
ক্টাও</w>
ক্টান</w>
ক্টানে
ক্টাম</w>
ক্টামনাই
ক্টামে
ক্টার</w>
ক্টারি
ক্টারের</w>
ক্টার্
ক্টাল
ক্টাল</w>
ক্টি
ক্টি</w>
ক্টিং</w>
ক্টিক
ক্টিক</w>
ক্টিকা
ক্টিকের</w>
ক্টিক্
ক্টিন,</w>
ক্টিন</w>
ক্টিন।</w>
ক্টিনাই
ক্টিনি
ক্টিনিয়াম
ক্টিনিয়াম</w>
ক্টিনিয়ামের</w>
ক্টিনে
ক্টিনের</w>
ক্টিনো
ক্টিয়
ক্টিয়</w>
ক্টিয়ান</w>
ক্টিয়ামের</w>
ক্টু
ক্টুর</w>
ক্টুল্যারিয়া
ক্টে
ক্টে,</w>
ক্টে</w>
ক্টেতে</w>
ক্টেন
ক্টেন</w>
ক্টের</w>
ক্টেশ
ক্টো
ক্টো</w>
ক্টোগ্রা
ক্ট্
ক্ট্যান্
ক্ট্র
ক্ট্র</w>
ক্ট্রণ
ক্ট্রা</w>
ক্ট্রান,</w>
ক্ট্রাম</w>
ক্ট্রি
ক্ট্রিক
ক্ট্রিক,</w>
ক্ট্রিক</w>
ক্ট্রিকা
ক্ট্রিকাল
ক্ট্রিকাল</w>
ক্ট্রিকের</w>
ক্ট্রিক্যাল
ক্ট্রিক্যাল</w>
ক্ট্রিনা</w>
ক্ট্রিনিক</w>
ক্ট্রিনে</w>
ক্ট্রিয়</w>
ক্ট্রিয়া</w>
ক্ট্রিয়ান</w>
ক্ট্রিয়ার</w>
ক্ট্রে
ক্ট্রো
ক্ট্রো</w>
ক্ট্রোলাই
ক্ট্রোল্যারিন
ক্ত
ক্ত</w>
ক্তবে</w>
ক্তম</w>
ক্তা
ক্তা</w>
ক্তাই</w>
ক্তাও</w>
ক্তাকে</w>
ক্তাদের</w>
ক্তান
ক্তান</w>
ক্তানা</w>
ক্তাম
ক্তামুর</w>
ক্তামুরের</w>
ক্তাম্বর
ক্তায়</w>
ক্তার
ক্তার,</w>
ক্তার</w>
ক্তার।</w>
ক্তারও</w>
ক্তারকে</w>
ক্তারা
ক্তারা</w>
ক্তারাও</w>
ক্তারাম</w>
ক্তারাল</w>
ক্তারি
ক্তারি</w>
ক্তারিয়া</w>
ক্তারির</w>
ক্তারী</w>
ক্তারু
ক্তারের</w>
ক্তার্থ
ক্তাল</w>
ক্তাল্পতা
ক্তাল্পতা</w>
ক্তাল্পতায়</w>
ক্তাল্পতার</w>
ক্তি
ক্তি</w>
ক্তিক
ক্তিক,</w>
ক্তিক</w>
ক্তিক।</w>
ক্তিকর
ক্তিকর,</w>
ক্তিকর</w>
ক্তিকর।</w>
ক্তিকরণ
ক্তিকরণ</w>
ক্তিকরণের</w>
ক্তিকর্
ক্তিকা</w>
ক্তিকান
ক্তিকার</w>
ক্তিকারী
ক্তিকারী</w>
ক্তিকারীদের</w>
ক্তিকালীন</w>
ক্তিকৃত</w>
ক্তিকে
ক্তিকে,</w>
ক্তিকে</w>
ক্তিকেই</w>
ক্তিকেন্দ্র
ক্তিকেন্দ্র</w>
ক্তিকেন্দ্রে</w>
ক্তিকো
ক্তিক্ষ
ক্তিত
ক্তিতা</w>
ক্তিতী
ক্তিতে
ক্তিতে,</w>
ক্তিতে</w>
ক্তিত্ব</w>
ক্তিনামা
ক্তিনামা</w>
ক্তিনামায়</w>
ক্তিনামার</w>
ক্তিনির্
ক্তিনী
ক্তিয়া</w>
ক্তিয়ার</w>
ক্তির</w>
ক্তিলা
ক্তিহ
ক্তিহানি</w>
ক্তু
ক্তুর্
ক্তে
ক্তে</w>
ক্তে।</w>
ক্তের</w>
ক্তেশ্বর,</w>
ক্তেশ্বর</w>
ক্তেশ্বরী
ক্তেশ্বরী</w>
ক্তেশ্বরীর</w>
ক্তো
ক্তো</w>
ক্ত্য
ক্ত্যা
ক্ত্যুর</w>
ক্ত্রা</w>
ক্ত্রার</w>
ক্পৃত্
ক্প্পা
ক্ব
ক্ব</w>
ক্বর
ক্বলী
ক্বা
ক্বাই
ক্বাত্রানা
ক্বাদির</w>
ক্বাদের</w>
ক্বাদ্
ক্বান</w>
ক্বামাতের</w>
ক্বাম্বার</w>
ক্বায়
ক্বায়</w>
ক্বার</w>
ক্বারা
ক্বারি</w>
ক্বারিয়াতুল</w>
ক্বারী
ক্বারী,</w>
ক্বারী</w>
ক্বারীর</w>
ক্বার্
ক্বাল
ক্বালা</w>
ক্বালাম</w>
ক্বি
ক্বি</w>
ক্বিক্ব
ক্বিনা</w>
ক্বিয়া
ক্বিয়ামাত</w>
ক্বিয়ামাতের</w>
ক্বিয়ায়</w>
ক্বী
ক্বী</w>
ক্বীতে</w>
ক্বীন</w>
ক্বু
ক্বুর
ক্বুলু
ক্বে
ক্বেশ
ক্বো
ক্ব্রাই
ক্ম
ক্ম</w>
ক্মা</w>
ক্মি
ক্মিনী
ক্মিনী</w>
ক্মিনীর</w>
ক্মুস
ক্ম্যা
ক্য
ক্য</w>
ক্য়</w>
ক্য়ারি
ক্যা
ক্যা</w>
ক্যাই
ক্যাও</w>
ক্যাত্রো</w>
ক্যান
ক্যান,</w>
ক্যান</w>
ক্যানগুলি</w>
ক্যানগুলিতে</w>
ক্যানয়ে
ক্যানা
ক্যানাইন</w>
ক্যানাটুর</w>
ক্যানান</w>
ক্যানার
ক্যানার,</w>
ক্যানার</w>
ক্যানারি
ক্যানারি</w>
ক্যানারিতে</w>
ক্যানারিয়াতে</w>
ক্যানারিয়ান</w>
ক্যানারিয়েন
ক্যানারির</w>
ক্যানারী</w>
ক্যানাল
ক্যানাল</w>
ক্যানালাই
ক্যানালিকুলার</w>
ক্যানি
ক্যানি।</w>
ক্যানিজে</w>
ক্যানিন</w>
ক্যানিনের</w>
ক্যানিয়
ক্যানিয়ান</w>
ক্যানিয়ার</w>
ক্যানিয়ে</w>
ক্যানির</w>
ক্যানে
ক্যানে</w>
ক্যানেনাই
ক্যানের</w>
ক্যানেল</w>
ক্যানেলের</w>
ক্যানো
ক্যানো</w>
ক্যানোগা</w>
ক্যানোল
ক্যানোলা</w>
ক্যান্
ক্যান্তালে
ক্যান্তিয়ে
ক্যান্দিন
ক্যান্ধ
ক্যান্বি
ক্যাম
ক্যাম</w>
ক্যামান্
ক্যামার
ক্যামার</w>
ক্যামারো
ক্যামি
ক্যামি</w>
ক্যামিকেল
ক্যামিকেল</w>
ক্যামিনো</w>
ক্যামিয়
ক্যামির</w>
ক্যামিল
ক্যামিল</w>
ক্যামিলা
ক্যামিলা</w>
ক্যামুর</w>
ক্যামে
ক্যামের</w>
ক্যামেল
ক্যামেল</w>
ক্যামেলিয়া</w>
ক্যামো
ক্যাম্
ক্যাম্প
ক্যাম্প</w>
ক্যাম্পা
ক্যাম্পাই
ক্যাম্পানিয়ায়</w>
ক্যাম্পামেন্
ক্যাম্পার
ক্যাম্পার</w>
ক্যাম্পি
ক্যাম্পিয়
ক্যাম্পে
ক্যাম্পে,</w>
ক্যাম্পে</w>
ক্যাম্পে।</w>
ক্যাম্পেন</w>
ক্যাম্পেনে</w>
ক্যাম্পের</w>
ক্যাম্পো
ক্যাম্প্রা</w>
ক্যাম্ব
ক্যাম্বল</w>
ক্যাম্বলের</w>
ক্যাম্বার
ক্যাম্বার্
ক্যাম্বিয়াম</w>
ক্যাম্বু
ক্যাম্বেল</w>
ক্যাম্বো
ক্যাম্বোলে
ক্যাম্ব্রি
ক্যাম্ব্রিয়া
ক্যাম্ব্রিয়ান
ক্যাম্ব্রিয়ান</w>
ক্যাম্ব্রিয়ান।</w>
ক্যাম্ব্রিয়ানের</w>
ক্যাম্রা</w>
ক্যায়
ক্যায়া
ক্যায়া</w>
ক্যার
ক্যার</w>
ক্যারণ</w>
ক্যারা
ক্যারাম
ক্যারাম</w>
ক্যারামের</w>
ক্যারামেল</w>
ক্যারামেলাই
ক্যারামেলের</w>
ক্যারার</w>
ক্যারারা</w>
ক্যারাল
ক্যারি
ক্যারি</w>
ক্যারিক
ক্যারিক</w>
ক্যারিকম</w>
ক্যারিকে
ক্যারিকে</w>
ক্যারিকো
ক্যারিন</w>
ক্যারিনা
ক্যারিনা,</w>
ক্যারিনা</w>
ক্যারিনাম</w>
ক্যারিনের</w>
ক্যারিয়
ক্যারিয়া
ক্যারিয়ার
ক্যারিয়ার,</w>
ক্যারিয়ার</w>
ক্যারিয়ার।</w>
ক্যারিয়ারকে</w>
ক্যারিয়ারে,</w>
ক্যারিয়ারে</w>
ক্যারিয়ারের</w>
ক্যারির</w>
ক্যারিল</w>
ক্যারী</w>
ক্যারুর</w>
ক্যারে
ক্যারে</w>
ক্যারেন</w>
ক্যারেনের</w>
ক্যারেল</w>
ক্যারেলো
ক্যারো
ক্যারো</w>
ক্যারোল
ক্যারোল</w>
ক্যারোলা
ক্যারোলাইন
ক্যারোলাইন</w>
ক্যারোলাইনা,</w>
ক্যারোলাইনা</w>
ক্যারোলাইনা।</w>
ক্যারোলাইনার</w>
ক্যারোলাইনে</w>
ক্যারোলি
ক্যারোলি</w>
ক্যারোলিন
ক্যারোলিন</w>
ক্যারোলিনা,</w>
ক্যারোলিনা</w>
ক্যারোলিনা।</w>
ক্যারোলিনায়</w>
ক্যারোলিনার</w>
ক্যারোলিনি</w>
ক্যারোলিনিয়ান</w>
ক্যারোলিনীয়</w>
ক্যারোলিয়ানিয়ান</w>
ক্যারোলের</w>
ক্যার্
ক্যাল
ক্যাল</w>
ক্যালা
ক্যালা</w>
ক্যালাই
ক্যালাইস,</w>
ক্যালাইস</w>
ক্যালাইসে</w>
ক্যালাইসের</w>
ক্যালাও</w>
ক্যালান
ক্যালান,</w>
ক্যালান্
ক্যালাম</w>
ক্যালামা
ক্যালামারি</w>
ক্যালামিয়ে</w>
ক্যালামে
ক্যালারা
ক্যালারি
ক্যালারি</w>
ক্যালি
ক্যালি</w>
ক্যালিকন,</w>
ক্যালিকো
ক্যালিক্
ক্যালিক্রে
ক্যালিক্স</w>
ক্যালিতে</w>
ক্যালিন</w>
ক্যালিনিনগ্রা
ক্যালিয়
ক্যালিয়া</w>
ক্যালির</w>
ক্যালিলি</w>
ক্যালু
ক্যালে
ক্যালে</w>
ক্যালেন</w>
ক্যালেন্
ক্যালের</w>
ক্যালো
ক্যাল্
ক্যাল্ম
ক্যাল্যান্
ক্যু
ক্যু</w>
ক্যুর</w>
ক্যুরা
ক্যুরি
ক্যুরি</w>
ক্যুরিকে</w>
ক্যুরির</w>
ক্যুরে
ক্যুল</w>
ক্যুলার</w>
ক্যুলে
ক্যে
ক্যে</w>
ক্যেছ
ক্যের</w>
ক্যো
ক্যো</w>
ক্র
ক্র,</w>
ক্র</w>
ক্র।</w>
ক্রকে</w>
ক্রণ
ক্রণের</w>
ক্রতার</w>
ক্রম
ক্রম</w>
ক্রমন</w>
ক্রমন।</w>
ক্রমনে</w>
ক্রমনের</w>
ক্রমস
ক্রমসমূ
ক্রমসহ
ক্রমসহ</w>
ক্রমা
ক্রমা</w>
ক্রমানু
ক্রমান্
ক্রমান্বয়
ক্রমান্বয়ে</w>
ক্রমান্বয়ের</w>
ক্রমান্বিত</w>
ক্রমায়
ক্রমিক
ক্রমিক,</w>
ক্রমিক</w>
ক্রমিক।</w>
ক্রমিকের</w>
ক্রমিত</w>
ক্রমিত।</w>
ক্রমু
ক্রমে
ক্রমে,</w>
ক্রমে</w>
ক্রমে।</w>
ক্রমের</w>
ক্রমো
ক্রম্প
ক্রম্পো
ক্রম্ম
ক্রম্য
ক্রম্য</w>
ক্রম্যা</w>
ক্রয়
ক্রয়,</w>
ক্রয়</w>
ক্রয়া
ক্রয়ার</w>
ক্রয়ে
ক্রয়ে</w>
ক্রয়ের</w>
ক্রহিসেবে</w>
ক্রা
ক্রা</w>
ক্রাই
ক্রাই</w>
ক্রাইং</w>
ক্রাইন
ক্রাইন</w>
ক্রাইন।</w>
ক্রাইনা</w>
ক্রাইনোল
ক্রাইনোলো
ক্রাইব
ক্রাইব</w>
ক্রাইবার
ক্রাইবার</w>
ক্রাইবাস</w>
ক্রাইস</w>
ক্রাইসান্
ক্রাইসালাই
ক্রাইসালাইসি
ক্রাইসালি
ক্রাইসি
ক্রাইসে
ক্রাইসো
ক্রাইস্ট
ক্রাইস্ট,</w>
ক্রাইস্ট</w>
ক্রাইস্টের</w>
ক্রাজ
ক্রাজিনা</w>
ক্রাজে</w>
ক্রাজো
ক্রাতি
ক্রাতে
ক্রাতে</w>
ক্রান
ক্রান</w>
ক্রান।</w>
ক্রানি
ক্রানিয়া</w>
ক্রানে</w>
ক্রানের</w>
ক্রান্
ক্রান্ত
ক্রান্ত</w>
ক্রান্তা
ক্রান্তা</w>
ক্রান্তি
ক্রান্তি</w>
ক্রান্তিকারি</w>
ক্রান্তিকারী</w>
ক্রান্তিকাল
ক্রান্তিকাল</w>
ক্রান্তিকালীন</w>
ক্রান্তিকালের</w>
ক্রান্তিকো
ক্রান্তিতে</w>
ক্রান্তিয়</w>
ক্রান্তির</w>
ক্রান্তিল
ক্রান্তী
ক্রান্তীয়</w>
ক্রান্তে</w>
ক্রান্তের</w>
ক্রাম
ক্রাম</w>
ক্রামন</w>
ক্রামনিক</w>
ক্রামনিক।</w>
ক্রামস</w>
ক্রামা</w>
ক্রামিত</w>
ক্রামিতের</w>
ক্রামেন্
ক্রামেন্তো</w>
ক্রাম্পু
ক্রায়
ক্রায়ার</w>
ক্রার</w>
ক্রারার</w>
ক্রার্
ক্রাল
ক্রাল</w>
ক্রালি</w>
ক্রালো
ক্রি
ক্রি</w>
ক্রিক
ক্রিক,</w>
ক্রিক</w>
ক্রিকয়ে
ক্রিকর</w>
ক্রিকল
ক্রিকল</w>
ক্রিকা
ক্রিকা</w>
ক্রিকার</w>
ক্রিকারিকের</w>
ক্রিকে
ক্রিকে</w>
ক্রিকেট</w>
ক্রিকেটে</w>
ক্রিকের</w>
ক্রিকো
ক্রিক্স</w>
ক্রিত
ক্রিতান</w>
ক্রিতি
ক্রিতি</w>
ক্রিতু
ক্রিতে</w>
ক্রিতো
ক্রিন
ক্রিন,</w>
ক্রিন</w>
ক্রিনগুলোর</w>
ক্রিনা</w>
ক্রিনার
ক্রিনি
ক্রিনে
ক্রিনে</w>
ক্রিনের</w>
ক্রিয়
ক্রিয়,</w>
ক্রিয়</w>
ক্রিয়।</w>
ক্রিয়া
ক্রিয়া</w>
ক্রিয়াই</w>
ক্রিয়াও</w>
ক্রিয়াতে,</w>
ক্রিয়াতে</w>
ক্রিয়াম</w>
ক্রিয়ামূল
ক্রিয়ামূল</w>
ক্রিয়ামূলে</w>
ক্রিয়ামূলের</w>
ক্রিয়ায়
ক্রিয়ায়,</w>
ক্রিয়ায়</w>
ক্রিয়ায়।</w>
ক্রিয়ায়ার</w>
ক্রিয়ার
ক্রিয়ার,</w>
ক্রিয়ার</w>
ক্রিয়ারূ
ক্রিয়ারের</w>
ক্রিয়ালেতি</w>
ক্রিয়ে
ক্রিয়ে</w>
ক্রিয়েশ
ক্রিয়েশন</w>
ক্রিল
ক্রিল</w>
ক্রিলামাই
ক্রিলিক</w>
ক্রিলিকে</w>
ক্রিলিন
ক্রিলিন,</w>
ক্রিলিন</w>
ক্রিলিনের</w>
ক্রিলিয়া</w>
ক্রিলে
ক্রিলের</w>
ক্রী
ক্রী,</w>
ক্রী</w>
ক্রীত</w>
ক্রীদের</w>
ক্রীন</w>
ক্রীয়</w>
ক্রু
ক্রু</w>
ক্রুর
ক্রুর</w>
ক্রুরা</w>
ক্রূ
ক্রে
ক্রে,</w>
ক্রে</w>
ক্রেতা
ক্রেতা</w>
ক্রেতাকে</w>
ক্রেতাদের</w>
ক্রেতান,</w>
ক্রেতার</w>
ক্রেতারা</w>
ক্রেতি
ক্রেতীয়</w>
ক্রেতে</w>
ক্রেতের</w>
ক্রেত্রাল
ক্রেন
ক্রেন,</w>
ক্রেন</w>
ক্রেন।</w>
ক্রেনতুর
ক্রেনিয়</w>
ক্রেনিয়ান,</w>
ক্রেনিয়ান</w>
ক্রেনিয়াল</w>
ক্রেনী
ক্রেনীয়</w>
ক্রেনে,</w>
ক্রেনে</w>
ক্রেনে।</w>
ক্রেনের</w>
ক্রেনেলেশ
ক্রেন্
ক্রেন্দো</w>
ক্রের</w>
ক্রেল
ক্রেল</w>
ক্রেশিয়া
ক্রেশ্বর,</w>
ক্রেশ্বর</w>
ক্রেশ্বরী</w>
ক্রেশ্বরের</w>
ক্রো
ক্রো</w>
ক্রোগ
ক্রোগভ
ক্রোগার</w>
ক্রোগ্
ক্রোগ্রা
ক্রোগ্রাম
ক্রোগ্রাম</w>
ক্রোল
ক্রোল</w>
ক্রোলাই
ক্রোলি
ক্রোলি</w>
ক্রোলির</w>
ক্রোলে</w>
ক্রোলো
ক্রোলো</w>
ক্রোল্যান্
ক্র্যা
ক্র্যান
ক্র্যান্
ক্র্যাম
ক্র্যাম</w>
ক্র্যামার
ক্র্যামার</w>
ক্র্যাম্প
ক্র্যাম্প</w>
ক্র্যাম্পি
ক্র্যাম্বল
ক্র্যাম্বল</w>
ক্র্যার্
ক্র্যালো
ক্লা
ক্লা</w>
ক্লাই
ক্লাইন
ক্লাইন,</w>
ক্লাইন</w>
ক্লাইনার।</w>
ক্লাইস</w>
ক্লাইসি
ক্লান
ক্লান</w>
ক্লান্ত
ক্লান্ত</w>
ক্লান্তি
ক্লান্তি</w>
ক্লান্তিকর</w>
ক্লান্তির</w>
ক্লাম
ক্লাম</w>
ক্লামে
ক্লাম্পের</w>
ক্লায়
ক্লায়েন্
ক্লার
ক্লার</w>
ক্লারা
ক্লারা</w>
ক্লারায়</w>
ক্লারায়।</w>
ক্লারি
ক্লারি</w>
ক্লারিক্যাল</w>
ক্লারিক্স</w>
ক্লারিন</w>
ক্লারিনে
ক্লারিয়
ক্লারে
ক্লারেন</w>
ক্লারেনের</w>
ক্লারেন্
ক্লারের</w>
ক্লারো</w>
ক্লার্
ক্লাল
ক্ষ
ক্ষ</w>
ক্ষণ</w>
ক্ষণা</w>
ক্ষদের</w>
ক্ষে
ক্ষে,</w>
ক্ষে</w>
ক্ষে।</w>
ক্ষেত
ক্ষেত</w>
ক্ষেতে</w>
ক্ষেতের</w>
ক্ষেত্
ক্ষেত্র
ক্ষেত্র,</w>
ক্ষেত্র</w>
ক্ষেত্র।</w>
ক্ষেত্রকে</w>
ক্ষেত্রা
ক্ষেত্রিক।</w>
ক্ষেত্রী</w>
ক্ষেত্রীয়</w>
ক্ষেত্রে
ক্ষেত্রে,</w>
ক্ষেত্রে</w>
ক্ষেত্রে।</w>
ক্ষেত্রের</w>
ক্ষেনের</w>
ক্ষের</w>
ক্ষ্
ক্ষ্বা
ক্ষ্ম
ক্ষ্ম</w>
ক্ষ্মত
ক্ষ্মতম</w>
ক্ষ্মতা
ক্ষ্মতা</w>
ক্ষ্মতার</w>
ক্ষ্মতি
ক্ষ্মন</w>
ক্ষ্মনা
ক্ষ্মসাম
ক্ষ্মসু
ক্ষ্মসেন</w>
ক্ষ্মা
ক্ষ্মা</w>
ক্ষ্মাই
ক্ষ্মাতি
ক্ষ্মায়</w>
ক্ষ্মার</w>
ক্ষ্মারোগ</w>
ক্ষ্মারোগে
ক্ষ্মি</w>
ক্ষ্মেন্দ্রিয়ের</w>
ক্ষ্য
ক্ষ্য</w>
ক্ষ্য়
ক্ষ্যা
ক্ষ্যা</w>
ক্ষ্যাত</w>
ক্ষ্যানগ
ক্ষ্যামি</w>
ক্ষ্যার
ক্ষ্যার</w>
ক্ষ্যার্
ক্ষ্যে
ক্ষ্যে,</w>
ক্ষ্যে</w>
ক্ষ্যে।</w>
ক্ষ্যের</w>
ক্স</w>
খ
খ</w>
খন
খন,</w>
খন.</w>
খন</w>
খন।</w>
খনও</w>
খনগ
খনা
খনা,</w>
খনা</w>
খনাই</w>
খনাটি</w>
খনামুখ
খনায়</w>
খনায়ায়</w>
খনার</w>
খনি
খনি</w>
খনি।</w>
খনিউ
খনিকর</w>
খনিকর্ম
খনিকূ
খনিকে</w>
খনিজে
খনিজে</w>
খনিজের</w>
খনিত
খনিত</w>
খনিতে</w>
খনিয়া
খনির</w>
খনী
খনী</w>
খনে
খনে</w>
খনেন
খনের</w>
খনো
খনো</w>
খন্
খন্তা
খন্দ
খন্দ</w>
খন্দে</w>
খন্দের</w>
খন্বরের</w>
খন্যান</w>
খা
খা</w>
খাই
খাই</w>
খাইন
খাইন</w>
খাইনগ
খাইবার
খাইবার,</w>
খাইবার</w>
খাইবারি</w>
খাইবারের</w>
খাইসিলে
খাইস্
খাও</w>
খাড়
খাড়</w>
খাড়া
খাড়া</w>
খাড়াই</w>
খাড়াতা</w>
খাড়ার</w>
খাড়ালু
খাত
খাত</w>
খাতা
খাতা</w>
খাতাই
খাতাই</w>
খাতান</w>
খাতাম</w>
খাতামি</w>
খাতামির</w>
খাতামু
খাতামুল</w>
খাতায়</w>
খাতার</w>
খাতি
খাতি</w>
খাতিয়া</w>
খাতির</w>
খাতী</w>
খাতু
খাতে
খাতে,</w>
খাতে</w>
খাতে।</w>
খাতেন,</w>
খাতেন।</w>
খাতের</w>
খাত্
খাত্তা
খাত্ব</w>
খাত্রা</w>
খাত্রায়</w>
খাত্রি</w>
খাত্রিকে</w>
খাত্রো
খান
খান,</w>
খান.</w>
খান</w>
খান।</w>
খানগ
খানগঞ্জ</w>
খানগা
খানগাই</w>
খানগেল
খানদীর</w>
খানা
খানা,</w>
খানা</w>
খানা।</w>
খানাই</w>
খানাও</w>
খানাট
খানাট</w>
খানাটি
খানাটি</w>
খানাটিকে,</w>
খানাটিকে</w>
খানাটিতে</w>
খানাটির</w>
খানাটের</w>
খানাত
খানাত</w>
খানাতে,</w>
খানাতে</w>
খানাতের</w>
খানান
খানায়
খানায়</w>
খানায়।</w>
খানায়ে</w>
খানার</w>
খানারে</w>
খানাল</w>
খানি
খানি</w>
খানি।</w>
খানিক
খানিক</w>
খানিনা</w>
খানিয়ার</w>
খানির</w>
খানী,</w>
খানী</w>
খানীয়</w>
খানে
খানে,</w>
খানে</w>
খানে।</w>
খানেনে</w>
খানের</w>
খানো
খানো</w>
খানোল
খান্
খান্ত</w>
খান্তা
খান্তে</w>
খান্দ
খান্দ</w>
খান্দান,</w>
খান্দান</w>
খান্দানে</w>
খান্দানের</w>
খান্দারিয়া</w>
খান্দু</w>
খান্দে
খান্দেল
খান্দো
খান্বিত।</w>
খান্মাম্ম
খান্মাম্মা
খাম
খাম</w>
খামতাই</w>
খামতী</w>
খামন্তু</w>
খামসিন,</w>
খামা
খামা</w>
খামাই
খামাইব</w>
খামাত্র
খামানো
খামার
খামার,</w>
খামার</w>
খামার।</w>
খামারি
খামারি</w>
খামারী
খামারী</w>
খামারীদের</w>
খামারীর</w>
খামারে
খামারে</w>
খামারে।</w>
খামারের</w>
খামি
খামি</w>
খামিকে</w>
খামিত
খামির</w>
খামু
খামু</w>
খামে
খামে</w>
খামেন</w>
খামেন।</w>
খামেনি
খামেনিকে</w>
খামেনে
খামেনের</w>
খামের</w>
খামেলার</w>
খামো
খাম্
খাম্প
খাম্পা
খাম্বা
খাম্বা</w>
খাম্বাত</w>
খাম্বার</w>
খাম্বে</w>
খাম্মাম</w>
খাম্মামের</w>
খাম্মু
খায়
খায়,</w>
খায়</w>
খায়।</w>
খায়া</w>
খায়ানো</w>
খায়াল</w>
খায়ালের</w>
খায়ে
খায়েতের</w>
খায়ের</w>
খায়েলের</w>
খায়েশ</w>
খার
খার,</w>
খার</w>
খার।</w>
খারও</w>
খারা
খারা</w>
খারাই
খারাজ
খারাতে</w>
খারান</w>
খারানে</w>
খারাম
খারায়</w>
খারার</w>
খারালের</w>
খারি
খারি</w>
খারিকে</w>
খারিন
খারিয়া
খারিয়া</w>
খারিয়ান</w>
খারিয়ার</w>
খারির</w>
খারী
খারী,</w>
খারী</w>
খারীতে</w>
খারীদের</w>
খারীয়</w>
খারীর</w>
খারু
খারু</w>
খারুল</w>
খারূ
খারে
খারে</w>
খারেন</w>
খারের</w>
খারেল
খারেল</w>
খারো
খার্
খার্চি</w>
খার্তু
খার্তোগ</w>
খার্ত্
খাল
খাল</w>
খালা
খালা</w>
খালাত
খালাত</w>
খালাতের</w>
খালাতো</w>
খালামা
খালায়ে
খালার</w>
খালার।</w>
খালি
খালি</w>
খালিক
খালিক,</w>
খালিক</w>
খালিকান</w>
খালিকানের</w>
খালিকু
খালিকে</w>
খালিক্ব</w>
খালিতে</w>
খালিন</w>
খালিনার</w>
খালিয়া
খালিয়া</w>
খালিয়াতে</w>
খালির</w>
খালিল</w>
খালিলি</w>
খালিলী</w>
খালিলুর</w>
খালী
খালী,</w>
খালী</w>
খালীতে</w>
খালীর</w>
খালু
খালু</w>
খালুর</w>
খালে
খালে</w>
খালের</w>
খালো
খাল্
খাল্যান্
খু
খু</w>
খুব</w>
খুর
খুর,</w>
খুর</w>
খুরা
খুরা</w>
খুরাই</w>
খুরাইব
খুরান</w>
খুরানা</w>
খুরানা।</w>
খুরানার</w>
খুরি</w>
খুরিকে
খুরিতে</w>
খুরিয়া</w>
খুরিয়ান</w>
খুরিয়ে</w>
খুরী
খুরী,</w>
খুরী</w>
খুরীর</w>
খুরু
খুরে</w>
খুরের</w>
খুর্
খুল
খুল</w>
খুলা
খুলা</w>
খুলাতে</w>
খুলার</w>
খুলারাম
খুলাল</w>
খুলি
খুলি</w>
খুলিতে,</w>
খুলিতে</w>
খুলিয়া</w>
খুলির</w>
খুলু
খুলু</w>
খুলে
খুলে,</w>
খুলে</w>
খুলেছ
খুলেছিল,</w>
খুলেছিল</w>
খুলেছিল।</w>
খুলেছিলেন,</w>
খুলেছিলেন</w>
খুলেছিলেন।</w>
খুলেছে।</w>
খুলেন
খুলেন</w>
খুলেন।</w>
খুল্
খে</w>
খেলায়</w>
খেলার</w>
খেলো
খেলো</w>
খেলোয়াড়
খেলোয়াড়</w>
খেলোয়াড়ে</w>
খ্যাত</w>
খ্রি
খ্রি</w>
খ্রিল্
খ্রিষ্টা
খ্রিষ্টান
খ্রিষ্টান,</w>
খ্রিষ্টান</w>
খ্রিষ্টান।</w>
খ্রিস্টা
খ্রিস্টান
খ্রিস্টান,</w>
খ্রিস্টান</w>
খ্রিস্টান।</w>
খ্রিস্টানগণ</w>
খ্রিস্টানাই
খ্রিস্টানি
খ্রিস্টানিকরণ</w>
খ্রিস্টানীয়</w>
খ্রিস্টানে
খ্রিস্টানে</w>
খ্রিস্টানের</w>
গ
গ</w>
গঞ্জ</w>
গঠ
গঠন</w>
গঠিত</w>
গড়ে</w>
গণ
গণ</w>
গণা
গণা</w>
গণাই
গণায়</w>
গণার</w>
গণি
গণি</w>
গণিক</w>
গণিকা
গণিকা</w>
গণিকারা</w>
গণিত
গণিত</w>
গণিত।</w>
গণিতা
গণিতিক</w>
গণিতীয়</w>
গণিতে
গণিতে,</w>
গণিতে</w>
গণিতে।</w>
গণিতের</w>
গণির</w>
গণে</w>
গণের</w>
গণ্ড
গণ্ডা
গণ্ডা</w>
গণ্ডাই</w>
গণ্ডামারা</w>
গণ্ডার
গণ্ডার,</w>
গণ্ডার</w>
গণ্ডারের</w>
গণ্ডি
গণ্ডি</w>
গণ্ডিতে।</w>
গণ্ডির</w>
গণ্ডে
গণ্ডো
গণ্য
গণ্য</w>
গণ্যাল</w>
গত</w>
গবে
গবে,</w>
গবে</w>
গবে।</w>
গবের</w>
গবেলিন।</w>
গবেশ
গবেষ
গবেষণ</w>
গবেষণা</w>
গবেষ্টিত</w>
গভ
গভ</w>
গভা
গভা</w>
গভাবে,</w>
গভাবে</w>
গভারত
গভারতী</w>
গভার্
গভার্মেন্
গভি
গভিকেনে</w>
গভিত্তিক
গভিত্তিক</w>
গভির</w>
গভুক্ত</w>
গভূ
গভে,</w>
গভে</w>
গভেন্
গভো
গা
গা</w>
গাই
গাই</w>
গাইন
গাইন,</w>
গাইন</w>
গাইনয়ে
গাইনি
গাইনে
গাইনের</w>
গাইনো
গাইন্দ্যা</w>
গাইব
গাইব</w>
গাইবান্ধা
গাইবান্ধা</w>
গাইবান্ধায়</w>
গাইবান্ধার</w>
গাইবার</w>
গাইবি</w>
গাইবেন।</w>
গাইস
গাইস,</w>
গাইস</w>
গাইসের</w>
গাও</w>
গাড়
গাড়</w>
গাড়া
গাড়া</w>
গাড়াতি</w>
গাড়ায়</w>
গাড়ার</w>
গাড়ে</w>
গাত
গাত</w>
গাতা
গাতা</w>
গাতাই
গাতাই</w>
গাতাকে</w>
গাতায়</w>
গাতার</w>
গাতারাম
গাতি
গাতি</w>
গাতিয়া</w>
গাতী,</w>
গাতী</w>
গাতু
গাতুল</w>
গাতুল্
গাতে
গাতে,</w>
গাতে</w>
গাতে।</w>
গাতেন।</w>
গাতের</w>
গাতো
গাতো</w>
গাত্
গাত্মান
গাত্র
গাত্র,</w>
গাত্র</w>
গাত্রাল
গাত্রে
গাত্রে</w>
গাত্রের</w>
গান
গান,</w>
গান.</w>
গান</w>
গান।</w>
গানগ
গানগণ
গানগা
গানগুলা
গানগুলি
গানগুলি</w>
গানগুলিকে</w>
গানগুলিতে</w>
গানগুলির</w>
গানগুলো
গানগুলো</w>
গানগুলোকে</w>
গানগুলোর</w>
গানয়ে
গানা
গানা,</w>
গানা</w>
গানাই
গানাইনি</w>
গানাটের</w>
গানাত
গানাত</w>
গানাতে</w>
গানাতের</w>
গানান</w>
গানানা
গানাম</w>
গানামেলা</w>
গানাম্বি</w>
গানার
গানার</w>
গানার।</w>
গানারি</w>
গানার্
গানি
গানি</w>
গানি।</w>
গানিক</w>
গানিকা
গানিকা</w>
গানিকে</w>
গানিতিক</w>
গানিতে</w>
গানিনার</w>
গানিনি
গানিয়া</w>
গানিয়ান,</w>
গানিয়ে</w>
গানির</w>
গানী
গানী</w>
গানে
গানে,</w>
গানে</w>
গানে।</w>
গানেত</w>
গানেতে</w>
গানের</w>
গানেল
গানেল</w>
গানেলা</w>
গানেলের</w>
গানো
গানো</w>
গান্
গান্ত
গান্তি</w>
গান্তিয়া
গান্তু
গান্তের</w>
গান্দ
গান্দা
গান্দা</w>
গান্দারে
গান্দারের</w>
গান্দিকো
গান্দো</w>
গান্ধ
গান্ধর্ব
গান্ধর্ব</w>
গান্ধাই
গান্ধার
গান্ধার</w>
গান্ধারা</w>
গান্ধারার</w>
গান্ধারী
গান্ধারী</w>
গান্ধারীর</w>
গান্ধারের</w>
গান্ধি</w>
গান্ধী
গান্ধী,</w>
গান্ধী</w>
গান্ধীর</w>
গান্ধু
গান্বিত
গান্বিত</w>
গান্বিত।</w>
গাম
গাম</w>
গামতো</w>
গামন্দির</w>
গামসা
গামা
গামা</w>
গামাও</w>
গামাতে</w>
গামানিক</w>
গামাম</w>
গামার
গামার,</w>
গামার</w>
গামারা</w>
গামারি</w>
গামারির</w>
গামারী</w>
গামাল</w>
গামালাই</w>
গামালিয়ায়</w>
গামালিয়েল</w>
গামি
গামি</w>
গামিকে</w>
গামিটার</w>
গামিতা
গামিতা</w>
গামিতায়</w>
গামিনী
গামিনী</w>
গামির</w>
গামিল</w>
গামু
গামুল্
গামূর্তি</w>
গামূর্তিতে</w>
গামে
গামে</w>
গামেন্
গামের</w>
গামেল</w>
গামেশ
গামেশ</w>
গামেশে</w>
গামেশের</w>
গামো
গামো</w>
গাম্
গাম্প</w>
গাম্পে
গাম্পের</w>
গাম্পো</w>
গাম্পোলা</w>
গাম্ব
গাম্বরের</w>
গাম্বলের</w>
গাম্বা
গাম্বা</w>
গাম্বাং</w>
গাম্বি
গাম্বি</w>
গাম্বিতার</w>
গাম্বিয়
গাম্বিয়া
গাম্বিয়া</w>
গাম্বিয়াতে</w>
গাম্বিয়ান</w>
গাম্বিয়ায়</w>
গাম্বিয়ার,</w>
গাম্বিয়ার</w>
গাম্বির</w>
গাম্বেলা</w>
গাম্বেলায়</w>
গাম্বো
গাম্বো</w>
গায়
গায়,</w>
গায়</w>
গায়।</w>
গায়া
গায়া</w>
গায়ান</w>
গায়ানা
গায়ানা,</w>
গায়ানা</w>
গায়ানাতে</w>
গায়ানায়</w>
গায়ানার</w>
গায়ানারূ
গায়ানি</w>
গায়ানী
গায়ানীয়</w>
গায়ে
গায়ে,</w>
গায়ে</w>
গায়েতানো</w>
গায়েন</w>
গায়ের</w>
গায়েল
গার
গার,</w>
গার</w>
গার।</w>
গারও</w>
গারকে</w>
গারয়
গারহ
গারহি</w>
গারহির</w>
গারহ্যান্
গারা
গারা</w>
গারাখানা
গারাজ</w>
গারাজন</w>
গারান</w>
গারানা</w>
গারাম</w>
গারায়</w>
গারায়ে
গারার</w>
গারার্
গারি
গারি</w>
গারিক
গারিক,</w>
গারিক</w>
গারিকদের</w>
গারিকরা</w>
গারিকা
গারিকে</w>
গারিকের</w>
গারিতীয়</w>
গারিতে
গারিতে</w>
গারিন
গারিন</w>
গারিনের</w>
গারিয়
গারিয়</w>
গারিয়া
গারিয়া</w>
গারিয়ান
গারিয়ান</w>
গারিয়ায়</w>
গারির</w>
গারী</w>
গারীর</w>
গারু
গারু</w>
গারুলিয়া
গারুলিয়া</w>
গারে
গারে,</w>
গারে</w>
গারে।</w>
গারেত</w>
গারের</w>
গারেল</w>
গারেশ
গারেশন</w>
গারো
গারো</w>
গার্
গার্চি
গার্চু</w>
গার্তো
গার্থ</w>
গার্ব</w>
গার্বিয়া</w>
গার্বে
গার্বে</w>
গার্বো
গার্বো</w>
গার্মেন্
গার্যা
গাল
গাল</w>
গালা
গালা</w>
গালাই
গালাত</w>
গালাতা
গালাতা</w>
গালাতার</w>
গালাতী
গালাত্তা</w>
গালান
গালান্
গালামে</w>
গালায়</w>
গালার</w>
গালারের</w>
গালালা</w>
গালি
গালি</w>
গালিকে</w>
গালিতে</w>
গালিন</w>
গালিয়</w>
গালিয়া
গালিয়া</w>
গালিয়ান।</w>
গালিয়ানো
গালিয়ানো</w>
গালিয়ার</w>
গালির</w>
গালিল</w>
গালিলীর</w>
গালিলে
গালিলেও</w>
গালিলের</w>
গালী
গালী</w>
গালীতে</w>
গালীদের</w>
গালীয়</w>
গালু
গালু</w>
গালুর</w>
গালুরের</w>
গালে
গালে</w>
গালে।</w>
গালেতে</w>
গালেন</w>
গালেন।</w>
গালেনের</w>
গালের</w>
গালো
গালো</w>
গালোগ
গাল্
গাল্পা</w>
গাল্পায়</w>
গাল্পার</w>
গাল্যান্
গি
গি</w>
গিক
গিক,</w>
গিক</w>
গিকা</w>
গিকে</w>
গিকের</w>
গিকো
গিক্স</w>
গিত
গিত</w>
গিত।</w>
গিতা
গিতা</w>
গিতাই
গিতায়,</w>
গিতার</w>
গিতাল
গিতাল</w>
গিতি</w>
গিতিহা
গিতে</w>
গিতের</w>
গিত্যাল</w>
গিন
গিন,</w>
গিন</w>
গিনা
গিনা,</w>
গিনা</w>
গিনার</w>
গিনাল্
গিনি
গিনি</w>
গিনি।</w>
গিনিকে</w>
গিনিতে</w>
গিনিন</w>
গিনিয়</w>
গিনিয়া
গিনিয়া</w>
গিনিয়ার</w>
গিনির</w>
গিনী
গিনী,</w>
গিনী</w>
গিনীদের</w>
গিনীয়</w>
গিনীর</w>
গিনে
গিনে</w>
গিনের</w>
গিনেলে
গিনেলের</w>
গিনো
গিনো</w>
গিন্
গিন্ত</w>
গিন্দা</w>
গিয়
গিয়</w>
গিয়া
গিয়া</w>
গিয়াই
গিয়াইনি</w>
গিয়াতে</w>
গিয়ান
গিয়ান</w>
গিয়ানা,</w>
গিয়ানা</w>
গিয়ানার</w>
গিয়ানি</w>
গিয়ানিকে</w>
গিয়ানির</w>
গিয়ামা</w>
গিয়ামো
গিয়ায়</w>
গিয়ার
গিয়ার</w>
গিয়ার।</w>
গিয়ারকে</w>
গিয়ারি
গিয়ারের</w>
গিয়ার্
গিয়াল
গিয়াল</w>
গিয়ালান
গিয়ালের</w>
গিয়ে
গিয়ে,</w>
গিয়ে</w>
গিয়ে।</w>
গিয়েছ
গিয়েছিল
গিয়েছিল,</w>
গিয়েছিল</w>
গিয়েছিল।</w>
গিয়েছিলাম
গিয়েছিলাম</w>
গিয়েছিলে
গিয়েছিলে</w>
গিয়েছিলেন
গিয়েছিলেন,</w>
গিয়েছিলেন.</w>
গিয়েছিলেন</w>
গিয়েছিলেন।</w>
গিয়েছিলো
গিয়েছিলো</w>
গিয়েছে</w>
গিয়েছে।</w>
গিয়েন
গিয়েন</w>
গিয়েল
গিয়েল</w>
গির</w>
গিল
গিল</w>
গিলা
গিলা</w>
গিলাই
গিলাত
গিলাত</w>
গিলান</w>
গিলানি
গিলানি</w>
গিলানির</w>
গিলানী</w>
গিলানের</w>
গিলাম</w>
গিলামের</w>
গিলার</w>
গিলারা</w>
গিলার্মো</w>
গিলালে
গিলি
গিলি</w>
গিলিক</w>
গিলিয়
গিলিয়ানের</w>
গিলিয়াম</w>
গিলিয়ে</w>
গিলী</w>
গিলু
গিলে
গিলে,</w>
গিলে</w>
গিলেত্তে</w>
গিলেন
গিলেন,</w>
গিলেন</w>
গিলের</w>
গিলো
গিল্
গিল্বো
গু
গু</w>
গুর
গুর,</w>
গুর</w>
গুরা
গুরা</w>
গুরাই
গুরাজ
গুরাজ</w>
গুরাজালা
গুরাজের</w>
গুরাত</w>
গুরাতের</w>
গুরান
গুরান</w>
গুরায়</w>
গুরার</w>
গুরারেল
গুরি
গুরি</w>
গুরিন</w>
গুরিনি</w>
গুরিন্দ
গুরিয়
গুরিয়া
গুরিয়া</w>
গুরিয়ান,</w>
গুরিয়ান</w>
গুরিয়ার</w>
গুরির</w>
গুরিল
গুরী
গুরীতে</w>
গুরু
গুরু</w>
গুরুত্ব
গুরুত্ব</w>
গুরুত্বই</w>
গুরুত্বপূর্ণ</w>
গুরুত্বর</w>
গুরুত্বলাভ</w>
গুরুত্বারো
গুরুত্বে</w>
গুরুত্বের</w>
গুরুর</w>
গুরুর।</w>
গুরুরা
গুরুরা</w>
গুরুরাও</w>
গুরুরাজা</w>
গুরুল
গুরূ
গুরে
গুরে</w>
গুরের</w>
গুরেলি
গুরেশ্বরা</w>
গুরো
গুরো</w>
গুর্
গুর্তি</w>
গুর্বা
গুর্বান
গুর্মেন্দি</w>
গুর্যে
গুল
গুল</w>
গুলা
গুলা</w>
গুলাই
গুলাও</w>
গুলাত</w>
গুলান</w>
গুলাম</w>
গুলার
গুলার</w>
গুলারি
গুলাল
গুলি
গুলি</w>
গুলিক
গুলিকে
গুলিকে,</w>
গুলিকে</w>
গুলিকে।</w>
গুলিকেই</w>
গুলিকেতাদের</w>
গুলিক্র</w>
গুলিত
গুলিত</w>
গুলিতে
গুলিতে,</w>
গুলিতে</w>
গুলিতে।</w>
গুলিতের</w>
গুলিন</w>
গুলিন্দা</w>
গুলিয়া
গুলিয়া</w>
গুলিয়ানার</w>
গুলিয়ে</w>
গুলির</w>
গুলী
গুলীতে</w>
গুলু
গুলু</w>
গুলুর</w>
গুলে
গুলে</w>
গুলেন
গুলেন</w>
গুলের</w>
গুলেশ
গুলেশন</w>
গুলো
গুলো</w>
গুলোক</w>
গুলোকে
গুলোকে,</w>
গুলোকে</w>
গুলোকে।</w>
গুলোকেই</w>
গুলোগুলি</w>
গুলোর</w>
গুল্
গুল্ম
গুল্ম</w>
গুল্মা
গুল্মে</w>
গুল্মের</w>
গুল্যানিকে</w>
গুল্যান্
গৃ
গৃত
গৃত</w>
গৃতি
গৃতি</w>
গে
গে,</w>
গে</w>
গে।</w>
গেছ
গেছিল,</w>
গেছিল</w>
গেছিল।</w>
গেছিলা
গেছিলে
গেছিলেন,</w>
গেছিলেন</w>
গেছিলেন।</w>
গেছিলো
গেছিলো</w>
গেছে</w>
গেছে।</w>
গেছো
গেছো</w>
গেতা
গেতার</w>
গেতে</w>
গেতেন</w>
গেতো
গেত্তু
গেন
গেন,</w>
গেন</w>
গেন।</w>
গেনভে
গেনা</w>
গেনাই
গেনাতে</w>
গেনার</w>
গেনারী</w>
গেনি
গেনি</w>
গেনি।</w>
গেনিকের</w>
গেনিয়
গেনে
গেনে</w>
গেনের</w>
গেনো
গেনো</w>
গেন্
গেন্তে
গেন্দশোল
গেন্দু
গেন্দো
গেন্দ্র
গেন্দ্র</w>
গের</w>
গেল
গেল</w>
গেলা
গেলা</w>
গেলান
গেলান,</w>
গেলান</w>
গেলানিক</w>
গেলানিকা</w>
গেলানের</w>
গেলাম
গেলাম</w>
গেলার</w>
গেলারান</w>
গেলারের</w>
গেলি
গেলি</w>
গেলিক</w>
গেলিন</w>
গেলিয়া
গেলিয়ান
গেলিয়ান</w>
গেলির</w>
গেলু
গেলু</w>
গেলুলা
গেলে
গেলে,</w>
গেলে</w>
গেলে।</w>
গেলেও</w>
গেলেন
গেলেন,</w>
গেলেন</w>
গেলেন।</w>
গেলের</w>
গেলো
গেলো</w>
গেল্
গেল্ব
গেল্ব</w>
গেল্মে
গেশ
গেশ</w>
গেশন</w>
গেশানাল</w>
গেশারের</w>
গেশি
গেশের</w>
গেশ্বর
গেশ্বর</w>
গেশ্বরী
গেশ্বরী</w>
গেশ্বরীতে</w>
গেশ্রী</w>
গো
গো</w>
গোগ
গোগা
গোগা</w>
গোগায়ে
গোগিকাল</w>
গোগু
গোগুরি
গোগুরিয়
গোগে</w>
গোগের</w>
গোগো
গোগো</w>
গোগোল</w>
গোগোলের</w>
গোগ্
গোগ্রা
গোগ্রাম</w>
গোল
গোল</w>
গোলা
গোলা</w>
গোলাই
গোলাইসের</w>
গোলান
গোলান</w>
গোলানিক্ষে
গোলানের</w>
গোলান্দা
গোলাম
গোলাম</w>
গোলামুস</w>
গোলামে
গোলাম্বার</w>
গোলায়</w>
গোলার</w>
গোলার্
গোলালে</w>
গোলি
গোলি</w>
গোলিক
গোলিক,</w>
গোলিক</w>
গোলিকদের</w>
গোলিয়
গোলিয়া
গোলিয়াতে</w>
গোলিয়ায়</w>
গোলির</w>
গোলীয়</w>
গোলু
গোলে
গোলে</w>
গোলে।</w>
গোলের</w>
গোলো
গোলো</w>
গোলোক
গোলোক</w>
গোলোকনা
গোলোকমা
গোলোকের</w>
গোল্
গোল্প
গোল্যা
গোল্যান্
গ্
গ্চ
গ্চা
গ্চু
গ্তান
গ্তে
গ্ত্
গ্ব
গ্বয়ে
গ্বার</w>
গ্বালিয়
গ্বি
গ্বিত
গ্বিধ
গ্বী
গ্বে
গ্বৈ
গ্ম
গ্ম</w>
গ্মত
গ্মস
গ্মসম্পা
গ্মসাধারণ</w>
গ্মান</w>
গ্মি</w>
গ্মিতা
গ্মিতা</w>
গ্মিতার</w>
গ্মিনী</w>
গ্মেন্
গ্য
গ্য</w>
গ্যা
গ্যা</w>
গ্যাই
গ্যাত
গ্যাতানো</w>
গ্যাতোলি</w>
গ্যান
গ্যান,</w>
গ্যান</w>
গ্যান।</w>
গ্যানগ্য
গ্যানগ্যা
গ্যানাই
গ্যানি
গ্যানিক</w>
গ্যানে
গ্যানের</w>
গ্যানো
গ্যানোগ্রা
গ্যান্
গ্যাম
গ্যাম</w>
গ্যামত্
গ্যামন</w>
গ্যামনের</w>
গ্যামস,</w>
গ্যামসি
গ্যামসির</w>
গ্যামা</w>
গ্যামার</w>
গ্যামি
গ্যামি</w>
গ্যামির</w>
গ্যামিলা
গ্যামে
গ্যামেল</w>
গ্যামেলিন</w>
গ্যামেশ
গ্যামো</w>
গ্যাম্ত্
গ্যাম্পো
গ্যাম্বরিয়ান</w>
গ্যাম্বল
গ্যাম্বল</w>
গ্যাম্বা</w>
গ্যাম্বি
গ্যার
গ্যার</w>
গ্যারা
গ্যারাজ</w>
গ্যারান্
গ্যারাল</w>
গ্যারি
গ্যারি</w>
গ্যারিক</w>
গ্যারী</w>
গ্যারে
গ্যারো
গ্যার্যাম্বা</w>
গ্যাল
গ্যাল</w>
গ্যালা
গ্যালাই
গ্যালান্
গ্যালারি
গ্যালারি</w>
গ্যালারিতে</w>
গ্যালারিয়া</w>
গ্যালারিয়ার</w>
গ্যালারির</w>
গ্যালারী
গ্যালারী,</w>
গ্যালারী</w>
গ্যালারীতে</w>
গ্যালারীর</w>
গ্যালারের</w>
গ্যালার্
গ্যালি
গ্যালি</w>
গ্যালিক</w>
গ্যালিক্যান</w>
গ্যালিক্রে
গ্যালিয়
গ্যালিয়ানো</w>
গ্যালিয়াম
গ্যালিয়াম</w>
গ্যালিয়ামসেলেনাই
গ্যালিয়ামের</w>
গ্যালিয়েনা,</w>
গ্যালিলি
গ্যালিলি</w>
গ্যালিলিতে</w>
গ্যালিলিয়ান</w>
গ্যালিলে
গ্যালিলের</w>
গ্যালীয়</w>
গ্যালু
গ্যালে
গ্যালে</w>
গ্যালেন</w>
গ্যালেনার</w>
গ্যালেনের</w>
গ্যালের</w>
গ্যালো
গ্যালো</w>
গ্যাল্
গ্যাল্চা
গ্যাল্যা
গ্যাল্যান্
গ্যু
গ্যু</w>
গ্যুর
গ্যুর</w>
গ্যুর।</w>
গ্যুলা</w>
গ্যে
গ্যেনে
গ্যের</w>
গ্যেলিক
গ্যেলিক</w>
গ্যো
গ্র
গ্র,</w>
গ্র</w>
গ্র।</w>
গ্রকে</w>
গ্রণ
গ্রণি</w>
গ্রতার</w>
গ্রন্
গ্রন্ত</w>
গ্রন্তি
গ্রন্দে</w>
গ্রন্ধ
গ্রয়
গ্রহ
গ্রহ</w>
গ্রহণ</w>
গ্রহতা</w>
গ্রহন</w>
গ্রহন।</w>
গ্রহা
গ্রহান
গ্রহান্ত
গ্রহায়
গ্রহাল
গ্রহালা</w>
গ্রহি
গ্রহিক</w>
গ্রহিকো
গ্রহিত</w>
গ্রহিতা</w>
গ্রহিতার</w>
গ্রহী</w>
গ্রহে
গ্রহে,</w>
গ্রহে</w>
গ্রহে।</w>
গ্রহের</w>
গ্রহো</w>
গ্রা
গ্রা</w>
গ্রাই
গ্রাই</w>
গ্রাইন্
গ্রাইব
গ্রাইসা</w>
গ্রাজ
গ্রাজ</w>
গ্রাজিয়া</w>
গ্রাজিয়ানি</w>
গ্রাজিয়ানির</w>
গ্রাজির</w>
গ্রাজু
গ্রাজ্যু
গ্রান
গ্রান</w>
গ্রানা
গ্রানাই
গ্রানি
গ্রানিকা
গ্রানে
গ্রানো
গ্রানো</w>
গ্রানোলাতে</w>
গ্রানোলারে</w>
গ্রান্
গ্রান্দার</w>
গ্রান্দে,</w>
গ্রান্দে</w>
গ্রান্দেতে</w>
গ্রান্দেবু
গ্রান্দের</w>
গ্রাম
গ্রাম</w>
গ্রামতালিকায়</w>
গ্রামনগ
গ্রামনে
গ্রামনেতাকে</w>
গ্রামস
গ্রামসভা
গ্রামসভাগুলোকে</w>
গ্রামসম
গ্রামসমু
গ্রামসমূ
গ্রামসহ</w>
গ্রামসি
গ্রামসি</w>
গ্রামসিলে
গ্রামসে
গ্রামস্ত
গ্রামা
গ্রামার
গ্রামার,</w>
গ্রামার</w>
গ্রামি
গ্রামি</w>
গ্রামে
গ্রামে,</w>
গ্রামে</w>
গ্রামে।</w>
গ্রামেন</w>
গ্রামের</w>
গ্রামো
গ্রাম্ত</w>
গ্রাম্প
গ্রাম্মান</w>
গ্রাম্য
গ্রাম্য</w>
গ্রাম্যা
গ্রাম্যের</w>
গ্রায়</w>
গ্রায়ান</w>
গ্রায়ে
গ্রার</w>
গ্রাল
গ্রাল</w>
গ্রালি</w>
গ্রালের</w>
গ্রাল্
গ্রি
গ্রি</w>
গ্রিক
গ্রিক,</w>
গ্রিক</w>
গ্রিক।</w>
গ্রিকদের</w>
গ্রিকম্যা
গ্রিকরা</w>
গ্রিকরাই</w>
গ্রিকলেজ</w>
গ্রিকল্যা
গ্রিকাল
গ্রিকী
গ্রিকু
গ্রিকে
গ্রিকে</w>
গ্রিকের</w>
গ্রিকো
গ্রিকোগ
গ্রিক্
গ্রিত
গ্রিত</w>
গ্রিতে
গ্রিতে</w>
গ্রিতের</w>
গ্রিন
গ্রিন,</w>
গ্রিন</w>
গ্রিনগার্
গ্রিনগ্রা
গ্রিনার</w>
গ্রিনি
গ্রিনি</w>
গ্রিনিয়া
গ্রিনিয়া</w>
গ্রিনিয়ায়</w>
গ্রিনিয়ার</w>
গ্রিনে</w>
গ্রিনে।</w>
গ্রিনের</w>
গ্রিনো
গ্রিন্
গ্রিয়
গ্রিয়া
গ্রিয়ার
গ্রিয়ার</w>
গ্রিয়ারের</w>
গ্রির</w>
গ্রিল
গ্রিল</w>
গ্রিলি
গ্রিলি</w>
গ্রিলিকে</w>
গ্রিলিয়া</w>
গ্রিলির</w>
গ্রিলো
গ্রিল্
গ্রী
গ্রী,</w>
গ্রী</w>
গ্রীতে</w>
গ্রীন</w>
গ্রীয়</w>
গ্রীর</w>
গ্রু
গ্রু</w>
গ্রুর</w>
গ্রুল</w>
গ্রূ
গ্রূপ</w>
গ্রে
গ্রে,</w>
গ্রে</w>
গ্রে।</w>
গ্রেতে</w>
গ্রেন
গ্রেন,</w>
গ্রেন</w>
গ্রেন।</w>
গ্রেনা
গ্রেনি</w>
গ্রেনিয়ারের</w>
গ্রেনে
গ্রেনে</w>
গ্রেনের</w>
গ্রেন্
গ্রের</w>
গ্রেল
গ্রেল</w>
গ্রেলে
গ্রেলো
গ্রেশ
গ্রেশন</w>
গ্রেশাম</w>
গ্রেশিয়া</w>
গ্রেশ্বর,</w>
গ্রো
গ্রো</w>
গ্রোগে
গ্রোগের</w>
গ্রোল
গ্র্বা
গ্র্বা</w>
গ্র্বাতে</w>
গ্র্বানা
গ্র্যা
গ্র্যাইন</w>
গ্র্যান
গ্র্যানাই
গ্র্যানি</w>
গ্র্যানো
গ্র্যান্
গ্র্যাম
গ্র্যামস্
গ্র্যামার
গ্র্যামার্
গ্র্যামি</w>
গ্র্যামির</w>
গ্র্যামের</w>
গ্র্যু
গ্র্যে
গ্র্রহন</w>
গ্র্রায়
গ্র্রে,</w>
গ্র্রে</w>
ঘ
ঘট
ঘট,</w>
ঘট</w>
ঘটন</w>
ঘটা
ঘটা</w>
ঘটাতে</w>
ঘটাতেন</w>
ঘটাতেন।</w>
ঘটাতো
ঘটান
ঘটান,</w>
ঘটান</w>
ঘটান।</w>
ঘটানো
ঘটানো</w>
ঘটায়
ঘটায়,</w>
ঘটায়</w>
ঘটায়।</w>
ঘটার</w>
ঘটারও</w>
ঘটালে,</w>
ঘটালে</w>
ঘটালেও</w>
ঘটালেন,</w>
ঘটালেন</w>
ঘটি
ঘটি</w>
ঘটিকা</w>
ঘটিকায়</w>
ঘটিকায়।</w>
ঘটিকার</w>
ঘটিত</w>
ঘটিত।</w>
ঘটিতে</w>
ঘটিয়ে,</w>
ঘটিয়ে</w>
ঘটিয়ে।</w>
ঘটিয়েছ
ঘটিয়েছিল,</w>
ঘটিয়েছিল</w>
ঘটিয়েছিল।</w>
ঘটিয়েছিলেন</w>
ঘটিয়েছিলেন।</w>
ঘটিয়েছিলো</w>
ঘটিয়েছে</w>
ঘটিয়েছে।</w>
ঘটির</w>
ঘটু
ঘটে
ঘটে,</w>
ঘটে</w>
ঘটে।</w>
ঘটেছ
ঘটেছিল,</w>
ঘটেছিল</w>
ঘটেছিল।</w>
ঘটেছিলো
ঘটেছিলো</w>
ঘটেছে</w>
ঘটেছে।</w>
ঘটেনা।</w>
ঘটেনি
ঘটেনি</w>
ঘটেনি।</w>
ঘটের</w>
ঘটো
ঘট্
ঘা
ঘা</w>
ঘাই
ঘাই</w>
ঘাইন,</w>
ঘাইন</w>
ঘাও</w>
ঘাড়
ঘাড়</w>
ঘাড়ে</w>
ঘাত
ঘাত</w>
ঘাতথেকে</w>
ঘাতা
ঘাতি</w>
ঘাতিক</w>
ঘাতিকা</w>
ঘাতী
ঘাতী</w>
ঘাতু</w>
ঘাতুরাম</w>
ঘাতুল্
ঘাতে
ঘাতে,</w>
ঘাতে</w>
ঘাতের</w>
ঘান
ঘান,</w>
ঘান</w>
ঘানা
ঘানা,</w>
ঘানা</w>
ঘানা।</w>
ঘানাতে</w>
ঘানাম
ঘানায়
ঘানায়</w>
ঘানার</w>
ঘানার।</w>
ঘানারি</w>
ঘানি
ঘানি</w>
ঘানিকল</w>
ঘানিকে</w>
ঘানিয়ান</w>
ঘানিয়ান।</w>
ঘানে
ঘানে</w>
ঘানের</w>
ঘান্দো
ঘাম
ঘাম</w>
ঘামস</w>
ঘামা
ঘামান
ঘামানো
ঘামিয়ে
ঘামের</w>
ঘায়
ঘায়</w>
ঘায়ে
ঘায়ে</w>
ঘায়েতে</w>
ঘায়েল
ঘায়েল</w>
ঘার
ঘার</w>
ঘারা
ঘারান
ঘারান</w>
ঘারামের</w>
ঘারার</w>
ঘারি
ঘারি</w>
ঘারিন্দা</w>
ঘারিয়া
ঘারু
ঘারের</w>
ঘারোলি</w>
ঘার্
ঘাল
ঘাল</w>
ঘালা</w>
ঘালাত</w>
ঘালি</w>
ঘো
ঘো</w>
ঘোল
ঘোল</w>
ঘোলা
ঘোলা</w>
ঘোলি
ঘোলি</w>
ঘোলের</w>
ঘোষণা</w>
ঙ
ঙ্
ঙ্গ
ঙ্গ</w>
ঙ্গণ
ঙ্গণ</w>
ঙ্গণা</w>
ঙ্গণে</w>
ঙ্গণের</w>
ঙ্গত</w>
ঙ্গবে
ঙ্গভ
ঙ্গভব
ঙ্গভাবে</w>
ঙ্গভারত</w>
ঙ্গভারতীয়</w>
ঙ্গভাষ
ঙ্গভাষায়</w>
ঙ্গভিত্তিক</w>
ঙ্গভু
ঙ্গভূ
ঙ্গভে
ঙ্গা
ঙ্গা</w>
ঙ্গাই
ঙ্গাই</w>
ঙ্গাইন</w>
ঙ্গাইনার</w>
ঙ্গাইনের</w>
ঙ্গাইবা
ঙ্গাও</w>
ঙ্গাড়
ঙ্গাড়াই</w>
ঙ্গাতিতান
ঙ্গাতীর</w>
ঙ্গাতে</w>
ঙ্গাতের</w>
ঙ্গাত্
ঙ্গাত্ম
ঙ্গান
ঙ্গান,</w>
ঙ্গান</w>
ঙ্গান।</w>
ঙ্গানগ
ঙ্গানা
ঙ্গানা,</w>
ঙ্গানা</w>
ঙ্গানাই
ঙ্গানায়</w>
ঙ্গানার</w>
ঙ্গানারায়
ঙ্গানালু</w>
ঙ্গানি
ঙ্গানি</w>
ঙ্গানিকা</w>
ঙ্গানিকার</w>
ঙ্গানিকে</w>
ঙ্গানিন</w>
ঙ্গানিয়ামা</w>
ঙ্গানী,</w>
ঙ্গানী</w>
ঙ্গানে
ঙ্গানের</w>
ঙ্গান্
ঙ্গান্ত
ঙ্গাম
ঙ্গাম</w>
ঙ্গামতি
ঙ্গামতির</w>
ঙ্গামনাড়</w>
ঙ্গামা
ঙ্গামা</w>
ঙ্গামান</w>
ঙ্গামানিক</w>
ঙ্গামাম</w>
ঙ্গামায়</w>
ঙ্গামার
ঙ্গামার</w>
ঙ্গামারা</w>
ঙ্গামারী</w>
ঙ্গামারীর</w>
ঙ্গামাল</w>
ঙ্গামি</w>
ঙ্গামু
ঙ্গামূলা
ঙ্গামে
ঙ্গামো
ঙ্গাম্
ঙ্গাম্প</w>
ঙ্গায়
ঙ্গায়,</w>
ঙ্গায়</w>
ঙ্গায়।</w>
ঙ্গায়েত
ঙ্গায়েত</w>
ঙ্গার
ঙ্গার,</w>
ঙ্গার</w>
ঙ্গার।</w>
ঙ্গারকে</w>
ঙ্গারহার</w>
ঙ্গারহ্যান্
ঙ্গারা
ঙ্গারা</w>
ঙ্গারাজ
ঙ্গারাজার</w>
ঙ্গারানো
ঙ্গারানো</w>
ঙ্গারাম
ঙ্গারাম</w>
ঙ্গারাম্মা
ঙ্গারাম্মা</w>
ঙ্গারি
ঙ্গারি</w>
ঙ্গারিয়া</w>
ঙ্গারিয়ান</w>
ঙ্গারিয়ার</w>
ঙ্গারির</w>
ঙ্গারু
ঙ্গারু</w>
ঙ্গারে
ঙ্গারে</w>
ঙ্গারের</w>
ঙ্গারো
ঙ্গার্
ঙ্গার্থ
ঙ্গাল
ঙ্গাল</w>
ঙ্গালা
ঙ্গালা</w>
ঙ্গালার</w>
ঙ্গালাল</w>
ঙ্গালি
ঙ্গালি</w>
ঙ্গালিকে</w>
ঙ্গালিকো
ঙ্গালিত
ঙ্গালিয়া</w>
ঙ্গালিল</w>
ঙ্গালী
ঙ্গালী</w>
ঙ্গালীতে</w>
ঙ্গালীদের</w>
ঙ্গালীর</w>
ঙ্গালু
ঙ্গালুর</w>
ঙ্গালুরায়া</w>
ঙ্গালুরু
ঙ্গালুরু</w>
ঙ্গালুরুর
ঙ্গালুরুর</w>
ঙ্গালুরে
ঙ্গালের</w>
ঙ্গালো
ঙ্গাল্
ঙ্গি
ঙ্গি</w>
ঙ্গিক
ঙ্গিক,</w>
ঙ্গিক</w>
ঙ্গিকা
ঙ্গিকা</w>
ঙ্গিকার</w>
ঙ্গিকারের</w>
ঙ্গিকে
ঙ্গিকে</w>
ঙ্গিকে।</w>
ঙ্গিকেই</w>
ঙ্গিত
ঙ্গিত</w>
ঙ্গিত।</w>
ঙ্গিতাম</w>
ঙ্গিতিক</w>
ঙ্গিতে
ঙ্গিতে,</w>
ঙ্গিতে</w>
ঙ্গিতে।</w>
ঙ্গিতের</w>
ঙ্গিন,</w>
ঙ্গিন</w>
ঙ্গিনা
ঙ্গিনা,</w>
ঙ্গিনা</w>
ঙ্গিনায়,</w>
ঙ্গিনায়</w>
ঙ্গিনী
ঙ্গিনী</w>
ঙ্গিনীতে</w>
ঙ্গিনীর</w>
ঙ্গিনের</w>
ঙ্গিয়া
ঙ্গিয়া</w>
ঙ্গিয়ান</w>
ঙ্গিয়ামুর
ঙ্গিয়ার</w>
ঙ্গিয়ারে</w>
ঙ্গিয়ে</w>
ঙ্গিয়েল
ঙ্গির</w>
ঙ্গিল
ঙ্গিল</w>
ঙ্গিলা
ঙ্গিলা</w>
ঙ্গিলার</w>
ঙ্গিলি</w>
ঙ্গিলিয়া</w>
ঙ্গিলিয়ার</w>
ঙ্গিলির</w>
ঙ্গু
ঙ্গু</w>
ঙ্গুর
ঙ্গুর,</w>
ঙ্গুর</w>
ঙ্গুর।</w>
ঙ্গুরা
ঙ্গুরা</w>
ঙ্গুরিয়া</w>
ঙ্গুরির</w>
ঙ্গুরী</w>
ঙ্গুরীয়</w>
ঙ্গুরে</w>
ঙ্গুরের</w>
ঙ্গুল
ঙ্গুল</w>
ঙ্গুলা
ঙ্গুলানা,</w>
ঙ্গুলাম</w>
ঙ্গুলায়
ঙ্গুলার
ঙ্গুলার</w>
ঙ্গুলারি
ঙ্গুলি
ঙ্গুলি</w>
ঙ্গুলিত্র</w>
ঙ্গুলিনো</w>
ঙ্গুলিয়া</w>
ঙ্গুলিয়ান</w>
ঙ্গুলিয়ে
ঙ্গুলির</w>
ঙ্গুলী
ঙ্গুলী,</w>
ঙ্গুলী</w>
ঙ্গুলীতে</w>
ঙ্গুলীর</w>
ঙ্গুলু</w>
ঙ্গুলে
ঙ্গুলে</w>
ঙ্গুলের</w>
ঙ্গুলেশন</w>
ঙ্গুলোর</w>
ঙ্গুল্
ঙ্গে
ঙ্গে,</w>
ঙ্গে</w>
ঙ্গে।</w>
ঙ্গেছ
ঙ্গেছে</w>
ঙ্গেছে।</w>
ঙ্গেতে</w>
ঙ্গেত্
ঙ্গেত্র
ঙ্গেন
ঙ্গেন</w>
ঙ্গেনে
ঙ্গেনে</w>
ঙ্গেনের</w>
ঙ্গেন্
ঙ্গের</w>
ঙ্গেল
ঙ্গেল</w>
ঙ্গেলি</w>
ঙ্গেলিকান
ঙ্গেলিকান</w>
ঙ্গেলিয়াতে</w>
ঙ্গেলী</w>
ঙ্গেলে
ঙ্গেলে</w>
ঙ্গেলের</w>
ঙ্গেলো
ঙ্গেলো</w>
ঙ্গেল্
ঙ্গেশ
ঙ্গেশু
ঙ্গেশো
ঙ্গেশ্বর</w>
ঙ্গেশ্বরী</w>
ঙ্গো
ঙ্গো</w>
ঙ্গোগ
ঙ্গোগ্
ঙ্গোল
ঙ্গোল</w>
ঙ্গোলা
ঙ্গোলা</w>
ঙ্গোলাও</w>
ঙ্গোলাতে</w>
ঙ্গোলান
ঙ্গোলায়</w>
ঙ্গোলার</w>
ঙ্গোলি
ঙ্গোলি</w>
ঙ্গোলিক</w>
ঙ্গোলিয়</w>
ঙ্গোলিয়া
ঙ্গোলিয়া</w>
ঙ্গোলিয়াতে</w>
ঙ্গোলিয়ান</w>
ঙ্গোলিয়ায়,</w>
ঙ্গোলিয়ায়</w>
ঙ্গোলিয়ায়।</w>
ঙ্গোলিয়ার</w>
ঙ্গোলী
ঙ্গোলী</w>
ঙ্গোলীয়</w>
ঙ্গোলে,</w>
ঙ্গোলের</w>
ঙ্গোলো
ঙ্গ্যা
ঙ্গ্যা</w>
ঙ্চায়েত</w>
চ
চ</w>
চট্
চট্র
চট্রি
চট্রো
চনা</w>
চরিত
চরিত</w>
চরিতম</w>
চরিতা
চরিতা</w>
চরিতামৃত
চরিতামৃত</w>
চরিতামৃতে</w>
চরিতার্থ</w>
চরিতে
চরিতে</w>
চরিতের</w>
চরিত্
চরিত্যে</w>
চরিত্র
চরিত্র,</w>
চরিত্র</w>
চরিত্র।</w>
চরিত্রও</w>
চরিত্রকে</w>
চরিত্রহ
চরিত্রা
চরিত্রায়
চরিত্রে
চরিত্রে,</w>
চরিত্রে</w>
চরিত্রে।</w>
চরিত্রের</w>
চরিত্র্রে</w>
চল
চল</w>
চলচ্চ
চলচ্চি
চলচ্চিত
চলচ্চিত</w>
চলচ্চিতে</w>
চলচ্চিত্
চলচ্চিত্তে</w>
চলচ্চিত্র
চলচ্চিত্র,</w>
চলচ্চিত্র</w>
চলচ্চিত্র।</w>
চলচ্চিত্রও</w>
চলচ্চিত্রকে</w>
চলচ্চিত্রা
চলচ্চিত্রান
চলচ্চিত্রায়
চলচ্চিত্রে
চলচ্চিত্রে,</w>
চলচ্চিত্রে</w>
চলচ্চিত্রে।</w>
চলচ্চিত্রের</w>
চলা
চলা</w>
চলাই
চলাইনের</w>
চলান
চলামারি</w>
চলায়
চলায়</w>
চলার</w>
চলাল
চলি
চলি</w>
চলিত
চলিত</w>
চলিত।</w>
চলিতা
চলিতেন।</w>
চলিন</w>
চলিয়া</w>
চলিয়ে</w>
চলিয়েছ
চলির</w>
চলী
চলু
চলু</w>
চলুর,</w>
চলুর</w>
চলে
চলে,</w>
চলে</w>
চলে।</w>
চলেও</w>
চলেছ
চলেছিল,</w>
চলেছিল</w>
চলেছিল।</w>
চলেছিলেন</w>
চলেছিলেন।</w>
চলেছে</w>
চলেছে।</w>
চলেন
চলেন,</w>
চলেন</w>
চলেন।</w>
চলেনা,</w>
চলেনা।</w>
চলেনি।</w>
চলের</w>
চলেশ্বর</w>
চলেশ্বরকে</w>
চলো
চলো</w>
চল্
চল্যান্
চা
চা</w>
চাই
চাই</w>
চাইন
চাইন,</w>
চাইন</w>
চাইনা</w>
চাইনাইনা</w>
চাইনায়া
চাইনার
চাইনি
চাইনি</w>
চাইনিজে</w>
চাইনী
চাইবা
চাইবার</w>
চাইবে,</w>
চাইবে</w>
চাইবে।</w>
চাইবেন,</w>
চাইবেন।</w>
চাইবো</w>
চাইস
চাও</w>
চাড়
চাড়া
চাড়া</w>
চাড়ার</w>
চাত
চাত</w>
চাতা
চাতা</w>
চাতার</w>
চাতারা
চাতারা</w>
চাতাল
চাতি</w>
চাতির</w>
চাতু
চাতুর
চাতুরতার</w>
চাতুরি
চাতুরি</w>
চাতুরিকে</w>
চাতুরির</w>
চাতুর্মা
চাতুর্য
চাতুর্য</w>
চাতুর্যের</w>
চাতুল</w>
চাতুলিয়া
চাতে
চাতে,</w>
চাতে</w>
চাতে।</w>
চাতেন</w>
চাতেল</w>
চাতো
চাতো</w>
চাত্ত
চাত্ব
চাত্রা
চান
চান,</w>
চান</w>
চান।</w>
চানগা
চানগি</w>
চানগো
চানয়
চানা
চানা,</w>
চানা</w>
চানাই</w>
চানান</w>
চানালাই</w>
চানি
চানি</w>
চানি।</w>
চানিকে</w>
চানিয়া
চানির্
চানে
চানে</w>
চানের</w>
চানো
চানো</w>
চান্
চান্তারা</w>
চান্তি
চান্তি</w>
চান্দ
চান্দ</w>
চান্দল</w>
চান্দা
চান্দা</w>
চান্দাই
চান্দামারি
চান্দামারী</w>
চান্দার
চান্দার</w>
চান্দি
চান্দি</w>
চান্দিনা</w>
চান্দিনার</w>
চান্দিয়া</w>
চান্দিয়ার</w>
চান্দী</w>
চান্দু
চান্দু</w>
চান্দুর</w>
চান্দুরা
চান্দুরা</w>
চান্দুরায়</w>
চান্দুরার</w>
চান্দে
চান্দের</w>
চান্দেল
চান্দেল</w>
চান্দেলা
চান্দো
চান্দোগ
চান্দোগ্য</w>
চান্দ্র
চান্দ্র</w>
চান্দ্রা</w>
চান্দ্রায়
চান্দ্রিক</w>
চান্দ্রে
চাম
চাম</w>
চামতি</w>
চামনামুল
চামনীর</w>
চামা
চামা</w>
চামানি</w>
চামানে
চামামা
চামার
চামার</w>
চামারা</w>
চামারাজানগ
চামার্তিনে</w>
চামাল
চামাল</w>
চামালের</w>
চামি
চামু
চামু</w>
চামুর
চামে
চামের</w>
চামেল</w>
চামেলি
চামেলি</w>
চামেলিতে</w>
চামেলী</w>
চামো
চামোলি
চামোলি</w>
চামোলিতে</w>
চামোলী</w>
চামৌ
চাম্
চাম্পা
চাম্পালি</w>
চাম্পি</w>
চাম্পিন</w>
চাম্পিয়ান</w>
চাম্পু
চাম্বল</w>
চাম্বা</w>
চাম্বারাজ</w>
চাম্বি
চাম্বুল</w>
চাম্বো
চায়
চায়,</w>
চায়</w>
চায়।</w>
চায়া
চায়া</w>
চায়ার</w>
চায়ে
চায়ে</w>
চায়েন</w>
চায়ের</w>
চার
চার,</w>
চার</w>
চার।</w>
চারও</w>
চারকে</w>
চারণ
চারণ</w>
চারণা
চারণা</w>
চারণাও</w>
চারণাতে</w>
চারণামূল
চারণায়
চারণায়</w>
চারণার</w>
চারণে</w>
চারণের</w>
চারহ
চারহা
চারহি
চারা
চারা</w>
চারাই
চারাও</w>
চারাতে</w>
চারান
চারান</w>
চারাম</w>
চারার,</w>
চারার</w>
চারারের</w>
চারারো
চারার্
চারাল
চারাল</w>
চারালাই
চারালি
চারালি</w>
চারালী</w>
চারি
চারি</w>
চারিক
চারিক</w>
চারিকদের</w>
চারিকা
চারিকে</w>
চারিত
চারিত</w>
চারিত।</w>
চারিতা</w>
চারিতামূল
চারিতায়</w>
চারিতার</w>
চারিতে</w>
চারিত্রা</w>
চারিত্রি
চারিত্রিক,</w>
চারিত্রিক</w>
চারিত্র্য</w>
চারিনি
চারিয়</w>
চারিয়া</w>
চারিয়ান
চারিয়ান</w>
চারিয়ান্
চারিয়ার</w>
চারিয়ে</w>
চারির</w>
চারী
চারী,</w>
চারী</w>
চারীদের</w>
চারীর</w>
চারু
চারু</w>
চারুর</w>
চারুরূ
চারুল
চারুলি
চারূ
চারে
চারে,</w>
চারে</w>
চারে।</w>
চারেন
চারেন্
চারের</w>
চারেল
চারেল</w>
চারো
চারো</w>
চারোলির</w>
চার্
চার্চ
চার্চ</w>
চার্চিল
চার্চিল</w>
চার্চিলের</w>
চার্চীয়</w>
চার্চে
চার্চে,</w>
চার্চে</w>
চার্চে।</w>
চার্চের</w>
চার্থে</w>
চার্প
চার্বা
চার্ম</w>
চার্মস,</w>
চার্মস</w>
চার্মাই
চার্মিয়ান</w>
চার্য
চার্য</w>
চার্যু
চার্যে
চার্যে</w>
চার্যের</w>
চাল
চাল</w>
চালা
চালা</w>
চালাই
চালাও</w>
চালাত
চালাত</w>
চালাতে</w>
চালাতেন,</w>
চালাতেন</w>
চালাতেন।</w>
চালাতো
চালাতো</w>
চালান
চালান,</w>
চালান</w>
চালান।</w>
চালানি</w>
চালানী
চালানী</w>
চালানে</w>
চালানের</w>
চালানো
চালানো</w>
চালাম
চালায়
চালায়,</w>
চালায়</w>
চালায়।</w>
চালার</w>
চালাল
চালাল</w>
চালালে,</w>
চালালে</w>
চালালেও</w>
চালালেন।</w>
চালালো</w>
চালি
চালি</w>
চালিকা
চালিকা</w>
চালিকে</w>
চালিত
চালিত</w>
চালিত।</w>
চালিতা
চালিতা</w>
চালিতে
চালিতে</w>
চালিয়া
চালিয়ে,</w>
চালিয়ে</w>
চালিয়েছ
চালিয়েছিল,</w>
চালিয়েছিল</w>
চালিয়েছিল।</w>
চালিয়েছিলেন,</w>
চালিয়েছিলেন</w>
চালিয়েছিলেন।</w>
চালিয়েছিলের</w>
চালিয়েছিলো
চালিয়েছিলো</w>
চালিয়েছে</w>
চালিয়েছে।</w>
চালির</w>
চালী
চালী,</w>
চালী</w>
চালীত</w>
চালীতে</w>
চালীর</w>
চালু
চালু</w>
চালুর</w>
চালে
চালে,</w>
চালে</w>
চালেন,</w>
চালেন</w>
চালের</w>
চালো
চালো</w>
চাল্
চি
চি</w>
চিক
চিক,</w>
চিক</w>
চিকন
চিকন</w>
চিকনায়
চিকনি</w>
চিকনিকান্দি</w>
চিকম
চিকমা
চিকর,</w>
চিকর</w>
চিকর্ম
চিকর্ম</w>
চিকর্মের</w>
চিকল
চিকলা
চিকলা</w>
চিকলি
চিকা
চিকা</w>
চিকাত
চিকান</w>
চিকামা
চিকামি</w>
চিকামির</w>
চিকায়</w>
চিকার</w>
চিকারা</w>
চিকারেলির</w>
চিকাল
চিকালীন</w>
চিকি
চিকি</w>
চিকিং</w>
চিকিত
চিকিতি</w>
চিকিত্
চিকিলা</w>
চিকিলার</w>
চিকিৎ
চিকু
চিকু</w>
চিকে
চিকে</w>
চিকেতা</w>
চিকেতার</w>
চিকেন,</w>
চিকেন</w>
চিকেনের</w>
চিকেল</w>
চিকো
চিকো</w>
চিক্
চিক্বা
চিক্য
চিক্য</w>
চিক্যা
চিক্যের</w>
চিত
চিত</w>
চিত।</w>
চিতা
চিতা</w>
চিতাকে</w>
চিতামু</w>
চিতাম্বো
চিতায়</w>
চিতার</w>
চিতারো
চিতি
চিতি</w>
চিতিত</w>
চিতে
চিতে,</w>
চিতে</w>
চিতে।</w>
চিতের</w>
চিতো
চিতো</w>
চিত্
চিত্ত
চিত্ত</w>
চিত্তা
চিত্তি
চিত্তু</w>
চিত্তুর,</w>
চিত্তুর</w>
চিত্তুরের</w>
চিত্তে</w>
চিত্তে।</w>
চিত্তের</w>
চিত্তেশ্বরী</w>
চিত্তো
চিত্য
চিত্য</w>
চিত্র
চিত্র,</w>
চিত্র</w>
চিত্র।</w>
চিত্রও</w>
চিত্রকে</w>
চিত্রণ
চিত্রণ</w>
চিত্রণা
চিত্রণে</w>
চিত্রণের</w>
চিত্রতার</w>
চিত্রহ
চিত্রা
চিত্রা</w>
চিত্রাই</w>
চিত্রান
চিত্রানী</w>
চিত্রান্
চিত্রাম</w>
চিত্রায়
চিত্রায়</w>
চিত্রার</w>
চিত্রাল
চিত্রাল</w>
চিত্রালে</w>
চিত্রালের</w>
চিত্রি</w>
চিত্রিত
চিত্রিত</w>
চিত্রিত।</w>
চিত্রিতা</w>
চিত্রী
চিত্রী,</w>
চিত্রী</w>
চিত্রীদের</w>
চিত্রে
চিত্রে,</w>
চিত্রে</w>
চিত্রের</w>
চিত্রেশ</w>
চিত্রো
চিত্র্য
চিত্র্য</w>
চিত্র্যায়
চিত্র্যে,</w>
চিত্র্যে</w>
চিত্র্যের</w>
চিত্র্রের</w>
চিন
চিন,</w>
চিন.</w>
চিন</w>
চিন।</w>
চিনয়
চিনয়</w>
চিনয়ে
চিনা
চিনা,</w>
চিনা</w>
চিনাটা
চিনাত
চিনাতা
চিনাতে</w>
চিনান
চিনান</w>
চিনানে</w>
চিনামা
চিনায়</w>
চিনায়া</w>
চিনায়ে</w>
চিনার</w>
চিনারে</w>
চিনি
চিনি</w>
চিনি।</w>
চিনিকল
চিনিকল</w>
চিনিকলে</w>
চিনিকলের</w>
চিনিকে</w>
চিনিকো</w>
চিনিতে,</w>
চিনিতে</w>
চিনিনি
চিনিয়ান</w>
চিনিয়ালি
চিনিয়ে</w>
চিনিয়েছিলেন।</w>
চিনির</w>
চিনিল
চিনে
চিনে,</w>
চিনে</w>
চিনে।</w>
চিনেছিলেন।</w>
চিনের</w>
চিনো
চিনো</w>
চিন্
চিন্ত
চিন্ত</w>
চিন্তা
চিন্তা</w>
চিন্তাও</w>
চিন্তাকে</w>
চিন্তান</w>
চিন্তানায়
চিন্তাম
চিন্তামনি</w>
চিন্তামূল
চিন্তায়,</w>
চিন্তায়</w>
চিন্তার,</w>
চিন্তার</w>
চিন্তিত
চিন্তিত</w>
চিন্তিয়া</w>
চিন্তু
চিন্তে</w>
চিন্ত্য
চিন্ত্য</w>
চিন্দ
চিন্দার</w>
চিন্দি
চিন্দু
চিন্দ্রামের</w>
চিন্ম
চিন্মো
চিয়
চিয়া
চিয়া</w>
চিয়াও</w>
চিয়ান
চিয়ান,</w>
চিয়ান</w>
চিয়ানা
চিয়ানি
চিয়ানি</w>
চিয়ানের</w>
চিয়ানো</w>
চিয়ান্দ্রা</w>
চিয়াম
চিয়াম</w>
চিয়ামে</w>
চিয়ামের</w>
চিয়ামো
চিয়াম্পা</w>
চিয়াম্পির</w>
চিয়ায়</w>
চিয়ার
চিয়ার</w>
চিয়ারও</w>
চিয়ারেলি</w>
চিয়ার্
চিয়াল</w>
চিয়ালি
চিয়ালিন</w>
চিয়ে
চিয়ে</w>
চিয়েছ
চিয়েছিল,</w>
চিয়েছিল</w>
চিয়েছিল।</w>
চিয়েছিলেন</w>
চিয়েছিলেন।</w>
চিয়েছে।</w>
চিয়েন
চিয়েন</w>
চিয়েনে</w>
চিয়ের</w>
চির</w>
চিল
চিল</w>
চিলা
চিলা</w>
চিলান</w>
চিলারাই</w>
চিলারায়</w>
চিলারায়ের</w>
চিলি
চিলি</w>
চিলিকে</w>
চিলিতে</w>
চিলিন</w>
চিলিয়
চিলিয়</w>
চিলিয়ান</w>
চিলির</w>
চিলী
চিলীয়</w>
চিলীর</w>
চিলু
চিলে
চিলে</w>
চিলের</w>
চিলেশন</w>
চিলো
চিল্
চিল্রেন</w>
চিহ্
চী
চী,</w>
চী</w>
চীত</w>
চীতে</w>
চীন</w>
চীয়</w>
চীর</w>
চু
চু</w>
চুর
চুর,</w>
চুর</w>
চুর।</w>
চুরহাত</w>
চুরা
চুরা</w>
চুরাই
চুরাইবাড়
চুরাম
চুরাম</w>
চুরার</w>
চুরি
চুরি</w>
চুরিকরা</w>
চুরিকৃত</w>
চুরিতে</w>
চুরিন
চুরিয়া
চুরিয়ান</w>
চুরির</w>
চুরী
চুরী</w>
চুরু
চুরু</w>
চুরুলিয়ায়</w>
চুরূ
চুরে
চুরে</w>
চুরের</w>
চুরেশ
চুর্ণ</w>
চুর্য
চুর্য</w>
চুর্যে</w>
চুর্যের</w>
চুল
চুল</w>
চুলা
চুলা</w>
চুলামনি</w>
চুলায়</w>
চুলার</w>
চুলাল
চুলি</w>
চুলিক
চুলিয়া</w>
চুলিয়ার</w>
চুলু
চুলে
চুলে</w>
চুলের</w>
চুলেশ
চুলো
চুল্
চুল্যারিয়া
চে
চে,</w>
চে</w>
চে।</w>
চেছ
চেছিল।</w>
চেছিলেন
চেছিলেন</w>
চেত
চেত</w>
চেতা
চেতা</w>
চেতার</w>
চেতি</w>
চেতিন।</w>
চেতিনো</w>
চেতিয়া</w>
চেতিয়ারের</w>
চেতির</w>
চেতে</w>
চেতেশ্বর</w>
চেতো
চেত্তি
চেত্তিয়ার</w>
চেত্তিয়ারের</w>
চেত্তে</w>
চেন
চেন,</w>
চেন</w>
চেন।</w>
চেনগাল
চেনগ্রু
চেনতু
চেনা
চেনা,</w>
চেনা</w>
চেনাই
চেনাও</w>
চেনান</w>
চেনামুখ</w>
চেনার
চেনার</w>
চেনারের</w>
চেনি
চেনি</w>
চেনিক</w>
চেনিকের</w>
চেনিন</w>
চেনিয়া</w>
চেনী
চেনে
চেনে,</w>
চেনে</w>
চেনে।</w>
চেনেন</w>
চেনেন।</w>
চেনের</w>
চেনো</w>
চেন্
চেন্দ
চেন্দি</w>
চেন্দুর,</w>
চেন্দুর</w>
চেন্মো</w>
চেয়ে</w>
চের</w>
চেল
চেল</w>
চেলা
চেলা</w>
চেলাই
চেলায়
চেলার</w>
চেলারাম</w>
চেলি
চেলি</w>
চেলিক
চেলিকের</w>
চেলিন</w>
চেলিয়া
চেলির</w>
চেলী</w>
চেলু
চেলে
চেলে</w>
চেলের</w>
চেলো
চেল্
চেল্যা
চেশ
চেশ</w>
চেশায়ার</w>
চেশায়ারের</w>
চেষ্টা</w>
চৌ
চ্
চ্চ
চ্চ</w>
চ্চরিত্রের</w>
চ্চা
চ্চা</w>
চ্চাও</w>
চ্চায়</w>
চ্চার
চ্চার</w>
চ্চার।</w>
চ্চারণ</w>
চ্চারা
চ্চারা</w>
চ্চারাও</w>
চ্চারিত</w>
চ্চারু
চ্চার্য</w>
চ্চি
চ্চি</w>
চ্চিকারি</w>
চ্চিকে</w>
চ্চিতান
চ্চিত্র
চ্চিত্র</w>
চ্চিত্রী</w>
চ্চিত্রে</w>
চ্চিত্রের</w>
চ্চিনিয়া</w>
চ্চিনো</w>
চ্চিন্দ্র
চ্চিয়া
চ্চির</w>
চ্চিল
চ্চু
চ্চু</w>
চ্চুর</w>
চ্চুরি</w>
চ্চে
চ্চে</w>
চ্চেনাই
চ্চের</w>
চ্চৌ
চ্চ্ছ
চ্চ্য</w>
চ্চ্যা
চ্ছ
চ্ছিল
চ্ছিল,</w>
চ্ছিল</w>
চ্ছিল।</w>
চ্ছিলাম
চ্ছিলাম</w>
চ্ছিলেন
চ্ছিলেন,</w>
চ্ছিলেন</w>
চ্ছিলেন।</w>
চ্ছিলো
চ্ছিলো</w>
চ্ছিল্
চ্ছিল্য
চ্ছিল্য</w>
চ্ছে</w>
চ্ছে।</w>
চ্ছো
চ্বাংলা</w>
চ্ম
চ্য
চ্য</w>
চ্য়
চ্যা
চ্যা</w>
চ্যাই
চ্যান
চ্যান</w>
চ্যানারি</w>
চ্যানি
চ্যানি</w>
চ্যানে
চ্যানের</w>
চ্যানেল
চ্যানেল</w>
চ্যানেলে
চ্যানেলে,</w>
চ্যানেলে</w>
চ্যানেলে।</w>
চ্যানেলেও</w>
চ্যানেলের</w>
চ্যান্
চ্যাম
চ্যাম</w>
চ্যামন</w>
চ্যামার্তিন</w>
চ্যামো
চ্যাম্প
চ্যাম্প</w>
চ্যাম্পি
চ্যাম্পিয়
চ্যাম্পিয়ান
চ্যাম্পিয়ান</w>
চ্যাম্পিয়ে
চ্যাম্পিয়েন্
চ্যাম্পে
চ্যাম্পে</w>
চ্যায়ে
চ্যারি
চ্যারিয়
চ্যারে
চ্যারেন্
চ্যাল
চ্যাল</w>
চ্যালা
চ্যালি
চ্যালে
চ্যালেন
চ্যালো
চ্যু
চ্যু</w>
চ্যে
চ্যে,</w>
চ্যে</w>
চ্যে।</w>
চ্যের</w>
ছ
ছাড়
ছাড়</w>
ছাড়া
ছাড়া</w>
ছাড়াই
ছাড়াই</w>
ছাড়াও</w>
ছাড়াতে</w>
ছাড়ানো
ছাড়ানো</w>
ছাড়ায়</w>
ছাড়ায়ে</w>
ছাড়ার</w>
ছাড়ে</w>
ছিল
ছিল,</w>
ছিল</w>
ছিল।</w>
ছিলা
ছিলা</w>
ছিলাম
ছিলাম</w>
ছিলায়</w>
ছিলার
ছিলার</w>
ছিলি
ছিলে
ছিলে,</w>
ছিলে</w>
ছিলে।</w>
ছিলেও</w>
ছিলেন
ছিলেন,</w>
ছিলেন.</w>
ছিলেন</w>
ছিলেন।</w>
ছিলের</w>
ছিলো
ছিলো</w>
ছিল্
ছে</w>
ছে।</w>
ছো
ছো</w>
ছোগ
ছোগ</w>
ছোগা</w>
ছোগিয়ালের</w>
ছোট</w>
ছোল
ছোলা
ছোলা</w>
ছোলাতে</w>
ছোলার</w>
ছোলি
ছোলি</w>
ছোলির</w>
ছোলে
ছোলে,</w>
ছোলে</w>
জ
জ</w>
জন
জন,</w>
জন.</w>
জন</w>
জন।</w>
জনং</w>
জনগ
জনগড়ে</w>
জনগণ
জনগণ</w>
জনগণে</w>
জনগণের</w>
জনগা
জনগাম
জনগুরুত্ব</w>
জনগুরুত্বপূর্ণ</w>
জনগুলি</w>
জনগুলিকে</w>
জনগুলিতে</w>
জনগুলির</w>
জনগুলো
জনগুলো</w>
জনগুলোর</w>
জনগৃ
জনগো
জনগ্রা
জনতু
জনপ্রিয়</w>
জনয়</w>
জনসংখ
জনসংখা</w>
জনসংখ্যা</w>
জনসংখ্যার</w>
জনা
জনা,</w>
জনা</w>
জনা।</w>
জনাই
জনাই</w>
জনাও</w>
জনাটি</w>
জনাটিকে</w>
জনাটির</w>
জনাতি
জনাতু
জনাতে
জনাতে</w>
জনাত্ম
জনান
জনান,</w>
জনান</w>
জনাম
জনামে</w>
জনায়
জনায়,</w>
জনায়</w>
জনায়।</w>
জনায়ায়</w>
জনার
জনার,</w>
জনার</w>
জনারকে</w>
জনারায়
জনারের</w>
জনার্
জনার্থে</w>
জনাল
জনাল</w>
জনালের</w>
জনি
জনি</w>
জনি।</w>
জনিউ
জনিউ</w>
জনিক
জনিক</w>
জনিকে,</w>
জনিকে</w>
জনিত
জনিত</w>
জনিত।</w>
জনিতে</w>
জনিয়
জনিয়</w>
জনিয়া
জনিয়া</w>
জনিয়াম</w>
জনিয়ার</w>
জনিয়ে
জনির</w>
জনির্
জনির্মা
জনির্মাণ</w>
জনিল্যান্
জনী
জনী,</w>
জনী</w>
জনীত</w>
জনীতে</w>
জনীন</w>
জনীয়</w>
জনীর</w>
জনে
জনে,</w>
জনে</w>
জনে।</w>
জনেত
জনেত্র
জনেন</w>
জনের</w>
জনেলু</w>
জনেশ্বর</w>
জনো
জনো</w>
জনোগু
জন্
জন্ত
জন্তা
জন্তা</w>
জন্তার</w>
জন্তি
জন্তু
জন্তু</w>
জন্তুর</w>
জন্তে,</w>
জন্তে</w>
জন্ন</w>
জন্ম
জন্ম</w>
জন্মগ্রহণ</w>
জন্মত
জন্মত</w>
জন্মতারি
জন্মতি
জন্মনাম
জন্মনাম</w>
জন্মনি
জন্মনিয়
জন্মনে
জন্মস
জন্মসং
জন্মসংখ্যা</w>
জন্মসন</w>
জন্মসার্
জন্মসালের</w>
জন্মসু
জন্মসূ
জন্মস্থ
জন্মস্থান
জন্মস্থান,</w>
জন্মস্থান</w>
জন্মস্থান।</w>
জন্মস্থানে</w>
জন্মস্থানের</w>
জন্মস্বাধীন</w>
জন্মহার,</w>
জন্মহার</w>
জন্মা
জন্মা</w>
জন্মাই
জন্মাতে</w>
জন্মাতো
জন্মাতো</w>
জন্মান।</w>
জন্মানো
জন্মানো</w>
জন্মান্ত
জন্মান্ধ
জন্মান্ধ</w>
জন্মায়,</w>
জন্মায়</w>
জন্মায়।</w>
জন্মার্
জন্মাল</w>
জন্মালে</w>
জন্মালেও</w>
জন্মি
জন্মু</w>
জন্মে
জন্মে,</w>
জন্মে</w>
জন্মে।</w>
জন্মেছ
জন্মেছিল,</w>
জন্মেছিল।</w>
জন্মেছিলেন,</w>
জন্মেছিলেন</w>
জন্মেছিলেন।</w>
জন্মেছে</w>
জন্মের</w>
জন্মো
জন্ম্
জন্য
জন্য</w>
জন্য়</w>
জন্যে
জন্যে,</w>
জন্যে</w>
জন্যে।</w>
জন্যের</w>
জন্রা</w>
জয়
জয়,</w>
জয়</w>
জয়।</w>
জয়া
জয়া</w>
জয়ান
জয়ান</w>
জয়ান্তা</w>
জয়ার</w>
জয়াল
জয়াল</w>
জয়ে
জয়ে,</w>
জয়ে</w>
জয়েন
জয়েন</w>
জয়েন্
জয়েন্দ্র
জয়েন্দ্র</w>
জয়ের</w>
জয়েল</w>
জল
জল</w>
জলা
জলা</w>
জলাই</w>
জলাইন</w>
জলাত
জলান
জলান,</w>
জলান</w>
জলানা</w>
জলানি</w>
জলানের</w>
জলাভ</w>
জলাম
জলায়</w>
জলার
জলার</w>
জলারকে</w>
জলারের</w>
জলার্
জলাল
জলাল</w>
জলালী</w>
জলি
জলি</w>
জলিকৃত</w>
জলিকে</w>
জলিত</w>
জলিতে,</w>
জলিতে</w>
জলিয়
জলিয়া</w>
জলির</w>
জলিল
জলিল</w>
জলিলুর</w>
জলিলের</w>
জলী
জলী,</w>
জলী</w>
জলীয়</w>
জলীর</w>
জলু
জলু</w>
জলুর</w>
জলুল</w>
জলুল্
জলে
জলে,</w>
জলে</w>
জলে।</w>
জলেও</w>
জলেতে</w>
জলেন</w>
জলের</w>
জলেশ্বর
জলেশ্বর,</w>
জলেশ্বর</w>
জলেশ্বরী
জলেশ্বরের</w>
জলো
জলো</w>
জলোকে
জলোল
জল্
জল্প
জল্পিত</w>
জল্পেশ</w>
জল্যান্
জল্যু
জা
জা</w>
জাই
জাই</w>
জাইন
জাইন,</w>
জাইন.</w>
জাইন</w>
জাইন।</w>
জাইনগত</w>
জাইনগুলি</w>
জাইনগুলির</w>
জাইনগ্রু
জাইনা</w>
জাইনার
জাইনার,</w>
জাইনার</w>
জাইনার।</w>
জাইনারকে</w>
জাইনারের</w>
জাইনাল</w>
জাইনি
জাইনে,</w>
জাইনে</w>
জাইনে।</w>
জাইনের</w>
জাইন্
জাইন্তির</w>
জাইব
জাইব</w>
জাইবা
জাইবা</w>
জাইস</w>
জাইসরায়েল</w>
জাইসহ</w>
জাইসি
জাইসি</w>
জাও</w>
জাড়
জাড়</w>
জাত
জাত</w>
জাতম</w>
জাতা
জাতা</w>
জাতাই</w>
জাতাকে</w>
জাতানি</w>
জাতান্ত্র</w>
জাতান্ত্রিক</w>
জাতায়
জাতার</w>
জাতি
জাতি</w>
জাতিক
জাতিক,</w>
জাতিক</w>
জাতিক।</w>
জাতিকমা
জাতিকমানের</w>
জাতিকার</w>
জাতিকী
জাতিকুল
জাতিকে
জাতিকে</w>
জাতিকেই</w>
জাতিকের</w>
জাতিত
জাতিত</w>
জাতিতাত্ত্বিক</w>
জাতিতালিকা
জাতিতুর্
জাতিতে
জাতিতে,</w>
জাতিতে</w>
জাতিতে।</w>
জাতিনাম
জাতিনির্মাণ</w>
জাতিয়
জাতিয়</w>
জাতিয়া</w>
জাতিয়ার</w>
জাতির</w>
জাতিহ
জাতিহ</w>
জাতী
জাতী</w>
জাতীদের</w>
জাতীয়</w>
জাতীর</w>
জাতু
জাতু</w>
জাতুল</w>
জাতে
জাতে,</w>
জাতে</w>
জাতে।</w>
জাতেন,</w>
জাতেন</w>
জাতেন।</w>
জাতের</w>
জাতো
জাতো</w>
জাত্ম
জাত্য
জাত্য</w>
জাত্যা</w>
জাত্যায়
জাত্যের</w>
জাত্রু
জান
জান,</w>
জান.</w>
জান</w>
জান।</w>
জানগ
জানগা
জানগাত</w>
জানগাল
জানগে
জানগ্যা
জানগ্রাম</w>
জানয়ের</w>
জানা
জানা,</w>
জানা</w>
জানা।</w>
জানাই
জানাই</w>
জানাইন</w>
জানাও</w>
জানাত
জানাত</w>
জানাতে
জানাতে,</w>
জানাতে</w>
জানাতে।</w>
জানাতেন,</w>
জানাতেন</w>
জানাতেন।</w>
জানাতো
জানাতো</w>
জানান
জানান,</w>
জানান</w>
জানান।</w>
জানানা</w>
জানানিয়েছিল</w>
জানানো
জানানো</w>
জানাম</w>
জানামতে</w>
জানায়
জানায়,</w>
জানায়</w>
জানায়।</w>
জানার,</w>
জানার</w>
জানার।</w>
জানাল
জানাল</w>
জানালা
জানালা</w>
জানালাও</w>
জানালাতে</w>
জানালাম
জানালায়</w>
জানালায়।</w>
জানালার</w>
জানালি
জানালে
জানালে,</w>
জানালে</w>
জানালেও</w>
জানালেন,</w>
জানালেন</w>
জানালেন।</w>
জানালো</w>
জানি
জানি</w>
জানি।</w>
জানিক
জানিক</w>
জানিকা
জানিকা</w>
জানিকে</w>
জানিকেলা
জানিতে
জানিতে</w>
জানিন</w>
জানিনামক</w>
জানিনি</w>
জানিনের</w>
জানিয়</w>
জানিয়া
জানিয়া</w>
জানিয়াতে</w>
জানিয়ান</w>
জানিয়ায়,</w>
জানিয়ায়</w>
জানিয়ার,</w>
জানিয়ার</w>
জানিয়ে
জানিয়ে,</w>
জানিয়ে</w>
জানিয়ে।</w>
জানিয়েছ
জানিয়েছিল
জানিয়েছিল,</w>
জানিয়েছিল</w>
জানিয়েছিল।</w>
জানিয়েছিলেন
জানিয়েছিলেন,</w>
জানিয়েছিলেন</w>
জানিয়েছিলেন।</w>
জানিয়েছে</w>
জানিয়েছে।</w>
জানির</w>
জানী
জানী,</w>
জানী</w>
জানীদের</w>
জানীয়</w>
জানীর</w>
জানু
জানু</w>
জানুর</w>
জানুরারি</w>
জানুল
জানুল</w>
জানে
জানে,</w>
জানে</w>
জানে।</w>
জানেন
জানেন,</w>
জানেন</w>
জানেন।</w>
জানেনা
জানেনা</w>
জানেনা।</w>
জানের</w>
জানো
জানো</w>
জানোলি</w>
জান্
জান্তা</w>
জান্তার</w>
জান্তি
জান্তে
জান্তে,</w>
জান্তে</w>
জান্ত্র</w>
জান্দ
জান্দ</w>
জান্দানি</w>
জান্দানির</w>
জান্দার
জান্দার</w>
জান্দারান</w>
জান্দারানি</w>
জান্দাল
জান্দাল</w>
জান্দালি</w>
জান্দালের</w>
জান্দি</w>
জান্দিয়ালা</w>
জান্দী</w>
জান্দে
জান্দে</w>
জান্দের</w>
জান্দোল</w>
জান্দ্রা
জান্দ্রা</w>
জান্দ্রার</w>
জান্দ্রিনা</w>
জান্দ্রিয়া
জান্দ্রিয়া</w>
জান্দ্রিয়াতে</w>
জান্দ্রিয়ান</w>
জান্দ্রিয়ায়</w>
জান্দ্রিয়ার</w>
জান্দ্রীয়</w>
জান্দ্রু</w>
জান্দ্রে</w>
জান্দ্রো
জান্দ্রো</w>
জান্ন</w>
জান্বয়</w>
জান্য
জাম
জাম</w>
জামত
জামত</w>
জামতাড়া</w>
জামতাড়ার</w>
জামতারা</w>
জামতারাজা
জামতের</w>
জামতৈ
জামতো
জামত্
জামন
জামনগ
জামনা</w>
জামনালাল</w>
জামন্
জামস</w>
জামসমূ
জামসহ</w>
জামসে
জামসের</w>
জামা
জামা</w>
জামাই
জামাই</w>
জামাত
জামাত</w>
জামাতা
জামাতা</w>
জামাতার</w>
জামাতি</w>
জামাতিয়া</w>
জামাতীয়</w>
জামাতুল</w>
জামাতে</w>
জামাতের</w>
জামান
জামান,</w>
জামান</w>
জামান।</w>
জামানা
জামানা</w>
জামানার</w>
জামানি</w>
জামানিয়া</w>
জামানির</w>
জামানে</w>
জামানের</w>
জামানো</w>
জামাম
জামায়
জামায়</w>
জামায়া
জামায়াত
জামায়াত</w>
জামায়াতু</w>
জামায়াতে</w>
জামায়াতের</w>
জামায়েত</w>
জামার</w>
জামারা
জামারায়</w>
জামার্
জামাল
জামাল</w>
জামালা</w>
জামালী
জামালী</w>
জামালু
জামালুল</w>
জামালুলাই
জামালুল্
জামালে</w>
জামালের</w>
জামালেশ্বরে</w>
জামালেশ্বরের</w>
জামি
জামি</w>
জামিকা</w>
জামিন
জামিন,</w>
জামিন</w>
জামিনা</w>
জামিনে</w>
জামিনের</w>
জামিনেশ
জামিনেশন</w>
জামিন্দা
জামিয়
জামিয়া</w>
জামিয়াই
জামিয়াত
জামিয়াত</w>
জামিয়াতুল</w>
জামিয়ায়</w>
জামিয়ার</w>
জামিয়ালি
জামির</w>
জামিল
জামিল</w>
জামিলা</w>
জামিলার</w>
জামিলুর</w>
জামিলের</w>
জামিশ
জামু
জামুখার</w>
জামুর</w>
জামুরিয়া</w>
জামুরিয়ার</w>
জামুর্
জামুল</w>
জামে
জামে,</w>
জামে</w>
জামেন
জামেনা</w>
জামের</w>
জামেল</w>
জামো
জামোট</w>
জাম্
জাম্প
জাম্প</w>
জাম্পা</w>
জাম্পার</w>
জাম্পার।</w>
জাম্পি
জাম্পিয়ে
জাম্পে
জাম্পে</w>
জাম্পের</w>
জাম্ব
জাম্বা
জাম্বালে
জাম্বি</w>
জাম্বিক
জাম্বিক,</w>
জাম্বিক</w>
জাম্বিকান
জাম্বিকান</w>
জাম্বিকীয়</w>
জাম্বিকে</w>
জাম্বিকের</w>
জাম্বিয়</w>
জাম্বিয়া
জাম্বিয়া</w>
জাম্বিয়াতে</w>
জাম্বিয়ান</w>
জাম্বিয়ায়</w>
জাম্বিয়ার</w>
জাম্বিলির</w>
জাম্বীয়</w>
জাম্বু
জাম্বু</w>
জাম্বুরা
জাম্বুরা</w>
জাম্বুরায়</w>
জাম্বুরি
জাম্বুরি</w>
জাম্বুরিতে</w>
জাম্বুরী</w>
জাম্বে
জাম্বো
জাম্বো</w>
জাম্মা</w>
জাম্মালামা
জাম্মিল
জাম্মিল</w>
জাম্মু</w>
জাম্মুল</w>
জাম্মেল</w>
জাম্মেলুল্
জাম্যাতে</w>
জায়
জায়,</w>
জায়</w>
জায়।</w>
জায়া
জায়া</w>
জায়াতে</w>
জায়ান
জায়ান</w>
জায়ানভের</w>
জায়ান্
জায়ান্দ</w>
জায়ায়</w>
জায়ার,</w>
জায়ার</w>
জায়ারায়</w>
জায়ারে
জায়ারে</w>
জায়ে
জায়েন</w>
জায়েন্
জায়েন্দে</w>
জায়ের</w>
জায়েল
জায়েল</w>
জার
জার,</w>
জার</w>
জার।</w>
জারও</w>
জারকে</w>
জারণ
জারণ</w>
জারণে</w>
জারণের</w>
জারহ</w>
জারহা
জারহার্
জারহে
জারা
জারা</w>
জারাই</w>
জারাইব
জারাখ
জারাজাতে</w>
জারাতু
জারাতে</w>
জারান্দো
জারামানা</w>
জারামানার</w>
জারায়</w>
জারার</w>
জারারা
জারারা</w>
জারার্
জারাল্
জারি
জারি</w>
জারিকরণ</w>
জারিকরণের</w>
জারিকরা</w>
জারিকা
জারিকা</w>
জারিকার</w>
জারিকার।</w>
জারিকারী</w>
জারিকৃত</w>
জারিকে</w>
জারিত</w>
জারিতে</w>
জারিন
জারিন,</w>
জারিন</w>
জারিনা
জারিনা</w>
জারিনার</w>
জারিনীর</w>
জারিনের</w>
জারিয়
জারিয়া
জারিয়া</w>
জারিয়ান</w>
জারিয়ানের</w>
জারিয়ায়</w>
জারিয়ার</w>
জারিয়াল</w>
জারিয়েন</w>
জারির</w>
জারিলাল</w>
জারী
জারী,</w>
জারী</w>
জারীতে</w>
জারীদের</w>
জারীয়</w>
জারীর</w>
জারু
জারু</w>
জারুর</w>
জারুল
জারুল</w>
জারুলের</w>
জারুল্
জারূ
জারে
জারে,</w>
জারে</w>
জারে।</w>
জারেত</w>
জারেতা</w>
জারেতার</w>
জারেনী
জারেনো
জারেন্
জারের</w>
জারেলা</w>
জারেলার</w>
জারেলের</w>
জারেশ
জারেশন</w>
জারো
জারো</w>
জার্
জার্চ
জার্চনা</w>
জার্চ্চনা</w>
জার্তিক
জার্তিক</w>
জার্থিয়াম</w>
জার্ব</w>
জার্ম
জার্মনির</w>
জার্মনীর</w>
জার্মনের</w>
জার্মান
জার্মান,</w>
জার্মান</w>
জার্মান।</w>
জার্মানাই
জার্মানি
জার্মানি</w>
জার্মানি।</w>
জার্মানিক,</w>
জার্মানিক</w>
জার্মানিকা
জার্মানিকা</w>
জার্মানিকৃত
জার্মানিকে
জার্মানিকে</w>
জার্মানিকেই</w>
জার্মানিতে
জার্মানিতে,</w>
জার্মানিতে</w>
জার্মানিতে।</w>
জার্মানিয়</w>
জার্মানিয়া</w>
জার্মানিয়ার</w>
জার্মানির</w>
জার্মানী
জার্মানী,</w>
জার্মানী</w>
জার্মানীতে</w>
জার্মানীয়</w>
জার্মানীর</w>
জার্মানে
জার্মানে</w>
জার্মানের</w>
জার্মামে</w>
জার্মার</w>
জার্মি
জার্মিনে
জার্মে
জার্মেনিয়াম
জার্মেনিয়াম</w>
জার্মেনিয়ামে</w>
জার্মেনিয়ামের</w>
জার্মো
জার্য
জাল
জাল</w>
জালা
জালা</w>
জালাই
জালাই</w>
জালাইবি</w>
জালাত</w>
জালান</w>
জালানের</w>
জালান্ধারের</w>
জালায়
জালার</w>
জালাল
জালাল</w>
জালালা
জালালাইন,</w>
জালালাইনের</w>
জালালানি</w>
জালালি</w>
জালালিয়া</w>
জালালিল</w>
জালালী</w>
জালালু
জালালের</w>
জালি
জালি</w>
জালিক
জালিক</w>
জালিকা
জালিকা</w>
জালিকার</w>
জালিকে</w>
জালিতে</w>
জালিন</w>
জালিনা</w>
জালিন্
জালিয়া
জালিয়া</w>
জালিয়াত
জালিয়াত</w>
জালিয়াতি
জালিয়াতি</w>
জালিয়াতিকে</w>
জালিয়াতির</w>
জালিয়াতের</w>
জালিয়ান
জালিয়ার
জালিয়ার</w>
জালির</w>
জালিল</w>
জালী
জালী</w>
জালীর</w>
জালু
জালুর</w>
জালে
জালে,</w>
জালে</w>
জালে।</w>
জালেও</w>
জালেন।</w>
জালের</w>
জালেলার</w>
জালো
জালো</w>
জালোল
জাল্
জাহা
জাহা</w>
জাহাত</w>
জাহান
জাহান,</w>
জাহান.</w>
জাহান</w>
জাহান।</w>
জাহানগি
জাহানগু
জাহানা
জাহানার</w>
জাহানারা</w>
জাহানি</w>
জাহানিয়া</w>
জাহানিয়ান</w>
জাহানীর</w>
জাহানে</w>
জাহানের</w>
জাহান্
জাহান্দ
জাহান্দার</w>
জাহান্দারি</w>
জাহার,</w>
জাহার</w>
জাহারা</w>
জাহারুল</w>
জাহারে</w>
জাহারের</w>
জাহালিনের</w>
জি
জি</w>
জিক
জিক,</w>
জিক</w>
জিক।</w>
জিকন
জিকনের</w>
জিকম
জিকমান
জিকমে
জিকম্প্রি
জিকর,</w>
জিকর</w>
জিকরণ
জিকরণ</w>
জিকরা</w>
জিকরাজন
জিকরাজনৈতিক</w>
জিকরিয়া</w>
জিকরিল্
জিকরুল</w>
জিকরের</w>
জিকলিন</w>
জিকা
জিকা</w>
জিকাই</w>
জিকাতা</w>
জিকাতে</w>
জিকান্দি
জিকামা</w>
জিকামের</w>
জিকায়,</w>
জিকায়</w>
জিকার,</w>
জিকার</w>
জিকার।</w>
জিকার্
জিকাল
জিকাল</w>
জিকালে
জিকালে,</w>
জিকি
জিকি</w>
জিকিকরণের</w>
জিকির</w>
জিকী
জিকু
জিকু</w>
জিকুরু</w>
জিকে
জিকে</w>
জিকেই</w>
জিকেন্দা</w>
জিকের</w>
জিকেল
জিকেল</w>
জিকো
জিকো</w>
জিক্
জিক্যাল
জিক্যাল</w>
জিক্যালি</w>
জিক্যালে</w>
জিক্স</w>
জিত
জিত</w>
জিত।</w>
জিতবে</w>
জিতা
জিতা</w>
জিতান,</w>
জিতান</w>
জিতার</w>
জিতারী</w>
জিতিন</w>
জিতিয়ে</w>
জিতিয়েছিল।</w>
জিতিয়েছিলেন।</w>
জিতু
জিতু</w>
জিতুর</w>
জিতে
জিতে,</w>
জিতে</w>
জিতে।</w>
জিতেছ
জিতেছিল
জিতেছিল,</w>
জিতেছিল</w>
জিতেছিল।</w>
জিতেছিলেন
জিতেছিলেন,</w>
জিতেছিলেন.</w>
জিতেছিলেন</w>
জিতেছিলেন।</w>
জিতেছিলো
জিতেছিলো</w>
জিতেছে</w>
জিতেছে।</w>
জিতেন,</w>
জিতেন</w>
জিতেন।</w>
জিতেনি।</w>
জিতেন্দ্র
জিতেন্দ্র,</w>
জিতেন্দ্র</w>
জিতের</w>
জিতেশ</w>
জিতো
জিত্
জিত্তো
জিত্বা</w>
জিত্রু
জিন
জিন,</w>
জিন.</w>
জিন</w>
জিন।</w>
জিনগ
জিনগত</w>
জিনগুলি
জিনগুলি</w>
জিনগুলিকে</w>
জিনগুলিতে</w>
জিনগুলিতে।</w>
জিনগুলির</w>
জিনগুলো
জিনগুলো</w>
জিনগুলোর</w>
জিনগ্রেশন</w>
জিনয়ে
জিনয়েশে
জিনা
জিনা,</w>
জিনা</w>
জিনাইন</w>
জিনাত
জিনাত</w>
জিনাতু
জিনাতে</w>
জিনান</w>
জিনানা,</w>
জিনানে</w>
জিনায়</w>
জিনার
জিনার</w>
জিনারা</w>
জিনারের</w>
জিনাল
জিনাল</w>
জিনালের</w>
জিনাল্
জিনি
জিনি</w>
জিনিউ
জিনিউ</w>
জিনিত</w>
জিনিতাত্ত্বিক
জিনিয়
জিনিয়া
জিনিয়া</w>
জিনিয়াতে</w>
জিনিয়ান
জিনিয়ান</w>
জিনিয়ায়</w>
জিনিয়ার
জিনিয়ার,</w>
জিনিয়ার</w>
জিনিয়ার।</w>
জিনিয়ারকে</w>
জিনিয়ারি
জিনিয়ারের</w>
জিনিয়ার্
জিনির</w>
জিনী
জিনী</w>
জিনীর</w>
জিনে
জিনে,</w>
জিনে</w>
জিনে।</w>
জিনেন্দ্র
জিনের</w>
জিনেল্
জিনেশ
জিনেশন</w>
জিনো
জিনো</w>
জিন্
জিন্ত
জিন্তা
জিন্তাও</w>
জিন্দ
জিন্দ</w>
জিন্দা
জিন্দা</w>
জিন্দানি</w>
জিন্দার</w>
জিন্দাল
জিন্দাল</w>
জিন্দালের</w>
জিন্দি
জিন্দে
জিন্দো</w>
জিন্যাল</w>
জিয়
জিয়</w>
জিয়া
জিয়া</w>
জিয়াই</w>
জিয়াইং</w>
জিয়াও</w>
জিয়াত
জিয়াতে</w>
জিয়ান
জিয়ান,</w>
জিয়ান</w>
জিয়ান।</w>
জিয়ানগ
জিয়ানগ্
জিয়ানা
জিয়ানা,</w>
জিয়ানা</w>
জিয়ানায়</w>
জিয়ানার</w>
জিয়ানি
জিয়ানি</w>
জিয়ানিকা
জিয়ানির</w>
জিয়ানী</w>
জিয়ানীয়</w>
জিয়ানের</w>
জিয়ান্
জিয়ান্তে
জিয়াম
জিয়াম</w>
জিয়ামসহ</w>
জিয়ামস্
জিয়ামা
জিয়ামে
জিয়ামে,</w>
জিয়ামে</w>
জিয়ামের</w>
জিয়াম্পিয়ে
জিয়ায়</w>
জিয়ার
জিয়ার</w>
জিয়ারা</w>
জিয়ারাম</w>
জিয়ারি</w>
জিয়ারিয়া</w>
জিয়ার্
জিয়াল
জিয়াল</w>
জিয়ালিকে</w>
জিয়ালু
জিয়ালো</w>
জিয়ে
জিয়ে</w>
জিয়ে।</w>
জিয়েছ
জিয়েছিল
জিয়েছিল,</w>
জিয়েছিল।</w>
জিয়েছিলেন।</w>
জিয়েছে।</w>
জিয়েন
জিয়েন</w>
জিয়েন্
জিয়ের</w>
জিয়েলা</w>
জির</w>
জিল
জিল</w>
জিলা
জিলা</w>
জিলাই
জিলাই</w>
জিলাইনে
জিলাতু
জিলাতে</w>
জিলানি
জিলানি</w>
জিলানিকে
জিলানিকে</w>
জিলানির</w>
জিলানী
জিলানী</w>
জিলানীর</w>
জিলান্
জিলার</w>
জিলারা</w>
জিলার্
জিলি
জিলি</w>
জিলিক</w>
জিলিকমা</w>
জিলিকা</w>
জিলিক্যাল</w>
জিলিন
জিলিন</w>
জিলিয়া</w>
জিলিয়ান
জিলিয়ান</w>
জিলিয়ার্
জিলির</w>
জিলিল
জিলিলিয়া</w>
জিলু
জিলে
জিলে</w>
জিলের</w>
জিলো
জিলো</w>
জিলোকা</w>
জিলোকে
জিল্
জিল্যা
জিল্যান্
জী
জী,</w>
জী</w>
জীত</w>
জীতে</w>
জীদের</w>
জীন</w>
জীব
জীব</w>
জীবই</w>
জীবইনি
জীবন.</w>
জীবন</w>
জীবর
জীবরক্ষ
জীবরাজ</w>
জীবা
জীবা</w>
জীবাত্মা</w>
জীবাদের</w>
জীবান
জীবার্
জীবি
জীবি</w>
জীবিক,</w>
জীবিক</w>
জীবিকরণের</w>
জীবিকা
জীবিকা</w>
জীবিকানির্বা
জীবিকায়</w>
জীবিকার</w>
জীবিকের</w>
জীবিক্রেতা</w>
জীবিক্রেতার</w>
জীবিত
জীবিত</w>
জীবিত।</w>
জীবিতা
জীবিতা</w>
জীবিতাকে</w>
জীবিতের</w>
জীবিত্ব</w>
জীবিত্বের</w>
জীবিনী
জীবিনীর</w>
জীবির</w>
জীবী
জীবী,</w>
জীবী</w>
জীবীত</w>
জীবীদের</w>
জীবীয়</w>
জীবীর</w>
জীবে
জীবে</w>
জীবের</w>
জীবো
জীব্
জীব্য
জীব্য</w>
জীব্যের</w>
জীয়</w>
জীর</w>
জু
জু</w>
জুন</w>
জুর
জুর,</w>
জুর</w>
জুর।</w>
জুরও</w>
জুরকে</w>
জুরহু
জুরা
জুরা</w>
জুরাই
জুরাইন</w>
জুরাত</w>
জুরান
জুরাম</w>
জুরার</w>
জুরারা
জুরি
জুরি</w>
জুরিকে</w>
জুরিতে</w>
জুরিয়া
জুরিয়া</w>
জুরিয়ারের</w>
জুরির</w>
জুরী
জুরী,</w>
জুরী</w>
জুরীতে</w>
জুরু
জুরু</w>
জুরুল</w>
জুরে
জুরে</w>
জুরে।</w>
জুরের</w>
জুরেল</w>
জুরো
জুর্
জুর্বিন্দ্র</w>
জুর্বে
জুর্ম</w>
জুল
জুল</w>
জুলা
জুলা</w>
জুলাই
জুলাই</w>
জুলাইবী
জুলাইস</w>
জুলান</w>
জুলানা</w>
জুলার</w>
জুলার্
জুলি
জুলি</w>
জুলিকা
জুলিকা</w>
জুলিকাই</w>
জুলিকার</w>
জুলিতে</w>
জুলিয়</w>
জুলিয়া
জুলিয়া</w>
জুলিয়াও</w>
জুলিয়ান,</w>
জুলিয়ান</w>
জুলিয়ানা</w>
জুলিয়ানার</w>
জুলিয়ানের</w>
জুলিয়ার</w>
জুলিয়ে
জুলিয়েত</w>
জুলিয়েত্তা</w>
জুলিয়েন</w>
জুলিয়েনের</w>
জুলী</w>
জুলীতে</w>
জুলীয়</w>
জুলু
জুলু</w>
জুলুর</w>
জুলুল্যান্
জুলে
জুলে,</w>
জুলে</w>
জুলেখা
জুলেখা</w>
জুলেত্তা</w>
জুলেনিক</w>
জুলের</w>
জুলেশ
জুলেশন</w>
জুলো</w>
জুল্
জুল্যান্
জে
জে,</w>
জে</w>
জে।</w>
জেছ
জেছিলাম</w>
জেছে</w>
জেত
জেত</w>
জেতা
জেতা</w>
জেতাকে</w>
জেতাতে</w>
জেতাতে।</w>
জেতাদের</w>
জেতান</w>
জেতান।</w>
জেতানো
জেতায়</w>
জেতায়ে</w>
জেতার</w>
জেতাল
জেতি
জেতি</w>
জেতিকা</w>
জেতিনি</w>
জেতু
জেতুর</w>
জেতে</w>
জেতে।</w>
জেতেন
জেতেন</w>
জেতেন।</w>
জেত্তা</w>
জেত্তিকে</w>
জেত্তো</w>
জেন
জেন,</w>
জেন.</w>
জেন</w>
জেন।</w>
জেনগ
জেনগি
জেনগি</w>
জেনগির</w>
জেনগুলির</w>
জেনগুলোর</w>
জেনতুন</w>
জেনভে
জেনভেন
জেনা
জেনা,</w>
জেনা</w>
জেনাই
জেনাত</w>
জেনাতে</w>
জেনানা
জেনানা</w>
জেনানাটি</w>
জেনানায়</w>
জেনানার</w>
জেনার
জেনার</w>
জেনার।</w>
জেনারকে</w>
জেনারা
জেনারা</w>
জেনারাল
জেনারাল</w>
জেনারালাই
জেনারালিতাত
জেনারালিতাত</w>
জেনারে
জেনারের</w>
জেনারেল
জেনারেল</w>
জেনারেলি
জেনারেলে</w>
জেনারেলের</w>
জেনারেল্
জেনারেশ
জেনারেশন</w>
জেনারো</w>
জেনার্যাল
জেনাল
জেনি
জেনি</w>
জেনিউ</w>
জেনিক</w>
জেনিক।</w>
জেনিকা</w>
জেনিকুলে
জেনিক্
জেনিক্রের</w>
জেনিক্স</w>
জেনিত</w>
জেনিন</w>
জেনিয়
জেনিয়া
জেনিয়া</w>
জেনিয়াতে</w>
জেনিয়াম</w>
জেনিয়ামের</w>
জেনিয়ালি
জেনিয়েন</w>
জেনির</w>
জেনী
জেনে
জেনে,</w>
জেনে</w>
জেনে।</w>
জেনেছ
জেনেছিলেন</w>
জেনেছিলেন।</w>
জেনেনগেন</w>
জেনেনে</w>
জেনেনের</w>
জেনেন্
জেনের</w>
জেনেলিয়া</w>
জেনেলির</w>
জেনেশন</w>
জেনেশু
জেনেশেন</w>
জেনো
জেনো</w>
জেনোগ্
জেনোলাইসি
জেন্
জেন্তিনো
জেন্দ
জেন্দার</w>
জেন্দ্র
জেন্দ্র</w>
জেন্দ্রেন</w>
জের</w>
জেল
জেল</w>
জেলা
জেলা</w>
জেলাও</w>
জেলাত</w>
জেলাতে
জেলাতে</w>
জেলান</w>
জেলানা</w>
জেলানিয়</w>
জেলান্তিক</w>
জেলান্তিকের</w>
জেলাম</w>
জেলায়
জেলায়,</w>
জেলায়</w>
জেলায়।</w>
জেলার
জেলার,</w>
জেলার</w>
জেলার।</w>
জেলারও</w>
জেলারা
জেলারা</w>
জেলালী</w>
জেলালের</w>
জেলি
জেলি</w>
জেলিক</w>
জেলিকা</w>
জেলিকান</w>
জেলিকাল</w>
জেলিকো
জেলিকো</w>
জেলিক্যাল
জেলিক্যাল</w>
জেলিতা</w>
জেলিন
জেলিন,</w>
জেলিন</w>
জেলিনা
জেলিনা</w>
জেলিনে
জেলিনে</w>
জেলিনো</w>
জেলিয়
জেলিয়া
জেলিয়াম</w>
জেলিয়ার</w>
জেলির</w>
জেলী</w>
জেলীর</w>
জেলু
জেলে
জেলে,</w>
জেলে</w>
জেলে।</w>
জেলেও</w>
জেলেন
জেলেন</w>
জেলেনা</w>
জেলেনিয়া</w>
জেলেনে
জেলের</w>
জেলেলিক</w>
জেলো
জেলো</w>
জেল্
জেল্ম</w>
জেশ
জেশ</w>
জেশন</w>
জেশান,</w>
জেশান.</w>
জেশান</w>
জেশি
জেশি</w>
জেশুর</w>
জেশের</w>
জেশ্বর
জেশ্বর</w>
জেশ্বরী</w>
জেশ্বরে।</w>
জো
জো</w>
জোগ
জোগ</w>
জোগা
জোগা</w>
জোগাই
জোগাড়
জোগাড়</w>
জোগাত
জোগাতে</w>
জোগাতেন।</w>
জোগান
জোগান</w>
জোগানের</w>
জোগানো
জোগামায়া</w>
জোগায়,</w>
জোগায়</w>
জোগায়।</w>
জোগালে
জোগালেও</w>
জোগি
জোগি</w>
জোগিন্দ
জোগিন্দার</w>
জোগিন্দার।</w>
জোগু
জোগুলাম্বা</w>
জোগের</w>
জোগ্
জোগ্যা
জোগ্রা
জোল
জোল</w>
জোলা
জোলা</w>
জোলাই</w>
জোলান্
জোলায়</w>
জোলার
জোলার</w>
জোলি
জোলি</w>
জোলিকে</w>
জোলিনির</w>
জোলিয়
জোলিয়ে
জোলিয়ে,</w>
জোলিয়েত</w>
জোলির</w>
জোলু
জোলেখা</w>
জোলেন</w>
জোলো
জোলোকিয়া</w>
জোলোগ্রা
জোল্
জোল্যান্
জ্
জ্ঞ
জ্ঞ্যা
জ্ঞ্যা</w>
জ্তাল</w>
জ্ব
জ্ব</w>
জ্বর
জ্বর,</w>
জ্বর</w>
জ্বরকে</w>
জ্বরা
জ্বরে</w>
জ্বরের</w>
জ্বল
জ্বল</w>
জ্বলা</w>
জ্বলার</w>
জ্বলিত</w>
জ্বলিয়া</w>
জ্বলীয়</w>
জ্বলে</w>
জ্বলে।</w>
জ্বলেছিল
জ্বলেনি
জ্বলের</w>
জ্বলো</w>
জ্বল্
জ্বল্য
জ্বল্য</w>
জ্বল্যে</w>
জ্বল্যের</w>
জ্বা
জ্বা</w>
জ্বাল
জ্বাল</w>
জ্বালা
জ্বালা</w>
জ্বালাই
জ্বালাইস</w>
জ্বালাও</w>
জ্বালাত
জ্বালাতে</w>
জ্বালান।</w>
জ্বালানি
জ্বালানি</w>
জ্বালানিকাঠ
জ্বালানিকে</w>
জ্বালানিতে
জ্বালানিতে</w>
জ্বালানির</w>
জ্বালানী
জ্বালানী,</w>
জ্বালানী</w>
জ্বালানীতে</w>
জ্বালানীর</w>
জ্বালানো
জ্বালানো</w>
জ্বালাম
জ্বালামুখ
জ্বালামুখ</w>
জ্বালামুখে</w>
জ্বালায়</w>
জ্বালায়।</w>
জ্বালার</w>
জ্বালালে</w>
জ্বালালেন।</w>
জ্বালিকা</w>
জ্বালিয়ে,</w>
জ্বালিয়ে</w>
জ্বালিয়েছিলেন</w>
জ্বালিয়েছে।</w>
জ্বি</w>
জ্বিত</w>
জ্বিন</w>
জ্বিল
জ্বী
জ্বীন</w>
জ্বে
জ্বে</w>
জ্বের</w>
জ্বেলে</w>
জ্ব্
জ্ম
জ্ম</w>
জ্মা</w>
জ্মি</w>
জ্মিয়ান
জ্ম্
জ্য
জ্য</w>
জ্য়
জ্যা
জ্যা</w>
জ্যাইসার</w>
জ্যাতি
জ্যান
জ্যান</w>
জ্যানা</w>
জ্যানি
জ্যানি</w>
জ্যানি।</w>
জ্যানে
জ্যান্
জ্যান্ত</w>
জ্যাম
জ্যাম</w>
জ্যামস</w>
জ্যামাই
জ্যামার</w>
জ্যামার্
জ্যামি
জ্যামি</w>
জ্যামিক</w>
জ্যামিতি
জ্যামিতি</w>
জ্যামিতিক
জ্যামিতিক,</w>
জ্যামিতিক</w>
জ্যামিতিতে,</w>
জ্যামিতিতে</w>
জ্যামিতির</w>
জ্যামের</w>
জ্যাম্ব</w>
জ্যাম্বিয়া</w>
জ্যায়
জ্যায়ের</w>
জ্যার
জ্যার</w>
জ্যারা
জ্যারি</w>
জ্যারে
জ্যারো
জ্যাল
জ্যাল</w>
জ্যালিয়ান
জ্যাল্
জ্যু
জ্যু</w>
জ্যুর</w>
জ্যুরি
জ্যুল
জ্যুল</w>
জ্যুলি
জ্যুলেশ
জ্যে
জ্যে</w>
জ্যের</w>
জ্যো
জ্র
জ্র,</w>
জ্র</w>
জ্র।</w>
জ্রহা
জ্রা
জ্রায়
জ্রি
জ্রির</w>
জ্রে
জ্রের</w>
ঝ
ঞ
ঞ্
ঞ্চ
ঞ্চ</w>
ঞ্চনা</w>
ঞ্চল
ঞ্চল</w>
ঞ্চলা</w>
ঞ্চলাইন</w>
ঞ্চলাইনের</w>
ঞ্চলার
ঞ্চলার</w>
ঞ্চলি</w>
ঞ্চলিক
ঞ্চলিক,</w>
ঞ্চলিক</w>
ঞ্চলিক।</w>
ঞ্চলিতে</w>
ঞ্চলিয়</w>
ঞ্চলির</w>
ঞ্চলী
ঞ্চলীয়</w>
ঞ্চলীর</w>
ঞ্চলে
ঞ্চলে,</w>
ঞ্চলে</w>
ঞ্চলে।</w>
ঞ্চলেও</w>
ঞ্চলের</w>
ঞ্চল্
ঞ্চল্য
ঞ্চল্য</w>
ঞ্চল্যের</w>
ঞ্চা
ঞ্চা</w>
ঞ্চাই
ঞ্চাই</w>
ঞ্চাইসে</w>
ঞ্চাও</w>
ঞ্চান
ঞ্চান,</w>
ঞ্চান</w>
ঞ্চান্
ঞ্চান্ন</w>
ঞ্চামিন</w>
ঞ্চামৃত
ঞ্চামৃত</w>
ঞ্চায়
ঞ্চায়</w>
ঞ্চায়েত
ঞ্চায়েত</w>
ঞ্চায়েতি
ঞ্চায়েতি</w>
ঞ্চায়েতী</w>
ঞ্চায়েতে</w>
ঞ্চায়েতের</w>
ঞ্চার
ঞ্চার,</w>
ঞ্চার</w>
ঞ্চার।</w>
ঞ্চারও</w>
ঞ্চারকে</w>
ঞ্চারণ
ঞ্চারণ</w>
ঞ্চারণার</w>
ঞ্চারণে</w>
ঞ্চারণের</w>
ঞ্চারি</w>
ঞ্চারিত</w>
ঞ্চারী
ঞ্চারী</w>
ঞ্চারে</w>
ঞ্চারের</w>
ঞ্চার্
ঞ্চাল
ঞ্চাল</w>
ঞ্চালি</w>
ঞ্চালিকা
ঞ্চালিত
ঞ্চালিত</w>
ঞ্চালিত।</w>
ঞ্চালী</w>
ঞ্চালে</w>
ঞ্চালের</w>
ঞ্চি
ঞ্চি</w>
ঞ্চিক
ঞ্চিক।</w>
ঞ্চিকের</w>
ঞ্চিত
ঞ্চিত</w>
ঞ্চিত।</w>
ঞ্চিতা</w>
ঞ্চিতাকে</w>
ঞ্চিতে,</w>
ঞ্চিতে</w>
ঞ্চিয়
ঞ্চির</w>
ঞ্চিলি</w>
ঞ্চী
ঞ্চী</w>
ঞ্চু
ঞ্চু</w>
ঞ্চুর</w>
ঞ্চুরা</w>
ঞ্চুরি
ঞ্চুরি</w>
ঞ্চুরিকারী</w>
ঞ্চুরিকারীদের</w>
ঞ্চুরিতে</w>
ঞ্চুরিয়
ঞ্চুরিয়া</w>
ঞ্চুরিয়াতে,</w>
ঞ্চুরিয়ান
ঞ্চুরিয়ান</w>
ঞ্চুরিয়ানের</w>
ঞ্চুরিয়ায়</w>
ঞ্চুরিয়ার</w>
ঞ্চুরির</w>
ঞ্চুরী
ঞ্চুরী</w>
ঞ্চুরীর</w>
ঞ্চুরুর</w>
ঞ্চে
ঞ্চে,</w>
ঞ্চে</w>
ঞ্চে।</w>
ঞ্চেত</w>
ঞ্চেতে</w>
ঞ্চেন</w>
ঞ্চেন্
ঞ্চেন্ত</w>
ঞ্চেন্দ্রিয়ের</w>
ঞ্চের</w>
ঞ্চেল্
ঞ্জ</w>
ট
ট,</w>
ট</w>
টন</w>
টা
টা</w>
টাই
টাই</w>
টাইউই</w>
টাইন
টাইন,</w>
টাইন</w>
টাইন।</w>
টাইনে
টাইনে</w>
টাইনের</w>
টাইনো
টাইনো</w>
টাইন্
টাইব
টাইবাল্
টাইবি</w>
টাইবিন</w>
টাইবে
টাইব্রে
টাইস
টাইস,</w>
টাইস</w>
টাইসন</w>
টাইসহার্
টাইসা</w>
টাইসিং</w>
টাইস্
টাইস্ট</w>
টাও</w>
টাত
টাত</w>
টাতা
টাতার</w>
টাতারে</w>
টাতারের</w>
টাতি
টাতিল
টাতে
টাতে,</w>
টাতে</w>
টাতে।</w>
টাতেন</w>
টাতেন।</w>
টাতো</w>
টাত্ম
টান
টান,</w>
টান.</w>
টান</w>
টান।</w>
টানগ
টানয়ে
টানা
টানা,</w>
টানা</w>
টানা।</w>
টানাই
টানাইস</w>
টানাইসে</w>
টানাটানা</w>
টানাটানি</w>
টানাটানি।</w>
টানাটানির</w>
টানাতে</w>
টানানো</w>
টানাম
টানাম</w>
টানায়</w>
টানার
টানার</w>
টানারি</w>
টানারের</w>
টানালেখা</w>
টানি
টানি</w>
টানি।</w>
টানিক
টানিক</w>
টানিক।</w>
টানিকা
টানিকা</w>
টানিকায়</w>
টানিকার</w>
টানিকাল</w>
টানিকে</w>
টানিকের</w>
টানিক্
টানিক্যাল</w>
টানিতে</w>
টানিয়
টানিয়া
টানিয়া</w>
টানিয়াতে</w>
টানিয়ান
টানিয়ান</w>
টানিয়াম
টানিয়াম</w>
টানিয়ে</w>
টানির</w>
টানিল</w>
টানিলাই
টানী
টানী,</w>
টানী</w>
টানীদের</w>
টানীয়</w>
টানে
টানে,</w>
টানে</w>
টানে।</w>
টানেন,</w>
টানেন</w>
টানেন।</w>
টানের</w>
টানেল
টানেল</w>
টানেলি
টানেলে</w>
টানেলের</w>
টানো
টানো</w>
টান্
টান্দা</w>
টান্দ্র</w>
টান্ন</w>
টাম
টাম</w>
টামত
টামন.</w>
টামনা
টামসং
টামস্
টামা
টামাই
টামাইন</w>
টামাইসিন</w>
টামাত্র</w>
টামার
টামার</w>
টামারা</w>
টামারি</w>
টামালে
টামালে</w>
টামি
টামিক</w>
টামিন
টামিন,</w>
টামিন</w>
টামিনগুলি</w>
টামিনগুলিকে</w>
টামিনা</w>
টামিনার
টামিনার</w>
টামিনের</w>
টামিনো
টামিয়া</w>
টামু
টামূ
টামে
টামে</w>
টামেনিয়া</w>
টামেনে
টামেন্
টামের</w>
টামো
টাম্পা
টাম্পু
টাম্পু</w>
টাম্পে
টাম্ব
টাম্বল
টাম্বলার</w>
টাম্বলি
টাম্বুরিন</w>
টাম্বো
টাম্যারান</w>
টায়
টায়,</w>
টায়</w>
টায়।</w>
টায়া
টায়া</w>
টায়াম
টায়াম</w>
টায়ামের</w>
টায়াম্বা
টায়ায়ের</w>
টায়ার
টায়ার,</w>
টায়ার</w>
টায়ারকে</w>
টায়ারানা
টায়ারি
টায়ারে</w>
টায়ারের</w>
টায়ার্
টায়ালিন.</w>
টায়ে
টায়েন</w>
টার
টার,</w>
টার</w>
টার।</w>
টারও</w>
টারকে</w>
টারহ
টারহা
টারহাইন
টারহাম</w>
টারহিনির</w>
টারহু
টারহে
টারহ্যান্
টারা
টারা</w>
টারাই
টারাইনা</w>
টারাজ</w>
টারাতু
টারান</w>
টারানা
টারানের</w>
টারান্
টারাম</w>
টারামান
টারামে</w>
টারায়
টারায়</w>
টারার</w>
টারারি</w>
টারাল
টারাল</w>
টারালি
টারি
টারি</w>
টারিক</w>
টারিকন,</w>
টারিকন</w>
টারিকে</w>
টারিতে
টারিতে</w>
টারিন,</w>
টারিন</w>
টারিনা</w>
টারিয়
টারিয়া
টারিয়া</w>
টারিয়ান
টারিয়ান,</w>
টারিয়ান</w>
টারিয়ানি
টারিয়াম</w>
টারিয়ার</w>
টারিয়াল
টারিয়াল</w>
টারিয়ালেও</w>
টারিয়ালের</w>
টারিয়ে
টারিয়েন</w>
টারির</w>
টারী
টারী,</w>
টারী</w>
টারীতে</w>
টারীদের</w>
টারীর</w>
টারু
টারে
টারে,</w>
টারে</w>
টারে।</w>
টারেনিয়ান,</w>
টারেনিয়ার</w>
টারেন্
টারের</w>
টারেল</w>
টারেলী</w>
টারেশ
টারেশন</w>
টারো
টারো</w>
টারোল
টার্
টার্চ
টার্চ</w>
টার্প
টার্পার
টার্পিন
টার্পিন</w>
টার্পিনো
টার্পেনয়ে
টার্ব</w>
টার্বাইন</w>
টার্বাইনগুলির</w>
টার্বাইনের</w>
টার্বি
টার্বিয়াম</w>
টার্বিয়ামের</w>
টার্বো
টার্বো</w>
টার্বোগ্যা
টার্ব্যুলেন্
টার্ম
টার্ম</w>
টার্মি
টার্মিন
টার্মিনা
টার্মিনাল
টার্মিনাল</w>
টার্মিনালি
টার্মিনালিয়া</w>
টার্মিনালে,</w>
টার্মিনালে</w>
টার্মিনালের</w>
টার্মিনে
টার্মিন্যাল</w>
টার্মে</w>
টার্মেন</w>
টার্মেনা
টার্মেলের</w>
টার্যা
টার্যান্
টাল
টাল</w>
টালা
টালা</w>
টালাই
টালাইসি
টালানে</w>
টালাম
টালাম</w>
টালামের</w>
টালার
টালার</w>
টালারিয়ার</w>
টালার্
টালি
টালি</w>
টালিক</w>
টালিকরণ</w>
টালিকরণের</w>
টালিকা
টালিকা</w>
টালিকাও</w>
টালিকাতে</w>
টালিকায়</w>
টালিকার
টালিকার</w>
টালিতে
টালিতে</w>
টালিন</w>
টালিন।</w>
টালিনা</w>
টালিনার</w>
টালিয়
টালিয়</w>
টালিয়া
টালিয়া</w>
টালিয়ান
টালিয়ান</w>
টালিয়ানের</w>
টালিয়াম</w>
টালিয়ার</w>
টালির</w>
টালিল</w>
টালী
টালী</w>
টালীয়</w>
টালীর</w>
টালু
টালুরা</w>
টালে
টালে</w>
টালে।</w>
টালেও</w>
টালেন</w>
টালের</w>
টালো
টালোল
টাল্
টাল্যা
টি
টি</w>
টিং</w>
টিউ
টিউ</w>
টিউন্
টিউপ
টিউপা
টিক
টিক,</w>
টিক</w>
টিক।</w>
টিকটি</w>
টিকদের</w>
টিকনগুলির</w>
টিকনার
টিকন্
টিকম
টিকমিশ
টিকয়ে
টিকর
টিকর</w>
টিকরা</w>
টিকরি
টিকরী</w>
টিকরো
টিকর্তৃ
টিকর্পো
টিকল
টিকল</w>
টিকলী
টিকলী</w>
টিকা
টিকা</w>
টিকাই
টিকাই</w>
টিকাও</w>
টিকাতে
টিকাতে</w>
টিকান
টিকান,</w>
টিকান</w>
টিকানা
টিকানে</w>
টিকানেনি</w>
টিকানের</w>
টিকান্দায়</w>
টিকান্দি</w>
টিকাম
টিকাম</w>
টিকায়</w>
টিকার
টিকার,</w>
টিকার</w>
টিকারা</w>
টিকারি
টিকারির</w>
টিকারের</w>
টিকাল
টিকাল</w>
টিকালা
টিকালো
টিকি
টিকি</w>
টিকিয়
টিকিয়া
টিকিয়া</w>
টিকিয়ান</w>
টিকিয়ে</w>
টিকির</w>
টিকিলি
টিকিলি</w>
টিকী
টিকু
টিকু</w>
টিকুরী</w>
টিকুলা
টিকুলাম
টিকুলাম</w>
টিকুলামে</w>
টিকুলামের</w>
টিকুলার,</w>
টিকুলার</w>
টিকুলী</w>
টিকুলে
টিকুলো
টিকে
টিকে,</w>
টিকে</w>
টিকে।</w>
টিকেই</w>
টিকেছিল,</w>
টিকেছিল</w>
টিকেছিল।</w>
টিকেন
টিকেনি
টিকেনি।</w>
টিকেন্দ্র
টিকের</w>
টিকেল
টিকেল</w>
টিকেলে</w>
টিকেলের</w>
টিকেশ
টিকেশন</w>
টিকো
টিকো</w>
টিকোগুলো
টিকোগুলোর</w>
টিক্
টিক্যা
টিক্যানা
টিক্যান্
টিক্যাল
টিক্যাল</w>
টিক্যালি</w>
টিক্যাল্
টিক্র
টিক্রম
টিক্রাইস্ট</w>
টিক্রিয়া</w>
টিক্রো
টিক্স</w>
টিত
টিত</w>
টিত।</w>
টিতম</w>
টিতে
টিতে,</w>
টিতে</w>
টিতে।</w>
টিতো</w>
টিত্ত
টিন
টিন,</w>
টিন.</w>
টিন</w>
টিন।</w>
টিনগার</w>
টিনগুলি</w>
টিনগুলির</w>
টিনগুলো
টিনগুলো</w>
টিনগুলোর</w>
টিনগ্
টিনয়ে
টিনা
টিনা,</w>
টিনা</w>
টিনা।</w>
টিনাই
টিনাইন
টিনাইন</w>
টিনাও</w>
টিনাটি
টিনাটি</w>
টিনাড়
টিনাড়</w>
টিনাতে
টিনাতে</w>
টিনাম
টিনাম</w>
টিনামাই
টিনামি
টিনামের</w>
টিনায়
টিনায়,</w>
টিনায়</w>
টিনায়।</w>
টিনার</w>
টিনাল
টিনাল</w>
টিনি
টিনি</w>
টিনি।</w>
টিনিউ
টিনিউ</w>
টিনিক</w>
টিনিকান</w>
টিনিকে</w>
টিনিকের</w>
টিনিকো
টিনিতে</w>
টিনিন
টিনিন</w>
টিনিনের</w>
টিনিয়া</w>
টিনিয়ান</w>
টিনিয়ানো</w>
টিনিয়ার</w>
টিনির</w>
টিনী
টিনী</w>
টিনীয়</w>
টিনে
টিনে</w>
টিনে।</w>
টিনেতায়ার</w>
টিনেন্
টিনের</w>
টিনেল
টিনেল</w>
টিনেলী</w>
টিনেলে</w>
টিনেলের</w>
টিনেলো
টিনো
টিনো</w>
টিন্
টিন্দ
টিন্যা
টিন্যাল</w>
টিন্যু
টিয়
টিয়</w>
টিয়া
টিয়া</w>
টিয়াই</w>
টিয়াও</w>
টিয়াড়
টিয়াতে</w>
টিয়ান
টিয়ান,</w>
টিয়ান</w>
টিয়ানা
টিয়ানা,</w>
টিয়ানা</w>
টিয়ানি</w>
টিয়ানী</w>
টিয়ানের</w>
টিয়ানো
টিয়ানো</w>
টিয়াম
টিয়াম</w>
টিয়ামে</w>
টিয়ামের</w>
টিয়াম্মা</w>
টিয়াম্যা
টিয়ায়</w>
টিয়ার
টিয়ার,</w>
টিয়ার</w>
টিয়ার।</w>
টিয়ারকে</w>
টিয়ারা
টিয়ারা</w>
টিয়ারি</w>
টিয়ারিতে</w>
টিয়ারিয়াম</w>
টিয়ারির</w>
টিয়ারী</w>
টিয়ারীতে</w>
টিয়ারীর</w>
টিয়ারে
টিয়ারে</w>
টিয়ারের</w>
টিয়ার্
টিয়াল
টিয়াল</w>
টিয়ালা</w>
টিয়ালার</w>
টিয়ালি
টিয়ালি</w>
টিয়ালির</w>
টিয়ালী,</w>
টিয়ালী</w>
টিয়ে
টিয়ে,</w>
টিয়ে</w>
টিয়ে।</w>
টিয়েছ
টিয়েছিল
টিয়েছিল।</w>
টিয়েছিলেন,</w>
টিয়েছিলেন</w>
টিয়েছিলেন।</w>
টিয়েছে</w>
টিয়েছে।</w>
টিয়েন
টিয়েন</w>
টিয়েনে</w>
টিয়েন্
টিয়ের</w>
টিয়েল
টিয়েল</w>
টিয়েলের</w>
টিয়েশারের</w>
টির</w>
টিল
টিল</w>
টিলা
টিলা</w>
টিলাই
টিলাইন</w>
টিলাও</w>
টিলাতে</w>
টিলাম
টিলামো
টিলায়</w>
টিলার
টিলার,</w>
টিলার</w>
টিলারি
টিলারি</w>
টিলারিতে</w>
টিলারির</w>
টিলারী</w>
টিলাল
টিলি
টিলি</w>
টিলিক</w>
টিলিন
টিলিন</w>
টিলিয়
টিলিয়া
টিলিয়া</w>
টিলিয়ান,</w>
টিলিয়ার</w>
টিলিয়ার্
টিলী
টিলীয়</w>
টিলু
টিলে
টিলে,</w>
টিলে</w>
টিলের</w>
টিলেশন</w>
টিলো
টিলো</w>
টিল্
টিল্য</w>
টিল্যান্
টিল্যের</w>
টু
টু</w>
টুর
টুর,</w>
টুর</w>
টুর।</w>
টুরা
টুরা</w>
টুরাতে</w>
টুরাম</w>
টুরায়</w>
টুরি
টুরি</w>
টুরিকাম</w>
টুরিকোন</w>
টুরিন
টুরিনি</w>
টুরিয়া
টুরিয়া</w>
টুরিয়ায়</w>
টুরির</w>
টুরু
টুরে
টুরে</w>
টুরের</w>
টুরো
টুরো</w>
টুর্
টুর্ণ</w>
টুল
টুল</w>
টুলা
টুলা</w>
টুলার</w>
টুলার্
টুলি
টুলি</w>
টুলিকী
টুলিতে</w>
টুলিয়া</w>
টুলিয়ান</w>
টুলির</w>
টুলী
টুলী,</w>
টুলী</w>
টুলু
টুলু</w>
টুলুর</w>
টুলুরি</w>
টুলে</w>
টুলেন</w>
টুলের</w>
টুলো
টে
টে,</w>
টে</w>
টে।</w>
টেছ
টেছাড়া</w>
টেছিল,</w>
টেছিল</w>
টেছিল।</w>
টেছিলেন</w>
টেছিলেন।</w>
টেছে</w>
টেছে।</w>
টেতে
টেতে</w>
টেত্তা
টেন
টেন,</w>
টেন.</w>
টেন</w>
টেন।</w>
টেনগুলি</w>
টেনয়ারে,</w>
টেনয়ে
টেনা
টেনা,</w>
টেনা</w>
টেনা।</w>
টেনাটিকে</w>
টেনাতে</w>
টেনান্
টেনায়ার</w>
টেনার</w>
টেনারহ
টেনারি
টেনারি</w>
টেনারের</w>
টেনালি</w>
টেনি
টেনি</w>
টেনি।</w>
টেনিক</w>
টেনিকয়ে
টেনিন</w>
টেনিয়
টেনিয়া
টেনিয়া</w>
টেনিয়াম</w>
টেনিয়ার</w>
টেনিয়ারি
টেনিয়ার্
টেনিয়াল</w>
টেনিয়েল
টেনিয়েল</w>
টেনী
টেনীয়</w>
টেনে
টেনে,</w>
টেনে</w>
টেনেছ
টেনেছিলেন</w>
টেনেছে</w>
টেনেন</w>
টেনেন্
টেনের</w>
টেনেলা</w>
টেনো
টেন্
টেন্দ্র</w>
টেন্যা
টেন্যান্
টের</w>
টেল
টেল</w>
টেলা
টেলা</w>
টেলাই
টেলাইন</w>
টেলামে
টেলার
টেলার</w>
টেলারের</w>
টেলার্মা
টেলি
টেলি</w>
টেলিক</w>
টেলিকনে
টেলিকম
টেলিকম</w>
টেলিকমস</w>
টেলিকমি
টেলিকমের</w>
টেলিকলের</w>
টেলিকা
টেলিকাল
টেলিকে</w>
টেলিক্রে
টেলিন
টেলিনো
টেলিয়
টেলিয়া
টেলিয়ান</w>
টেলিয়ানের</w>
টেলিয়ারের</w>
টেলিলি
টেলিলে
টেলীয়</w>
টেলুরাই
টেলুরিয়াম</w>
টেলুরিয়ামের</w>
টেলে
টেলে</w>
টেলে।</w>
টেলেও</w>
টেলেনো
টেলেন্
টেলের</w>
টেলেলা</w>
টেলো
টেলো</w>
টেশ
টেশ</w>
টেশন</w>
টেশান
টেশান</w>
টেশান।</w>
টেশানাল</w>
টেশানে
টেশানে</w>
টেশাস</w>
টেশি
টেশিয়া
টেশের</w>
টেশ্
টেশ্বর
টেশ্বর</w>
টেশ্বরকে</w>
টেশ্বরাম্মা
টেশ্বরীর</w>
টেশ্বরুলু</w>
টেশ্বরের</w>
টো
টো</w>
টোগ
টোগণ
টোগা</w>
টোগাড়
টোগু
টোগুলি</w>
টোগুলির</w>
টোগেনারিয়</w>
টোগের</w>
টোগো
টোগো</w>
টোগোগ্রা
টোগোলে
টোগোল্যান্
টোগ্
টোগ্রা
টোগ্রাম
টোগ্রাম</w>
টোগ্রামে
টোগ্রামের</w>
টোল
টোল</w>
টোলা
টোলা</w>
টোলাই
টোলাইসো
টোলায়</w>
টোলায়।</w>
টোলার
টোলার</w>
টোলি
টোলি</w>
টোলিন</w>
টোলিয়
টোলিয়া
টোলির</w>
টোলু</w>
টোলে
টোলে</w>
টোলে।</w>
টোলের</w>
টোলো</w>
টোল্
টোল্যান্
ট্
ট্ত</w>
ট্পদী</w>
ট্বি
ট্ম</w>
ট্মা</w>
ট্মাসে</w>
ট্ম্যা
ট্য
ট্য</w>
ট্য়</w>
ট্যা
ট্যা</w>
ট্যান
ট্যান</w>
ট্যানা</w>
ট্যানার</w>
ট্যানারি
ট্যানারি</w>
ট্যানারী
ট্যানালাই
ট্যানালাইসি
ট্যানি
ট্যানিক্স</w>
ট্যানিন,</w>
ট্যানিনের</w>
ট্যানিয়া
ট্যানেন্
ট্যানেলিয়ার</w>
ট্যানেলের</w>
ট্যানো
ট্যান্
ট্যান্যান্
ট্যাম
ট্যাম</w>
ট্যামস</w>
ট্যামসিন</w>
ট্যামানি</w>
ট্যামারানিয়ান</w>
ট্যামারিক্স</w>
ট্যামি
ট্যামি</w>
ট্যামিকে</w>
ট্যামিন</w>
ট্যামিনা</w>
ট্যামির</w>
ট্যামেল
ট্যাম্প
ট্যাম্পা</w>
ট্যাম্পাতে</w>
ট্যাম্ব
ট্যাম্বার
ট্যাম্যান</w>
ট্যায়ার,</w>
ট্যায়ার</w>
ট্যায়ারের</w>
ট্যার
ট্যার</w>
ট্যারা
ট্যারা</w>
ট্যারান্
ট্যারি
ট্যারিতে</w>
ট্যারেন
ট্যার্মিনা
ট্যাল
ট্যাল</w>
ট্যালা
ট্যালারিকো</w>
ট্যালি</w>
ট্যালে
ট্যালেন্
ট্যু
ট্যু</w>
ট্যুর
ট্যুর,</w>
ট্যুর</w>
ট্যুরও</w>
ট্যুরকে</w>
ট্যুরি
ট্যুরে</w>
ট্যুরে।</w>
ট্যুরের</w>
ট্যুর্
ট্যুলার</w>
ট্যুলে</w>
ট্যের</w>
ট্যো
ট্যো</w>
ট্র
ট্র</w>
ট্রয়
ট্রয়</w>
ট্রয়ার</w>
ট্রয়ে
ট্রয়ে</w>
ট্রয়ের</w>
ট্রা
ট্রা</w>
ট্রাই
ট্রাই</w>
ট্রাইং</w>
ট্রাইউই
ট্রাইন</w>
ট্রাইনে,</w>
ট্রাইন্
ট্রাইব
ট্রাইব</w>
ট্রাইবার্
ট্রাইবাল</w>
ট্রাইবু
ট্রাইব্যাল</w>
ট্রাইব্যু
ট্রাইব্রে
ট্রাইব্রো
ট্রাইসাই
ট্রাইসাম</w>
ট্রাইসো
ট্রাইস্টার</w>
ট্রাইস্তানের</w>
ট্রাইস্যা
ট্রাও</w>
ট্রাখ
ট্রাজান
ট্রাজানের</w>
ট্রাজিক্যাল</w>
ট্রাজিন</w>
ট্রাজে
ট্রান
ট্রান,</w>
ট্রান</w>
ট্রানা</w>
ট্রানাই
ট্রানো
ট্রান্
ট্রাম
ট্রাম</w>
ট্রামস</w>
ট্রামা
ট্রামাই
ট্রামাইনে</w>
ট্রামি
ট্রামিটার</w>
ট্রামু
ট্রামুরো
ট্রামে
ট্রামে</w>
ট্রামের</w>
ট্রাম্
ট্রাম্প
ট্রাম্প</w>
ট্রাম্পার
ট্রাম্পার,</w>
ট্রাম্পার</w>
ট্রাম্পার।</w>
ট্রাম্পারকে</w>
ট্রাম্পারের</w>
ট্রাম্পিনা</w>
ট্রাম্পে
ট্রাম্পের</w>
ট্রাম্পোলিন</w>
ট্রাম্বল
ট্রাম্বলের</w>
ট্রাম্বুল</w>
ট্রাম্যারা
ট্রায়
ট্রায়</w>
ট্রায়া
ট্রায়ান্
ট্রায়াম
ট্রায়াম্
ট্রায়াল
ট্রায়াল</w>
ট্রায়ালে,</w>
ট্রায়ালে</w>
ট্রায়ালের</w>
ট্রার</w>
ট্রারাজ</w>
ট্রারাল
ট্রার্
ট্রাল
ট্রাল</w>
ট্রালাই
ট্রালি
ট্রালের</w>
ট্রাল্
ট্রাষ্ট
ট্রাষ্ট,</w>
ট্রাষ্ট</w>
ট্রাষ্টি
ট্রাষ্টের</w>
ট্রি
ট্রি</w>
ট্রিক
ট্রিক,</w>
ট্রিক</w>
ট্রিক।</w>
ট্রিকটি</w>
ট্রিকমার্
ট্রিকলা
ট্রিকলের</w>
ট্রিকার</w>
ট্রিকাল</w>
ট্রিকু</w>
ট্রিকুলার</w>
ট্রিকুলে
ট্রিকুলেশ
ট্রিকুলেশন</w>
ট্রিকুলেশান</w>
ট্রিকে</w>
ট্রিকের</w>
ট্রিকেশ
ট্রিকো
ট্রিক্
ট্রিক্ট
ট্রিক্ট,</w>
ট্রিক্ট</w>
ট্রিক্টের</w>
ট্রিক্যাল
ট্রিক্যাল</w>
ট্রিক্যুলেশন</w>
ট্রিক্স</w>
ট্রিতে</w>
ট্রিন
ট্রিন,</w>
ট্রিন</w>
ট্রিনা</w>
ট্রিনি
ট্রিনি</w>
ট্রিনো
ট্রিনো</w>
ট্রিনোগুলো</w>
ট্রিন্
ট্রিয়
ট্রিয়</w>
ট্রিয়া
ট্রিয়া</w>
ট্রিয়ান</w>
ট্রিয়ানি</w>
ট্রিয়াম
ট্রিয়াম</w>
ট্রিয়ামার
ট্রিয়ামে</w>
ট্রিয়ামের</w>
ট্রিয়ায়</w>
ট্রিয়ার</w>
ট্রিয়ার্
ট্রিয়াল</w>
ট্রিয়ালিয়াল</w>
ট্রিয়ালের</w>
ট্রিয়ে
ট্রিয়েন
ট্রিয়েন্
ট্রিয়েল</w>
ট্রির</w>
ট্রিল
ট্রিল</w>
ট্রিলা
ট্রিলার</w>
ট্রিলিনাল</w>
ট্রিলিয়
ট্রিলে
ট্রিলে</w>
ট্রিলের</w>
ট্রিলো
ট্রিলোকু
ট্রী
ট্রু
ট্রু</w>
ট্রুরো</w>
ট্রুল
ট্রুল</w>
ট্রে
ট্রে,</w>
ট্রে</w>
ট্রেতে</w>
ট্রেন
ট্রেন,</w>
ট্রেন.</w>
ট্রেন</w>
ট্রেন।</w>
ট্রেনগুলি
ট্রেনগুলি</w>
ট্রেনগুলিকে</w>
ট্রেনগুলিতে
ট্রেনগুলিতে</w>
ট্রেনগুলির</w>
ট্রেনগুলো</w>
ট্রেনগুলোর</w>
ট্রেনি
ট্রেনে
ট্রেনে</w>
ট্রেনে।</w>
ট্রেনের</w>
ট্রেন্
ট্রের</w>
ট্রেল
ট্রেল</w>
ট্রেলা
ট্রেলার
ট্রেলার,</w>
ট্রেলার</w>
ট্রেলারে
ট্রেলারে,</w>
ট্রেলারে</w>
ট্রেলারের</w>
ট্রেলি
ট্রেলের</w>
ট্রেশ
ট্রেশন</w>
ট্রেশান
ট্রেশান</w>
ট্রো
ট্রো</w>
ট্রোগ
ট্রোগো
ট্রোগোল্
ট্রোগ্
ট্রোগ্যাল
ট্রোগ্রা
ট্রোগ্রে
ট্রোগ্রেশন</w>
ট্রোল
ট্রোল</w>
ট্রোলাই
ট্রোলাইস
ট্রোলার
ট্রোলার,</w>
ট্রোলার</w>
ট্রোলার।</w>
ট্রোলারকে</w>
ট্রোলারের</w>
ট্রোলি
ট্রোলিয়াম
ট্রোলিয়াম</w>
ট্রোলিয়ামে</w>
ট্রোলিয়ামের</w>
ট্রোলে</w>
ট্রোলের</w>
ট্রোল্
ট্র্যা
ট্র্যান্
ট্র্যাম</w>
ট্র্যার্
ট্র্যু
ট্র্যে
ট্র্রে
ঠ
ড
ড</w>
ড়
ড়</w>
ড়া
ড়া</w>
ড়াই
ড়াই</w>
ড়াইউ
ড়াইউৎ
ড়াইন</w>
ড়াইনামে</w>
ড়াইবাড়
ড়াইসং
ড়াও</w>
ড়াত
ড়াত</w>
ড়াতাম
ড়াতালি</w>
ড়াতি
ড়াতু
ড়াতুলি
ড়াতে
ড়াতে,</w>
ড়াতে</w>
ড়াতে।</w>
ড়াতেন</w>
ড়াতেন।</w>
ড়াতৈ
ড়াতো</w>
ড়াত্ত</w>
ড়ান
ড়ান,</w>
ড়ান.</w>
ড়ান</w>
ড়ান।</w>
ড়ানগুলি
ড়ানগুলি</w>
ড়ানগুলির</w>
ড়ানতুন</w>
ড়ানা
ড়ানা</w>
ড়ানাটো
ড়ানি
ড়ানি</w>
ড়ানিউ</w>
ড়ানিয়ার</w>
ড়ানী</w>
ড়ানে</w>
ড়ানের</w>
ড়ানো
ড়ানো</w>
ড়ান্
ড়ান্ত
ড়ান্ত</w>
ড়ান্তে</w>
ড়াম
ড়াম</w>
ড়ামন
ড়ামন</w>
ড়ামন্ত্রী</w>
ড়ামন্দির</w>
ড়ামসাগ্রাম</w>
ড়ামা
ড়ামারা
ড়ামারা</w>
ড়ামি
ড়ামি</w>
ড়ামিকে</w>
ড়ামির</w>
ড়ামু
ড়ামুরু
ড়ামে
ড়ামেলা
ড়ামো
ড়ামো</w>
ড়াম্বু</w>
ড়ায়
ড়ায়,</w>
ড়ায়</w>
ড়ায়।</w>
ড়ায়ায়
ড়ায়ের</w>
ড়ার
ড়ার</w>
ড়ার।</w>
ড়ারও</w>
ড়ারণ্যেশ্বর</w>
ড়ারা
ড়ারা</w>
ড়ারূ
ড়ারে
ড়াল
ড়াল</w>
ড়ালা
ড়ালি
ড়ালি</w>
ড়ালিতে</w>
ড়ালিয়া
ড়ালিয়া</w>
ড়ালির</w>
ড়ালী
ড়ালী</w>
ড়ালীতে</w>
ড়ালীর</w>
ড়ালে
ড়ালে</w>
ড়ালে।</w>
ড়ালেও</w>
ড়ালেন,</w>
ড়ালেন</w>
ড়ালেন।</w>
ড়ালের</w>
ড়ালো
ড়ালো</w>
ড়ালোক,</w>
ড়ে</w>
ডা
ডা</w>
ডাই
ডাই</w>
ডাইং</w>
ডাইন
ডাইন,</w>
ডাইন</w>
ডাইনাই
ডাইনামাই
ডাইনামিক
ডাইনামিক</w>
ডাইনামিক্
ডাইনামিক্যাল</w>
ডাইনামিক্স</w>
ডাইনার্
ডাইনি
ডাইনি</w>
ডাইনিউ
ডাইনিকে</w>
ডাইনির</w>
ডাইনী
ডাইনী</w>
ডাইনীদের</w>
ডাইনীর</w>
ডাইনে
ডাইনের</w>
ডাইনো
ডাইন্
ডাইবলের</w>
ডাইবা
ডাইবিশু
ডাইবে
ডাইবো</w>
ডাইস
ডাইস,</w>
ডাইস</w>
ডাইসন</w>
ডাইসমূ
ডাইসাল
ডাইসু
ডাইসে
ডাইসের</w>
ডাইসো
ডাইস্
ডাইস্ট
ডাইস্টো
ডাইস্যা
ডাও</w>
ডাত</w>
ডাতান
ডাতানা
ডাতু
ডাতে
ডাতে</w>
ডান
ডান,</w>
ডান</w>
ডান।</w>
ডানগ
ডানয়া
ডানা
ডানা,</w>
ডানা</w>
ডানা।</w>
ডানাই</w>
ডানাতে
ডানাতে</w>
ডানানিয়
ডানায়
ডানায়,</w>
ডানায়</w>
ডানার</w>
ডানাল্
ডানি
ডানি</w>
ডানি।</w>
ডানিয়ান</w>
ডানিয়েল
ডানিয়েল</w>
ডানিলিয়
ডানীয়</w>
ডানে
ডানে,</w>
ডানে</w>
ডানে।</w>
ডানেন্
ডানের</w>
ডানো
ডানো</w>
ডান্
ডান্তা
ডান্ন</w>
ডাম
ডাম</w>
ডামন
ডামস
ডামস,</w>
ডামস</w>
ডামসজিন
ডামসন</w>
ডামসের</w>
ডামস্
ডামা
ডামাইসিন</w>
ডামার</w>
ডামারা
ডামার্
ডামার্কিন</w>
ডামালি</w>
ডামি
ডামি</w>
ডামিন</w>
ডামিয়া
ডামিয়াম</w>
ডামিয়ামের</w>
ডামিয়াল
ডামির</w>
ডামিল</w>
ডামু
ডামে
ডামে,</w>
ডামে</w>
ডামে।</w>
ডামেন্
ডামের</w>
ডামো
ডাম্
ডাম্প
ডাম্প</w>
ডাম্পি
ডাম্পে
ডাম্বল
ডাম্বাদেনিয়ায়</w>
ডাম্বিয়া
ডাম্বুলা</w>
ডাম্বুলায়</w>
ডাম্বুলার</w>
ডাম্বুলু</w>
ডাম্বেল
ডাম্যান্
ডায়
ডায়,</w>
ডায়</w>
ডায়।</w>
ডায়া
ডায়ান
ডায়ান,</w>
ডায়ান</w>
ডায়ানা
ডায়ানা,</w>
ডায়ানা</w>
ডায়ানার</w>
ডায়ানি</w>
ডায়ানো
ডায়ামন্
ডায়ামিনো
ডায়ার
ডায়ার</w>
ডায়ার।</w>
ডায়ারাই
ডায়ারিয়া</w>
ডায়ারের</w>
ডায়াল
ডায়াল</w>
ডায়ালাইসি
ডায়ালার,</w>
ডায়ালি
ডায়ালিয়াম
ডায়ালে
ডায়ালে</w>
ডায়ালের</w>
ডায়ে
ডায়ে</w>
ডায়েন
ডায়ের</w>
ডার
ডার,</w>
ডার</w>
ডার।</w>
ডারও</w>
ডারকে</w>
ডারহাম
ডারহাম</w>
ডারহামে</w>
ডারহামের</w>
ডারহিলে</w>
ডারহু
ডারহ্যাম</w>
ডারহ্যামের</w>
ডারা
ডারা</w>
ডারাই
ডারাইন</w>
ডারাজ</w>
ডারানের</w>
ডারাম</w>
ডারামের</w>
ডারার</w>
ডারার্
ডারাল</w>
ডারি
ডারি</w>
ডারিক</w>
ডারিক।</w>
ডারিকা
ডারিন,</w>
ডারিন</w>
ডারিনের</w>
ডারিয়
ডারিয়া
ডারিয়া</w>
ডারিয়াতে</w>
ডারিয়ান</w>
ডারিয়ায়</w>
ডারিয়ারাজা
ডারির</w>
ডারিলে</w>
ডারী
ডারী</w>
ডারীতে</w>
ডারীর</w>
ডারু
ডারুল
ডারে
ডারে,</w>
ডারে</w>
ডারে।</w>
ডারেন্
ডারের</w>
ডারেল
ডারেল</w>
ডারেলা</w>
ডারেলি
ডারেলে</w>
ডারেলের</w>
ডারেল্
ডারেশ
ডারেশন</w>
ডারেশাইস</w>
ডারেশান</w>
ডারেশির</w>
ডারো
ডার্
ডার্ণ</w>
ডার্থ
ডার্থাল
ডার্থাল</w>
ডার্বার</w>
ডার্বি
ডার্বি</w>
ডার্বিতে
ডার্বিতে</w>
ডার্বিনের</w>
ডার্বির</w>
ডার্বিলাইন,</w>
ডার্বিশায়ার,</w>
ডার্বিশায়ার</w>
ডার্বিশায়ারে</w>
ডার্বিশায়ারের</w>
ডার্ম
ডার্ম</w>
ডার্মস</w>
ডার্মস্টা
ডার্মস্ট্যা
ডার্মা
ডার্মা</w>
ডার্মার</w>
ডার্মাল</w>
ডার্মি
ডার্মিকুল</w>
ডার্মে
ডার্মেন</w>
ডার্মো</w>
ডার্যালি
ডাল
ডাল</w>
ডালা
ডালা</w>
ডালাই
ডালানা,</w>
ডালাম
ডালায়</w>
ডালার</w>
ডালাল
ডালি
ডালি</w>
ডালিক</w>
ডালিন</w>
ডালিয়া
ডালিয়া</w>
ডালিয়ান</w>
ডালিয়ার</w>
ডালী
ডালু
ডালু</w>
ডালে
ডালে,</w>
ডালে</w>
ডালে।</w>
ডালেন,</w>
ডালেন</w>
ডালেনা</w>
ডালের</w>
ডালো
ডালো</w>
ডালোকে</w>
ডাল্
ডি
ডি</w>
ডিক
ডিক,</w>
ডিক</w>
ডিক।</w>
ডিকদের</w>
ডিকন
ডিকন</w>
ডিকনয়ের</w>
ডিকনের</w>
ডিকন্
ডিকম
ডিকমিশ
ডিকমিশন</w>
ডিকমেন্
ডিকল</w>
ডিকলো
ডিকা
ডিকা</w>
ডিকায়
ডিকার
ডিকার,</w>
ডিকার</w>
ডিকারামের</w>
ডিকারিয়া</w>
ডিকারিয়ার</w>
ডিকারের</w>
ডিকারো
ডিকার্
ডিকার্বো
ডিকাল
ডিকাল</w>
ডিকালি
ডিকি
ডিকি</w>
ডিকিন
ডিকিন্
ডিকির</w>
ডিকিল</w>
ডিকু
ডিকুলা</w>
ডিকুলার</w>
ডিকে
ডিকে</w>
ডিকে।</w>
ডিকেন
ডিকেনি</w>
ডিকেন্
ডিকের</w>
ডিকেল
ডিকেল</w>
ডিকেলে</w>
ডিকেলের</w>
ডিকেশন</w>
ডিকেশ্বর,</w>
ডিকেশ্যান</w>
ডিকো
ডিকোন
ডিকোন</w>
ডিকোল
ডিকোলি
ডিকোলো
ডিক্
ডিক্ট
ডিক্ট,</w>
ডিক্ট</w>
ডিক্টাল</w>
ডিক্টিন</w>
ডিক্টে
ডিক্টে</w>
ডিক্টের</w>
ডিক্টেশন</w>
ডিক্টো
ডিক্যা
ডিক্যান্
ডিক্যাম্প</w>
ডিক্যাম্ব্রি
ডিক্যারাম</w>
ডিক্যাল
ডিক্যাল</w>
ডিক্যালাই
ডিক্যালি
ডিক্যালের</w>
ডিক্যেল</w>
ডিক্রা
ডিক্রাই
ডিক্রি
ডিক্রি</w>
ডিক্রিতে,</w>
ডিক্রিতে</w>
ডিক্রির</w>
ডিক্রী
ডিক্রী</w>
ডিক্রু
ডিক্রুরা
ডিক্রুরি
ডিক্লাইন</w>
ডিক্লারে
ডিক্লারেশন</w>
ডিক্স</w>
ডিত
ডিত</w>
ডিত।</w>
ডিতা
ডিতা</w>
ডিতে
ডিতে</w>
ডিতে।</w>
ডিতের</w>
ডিত্বের</w>
ডিত্ব্য</w>
ডিত্য
ডিত্য</w>
ডিত্যের</w>
ডিন
ডিন,</w>
ডিন.</w>
ডিন</w>
ডিন।</w>
ডিনগ
ডিনা
ডিনা,</w>
ডিনা</w>
ডিনাই
ডিনাই</w>
ডিনাট
ডিনাট্য
ডিনাট্য</w>
ডিনান্
ডিনান্দ</w>
ডিনামাই
ডিনামার্
ডিনামিক
ডিনামিক্
ডিনায়</w>
ডিনায়।</w>
ডিনায়ার</w>
ডিনায়াল</w>
ডিনার
ডিনার,</w>
ডিনার</w>
ডিনার।</w>
ডিনারি
ডিনারি</w>
ডিনারিয়া</w>
ডিনারী
ডিনারী</w>
ডিনারে,</w>
ডিনারে</w>
ডিনারের</w>
ডিনাল
ডিনাল</w>
ডিনি
ডিনি</w>
ডিনিউ
ডিনিউ</w>
ডিনিকা
ডিনিকার</w>
ডিনিকে</w>
ডিনিন,</w>
ডিনিয়া</w>
ডিনিয়ান</w>
ডিনিয়াম</w>
ডিনিয়ার</w>
ডিনিয়ে
ডিনে
ডিনে</w>
ডিনেন্
ডিনের</w>
ডিনেলি</w>
ডিনেশ
ডিনেশ</w>
ডিনেশন</w>
ডিনো
ডিনো</w>
ডিন্
ডিন্যান্
ডিয়
ডিয়</w>
ডিয়া
ডিয়া</w>
ডিয়াও</w>
ডিয়াতে
ডিয়াতে,</w>
ডিয়াতে</w>
ডিয়ান
ডিয়ান,</w>
ডিয়ান.</w>
ডিয়ান</w>
ডিয়ান।</w>
ডিয়ানা
ডিয়ানা,</w>
ডিয়ানা</w>
ডিয়ানাই
ডিয়ানাতে</w>
ডিয়ানায়,</w>
ডিয়ানায়</w>
ডিয়ানার</w>
ডিয়ানি
ডিয়ানে
ডিয়ানে</w>
ডিয়ানের</w>
ডিয়ান্
ডিয়াম
ডিয়াম</w>
ডিয়ামসম
ডিয়ামসাল
ডিয়ামু</w>
ডিয়ামে
ডিয়ামে,</w>
ডিয়ামে</w>
ডিয়ামে।</w>
ডিয়ামের</w>
ডিয়ায়
ডিয়ায়,</w>
ডিয়ায়</w>
ডিয়ায়া</w>
ডিয়ার
ডিয়ার,</w>
ডিয়ার</w>
ডিয়ার।</w>
ডিয়ারকে</w>
ডিয়ারাজনের</w>
ডিয়ারি
ডিয়ারি</w>
ডিয়ারিয়ান</w>
ডিয়ারী</w>
ডিয়ারে</w>
ডিয়ারের</w>
ডিয়ার্
ডিয়াল
ডিয়াল</w>
ডিয়ালি
ডিয়ালি</w>
ডিয়ালের</w>
ডিয়ে
ডিয়ে,</w>
ডিয়ে</w>
ডিয়েন
ডিয়েন্
ডিয়ের</w>
ডিয়েল
ডিয়েল</w>
ডিয়েশ
ডিয়েশন</w>
ডির</w>
ডিল
ডিল</w>
ডিলা
ডিলা</w>
ডিলাইন</w>
ডিলান</w>
ডিলানের</w>
ডিলানো
ডিলায়</w>
ডিলার
ডিলার</w>
ডিলার।</w>
ডিলারিয়
ডিলার্
ডিলালো
ডিলি
ডিলি</w>
ডিলিক</w>
ডিলিন</w>
ডিলিনো
ডিলিন্
ডিলির</w>
ডিলু
ডিলে
ডিলে</w>
ডিলে।</w>
ডিলেন</w>
ডিলের</w>
ডিলো
ডিলো</w>
ডিলোকালাই
ডিল্য
ডিল্য</w>
ডিল্যা</w>
ডিল্যান্
ডিসে
ডিসেন্
ডিসেন্বর</w>
ডিসেম্বর</w>
ডিসের</w>
ডিসেল</w>
ডিসেলিনাই
ডিসেলে
ডিসেলেনাই
ডে
ডে,</w>
ডে</w>
ডে।</w>
ডেতে
ডেতে</w>
ডেন
ডেন,</w>
ডেন.</w>
ডেন</w>
ডেন।</w>
ডেনং</w>
ডেনগে
ডেনা
ডেনা</w>
ডেনাই
ডেনাতে</w>
ডেনাম
ডেনাম</w>
ডেনামে</w>
ডেনামের</w>
ডেনায়</w>
ডেনার
ডেনার</w>
ডেনারা</w>
ডেনার্
ডেনাল</w>
ডেনি
ডেনি।</w>
ডেনিকা</w>
ডেনিন
ডেনিন,</w>
ডেনিন</w>
ডেনিয়</w>
ডেনিয়া
ডেনিয়েল</w>
ডেনিয়েলি</w>
ডেনিয়েলের</w>
ডেনির</w>
ডেনিলিকু
ডেনী
ডেনীয়</w>
ডেনে
ডেনে,</w>
ডেনে</w>
ডেনে।</w>
ডেনের</w>
ডেনো
ডেন্
ডেন্রাই
ডের</w>
ডেল
ডেল</w>
ডেলা
ডেলা</w>
ডেলাই
ডেলাইন</w>
ডেলানি</w>
ডেলানিকে</w>
ডেলানো
ডেলানো</w>
ডেলামি
ডেলার</w>
ডেলারের</w>
ডেলার্
ডেলাল
ডেলি
ডেলি</w>
ডেলিক</w>
ডেলিকে
ডেলিতে</w>
ডেলিন
ডেলিন</w>
ডেলিনগার</w>
ডেলিনগারের</w>
ডেলিনা</w>
ডেলিনিয়া
ডেলিয়া</w>
ডেলিয়ান
ডেলিয়ান</w>
ডেলিয়ানগ্যা
ডেলিয়ামে।</w>
ডেলিয়ামের</w>
ডেলিয়ে
ডেলিয়েন</w>
ডেলির</w>
ডেলীয়</w>
ডেলু
ডেলে
ডেলে,</w>
ডেলে</w>
ডেলেন</w>
ডেলেনি</w>
ডেলের</w>
ডেলো
ডেল্
ডেল্বে
ডেশ
ডেশ</w>
ডেশন</w>
ডেশা</w>
ডেশানের</w>
ডেশি
ডেশিয়া</w>
ডেশিয়ান</w>
ডেশিয়ায়</w>
ডেশিয়ার</w>
ডেশী
ডেশীয়</w>
ডেশ্বরী</w>
ডেশ্বরের</w>
ডো
ডো</w>
ডোগ
ডোগা
ডোগা</w>
ডোগারা</w>
ডোগু
ডোগুলিকে</w>
ডোগুলো</w>
ডোগুলোর</w>
ডোগেন,</w>
ডোগো
ডোগ্
ডোগ্যামা
ডোগ্রা
ডোগ্রা</w>
ডোগ্রাম</w>
ডোল
ডোল</w>
ডোলা</w>
ডোলাই
ডোলানো
ডোলি
ডোলি</w>
ডোলিন
ডোলিন,</w>
ডোলিন</w>
ডোলিনিয়াম</w>
ডোলিনের</w>
ডোলিয়া</w>
ডোলিয়ার</w>
ডোলে
ডোলে</w>
ডোলের</w>
ডোলো
ডোলো</w>
ডোলোকে</w>
ডোল্
ডোল্যান্
ঢ
ঢা
ঢা</w>
ঢাই</w>
ঢাকা</w>
ঢানাই
ঢান্য</w>
ঢামে
ঢার্
ঢাল
ঢাল</w>
ঢালা
ঢালা</w>
ঢালাই
ঢালাই</w>
ঢালাও</w>
ঢালার
ঢালার</w>
ঢালি
ঢালি</w>
ঢালী,</w>
ঢালী</w>
ঢালীর</w>
ঢালু
ঢালু</w>
ঢালে</w>
ঢালে।</w>
ঢালেও</w>
ঢালেন</w>
ঢালের</w>
ণ
ণ</w>
ণত</w>
ণা
ণা</w>
ণাই
ণাই</w>
ণাও</w>
ণাত
ণাত</w>
ণাতি
ণাতিল
ণাতী
ণাতে
ণাতে</w>
ণাত্
ণাত্ত
ণাত্তম</w>
ণাত্তের</w>
ণাত্ব
ণাত্ম
ণাত্মিক</w>
ণাত্মিকা</w>
ণাত্য
ণাত্য</w>
ণাত্যে
ণাত্যে</w>
ণাত্যের</w>
ণাত্রের</w>
ণান
ণান,</w>
ণান</w>
ণানাই
ণানি
ণানীয়</w>
ণানের</w>
ণান্তে</w>
ণান্বিত</w>
ণাম
ণাম</w>
ণামতো</w>
ণামন্ত্রী</w>
ণামস্বরূপ</w>
ণামূর্তি</w>
ণামূল
ণামূল</w>
ণামৃত</w>
ণামৃতা
ণামে</w>
ণামেন্
ণামো
ণাম্
ণাম্বু
ণায়
ণায়,</w>
ণায়</w>
ণায়।</w>
ণায়েশ্বর,</w>
ণার
ণার,</w>
ণার</w>
ণার।</w>
ণারহিত</w>
ণারু
ণার্
ণার্ত
ণার্ত</w>
ণার্থ
ণার্থে</w>
ণার্রু
ণাল
ণাল</w>
ণালা</w>
ণালিনী</w>
ণালী
ণালী</w>
ণালে</w>
ণালের</w>
ণালোক</w>
ণি
ণি</w>
ণিক
ণিক,</w>
ণিক</w>
ণিক।</w>
ণিকটি</w>
ণিকদের</w>
ণিকন্দ
ণিকরা
ণিকরা</w>
ণিকরূ
ণিকর্
ণিকা
ণিকা</w>
ণিকাম্বা</w>
ণিকায়</w>
ণিকায়।</w>
ণিকার</w>
ণিকাল
ণিকু
ণিকূ
ণিকৃষ্
ণিকে
ণিকে</w>
ণিকে।</w>
ণিকেন্দ্র</w>
ণিকের</w>
ণিকো
ণিক্য
ণিক্য</w>
ণিক্যের</w>
ণিক্রি</w>
ণিত
ণিত</w>
ণিত।</w>
ণিতা
ণিতা</w>
ণিতান
ণিতায়</w>
ণিতার</w>
ণিতিক
ণিতিক,</w>
ণিতিক</w>
ণিতিকরা</w>
ণিতী
ণিতুরার</w>
ণিতুল্য</w>
ণিতে</w>
ণিন</w>
ণিনগ
ণিনি
ণিনি</w>
ণিনি।</w>
ণিনিয়</w>
ণিনির</w>
ণিনীয়</w>
ণিন্দ
ণিয়
ণিয়া
ণিয়া</w>
ণিয়াতে
ণিয়াতে।</w>
ণিয়ান</w>
ণিয়াম
ণিয়াম</w>
ণিয়ামে
ণিয়ায়</w>
ণিয়ার</w>
ণির</w>
ণিল
ণিল</w>
ণিলা</w>
ণিলাল</w>
ণে</w>
ণের</w>
ণ্
ণ্ড
ণ্ড</w>
ণ্ডা
ণ্ডা</w>
ণ্ডাই
ণ্ডাইনাড়
ণ্ডানা
ণ্ডাম
ণ্ডাম</w>
ণ্ডামি
ণ্ডামি</w>
ণ্ডামির</w>
ণ্ডামূর্তি
ণ্ডায়
ণ্ডায়,</w>
ণ্ডায়</w>
ণ্ডার
ণ্ডার,</w>
ণ্ডার</w>
ণ্ডার।</w>
ণ্ডারও</w>
ণ্ডারণ্য</w>
ণ্ডারা
ণ্ডারা</w>
ণ্ডারায়</w>
ণ্ডারার্
ণ্ডারি
ণ্ডারি</w>
ণ্ডারিয়া
ণ্ডারিয়া</w>
ণ্ডারী
ণ্ডারী</w>
ণ্ডারে
ণ্ডারে,</w>
ণ্ডারে</w>
ণ্ডারের</w>
ণ্ডার্
ণ্ডাল
ণ্ডাল</w>
ণ্ডালি
ণ্ডালিকা
ণ্ডালিকা</w>
ণ্ডালিকাতে।</w>
ণ্ডালী
ণ্ডালে</w>
ণ্ডালের</w>
ণ্ডি
ণ্ডি</w>
ণ্ডিক</w>
ণ্ডিকা
ণ্ডিকা</w>
ণ্ডিকে</w>
ণ্ডিত
ণ্ডিত</w>
ণ্ডিত।</w>
ণ্ডিতা
ণ্ডিতা</w>
ণ্ডিতী</w>
ণ্ডিতীয়</w>
ণ্ডিতে
ণ্ডিতে</w>
ণ্ডিতের</w>
ণ্ডিত্ব</w>
ণ্ডিত্য
ণ্ডিত্য</w>
ণ্ডিত্যে</w>
ণ্ডিত্যের</w>
ণ্ডিয়া
ণ্ডিয়া</w>
ণ্ডিয়ান</w>
ণ্ডিয়ার
ণ্ডিয়ার</w>
ণ্ডিয়ালী</w>
ণ্ডির</w>
ণ্ডিল
ণ্ডিলে</w>
ণ্ডিল্য
ণ্ডিল্য</w>
ণ্ডিল্যা</w>
ণ্ডিল্যের</w>
ণ্ডে
ণ্ডে,</w>
ণ্ডে</w>
ণ্ডে।</w>
ণ্ডের</w>
ণ্ডেল</w>
ণ্ডেলির</w>
ণ্ডেলের</w>
ণ্ডেশ</w>
ণ্ডেশন</w>
ণ্ডেশ্বর</w>
ণ্ডেশ্বরী</w>
ণ্ডো
ণ্তান</w>
ণ্ত্র
ণ্প</w>
ণ্ব
ণ্ব</w>
ণ্বয়
ণ্বিত
ণ্বিত</w>
ণ্বের</w>
ণ্ম
ণ্মা
ণ্মার</w>
ণ্মু
ণ্মো
ণ্য
ণ্য</w>
ণ্য়
ণ্যা
ণ্যা</w>
ণ্যার</w>
ণ্যার্
ণ্যার্থ
ণ্যু
ণ্যু</w>
ণ্যে
ণ্যে,</w>
ণ্যে</w>
ণ্যে।</w>
ণ্যের</w>
ণ্যো
ত
ত</w>
তখন</w>
তথ
তথ</w>
তথা
তথা</w>
তথাক
তথাকার</w>
তথামাই
তথায়</w>
তথালোকে</w>
তবে</w>
তম</w>
তা
তা</w>
তাঁ
তাঁর</w>
তাই
তাই</w>
তাইং</w>
তাইউ
তাইন</w>
তাইনান</w>
তাইনি</w>
তাইনিয়ে</w>
তাইনের</w>
তাইনো
তাইনো</w>
তাইন্দ
তাইবা
তাইবা</w>
তাইবার</w>
তাইবির</w>
তাইবু
তাইস</w>
তাইসভায়ের</w>
তাইসির</w>
তাইসে</w>
তাইস্পিকিং</w>
তাও</w>
তাকে</w>
তাড়
তাড়</w>
তাড়া
তাড়া</w>
তাড়াই
তাড়াতাড়
তাড়াতে</w>
তাড়ানো
তাড়ানো</w>
তাড়ায়।</w>
তাত
তাত</w>
তাতাঁর</w>
তাতামা
তাতায়ানা</w>
তাতার
তাতার,</w>
তাতার</w>
তাতার।</w>
তাতারা</w>
তাতারি
তাতারী</w>
তাতারে</w>
তাতারের</w>
তাতি
তাতি</w>
তাতিয়ানা
তাতিয়ানা</w>
তাতিয়ানার</w>
তাতির</w>
তাতীত</w>
তাতু
তাতুরা</w>
তাতুল্য
তাতে
তাতে</w>
তাতের</w>
তাতেশি</w>
তাতো
তাত্
তাত্তা
তাত্তিক</w>
তাত্তিক।</w>
তাত্তো
তাত্ত্বিক
তাত্ত্বিক,</w>
তাত্ত্বিক</w>
তাত্ত্বিক।</w>
তাত্ত্বিকদের</w>
তাত্ত্বিকরা</w>
তাত্ত্বিকে
তাত্ত্বিকের</w>
তাত্ত্বীয়</w>
তাত্পর্য
তাত্পর্য</w>
তাত্পর্যের</w>
তাত্ব
তাত্বিক</w>
তাত্বিয়</w>
তাত্মা</w>
তাত্মিক</w>
তাত্যা</w>
তাত্রা
তাদের</w>
তান
তান,</w>
তান.</w>
তান</w>
তান।</w>
তানগঞ্জ</w>
তানগণ</w>
তানগভ</w>
তানগা
তানগি
তানভের</w>
তানা
তানা,</w>
তানা</w>
তানা।</w>
তানাই
তানাত
তানাত</w>
তানাতে</w>
তানাতের</w>
তানামাল
তানামো</w>
তানার,</w>
তানার</w>
তানারু</w>
তানি
তানি</w>
তানিক</w>
তানিকা</w>
তানিকার</w>
তানিকারের</w>
তানিকে</w>
তানিত</w>
তানিতে</w>
তানিত্য
তানিন</w>
তানিনো
তানিয়া
তানিয়া</w>
তানিয়াত</w>
তানিয়ান</w>
তানিয়ার</w>
তানিয়ে
তানিয়ে</w>
তানির</w>
তানির্
তানির্মাতা</w>
তানী,</w>
তানী</w>
তানে
তানে,</w>
তানে</w>
তানে।</w>
তানেন
তানের</w>
তানো
তানো</w>
তান্
তান্ত
তান্তার</w>
তান্তি
তান্তিক</w>
তান্তিনো
তান্তিনোলের</w>
তান্তী</w>
তান্ত্রিক
তান্ত্রিক,</w>
তান্ত্রিক</w>
তান্ত্রিক।</w>
তান্ত্রিকদের</w>
তান্ত্রিকনারী
তান্ত্রিকরা</w>
তান্ত্রিকি</w>
তান্ত্রিকে
তান্ত্রিকের</w>
তান্দ</w>
তান্দানা</w>
তান্দের</w>
তান্দো</w>
তান্দ্রো</w>
তাম
তাম</w>
তামনা
তামনো
তামসিক</w>
তামসু
তামহান
তামা
তামা</w>
তামাই
তামাতে</w>
তামান
তামান</w>
তামানিকেল</w>
তামানিকেলের</w>
তামানিয়ান</w>
তামানের</w>
তামান্
তামাম</w>
তামামি
তামামি</w>
তামামিশ্রিত</w>
তামায়
তামার
তামার</w>
তামারহি
তামারহি</w>
তামারা
তামারা</w>
তামারানি।</w>
তামারী</w>
তামাল
তামি
তামি</w>
তামিতার</w>
তামিতি</w>
তামিন</w>
তামিনা</w>
তামিনার</w>
তামিনী</w>
তামিয়া
তামিল
তামিল</w>
তামিলা
তামিলে,</w>
তামিলে</w>
তামিলের</w>
তামিশের</w>
তামু
তামুরা</w>
তামুরার</w>
তামুরের</w>
তামুল
তামুলী</w>
তামূ
তামূল
তামৃত</w>
তামে
তামেন,</w>
তামের</w>
তামো
তামোল
তাম্
তাম্পে
তাম্প্র
তাম্ব
তাম্বর
তাম্বর</w>
তাম্বা</w>
তাম্বাদু</w>
তাম্বারাম
তাম্বারাম</w>
তাম্বারামের</w>
তাম্বি
তাম্বি</w>
তাম্বিয়া</w>
তাম্বু</w>
তাম্বুল
তাম্বুলা</w>
তাম্বোলি</w>
তাম্ব্র
তাম্মা</w>
তাম্মান</w>
তাম্মাম</w>
তাম্মু
তাম্য</w>
তাম্র
তাম্র</w>
তাম্রহ
তাম্রা
তাম্রেশ্বরী</w>
তায়
তায়,</w>
তায়</w>
তায়।</w>
তায়া
তায়া</w>
তায়ানীর</w>
তায়াম্মু
তায়ার</w>
তায়ারে</w>
তায়ালা</w>
তায়ালাই</w>
তায়ালার</w>
তায়ালী
তায়াল্
তায়ে
তায়ে,</w>
তায়ে</w>
তায়েতে</w>
তায়েন
তায়েন</w>
তায়েন।</w>
তায়েনের</w>
তায়ের</w>
তায়েশ</w>
তার
তার,</w>
তার</w>
তার।</w>
তারও</w>
তারকে</w>
তারক্ষ
তারণ
তারণ</w>
তারণা
তারণা</w>
তারণামূল
তারণার</w>
তারহ
তারহা
তারহু
তারা
তারা</w>
তারাই
তারাই</w>
তারাও</w>
তারাজ</w>
তারাত
তারাতারি
তারাতারি</w>
তারাতে
তারাতে</w>
তারাতোলা</w>
তারান
তারান</w>
তারানা
তারানায়</w>
তারানায়ে</w>
তারানার</w>
তারানে
তারানে</w>
তারান্তো
তারাম
তারাম</w>
তারামতীর</w>
তারামন</w>
তারামন্
তারামা
তারামান</w>
তারামের</w>
তারায়
তারায়</w>
তারার
তারার</w>
তারারও</w>
তারারা</w>
তারারাজির</w>
তারালা
তারালী</w>
তারালে</w>
তারি
তারি</w>
তারিক
তারিক</w>
তারিক।</w>
তারিকার</w>
তারিকের</w>
তারিক্ব</w>
তারিক্ষ
তারিখে</w>
তারিত
তারিত</w>
তারিতে</w>
তারিন</w>
তারিনি</w>
তারিনী
তারিনী</w>
তারিনের</w>
তারিয়া
তারিয়ার</w>
তারিয়ে
তারির</w>
তারী
তারী</w>
তারীর</w>
তারু
তারু</w>
তারুর</w>
তারুরা</w>
তারুল</w>
তারূ
তারূপ</w>
তারে
তারে,</w>
তারে</w>
তারেন</w>
তারের</w>
তারো
তারো</w>
তার্
তার্তারি</w>
তার্তারু
তার্তুর</w>
তার্থ
তাল
তাল</w>
তালা
তালা</w>
তালাই</w>
তালাত
তালাত</w>
তালাতে</w>
তালাতের</w>
তালানী,</w>
তালাভ</w>
তালায়</w>
তালার</w>
তালাল</w>
তালালিত।</w>
তালালের</w>
তালি
তালি</w>
তালিক
তালিক</w>
তালিকা
তালিকা</w>
তালিকাও</w>
তালিকাত
তালিকাতে
তালিকাতে</w>
তালিকাত্রি
তালিকান
তালিকায়
তালিকায়,</w>
তালিকায়</w>
তালিকায়।</w>
তালিকার</w>
তালিকার।</w>
তালিকে</w>
তালিকের</w>
তালিকো
তালিতা
তালিতুর্
তালিতে,</w>
তালিতে</w>
তালিতে।</w>
তালিন
তালিন,</w>
তালিন</w>
তালিন।</w>
তালিনার
তালিনে</w>
তালিনের</w>
তালিয়,</w>
তালিয়</w>
তালিয়।</w>
তালিয়া
তালিয়া</w>
তালিয়াতে</w>
তালিয়ান
তালিয়ান,</w>
তালিয়ান</w>
তালিয়ানা</w>
তালিয়ানার</w>
তালিয়ার</w>
তালিয়েন</w>
তালিয়েনে</w>
তালির</w>
তালী
তালী,</w>
তালী</w>
তালীতে</w>
তালীয়</w>
তালীর</w>
তালু
তালু</w>
তালুর</w>
তালে
তালে,</w>
তালে</w>
তালেখ
তালের</w>
তালেশ্বর</w>
তালো
তালোকান,</w>
তাল্
তি
তি</w>
তিক
তিক,</w>
তিক</w>
তিক।</w>
তিকথা</w>
তিকদের</w>
তিকনারো
তিকম
তিকমানো
তিকর
তিকর,</w>
তিকর</w>
তিকর।</w>
তিকরণ
তিকরণ</w>
তিকরণের</w>
তিকরা
তিকরা</w>
তিকরাজনৈতিক</w>
তিকরিত</w>
তিকরিতি</w>
তিকরিতের</w>
তিকর্ম</w>
তিকলাল</w>
তিকল্পে</w>
তিকা
তিকা</w>
তিকান
তিকান</w>
তিকায়</w>
তিকার
তিকার,</w>
তিকার</w>
তিকার।</w>
তিকারের</w>
তিকাল
তিকাল</w>
তিকালীন</w>
তিকালে</w>
তিকালের</w>
তিকি
তিকি</w>
তিকিনা</w>
তিকিয়ান
তিকী
তিকু
তিকৃত</w>
তিকে
তিকে</w>
তিকে।</w>
তিকেই</w>
তিকেন্দ্রিক</w>
তিকের</w>
তিকো
তিক্
তিক্ত
তিক্ত</w>
তিক্র</w>
তিক্রম
তিক্রম</w>
তিক্রমসমূ
তিক্রম্য
তিক্রিয়া
তিক্রিয়া</w>
তিক্রিয়ায়</w>
তিক্রিয়ার</w>
তিক্ষেত্রে</w>
তিক্ষ্ম</w>
তিত
তিত</w>
তিতা
তিতা</w>
তিতাই
তিতান</w>
তিতানো</w>
তিতার</w>
তিতি
তিতি</w>
তিতিকা
তিতিক্ষ
তিতিতে</w>
তিতির</w>
তিতিলা
তিতু
তিতু</w>
তিতুরাম</w>
তিতে
তিতে,</w>
তিতে</w>
তিতে।</w>
তিতের</w>
তিতো</w>
তিত্ত</w>
তিন
তিন,</w>
তিন.</w>
তিন</w>
তিন।</w>
তিনগ
তিনগু
তিনগুলির</w>
তিনটি</w>
তিনা
তিনা</w>
তিনাই
তিনাট্য
তিনাট্য</w>
তিনাট্যে</w>
তিনাট্যের</w>
তিনান</w>
তিনি
তিনি</w>
তিনি।</w>
তিনিক</w>
তিনিকে</w>
তিনিকো
তিনিতারা</w>
তিনিতিনি</w>
তিনিতেলে
তিনিয়
তিনিয়া</w>
তিনিয়ানের</w>
তিনির্
তিনির্দি
তিনী
তিনী</w>
তিনে
তিনে</w>
তিনের</w>
তিনেল্
তিনো
তিনোগ্রা
তিন্
তিন্দু</w>
তিয়
তিয়</w>
তিয়া
তিয়া</w>
তিয়াই</w>
তিয়াও</w>
তিয়াত</w>
তিয়াতে</w>
তিয়াত্ত
তিয়াত্র</w>
তিয়ান
তিয়ান,</w>
তিয়ান.</w>
তিয়ান</w>
তিয়ানা</w>
তিয়ানান
তিয়ানার</w>
তিয়ানি</w>
তিয়ানিক</w>
তিয়ানে</w>
তিয়ানের</w>
তিয়ানো
তিয়ামত</w>
তিয়ামাত</w>
তিয়ার
তিয়ার,</w>
তিয়ার</w>
তিয়ার।</w>
তিয়ারা
তিয়ারি</w>
তিয়ারে</w>
তিয়ারে।</w>
তিয়ারের</w>
তিয়ে
তিয়ে</w>
তিয়েন
তিয়েন,</w>
তিয়েন</w>
তিয়েনে</w>
তিয়েনের</w>
তিয়ের</w>
তিয়েলে</w>
তির</w>
তিল
তিল</w>
তিলা
তিলা</w>
তিলাই
তিলাই</w>
তিলাভ</w>
তিলায়া
তিলাল
তিলাল</w>
তিলি
তিলি</w>
তিলিয়া</w>
তিলী</w>
তিলু</w>
তিলুর</w>
তিলে
তিলের</w>
তিলো
তিলো</w>
তিলোক
তিল্
তিল্য
তিহ
তিহ</w>
তিহা
তিহান</w>
তিহামা
তিহামা</w>
তিহার,</w>
তিহার</w>
তিহালা</w>
তিহি</w>
তিহো
তিহ্য
তিহ্য</w>
তিহ্য়
তিহ্যে
তিহ্যে,</w>
তিহ্যে</w>
তিহ্যে।</w>
তিহ্যের</w>
তী
তী,</w>
তী</w>
তীত</w>
তীতে</w>
তীদের</w>
তীন</w>
তীয়</w>
তীর</w>
তু
তু</w>
তুর
তুর,</w>
তুর</w>
তুর।</w>
তুরতার</w>
তুরহান</w>
তুরহানের</w>
তুরা
তুরা</w>
তুরাই
তুরাই</w>
তুরাইব
তুরাজ</w>
তুরাজি</w>
তুরাজির</w>
তুরাত্ম
তুরান
তুরান</w>
তুরানের</w>
তুরার্য</w>
তুরি
তুরি</w>
তুরিকাম
তুরিকামের</w>
তুরিন,</w>
তুরিন</w>
তুরিনে</w>
তুরিনের</w>
তুরিয়া</w>
তুরিয়ান
তুরিয়ে</w>
তুরী
তুরী</w>
তুরীয়</w>
তুরু
তুরু</w>
তুরুল</w>
তুরূ
তুরে</w>
তুরেনে</w>
তুরেনের</w>
তুরের</w>
তুরো
তুর্
তুর্ঘাত</w>
তুর্ঘাতের</w>
তুর্চ
তুর্তু
তুর্ত্রি
তুর্থ
তুর্থ</w>
তুর্থা
তুর্থা</w>
তুর্থের</w>
তুর্পক্ষ
তুর্পা
তুর্পান</w>
তুর্পার্
তুর্ব
তুর্বর্ণ</w>
তুর্বা
তুর্বার্
তুর্বি
তুর্বিধ</w>
তুর্বে
তুর্বে</w>
তুর্ব্য
তুর্মহারাজের</w>
তুর্মা
তুর্মাত্রিক</w>
তুর্মাসে</w>
তুর্মুখ
তুর্মূর্তি
তুর্মূর্তি</w>
তুর্মূর্তির</w>
তুর্য
তুর্য</w>
তুর্যু
তুর্যো
তুল
তুল</w>
তুলা
তুলা</w>
তুলাই
তুলাইব</w>
তুলাতুলি</w>
তুলানামূল
তুলানায়</w>
তুলানি</w>
তুলানে</w>
তুলান্ত</w>
তুলামূল
তুলায়
তুলার</w>
তুলারা
তুলারাম
তুলারে
তুলারে</w>
তুলি
তুলি</w>
তুলিকর,</w>
তুলিকা</w>
তুলিকে</w>
তুলিতে
তুলিতে</w>
তুলিয়া
তুলিয়া</w>
তুলিয়ায়</w>
তুলিয়ার</w>
তুলির</w>
তুলিলে
তুলী</w>
তুলু
তুলু</w>
তুলে
তুলে,</w>
তুলে</w>
তুলে।</w>
তুলেছ
তুলেছিল,</w>
তুলেছিল</w>
তুলেছিল।</w>
তুলেছিলেন,</w>
তুলেছিলেন</w>
তুলেছিলেন।</w>
তুলেছিলো
তুলেছিলো</w>
তুলেছে</w>
তুলেছে।</w>
তুলেতে</w>
তুলেন</w>
তুলেন।</w>
তুলের</w>
তুলো
তুলো</w>
তুল্
তুল্য
তুল্য</w>
তুল্যা
তৃতীয়</w>
তে
তে,</w>
তে</w>
তে।</w>
তেছিল</w>
তেছিলেন।</w>
তেছে</w>
তেছে।</w>
তেত
তেত</w>
তেতাই
তেতাল্
তেতিয়ানা</w>
তেতিয়ার</w>
তেতিয়াল
তেতিয়েন</w>
তেতু
তেতুল
তেতুল</w>
তেতুলিয়া</w>
তেতে
তেতে</w>
তেতেলিয়া
তেতেলিয়া</w>
তেতো
তেতো</w>
তেত্তা</w>
তেত্রি
তেত্রে
তেন
তেন,</w>
তেন</w>
তেন।</w>
তেনগারা
তেনগারার</w>
তেনা
তেনা</w>
তেনালি</w>
তেনালীতে</w>
তেনালীর</w>
তেনি</w>
তেনে
তেনে</w>
তেনের</w>
তেনো
তেন্
তেন্তে
তেন্দাই</w>
তেন্দু
তেন্দু</w>
তেন্দুল
তেন্দো</w>
তেন্দ্র
তেন্ন</w>
তেন্মু</w>
তেন্রি
তের</w>
তেল
তেল</w>
তেলা
তেলা</w>
তেলাম্বু
তেলায়</w>
তেলি
তেলি</w>
তেলিকা</w>
তেলিখাল</w>
তেলিখালী</w>
তেলিন</w>
তেলিয়া
তেলিয়া</w>
তেলিয়ান</w>
তেলিয়ামু
তেলী
তেলু
তেলুল</w>
তেলে
তেলে</w>
তেলেতি
তেলের</w>
তেলো</w>
তেল্
তেশ</w>
তেশি</w>
তেশ্বর</w>
তৈ
তৈরি</w>
তো
তো</w>
তোগ
তোগ</w>
তোগাই
তোগান
তোগুলো</w>
তোল
তোল</w>
তোলা
তোলা</w>
তোলাই</w>
তোলায়</w>
তোলার,</w>
তোলার</w>
তোলি
তোলি</w>
তোলিকে</w>
তোলির</w>
তোলু
তোলে
তোলে,</w>
তোলে</w>
তোলে।</w>
তোলেন
তোলেন,</w>
তোলেন</w>
তোলেন।</w>
তোলেনা
তোলেনি</w>
তোলেনি।</w>
তোলেন্তিনো</w>
তোলো
তোলো</w>
তোল্
ত্
ত্চ
ত্ত
ত্ত</w>
ত্তম</w>
ত্তা
ত্তা</w>
ত্তাই
ত্তাই</w>
ত্তাকে</w>
ত্তাত
ত্তাতাত্ত্বিক
ত্তাতাত্ত্বিক</w>
ত্তাতো</w>
ত্তাত্রয়</w>
ত্তাত্রে
ত্তাত্র্য</w>
ত্তাদের</w>
ত্তানা
ত্তানেশ্বর</w>
ত্তাম</w>
ত্তামালা
ত্তামিত্তাল</w>
ত্তায়</w>
ত্তায়া
ত্তার
ত্তার</w>
ত্তারা
ত্তারা</w>
ত্তারি
ত্তারূ
ত্তারে
ত্তারে</w>
ত্তার্থ</w>
ত্তাল
ত্তালাম</w>
ত্তালি
ত্তালে
ত্তালের</w>
ত্তি
ত্তি</w>
ত্তিক</w>
ত্তিকে
ত্তিতার</w>
ত্তিতে</w>
ত্তিনটি</w>
ত্তিয়া</w>
ত্তিয়াম</w>
ত্তিয়ামের</w>
ত্তির</w>
ত্তিল
ত্তিহা
ত্তী
ত্তী</w>
ত্তীয়</w>
ত্তু</w>
ত্তুর</w>
ত্তুরে।</w>
ত্তে
ত্তে,</w>
ত্তে</w>
ত্তের</w>
ত্তেলা
ত্তো
ত্তো</w>
ত্তোল
ত্ত্ব
ত্ত্ব</w>
ত্ত্বই</w>
ত্ত্বর
ত্ত্বর</w>
ত্ত্বরাজনী
ত্ত্বরূ
ত্ত্বরে</w>
ত্ত্বরের</w>
ত্ত্বা
ত্ত্বা</w>
ত্ত্বাই</w>
ত্ত্বাও</w>
ত্ত্বাতে</w>
ত্ত্বাদের</w>
ত্ত্বান
ত্ত্বায়
ত্ত্বার</w>
ত্ত্বারূ
ত্ত্বারো
ত্ত্বার্থ
ত্ত্বার্থ</w>
ত্ত্বিক</w>
ত্ত্বিয়
ত্ত্বী
ত্ত্বীয়</w>
ত্ত্বে
ত্ত্বে,</w>
ত্ত্বে</w>
ত্ত্বে।</w>
ত্ত্বের</w>
ত্ত্বো
ত্ত্ব্বা
ত্ত্ব্যালো
ত্ত্রি
ত্প
ত্পত্তি
ত্পত্তি</w>
ত্পর
ত্পা
ত্পাত
ত্পাত</w>
ত্পুরি</w>
ত্পুরিতে</w>
ত্পূ
ত্পূর্বে</w>
ত্ব
ত্ব</w>
ত্বং</w>
ত্বই</w>
ত্বয়ে</w>
ত্বর
ত্বর,</w>
ত্বর</w>
ত্বর।</w>
ত্বরণ
ত্বরণ</w>
ত্বরণে</w>
ত্বরণের</w>
ত্বরা
ত্বরা</w>
ত্বরানিত</w>
ত্বরান্ব
ত্বরান্বিত</w>
ত্বরিক
ত্বরিকার</w>
ত্বরিত</w>
ত্বরী
ত্বরে
ত্বরে</w>
ত্বরের</w>
ত্বল
ত্বা
ত্বা</w>
ত্বাত্তিক</w>
ত্বান
ত্বায়</w>
ত্বার</w>
ত্বারা
ত্বারো
ত্বিক</w>
ত্বিকা</w>
ত্বীন</w>
ত্বীয়</w>
ত্বে
ত্বে,</w>
ত্বে</w>
ত্বে।</w>
ত্বের</w>
ত্ব্বে
ত্ম
ত্ম</w>
ত্মা</w>
ত্মালানা</w>
ত্মিক
ত্মিক</w>
ত্মুখ
ত্ম্মা
ত্য
ত্য</w>
ত্যদি
ত্যদি</w>
ত্যদির</w>
ত্য়
ত্য়া
ত্য়ে
ত্য়ে</w>
ত্যা
ত্যা</w>
ত্যাই</w>
ত্যাও</w>
ত্যাত
ত্যান
ত্যান</w>
ত্যানয়
ত্যানা
ত্যান্বে
ত্যান্বেশি</w>
ত্যান্য</w>
ত্যায়
ত্যার</w>
ত্যার্থ
ত্যার্থ</w>
ত্যু
ত্যু</w>
ত্যুক্তি
ত্যুক্তি</w>
ত্যুর</w>
ত্যুরী
ত্যুরীদের</w>
ত্যুর্
ত্যে
ত্যে</w>
ত্যেন</w>
ত্যেন্দ্র
ত্যেন্দ্র</w>
ত্যের</w>
ত্যো
ত্র
ত্র,</w>
ত্র</w>
ত্র।</w>
ত্রও</w>
ত্রকে</w>
ত্রয়
ত্রয়</w>
ত্রয়া</w>
ত্রয়ের</w>
ত্রহ
ত্রা
ত্রা</w>
ত্রাই
ত্রাই</w>
ত্রাজান,</w>
ত্রাজি
ত্রাজিত</w>
ত্রাজিতের</w>
ত্রাতা
ত্রাতার
ত্রাতার</w>
ত্রান
ত্রান</w>
ত্রান্ত</w>
ত্রান্তিক</w>
ত্রামু</w>
ত্রায়
ত্রার</w>
ত্রাল
ত্রালে</w>
ত্রি
ত্রি</w>
ত্রিক
ত্রিক</w>
ত্রিকরণ
ত্রিকরণ</w>
ত্রিকল
ত্রিকলি
ত্রিকা</w>
ত্রিকায়ের</w>
ত্রিকার্য
ত্রিকু
ত্রিকূ
ত্রিকে</w>
ত্রিকেন্দ্রী</w>
ত্রিকো
ত্রিকোন</w>
ত্রিকোনা
ত্রিকোনের</w>
ত্রিকোলো
ত্রিক্রম</w>
ত্রিত
ত্রিত</w>
ত্রিতা</w>
ত্রিতার</w>
ত্রিতাল
ত্রিতিকো
ত্রিত্ব
ত্রিত্ব</w>
ত্রিত্বে</w>
ত্রিন
ত্রিনয়
ত্রিনা
ত্রিনি
ত্রিনিল</w>
ত্রিনিলে</w>
ত্রিনেত্র</w>
ত্রিনেত্রা</w>
ত্রিনেত্রাম্
ত্রিনো
ত্রিনো</w>
ত্রিয়
ত্রিয়,</w>
ত্রিয়</w>
ত্রিয়া
ত্রিয়া</w>
ত্রিয়ে
ত্রিয়ে</w>
ত্রিয়ের</w>
ত্রির</w>
ত্রিলো
ত্রিলোক
ত্রিলোক</w>
ত্রিলোকা
ত্রিলোকী
ত্রিলোকের</w>
ত্রী
ত্রী,</w>
ত্রী</w>
ত্রীত</w>
ত্রীয়</w>
ত্রীর</w>
ত্রু
ত্রুল
ত্রে
ত্রে,</w>
ত্রে</w>
ত্রে।</w>
ত্রেছ
ত্রেত</w>
ত্রেতা
ত্রেতা</w>
ত্রেন্তিনো</w>
ত্রের</w>
ত্রেশ্বর</w>
ত্রো
ত্রো</w>
ত্র্য
ত্র্যা
থ
থ</w>
থা
থা</w>
থাই
থাই</w>
থাইং
থাইউ
থাইন</w>
থাইস
থাইসাং</w>
থাইসেন
থাও</w>
থাক
থাক,</w>
থাক</w>
থাক।</w>
থাকরি
থাকল
থাকল</w>
থাকলাম</w>
থাকলি
থাকলি</w>
থাকলিতে</w>
থাকলির</w>
থাকলে
থাকলে,</w>
থাকলে</w>
থাকলে।</w>
থাকলেও</w>
থাকলেন</w>
থাকলেন।</w>
থাকলো
থাকলো</w>
থাকা
থাকা</w>
থাকাই</w>
থাকাজ</w>
থাকাতে
থাকাতে</w>
থাকায়
থাকায়,</w>
থাকায়</w>
থাকায়।</w>
থাকার,</w>
থাকার</w>
থাকারও</w>
থাকারে
থাকারে</w>
থাকারের</w>
থাকালি</w>
থাকালীতে</w>
থাকালীন</w>
থাকালে</w>
থাকি
থাকি</w>
থাকিতে</w>
থাকিন</w>
থাকু
থাকে
থাকে,</w>
থাকে</w>
থাকে।</w>
থাকেই</w>
থাকেন
থাকেন,</w>
থাকেন</w>
থাকেন।</w>
থাকেনা,</w>
থাকেনা</w>
থাকেনা।</w>
থাকেনি</w>
থাকেনি।</w>
থাকেনে।</w>
থাকেল
থাকো
থাকো</w>
থাক্
থাক্র
থাক্রমে,</w>
থাক্রমে</w>
থাক্রমে।</w>
থাড়
থাত
থাত</w>
থাতে
থাতে,</w>
থাতে</w>
থান
থান,</w>
থান.</w>
থান</w>
থান।</w>
থানগি
থানয়
থানয়াতাল</w>
থানয়ে
থানা
থানা,</w>
থানা</w>
থানা।</w>
থানাই
থানাটি</w>
থানাটির</w>
থানাটো
থানাতে</w>
থানাম
থানাম</w>
থানামের</w>
থানামো
থানায়,</w>
থানায়</w>
থানায়।</w>
থানার
থানার</w>
থানারা
থানারো
থানি
থানি</w>
থানি।</w>
থানিকে</w>
থানিনং</w>
থানিয়
থানিয়া</w>
থানিয়েল</w>
থানির</w>
থানী</w>
থানে
থানে,</w>
থানে</w>
থানের</w>
থানেল</w>
থানেশিয়ার</w>
থানেশ্বরের</w>
থানো
থানোলিক</w>
থানোলে
থান্
থান্ত
থান্দু</w>
থাম
থাম</w>
থামত
থামত</w>
থামতে,</w>
থামতে</w>
থামতো
থামতো</w>
থামন্তে</w>
থামা
থামা</w>
থামাইন</w>
থামাতে,</w>
থামাতে</w>
থামাত্রায়</w>
থামান</w>
থামানা</w>
থামানামক</w>
থামানো
থামানো</w>
থামায়</w>
থামায়।</w>
থামার
থামার</w>
থামালা
থামালা</w>
থামালার</w>
থামি
থামি</w>
থামিন,</w>
থামিয়ে</w>
থামিয়েছ
থামিয়েছিল</w>
থামিয়েছিলেন,</w>
থামিয়েছিলেন।</w>
থামির</w>
থামূ
থামূল
থামৃত
থামৃত</w>
থামৃতের</w>
থামে
থামে,</w>
থামে</w>
থামে।</w>
থামেন</w>
থামেন।</w>
থামেনি</w>
থামের</w>
থাম্পার
থাম্পি</w>
থাম্পির</w>
থাম্ব
থাম্ব</w>
থাম্বি</w>
থাম্বের</w>
থাম্মা</w>
থাম্মারাত</w>
থায়
থায়,</w>
থায়</w>
থায়।</w>
থায়া
থায়া</w>
থায়াত</w>
থায়ামিন</w>
থায়ামিনের</w>
থায়াম্বা
থায়ায়</w>
থায়ার</w>
থায়ে
থায়েত</w>
থায়ের</w>
থার
থার,</w>
থার</w>
থার।</w>
থারও</w>
থারহ্যাম</w>
থারা
থারা</w>
থারাই
থারাই</w>
থারাজা
থারান
থারান</w>
থারানগণ</w>
থারাম</w>
থারামানা</w>
থারি
থারি</w>
থারিক</w>
থারিকার</w>
থারিতে
থারিন
থারিন</w>
থারিনা
থারিনা</w>
থারিন্
থারিয়া</w>
থারী
থারু
থারু</w>
থারে</w>
থারের</w>
থারো
থার্
থার্থ
থার্থ</w>
থার্প</w>
থার্পির</w>
থার্ম</w>
থার্মা
থার্মাল</w>
থার্মি
থার্মি</w>
থার্মিক</w>
থার্মিয়
থার্মিয়া</w>
থার্মো
থাল
থাল</w>
থালা
থালা</w>
থালাই
থালাই</w>
থালায়</w>
থালার</w>
থালি
থালি</w>
থালিন</w>
থালিয়া
থালিয়া</w>
থালীতে</w>
থালীয়</w>
থালু
থালে
থালে</w>
থালে।</w>
থালের</w>
থালো
থাল্
থাল্যা
থাল্যামা
থি
থি</w>
থিক
থিক,</w>
থিক</w>
থিক।</w>
থিকনে
থিকরা
থিকল
থিকা</w>
থিকাই
থিকান্দা</w>
থিকাল</w>
থিকাল্
থিকি</w>
থিকু
থিকুলাম</w>
থিকৃ
থিকৃত
থিকৃত</w>
থিকৃতের</w>
থিকে</w>
থিকের</w>
থিকো
থিক্যাল</w>
থিক্স</w>
থিত
থিত</w>
থিত।</w>
থিতা
থিতার
থিতি</w>
থিতু
থিতু</w>
থিতে
থিতে,</w>
থিতে</w>
থিতে।</w>
থিন
থিন,</w>
থিন</w>
থিন।</w>
থিনা
থিনা</w>
থিনাই
থিনান,</w>
থিনান</w>
থিনার</w>
থিনি</w>
থিনিউপা
থিনিয়াম
থিনী</w>
থিনে
থিনেনি</w>
থিনের</w>
থিনো
থিন্
থিন্দা</w>
থিন্দার</w>
থিয়
থিয়</w>
থিয়া
থিয়া</w>
থিয়াত
থিয়াতে</w>
থিয়ান
থিয়ান</w>
থিয়ানের</w>
থিয়ান্
থিয়াম
থিয়াম</w>
থিয়ামের</w>
থিয়াম্পু</w>
থিয়ায়</w>
থিয়ার,</w>
থিয়ার</w>
থিয়ারা
থিয়াল
থিয়াল</w>
থিয়ে
থিয়ে</w>
থিয়েন
থিয়েন</w>
থিয়েল</w>
থিয়েলু</w>
থির</w>
থিল
থিল</w>
থিলা
থিলা</w>
থিলায়</w>
থিলার</w>
থিলি
থিলি</w>
থিলিকে</w>
থিলিন
থিলিন,</w>
থিলিন</w>
থিলিনা</w>
থিলিনে</w>
থিলিনের</w>
থিলী</w>
থিলু</w>
থিলে
থিলেশ
থিলেশন</w>
থিলো</w>
থিল্
থিল্য</w>
থিল্যের</w>
থে
থে,</w>
থে</w>
থে।</w>
থেকে</w>
থেত
থেত</w>
থেতে
থেন
থেন,</w>
থেন</w>
থেন।</w>
থেনা,</w>
থেনা</w>
থেনাই
থেনার</w>
থেনি
থেনিকাল</w>
থেনিয়া
থেনিয়ান
থেনিয়ান,</w>
থেনিয়ান</w>
থেনিয়াম
থেনিয়াম</w>
থেনিয়ার</w>
থেনিয়াল</w>
থেনী
থেনীয়</w>
থেনে
থেনে</w>
থেনের</w>
থেনো
থেন্
থের</w>
থেল
থেল</w>
থেলা
থেলাম</w>
থেলায়</w>
থেলার
থেলার</w>
থেলাল</w>
থেলি
থেলি</w>
থেলিক</w>
থেলিন</w>
থেলিয়াম
থেলিয়াম</w>
থেলিয়ামের</w>
থেলিয়াল</w>
থেলে
থেলে</w>
থেলের</w>
থেলো
থেলো</w>
থেলোকে
থেলোকে</w>
থেলোকে।</w>
থেল্
থেশ</w>
থেশ্বর</w>
থেশ্বরা</w>
থেশ্বরী</w>
দ
দ</w>
দক্ষ
দক্ষ</w>
দক্ষি
দক্ষিণ</w>
দক্ষিন
দক্ষিন</w>
দক্ষিনে
দক্ষিনে</w>
দক্ষেত্র</w>
দক্ষের</w>
দক্ষেশ্বর</w>
দন</w>
দর্
দর্তেন</w>
দর্ত্
দর্প
দর্প</w>
দর্য
দর্শ
দর্শ</w>
দর্শন</w>
দর্শা
দর্শাতে</w>
দর্শানো
দর্শানো</w>
দর্শায়
দর্শায়</w>
দর্শায়।</w>
দর্শি
দর্শিক
দর্শিক,</w>
দর্শিক</w>
দর্শিকা</w>
দর্শিকার</w>
দর্শিত
দর্শিত</w>
দর্শিতা
দর্শিতা</w>
দর্শিতায়</w>
দর্শিতার</w>
দর্শিনী</w>
দর্শিনীতে</w>
দর্শিয়ে</w>
দর্শী
দর্শী,</w>
দর্শী</w>
দর্শীদের</w>
দর্শীর</w>
দর্শে
দর্শে</w>
দর্শে।</w>
দর্শের</w>
দল
দল</w>
দলা
দলা</w>
দলাই
দলাই</w>
দলাতুল</w>
দলাতে
দলাতে</w>
দলান</w>
দলানি</w>
দলানো
দলানো</w>
দলাম
দলায়,</w>
দলায়</w>
দলার</w>
দলাল্
দলি
দলি</w>
দলিত
দলিত</w>
দলিতের</w>
দলিয়
দলিয়া</w>
দলিয়ার</w>
দলিয়ারের</w>
দলিয়ে</w>
দলির</w>
দলিল
দলিল</w>
দলিলা
দলিলাল</w>
দলিলে</w>
দলিলের</w>
দলী
দলী</w>
দলীয়</w>
দলু
দলু</w>
দলে
দলে,</w>
দলে</w>
দলে।</w>
দলেও</w>
দলেছিলেন,</w>
দলেছে</w>
দলেছে।</w>
দলেন,</w>
দলেন</w>
দলের</w>
দলো
দলো</w>
দল্
দল্যাল
দশ
দশ</w>
দশত
দশত</w>
দশতম</w>
দশতী</w>
দশন</w>
দশহরা</w>
দশহরার</w>
দশহর্
দশহা
দশহাত
দশা
দশা</w>
দশাই
দশাইনের</w>
দশাতে
দশাতে</w>
দশান্ত
দশায়
দশায়,</w>
দশায়</w>
দশায়।</w>
দশার</w>
দশার্
দশার্ণ</w>
দশাসমূ
দশি
দশি</w>
দশিক্ষা
দশিত</w>
দশিতার</w>
দশিল্প
দশী
দশী,</w>
দশী</w>
দশীতে</w>
দশীর</w>
দশু
দশে
দশে</w>
দশে।</w>
দশের</w>
দশ্ব
দা
দা</w>
দাই
দাই</w>
দাইউ
দাইন
দাইন</w>
দাইন।</w>
দাইনিনো
দাইবাড়
দাইবিয়া</w>
দাইবিয়ার</w>
দাইবু</w>
দাইবুল
দাইসান</w>
দাইসেন
দাইস্
দাইস্ট
দাও</w>
দাড়
দাড়</w>
দাড়া
দাড়া</w>
দাড়াতে</w>
দাড়াতো</w>
দাড়ান
দাড়ান</w>
দাড়ান।</w>
দাড়ানো
দাড়ানো</w>
দাড়ায়,</w>
দাড়ায়</w>
দাড়ায়।</w>
দাড়াল
দাড়াল</w>
দাত
দাত</w>
দাতা
দাতা</w>
দাতাই</w>
দাতাও</w>
দাতাকে</w>
দাতাতে</w>
দাতাদের</w>
দাতান</w>
দাতায়</w>
দাতায়ে
দাতার</w>
দাতারা</w>
দাতারাই</w>
দাতারূ
দাতি
দাতি</w>
দাতিন</w>
দাতিয়া
দাতিয়া</w>
দাতিল
দাতিল</w>
দাতী,</w>
দাতু
দাতুর</w>
দাতুরা</w>
দাতুল</w>
দাতে
দাতে</w>
দাতেন
দাতের</w>
দাত্
দাত্ত
দাত্ত</w>
দাত্তু</w>
দাত্তে</w>
দাত্ম
দাত্য
দাত্রী</w>
দাত্রো</w>
দান
দান,</w>
দান.</w>
দান</w>
দান।</w>
দানগ
দানগত</w>
দানগুল
দানগুলি
দানগুলি</w>
দানগুলিকে,</w>
দানগুলিকে</w>
দানগুলিতে</w>
দানগুলির</w>
দানগুলো
দানগুলো</w>
দানগুলোকে</w>
দানগুলোর</w>
দানগোল</w>
দানগ্রা
দানা
দানা,</w>
দানা</w>
দানা।</w>
দানাই</w>
দানাও</w>
দানাটিকে</w>
দানাড়া
দানাতে</w>
দানানির</w>
দানানীর</w>
দানামিয়ার</w>
দানামের</w>
দানায়</w>
দানার
দানার</w>
দানি
দানি</w>
দানি।</w>
দানিউ
দানিক
দানিক</w>
দানিকরা</w>
দানিকার
দানিকারী</w>
দানিকৃত</w>
দানিকে
দানিকে</w>
দানিকেন</w>
দানিকেনের</w>
দানিতে
দানিতে</w>
দানিতে।</w>
দানিনামে</w>
দানিন্ত
দানিয়
দানিয়া</w>
দানিয়ান</w>
দানিয়ায়</w>
দানিয়ার,</w>
দানিয়ার</w>
দানিয়ারানিয়ার</w>
দানিয়াল
দানিয়াল</w>
দানিয়ালের</w>
দানিয়েন্
দানিয়েল
দানিয়েল</w>
দানিয়েলে</w>
দানিয়েলের</w>
দানিয়েলো
দানির</w>
দানিলো
দানিলো</w>
দানী
দানী,</w>
দানী</w>
দানীতে</w>
দানীয়</w>
দানীর</w>
দানে
দানে,</w>
দানে</w>
দানে।</w>
দানেতা</w>
দানের</w>
দানেলা
দানেলি
দানেশ</w>
দানো
দানো</w>
দান্
দান্ত
দান্ত</w>
দান্তানা</w>
দান্তি
দান্তিক</w>
দান্তিকার</w>
দান্তিকী
দান্তিন</w>
দান্তু</w>
দান্তে
দান্তে,</w>
দান্তে</w>
দান্তের</w>
দান্ত্র
দান্ত্রে</w>
দান্ত্রের</w>
দান্দ</w>
দান্দানা
দান্দু</w>
দান্দ্রা</w>
দান্য
দান্য</w>
দাম
দাম</w>
দামত</w>
দামনা
দামসং</w>
দামসজি
দামসাং</w>
দামসি</w>
দামসিল্
দামহা
দামা
দামা</w>
দামাই</w>
দামাত
দামাতে</w>
দামান
দামান</w>
দামানের</w>
দামামা
দামামা</w>
দামায়
দামার
দামার</w>
দামারা
দামারি
দামারি</w>
দামাল
দামি
দামি</w>
দামিনী
দামিনী,</w>
দামিনী</w>
দামিনীর</w>
দামিয়া</w>
দামিয়াত</w>
দামিয়ান</w>
দামিয়ে
দামিয়েত্তা</w>
দামিয়েত্তায়</w>
দামির</w>
দামু
দামু</w>
দামুর</w>
দামুরহু
দামুস</w>
দামুসের</w>
দামে
দামে</w>
দামের</w>
দামেল</w>
দামেশ
দামো
দাম্
দাম্প
দাম্পত্য
দাম্পত্য</w>
দাম্বর
দাম্বা</w>
দাম্বানি
দাম্বার
দাম্বাল্যান্
দাম্বুর,</w>
দাম্বে
দাম্বে</w>
দাম্বো
দাম্মাম</w>
দাম্মামের</w>
দাম্রি</w>
দায়
দায়,</w>
দায়</w>
দায়।</w>
দায়া
দায়া</w>
দায়াত
দায়াত</w>
দায়াতু
দায়াতুল</w>
দায়াতুল্
দায়ান</w>
দায়ান।</w>
দায়ার
দায়ার,</w>
দায়ার</w>
দায়িত্ব</w>
দায়ে
দায়ে,</w>
দায়ে</w>
দায়েত</w>
দায়েতু
দায়েতুল্
দায়েতের</w>
দায়েন</w>
দায়েনের</w>
দায়ের</w>
দার
দার,</w>
দার</w>
দার।</w>
দারও</w>
দারকে</w>
দারণ
দারণ</w>
দারণত</w>
দারণের</w>
দারণ্য
দারতার</w>
দারয়
দারহ
দারহা
দারহাম
দারহাম</w>
দারহাল</w>
দারহাল্
দারহু
দারহে
দারহোল
দারা
দারা</w>
দারাই
দারাই</w>
দারাজ</w>
দারাজন
দারাজন</w>
দারাজা
দারাজি
দারাজি</w>
দারাজী</w>
দারাজীর</w>
দারান</w>
দারানী
দারানী</w>
দারাম
দারাম</w>
দারামা
দারামা</w>
দারামাই
দারায়
দারায়,</w>
দারায়</w>
দারার
দারার,</w>
দারার</w>
দারি
দারি</w>
দারিক,</w>
দারিক</w>
দারিকানা
দারিকে</w>
দারিত
দারিত</w>
দারিতে</w>
দারিত্ব
দারিত্ব</w>
দারিত্বে</w>
দারিত্বের</w>
দারিন
দারিন</w>
দারিনে</w>
দারিনের</w>
দারিয়
দারিয়া
দারিয়া</w>
দারিয়ান</w>
দারিয়ায়</w>
দারিয়াল</w>
দারিয়ালা
দারির</w>
দারী
দারী,</w>
দারী</w>
দারীতে</w>
দারীর</w>
দারু
দারু</w>
দারুর</w>
দারুরা</w>
দারুল
দারুল</w>
দারূ
দারে
দারে</w>
দারে।</w>
দারেতে</w>
দারেন</w>
দারেনের</w>
দারের</w>
দারো
দারো</w>
দারোগা
দারোগা</w>
দারোগার</w>
দারোলু
দারোলু</w>
দারোলুর</w>
দার্
দার্চ
দার্ত</w>
দার্তি</w>
দার্থ</w>
দার্থে</w>
দার্থের</w>
দার্বই</w>
দার্বিতে</w>
দার্বো
দার্মা
দার্য
দাল
দাল</w>
দালা
দালা</w>
দালাই
দালাই</w>
দালাত</w>
দালান
দালান,</w>
দালান</w>
দালান।</w>
দালানগুলো</w>
দালানগুলোর</w>
দালানে</w>
দালানের</w>
দালার্
দালাল
দালাল</w>
দালালীর</w>
দালালের</w>
দালি
দালি</w>
দালিক</w>
দালিকা
দালিকে</w>
দালিক্
দালিন
দালিন</w>
দালিয়
দালিয়া
দালিয়া</w>
দালিয়ার</w>
দালিয়ে
দালির</w>
দালিলিক</w>
দালী
দালী</w>
দালীর</w>
দালু
দালে
দালে</w>
দালেন</w>
দালেনা</w>
দালেনার।</w>
দালেনে</w>
দালের</w>
দালেল</w>
দালো
দালোল</w>
দাল্
দাহ
দাহ</w>
দাহত</w>
দাহতে</w>
দাহন</w>
দাহা
দাহা</w>
দাহান</w>
দাহানি
দাহানি</w>
দাহানিকর
দাহানিকর</w>
দাহানিকে</w>
দাহানী</w>
দাহাম
দাহাম</w>
দাহার
দাহার</w>
দাহাল
দাহি
দাহি</w>
দাহিত</w>
দাহিনে</w>
দাহিয়া</w>
দাহির</w>
দাহী</w>
দাহু
দাহু</w>
দাহৃত</w>
দাহে</w>
দাহের</w>
দাহো
দাহ্
দাহ্বিশ্বা
দাহ্য
দাহ্য</w>
দাহ্র</w>
দি
দি</w>
দিক
দিক,</w>
দিক</w>
দিক।</w>
দিকটি</w>
দিকদের</w>
দিকনগ
দিকনি
দিকনির্
দিকমুখ
দিকমূল</w>
দিকরণ</w>
দিকরায়াত</w>
দিকরে
দিকা
দিকা</w>
দিকাই
দিকাও</w>
দিকান
দিকায়
দিকার
দিকার</w>
দিকারাম</w>
দিকাল
দিকাল</w>
দিকালে,</w>
দিকালে</w>
দিকালের</w>
দিকি
দিকি</w>
দিকিয়া</w>
দিকির</w>
দিকী
দিকী,</w>
দিকী</w>
দিকীর</w>
দিকু
দিকুর</w>
দিকুল</w>
দিকুল্
দিকে
দিকে,</w>
দিকে</w>
দিকে।</w>
দিকেই</w>
দিকের</w>
দিকেল</w>
দিকেশ
দিকো
দিক্
দিক্তি</w>
দিক্তু
দিক্ব
দিক্বী
দিক্র</w>
দিক্রমে</w>
দিক্ষ
দিত
দিত</w>
দিত।</w>
দিতম</w>
দিতা
দিতা</w>
দিতাও</w>
দিতাকে</w>
দিতাম
দিতাম</w>
দিতার</w>
দিতাল
দিতি
দিতি</w>
দিতিকে</w>
দিতির</w>
দিতী
দিতীয়</w>
দিতুর্
দিতে
দিতে,</w>
দিতে</w>
দিতে।</w>
দিতেছে।</w>
দিতেন
দিতেন,</w>
দিতেন</w>
দিতেন।</w>
দিতের</w>
দিতো
দিতো</w>
দিত্তি
দিত্তি</w>
দিত্তির</w>
দিত্বীয়</w>
দিত্য
দিত্য</w>
দিত্যের</w>
দিন
দিন,</w>
দিন.</w>
দিন</w>
দিন।</w>
দিনগ
দিনগুলি
দিনগুলি</w>
দিনগুলিতে,</w>
দিনগুলিতে</w>
দিনগুলির</w>
দিনগুলো
দিনগুলো</w>
দিনগুলোর</w>
দিনভে
দিনা
দিনা,</w>
দিনা</w>
দিনা।</w>
দিনাত</w>
দিনাতি
দিনাতু
দিনাতুল</w>
দিনাতে</w>
দিনানা
দিনানি
দিনান্তেতে</w>
দিনান্দ
দিনান্দ</w>
দিনান্দের</w>
দিনান্দো
দিনান্দো</w>
দিনামাই
দিনামিশ্রিত</w>
দিনামো
দিনামো</w>
দিনায়</w>
দিনায়া
দিনার,</w>
দিনার</w>
দিনার।</w>
দিনারকে</w>
দিনারা</w>
দিনারান</w>
দিনারি
দিনারিক</w>
দিনারের</w>
দিনার্
দিনাল্
দিনি
দিনি</w>
দিনিনগ
দিনিনার</w>
দিনিয়া</w>
দিনিয়ে</w>
দিনিলে</w>
দিনী
দিনী,</w>
দিনী</w>
দিনীতে</w>
দিনীর</w>
দিনে
দিনে,</w>
দিনে</w>
দিনে।</w>
দিনেত</w>
দিনেত্তাম</w>
দিনেন্দ্র
দিনের</w>
দিনেশ</w>
দিনেশা</w>
দিনো
দিনো</w>
দিন্
দিন্দি
দিন্দু
দিন্দু</w>
দিন্দো
দিন্দ্র</w>
দিন্দ্রা</w>
দিয়
দিয়</w>
দিয়া
দিয়া</w>
দিয়াও</w>
দিয়াড়</w>
দিয়াড়া</w>
দিয়াত
দিয়াত</w>
দিয়াতালা
দিয়াতুল</w>
দিয়াতে</w>
দিয়ান
দিয়ান,</w>
দিয়ান</w>
দিয়ানা</w>
দিয়ানায়</w>
দিয়ানার</w>
দিয়ানি
দিয়ানি</w>
দিয়ানিয়াত
দিয়ানিল</w>
দিয়ানী
দিয়ানী</w>
দিয়ানীদের</w>
দিয়ানে
দিয়ানের</w>
দিয়ানো
দিয়ানো</w>
দিয়ান্তে
দিয়াম
দিয়ামান।</w>
দিয়ামি</w>
দিয়ামু
দিয়ামুর্
দিয়ামে
দিয়ামের</w>
দিয়ায়</w>
দিয়ায়ার
দিয়ার
দিয়ার,</w>
দিয়ার</w>
দিয়ারা</w>
দিয়ারাজ</w>
দিয়ারাজ্যের</w>
দিয়ারাম</w>
দিয়ারার</w>
দিয়ারি
দিয়ারে</w>
দিয়ারের</w>
দিয়াল
দিয়াল</w>
দিয়ালি</w>
দিয়ালী</w>
দিয়ালে
দিয়ালো</w>
দিয়ালোগো</w>
দিয়াল্
দিয়ে
দিয়ে,</w>
দিয়ে</w>
দিয়ে।</w>
দিয়েছ
দিয়েছিল
দিয়েছিল,</w>
দিয়েছিল</w>
দিয়েছিল।</w>
দিয়েছিলাম
দিয়েছিলাম</w>
দিয়েছিলি</w>
দিয়েছিলেন
দিয়েছিলেন,</w>
দিয়েছিলেন</w>
দিয়েছিলেন।</w>
দিয়েছিলো
দিয়েছিলো</w>
দিয়েছে</w>
দিয়েছে।</w>
দিয়েন
দিয়েন</w>
দিয়েনের</w>
দিয়ের</w>
দিয়েল</w>
দির</w>
দিল
দিল</w>
দিলা
দিলা</w>
দিলান
দিলান</w>
দিলাম
দিলাম</w>
দিলামের</w>
দিলার</w>
দিলারা</w>
দিলাল
দিলাল</w>
দিলালের</w>
দিলি
দিলি</w>
দিলিক</w>
দিলিয়া
দিলির</w>
দিলী
দিলু</w>
দিলে
দিলে,</w>
দিলে</w>
দিলেও</w>
দিলেন
দিলেন,</w>
দিলেন.</w>
দিলেন</w>
দিলেন।</w>
দিলের</w>
দিলেশ্বর</w>
দিলো
দিলো</w>
দিলোকা</w>
দিল্
দী
দী,</w>
দী</w>
দীতে</w>
দীদের</w>
দীন</w>
দীয়</w>
দীর</w>
দীর্ঘ
দীর্ঘা
দীর্ঘা</w>
দীর্ঘায়
দু
দু</w>
দুই</w>
দুটি</w>
দুর
দুর,</w>
দুর</w>
দুর।</w>
দুরও</w>
দুরকে</w>
দুরহ
দুরা
দুরা</w>
দুরাই
দুরাই</w>
দুরাইস</w>
দুরাইসামি</w>
দুরাজা</w>
দুরাত্ব</w>
দুরান</w>
দুরানি</w>
দুরানির</w>
দুরানী
দুরানী</w>
দুরানীর</w>
দুরানের</w>
দুরান্ত
দুরান্ত</w>
দুরায়</w>
দুরার
দুরার</w>
দুরারোগ্য</w>
দুরি
দুরি</w>
দুরিয়
দুরিয়া
দুরিয়া</w>
দুরিয়ার</w>
দুরির</w>
দুরীয়</w>
দুরু
দুরু</w>
দুরুল</w>
দুরূ
দুরে</w>
দুরের</w>
দুরো
দুরো</w>
দুর্
দুর্ঘট
দুর্ঘটানার</w>
দুর্বল
দুর্বল</w>
দুর্বা
দুর্বার</w>
দুর্বি
দুর্বিন</w>
দুর্বিনী
দুর্বিনীত</w>
দুর্বিষ
দুর্বৃত্ত
দুর্বৃত্ত</w>
দুর্বৃত্তে
দুর্বো
দুর্ব্যব
দুর্ব্যবহার</w>
দুর্মতি</w>
দুর্য
দুর্য</w>
দুর্যো
দুর্যোগ
দুর্যোগ</w>
দুর্যোগে</w>
দুর্যোগের</w>
দুর্রায়ে</w>
দুল
দুল</w>
দুলা
দুলা</w>
দুলাই
দুলান
দুলানো
দুলার</w>
দুলারহা
দুলারা
দুলারী
দুলারী</w>
দুলাল
দুলাল</w>
দুলালের</w>
দুলি</w>
দুলিয়ে</w>
দুলির</w>
দুলিল্
দুলী
দুলী,</w>
দুলু
দুলু</w>
দুলুর</w>
দুলে
দুলে</w>
দুলেনের</w>
দুলেন্দ্র</w>
দুলের</w>
দুলো
দুল্
দুল্য
দুল্যা
দুল্যা</w>
দুল্যাত
দূ
দূর্
দূর্ঘট
দূর্বল
দূর্বল</w>
দূর্বলী
দূর্বা
দূর্বার</w>
দূর্বৃত্ত
দূর্বে
দূর্যো
দূর্যোগ
দূর্যোগ</w>
দূর্যোগে</w>
দূর্যোগের</w>
দৃ
দৃত
দৃত</w>
দৃতীয়</w>
দৃত্ত</w>
দে
দে,</w>
দে</w>
দে।</w>
দেওয়া</w>
দেখ
দেখ</w>
দেখা
দেখা</w>
দেখাই</w>
দেখাও</w>
দেখাত
দেখাতে
দেখাতে,</w>
দেখাতে</w>
দেখাতে।</w>
দেখাতেন।</w>
দেখাতো
দেখাতো</w>
দেখান
দেখান,</w>
দেখান</w>
দেখান।</w>
দেখানো
দেখানো</w>
দেখামাত্র
দেখামাত্র</w>
দেখায়
দেখায়,</w>
দেখায়</w>
দেখায়।</w>
দেখার
দেখার,</w>
দেখার</w>
দেখালে
দেখালে,</w>
দেখালে</w>
দেখালেও</w>
দেখালেন</w>
দেখালো
দেখু
দেখে</w>
দেখ্রি</w>
দেছ
দেছিলেন।</w>
দেছে</w>
দেত</w>
দেতে
দেতে,</w>
দেতে</w>
দেতের</w>
দেতো
দেত্ত
দেত্তা</w>
দেত্তো</w>
দেন
দেন,</w>
দেন.</w>
দেন</w>
দেন।</w>
দেনগুলি
দেনগুলি</w>
দেনগুলিকে</w>
দেনগুলির</w>
দেনগুলো</w>
দেনগে
দেনা
দেনা</w>
দেনায়</w>
দেনার</w>
দেনি
দেনি</w>
দেনিয়া</w>
দেনিল</w>
দেনী</w>
দেনে
দেনে</w>
দেনের</w>
দেন্
দেন্তো
দেন্য
দেব
দেব</w>
দেবর
দেবর</w>
দেবর।</w>
দেবরকে</w>
দেবরা</w>
দেবরাই
দেবরাও</w>
দেবরাজ</w>
দেবরাজা</w>
দেবরাজের</w>
দেবরান</w>
দেবরানী</w>
দেবরাম
দেবরাম</w>
দেবরায়</w>
দেবরু
দেবরূ
দেবর্
দেবল
দেবল</w>
দেবলা</w>
দেবলী
দেবলে</w>
দেবলোক
দেবলোক</w>
দেবলোকে,</w>
দেবলোকের</w>
দেবা
দেবা</w>
দেবাং
দেবাই
দেবাও</w>
দেবাদাম
দেবাদামি</w>
দেবাদি
দেবাদৃতার</w>
দেবান
দেবান</w>
দেবানাম্পিয়
দেবানী</w>
দেবায়</w>
দেবার</w>
দেবার্চ
দেবাল
দেবালা</w>
দেবালি
দেবালোকের</w>
দেবি
দেবি</w>
দেবিকা
দেবিকা</w>
দেবিকাও</w>
দেবিকার</w>
দেবিন্দ
দেবিয়া
দেবির</w>
দেবিলা</w>
দেবী
দেবী,</w>
দেবী</w>
দেবীতে</w>
দেবীদের</w>
দেবীর</w>
দেবু
দেবু</w>
দেবে
দেবে,</w>
দেবে</w>
দেবে।</w>
দেবেন
দেবেন,</w>
দেবেন</w>
দেবেন।</w>
দেবেনা।</w>
দেবেন্দ্র
দেবেন্দ্র,</w>
দেবেন্দ্র</w>
দেবেন্দ্রকে</w>
দেবের</w>
দেবেল
দেবেশ
দেবেশ</w>
দেবেশ্বর</w>
দেবো
দেবো</w>
দেব্
দেব্ত্
দেব্যু
দেব্রে
দেব্র্ত্
দেয়।</w>
দের</w>
দেল
দেল</w>
দেলা
দেলা</w>
দেলানি
দেলানের</w>
দেলার</w>
দেলারাম</w>
দেলারু
দেলি
দেলি</w>
দেলিনা</w>
দেলিনের</w>
দেলিয়া
দেলিয়া</w>
দেলিয়ার</w>
দেলির</w>
দেলী</w>
দেলু
দেলুর</w>
দেলে
দেলে</w>
দেলের</w>
দেলো
দেল্
দেশ
দেশ</w>
দেশত
দেশতুর
দেশতেলে
দেশত্যা
দেশন</w>
দেশব্য
দেশব্যাপ
দেশব্যাপি</w>
দেশব্র
দেশহ
দেশহা
দেশা
দেশা</w>
দেশাই
দেশাই</w>
দেশাত্ম
দেশান
দেশান্ত
দেশি
দেশি</w>
দেশিক
দেশিক,</w>
দেশিক</w>
দেশিকমন্ত্রী
দেশিকা
দেশিকা</w>
দেশিকাতে</w>
দেশিকামূল
দেশিকায়</w>
দেশিকার</w>
দেশিকে</w>
দেশিত
দেশিত</w>
দেশিত।</w>
দেশিতার</w>
দেশিনী
দেশিনী</w>
দেশিয়</w>
দেশির</w>
দেশী
দেশী,</w>
দেশী</w>
দেশীত</w>
দেশীতে</w>
দেশীদের</w>
দেশীয়</w>
দেশীর</w>
দেশে
দেশে,</w>
দেশে</w>
দেশে।</w>
দেশেতে</w>
দেশের</w>
দেশ্বর</w>
দেশ্বরী
দেশ্বরী</w>
দেশ্বরীতে</w>
দেশ্যে</w>
দেশ্রেণিক
দৈ
দো
দো</w>
দোগ
দোগ</w>
দোগা
দোগান
দোগান</w>
দোগানের</w>
দোগেন</w>
দোগো
দোগ্রু
দোল
দোল</w>
দোলা
দোলা</w>
দোলাই
দোলাই</w>
দোলাও</w>
দোলাত
দোলাত</w>
দোলাতে</w>
দোলান,</w>
দোলান</w>
দোলানে
দোলানো</w>
দোলায়</w>
দোলার
দোলার</w>
দোলালে</w>
দোলি
দোলি</w>
দোলিয়া</w>
দোলিয়ে</w>
দোলির</w>
দোলু
দোলে
দোলে</w>
দোলে।</w>
দোলেন</w>
দোলের</w>
দোলো
দোল্
দ্
দ্ধ
দ্ধ</w>
দ্ধর
দ্ধরণ
দ্ধরা
দ্ধরা</w>
দ্ধরাও</w>
দ্ধরূ
দ্ধরূপ</w>
দ্ধর্ম</w>
দ্ধর্মে</w>
দ্ধা
দ্ধা</w>
দ্ধাই</w>
দ্ধাও</w>
দ্ধাতে</w>
দ্ধাত্রি
দ্ধাত্রি</w>
দ্ধাত্রী
দ্ধাত্রী</w>
দ্ধাত্রীর</w>
দ্ধান
দ্ধানায়
দ্ধানি
দ্ধান্ত
দ্ধান্ত</w>
দ্ধান্তান
দ্ধান্তিকা</w>
দ্ধান্তে</w>
দ্ধান্তের</w>
দ্ধাম
দ্ধায়
দ্ধায়</w>
দ্ধার
দ্ধার,</w>
দ্ধার</w>
দ্ধার।</w>
দ্ধারণ</w>
দ্ধারা
দ্ধারা</w>
দ্ধারাই</w>
দ্ধারাও</w>
দ্ধারিত</w>
দ্ধারে
দ্ধারে</w>
দ্ধারের</w>
দ্ধার্ঘ
দ্ধার্থ
দ্ধার্থ</w>
দ্ধার্থের</w>
দ্ধি</w>
দ্ধিক</w>
দ্ধী
দ্ধী</w>
দ্ধীন</w>
দ্ধীয়</w>
দ্ধু
দ্ধু</w>
দ্ধ্বি</w>
দ্ধ্য
দ্পা
দ্পাল
দ্পাল</w>
দ্পে
দ্পো
দ্ব
দ্ব</w>
দ্বন্দ
দ্বন্দ</w>
দ্বন্দিতা</w>
দ্বন্দিতামূল
দ্বন্দিতার</w>
দ্বন্দী
দ্বন্দী</w>
দ্বন্দে</w>
দ্বন্দের</w>
দ্বন্দ্ব
দ্বন্দ্ব</w>
দ্বন্দ্বাত্ম
দ্বন্দ্বিত</w>
দ্বন্দ্বিতা
দ্বন্দ্বিতা</w>
দ্বন্দ্বিতাকে</w>
দ্বন্দ্বিতামুখ
দ্বন্দ্বিতামূল
দ্বন্দ্বিতায়</w>
দ্বন্দ্বিতার</w>
দ্বন্দ্বী
দ্বন্দ্বী,</w>
দ্বন্দ্বী</w>
দ্বন্দ্বীদের</w>
দ্বন্দ্বীর</w>
দ্বন্দ্বে</w>
দ্বন্দ্বের</w>
দ্বন্দ্ব্ব
দ্বন্দ্ব্ব</w>
দ্বন্দ্ব্বিতা</w>
দ্বন্দ্ব্বী
দ্বন্দ্ব্বী</w>
দ্বন্দ্ব্বের</w>
দ্বন্দ্ব্ব্ব</w>
দ্বন্ধ
দ্বন্ধ</w>
দ্বন্ধু</w>
দ্বয়
দ্বয়,</w>
দ্বয়</w>
দ্বয়ে
দ্বয়ে</w>
দ্বয়ের</w>
দ্বরা
দ্বরা</w>
দ্বরে
দ্বর্ণ</w>
দ্বর্থ
দ্বল</w>
দ্বল্
দ্বা
দ্বাং
দ্বাং</w>
দ্বাত</w>
দ্বাতারা</w>
দ্বাদ
দ্বাদশ
দ্বাদশ</w>
দ্বাদশতম</w>
দ্বাদশা
দ্বাদশারা
দ্বাদশী
দ্বাদশী</w>
দ্বাদশীতে</w>
দ্বাদশীদের</w>
দ্বাদশীর</w>
দ্বাদশে,</w>
দ্বান
দ্বান,</w>
দ্বান</w>
দ্বান।</w>
দ্বানিত</w>
দ্বানী</w>
দ্বানে
দ্বান্দ্বিক
দ্বান্দ্বিক</w>
দ্বায়
দ্বায়</w>
দ্বায়ের</w>
দ্বার
দ্বার,</w>
দ্বার</w>
দ্বার।</w>
দ্বারও</w>
দ্বারকে</w>
দ্বারা
দ্বারা</w>
দ্বারাই
দ্বারাই</w>
দ্বারাও</w>
দ্বারায়</w>
দ্বারি
দ্বারিকা
দ্বারিকা</w>
দ্বারিত্ব</w>
দ্বারিয়া
দ্বারী</w>
দ্বারে,</w>
দ্বারে</w>
দ্বারের</w>
দ্বার্
দ্বি
দ্বি</w>
দ্বিক
দ্বিকলামের</w>
দ্বিকা
দ্বিকার্য
দ্বিকেন্দ্রী</w>
দ্বিত
দ্বিতার
দ্বিতিয়ার্
দ্বিতী
দ্বিতী</w>
দ্বিতীয়</w>
দ্বিত্ত</w>
দ্বিত্ব
দ্বিত্ব</w>
দ্বিদ</w>
দ্বিধ
দ্বিধা
দ্বিধা</w>
দ্বিধাতু
দ্বিধাতে</w>
দ্বিধান্বিত</w>
দ্বিধায়
দ্বিধায়,</w>
দ্বিধায়</w>
দ্বিধারী</w>
দ্বিনা
দ্বিনালিকা</w>
দ্বিনি
দ্বিনের</w>
দ্বিবারিয়াল</w>
দ্বিবার্
দ্বিবে
দ্বিমান</w>
দ্বিরু
দ্বিল</w>
দ্বিশত
দ্বিশির</w>
দ্বিষয়ে</w>
দ্বিষ্ট</w>
দ্বী
দ্বীন</w>
দ্বীয়</w>
দ্বু
দ্বুরি</w>
দ্বুর্
দ্বুর্ত্
দ্বৃ
দ্বে
দ্বে</w>
দ্বেন
দ্বৈ
দ্বো
দ্ব্য
দ্ব্যা
দ্ব্যাতীত</w>
দ্ব্যার্থ
দ্ম
দ্ম</w>
দ্মনাম
দ্মনাম</w>
দ্মনামে
দ্মনামে</w>
দ্মনামে।</w>
দ্মনামের</w>
দ্মা
দ্মান</w>
দ্মায়
দ্মার
দ্মার,</w>
দ্মার</w>
দ্মিক</w>
দ্মো
দ্য
দ্য</w>
দ্য়া</w>
দ্য়ে</w>
দ্যা
দ্যা</w>
দ্যাই</w>
দ্যাও</w>
দ্যাতে,</w>
দ্যাতে</w>
দ্যাত্ম
দ্যান
দ্যান,</w>
দ্যান</w>
দ্যান।</w>
দ্যানগ
দ্যানগুলো
দ্যানা
দ্যানি
দ্যানিকেত
দ্যানিকেতিনটি</w>
দ্যানির্
দ্যানে</w>
দ্যানের</w>
দ্যানেশ্বরের</w>
দ্যাম
দ্যাম</w>
দ্যামন্দি
দ্যামন্দির</w>
দ্যামান</w>
দ্যামান।</w>
দ্যামূল
দ্যামো
দ্যায়
দ্যায়,</w>
দ্যায়</w>
দ্যায়।</w>
দ্যায়াত
দ্যায়ের</w>
দ্যার
দ্যার</w>
দ্যারও</w>
দ্যারণ্য</w>
দ্যারণ্যের</w>
দ্যারাম্
দ্যারূপ</w>
দ্যার্
দ্যার্থ
দ্যাল
দ্যালিয়
দ্যু
দ্যু</w>
দ্যুর
দ্যুরো
দ্যুর্
দ্যুলোক
দ্যুলোক</w>
দ্যে
দ্যে,</w>
দ্যে</w>
দ্যের</w>
দ্যেশ</w>
দ্যেশে,</w>
দ্যেশে</w>
দ্যেশ্য
দ্যেশ্য</w>
দ্যেশ্যে</w>
দ্যেশ্যে।</w>
দ্যেশ্যের</w>
দ্যো
দ্যো</w>
দ্যোগ
দ্যোগ</w>
দ্যোগে</w>
দ্যোগের</w>
দ্যৌ
দ্র
দ্র,</w>
দ্র</w>
দ্র।</w>
দ্রও</w>
দ্রকে</w>
দ্রণ
দ্রণ</w>
দ্রণে</w>
দ্রণের</w>
দ্রতার</w>
দ্রহ
দ্রহ</w>
দ্রহ্রা
দ্রা
দ্রা</w>
দ্রাও</w>
দ্রাখালী,</w>
দ্রাখালী</w>
দ্রাজ
দ্রাজ</w>
দ্রাজা</w>
দ্রাজী</w>
দ্রাজে</w>
দ্রাজে।</w>
দ্রাজের</w>
দ্রাতানা</w>
দ্রাতিক্ষ
দ্রাতির</w>
দ্রাতে</w>
দ্রানী
দ্রান্তে</w>
দ্রান্ত্র</w>
দ্রান্ত্রে</w>
দ্রান্ত্রের</w>
দ্রাম</w>
দ্রামান</w>
দ্রামানে</w>
দ্রাম্মা</w>
দ্রায়
দ্রায়</w>
দ্রায়।</w>
দ্রার
দ্রার</w>
দ্রারহিত</w>
দ্রারা
দ্রার্
দ্রাল</w>
দ্রালু</w>
দ্রি
দ্রি</w>
দ্রিক
দ্রিক</w>
দ্রিকান্তির</w>
দ্রিকের</w>
দ্রিত
দ্রিত</w>
দ্রিত।</w>
দ্রিতা</w>
দ্রিন</w>
দ্রিন।</w>
দ্রিনা
দ্রিনান্দ</w>
দ্রিনের</w>
দ্রিন্দ্র</w>
দ্রিয়
দ্রিয়া
দ্রিয়া</w>
দ্রিয়ান
দ্রিয়ান</w>
দ্রিয়ানা</w>
দ্রিয়ানের</w>
দ্রিয়ানো
দ্রিয়ানো</w>
দ্রিয়েন</w>
দ্রির</w>
দ্রিল</w>
দ্রিলো</w>
দ্রী
দ্রী,</w>
দ্রী</w>
দ্রীদের</w>
দ্রীয়</w>
দ্রীর</w>
দ্রু
দ্রু</w>
দ্রুর</w>
দ্রুল</w>
দ্রূ
দ্রূপ</w>
দ্রে
দ্রে,</w>
দ্রে</w>
দ্রে।</w>
দ্রেত
দ্রেন
দ্রের</w>
দ্রেলু
দ্রেশ
দ্রেশ্বর</w>
দ্রেশ্বরী</w>
দ্রো
দ্রো</w>
দ্রোগ
দ্রোগ</w>
দ্রোগে
দ্রোগে</w>
দ্র্য
দ্র্য</w>
দ্র্যে</w>
দ্র্যের</w>
দ্র্র</w>
ধ
ধ</w>
ধর
ধর,</w>
ধর</w>
ধর।</w>
ধরও</w>
ধরকে</w>
ধরণ
ধরণ</w>
ধরণে</w>
ধরণের</w>
ধরনের</w>
ধরা
ধরা</w>
ধরাই
ধরাই</w>
ধরাও</w>
ধরাজ
ধরাজ</w>
ধরাজ্যের</w>
ধরাতে</w>
ধরাত্রি</w>
ধরান
ধরান</w>
ধরানো
ধরানো</w>
ধরাম</w>
ধরামা
ধরায়</w>
ধরার,</w>
ধরার</w>
ধরার।</w>
ধরারা</w>
ধরালী</w>
ধরাষ্ট্র
ধরি
ধরি</w>
ধরিক
ধরিক</w>
ধরিত্রি</w>
ধরিত্রী
ধরিত্রী</w>
ধরিত্রীর</w>
ধরিনের</w>
ধরিয়ে</w>
ধরিয়েছিল</w>
ধরী
ধরী</w>
ধরু
ধরূ
ধরে
ধরে,</w>
ধরে</w>
ধরে।</w>
ধরেছ
ধরেছিল
ধরেছিল,</w>
ধরেছিল</w>
ধরেছিল।</w>
ধরেছিলেন,</w>
ধরেছিলেন</w>
ধরেছিলেন।</w>
ধরেছে</w>
ধরেছে।</w>
ধরেতা
ধরেন
ধরেন,</w>
ধরেন</w>
ধরেন।</w>
ধরেনি।</w>
ধরেনে</w>
ধরের</w>
ধরো
ধরো</w>
ধর্
ধর্ত
ধর্ম
ধর্ম</w>
ধর্মত
ধর্মত</w>
ধর্মতা
ধর্মতাত্ত্বিক
ধর্মতাত্ত্বিক,</w>
ধর্মতাত্ত্বিক</w>
ধর্মতাত্ত্বিকরা</w>
ধর্মতান্ত্রিক</w>
ধর্মতে</w>
ধর্মত্যা
ধর্মন
ধর্মনগ
ধর্মনাম</w>
ধর্মনি
ধর্মনির্বিশেষে</w>
ধর্মনী
ধর্মনেতা</w>
ধর্মনের</w>
ধর্মস
ধর্মসং
ধর্মসংস্
ধর্মসংস্থাপ
ধর্মসভা</w>
ধর্মসভায়</w>
ধর্মসভার</w>
ধর্মসমু
ধর্মসমূ
ধর্মসম্পর্
ধর্মসম্প্র
ধর্মসম্মত</w>
ধর্মসম্মতি</w>
ধর্মসহ</w>
ধর্মসহি
ধর্মসাম
ধর্মসালা</w>
ধর্মসূ
ধর্মসেন</w>
ধর্মসেনা
ধর্মসেনা</w>
ধর্মসেনা।</w>
ধর্মস্তিকায়</w>
ধর্মস্থ
ধর্মস্থ</w>
ধর্মস্থান
ধর্মস্থান,</w>
ধর্মস্থান</w>
ধর্মস্থান।</w>
ধর্মা
ধর্মা</w>
ধর্মাতার</w>
ধর্মানু
ধর্মানুরা
ধর্মান্ত
ধর্মান্দোল
ধর্মান্ধ
ধর্মান্ধ</w>
ধর্মার</w>
ধর্মাল
ধর্মি
ধর্মি</w>
ধর্মিতা</w>
ধর্মিতার</w>
ধর্মিনী
ধর্মিনী</w>
ধর্মিনীর</w>
ধর্মিয়</w>
ধর্মীয়</w>
ধর্মে
ধর্মে,</w>
ধর্মে</w>
ধর্মেন্দ্র
ধর্মেন্দ্র,</w>
ধর্মেন্দ্র</w>
ধর্মেন্দ্র।</w>
ধর্মেন্দ্রের</w>
ধর্মের</w>
ধর্মেশ</w>
ধর্মো
ধর্ম্ম
ধর্র্ম
ধা
ধা</w>
ধাই
ধাই</w>
ধাইবার</w>
ধাও</w>
ধাড়া
ধাড়া</w>
ধাত
ধাত</w>
ধাতথাক
ধাতা
ধাতা</w>
ধাতান্ত্রিক</w>
ধাতায়ারীদের</w>
ধাতালিকা</w>
ধাতি
ধাতু
ধাতু</w>
ধাতুর
ধাতুর</w>
ধাতুরূপ</w>
ধাতে</w>
ধাত্ম
ধাত্র
ধাত্রী
ধাত্রী,</w>
ধাত্রী</w>
ধাত্রীর</w>
ধাত্রে</w>
ধান
ধান,</w>
ধান.</w>
ধান</w>
ধান।</w>
ধানগ
ধানগত</w>
ধানগুলি</w>
ধানগুলিকে</w>
ধানগুলিতে</w>
ধানগুলির</w>
ধানগুলো</w>
ধানগুলোকে
ধানগুলোর</w>
ধানা
ধানা</w>
ধানাড়া</w>
ধানাড়ার</w>
ধানামক</w>
ধানার
ধানার</w>
ধানি
ধানি</w>
ধানিক</w>
ধানী
ধানী,</w>
ধানী</w>
ধানীতে</w>
ধানীর</w>
ধানে
ধানে,</w>
ধানে</w>
ধানে।</w>
ধানের</w>
ধানো
ধানো</w>
ধান্
ধান্ত</w>
ধান্দা</w>
ধান্বিত
ধান্বিত</w>
ধান্য
ধান্য</w>
ধান্যের</w>
ধাম
ধাম</w>
ধামত
ধামতী</w>
ধামতু</w>
ধামন
ধামনগ
ধামনি
ধামনি</w>
ধামনিক</w>
ধামন্দা
ধামন্দা</w>
ধামন্যু
ধামসা</w>
ধামসামা
ধামা
ধামাই
ধামাই</w>
ধামান</w>
ধামানগা
ধামানু
ধামান্দ্য
ধামার,</w>
ধামার</w>
ধামারি</w>
ধামাল</w>
ধামালী</w>
ধামি</w>
ধামিনী</w>
ধামির</w>
ধামু
ধামুরা
ধামূল্য
ধামে,</w>
ধামে</w>
ধামের</w>
ধামো
ধামোলা</w>
ধাম্
ধাম্মা</w>
ধায়
ধায়</w>
ধায়ে,</w>
ধায়ের</w>
ধার
ধার,</w>
ধার</w>
ধার।</w>
ধারও</w>
ধারকে</w>
ধারক্ষ
ধারণ
ধারণ</w>
ধারণা
ধারণা</w>
ধারণাই</w>
ধারণাও</w>
ধারণান
ধারণামতে,</w>
ধারণামতে</w>
ধারণামূল
ধারণায়,</w>
ধারণায়</w>
ধারণার
ধারণার</w>
ধারণারূ
ধারণে</w>
ধারণের</w>
ধারণ্বীত</w>
ধারয়</w>
ধারা
ধারা</w>
ধারাই</w>
ধারাও</w>
ধারাতে
ধারাতে</w>
ধারান
ধারানগা
ধারানগি
ধারানী</w>
ধারাম
ধারাম</w>
ধারামের</w>
ধারায়,</w>
ধারায়</w>
ধারায়।</w>
ধারার
ধারার,</w>
ধারার</w>
ধারার।</w>
ধারারে
ধারারের</w>
ধারাল</w>
ধারালো
ধারালো</w>
ধারাষ্ট্র
ধারি
ধারি</w>
ধারিত
ধারিত</w>
ধারিত।</w>
ধারিনী
ধারিনী</w>
ধারিয়া
ধারী
ধারী,</w>
ধারী</w>
ধারীতে</w>
ধারীদের</w>
ধারীর</w>
ধারু
ধারূপ</w>
ধারে
ধারে,</w>
ধারে</w>
ধারে।</w>
ধারের</w>
ধারেশ্বর</w>
ধারো</w>
ধারোলি
ধার্
ধার্ত
ধার্ত</w>
ধার্থ
ধার্থ</w>
ধার্ম
ধার্মিক
ধার্মিক,</w>
ধার্মিক</w>
ধার্মিকদের</w>
ধার্মিকরাই</w>
ধার্মিকের</w>
ধার্য
ধার্য</w>
ধার্যের</w>
ধাল
ধাল</w>
ধালা
ধালান</w>
ধালি
ধালে
ধালে</w>
ধালো</w>
ধি</w>
ধিক</w>
ধী
ধী,</w>
ধী</w>
ধীত</w>
ধীতে</w>
ধীদের</w>
ধীন</w>
ধীয়</w>
ধীর</w>
ধু
ধু</w>
ধুর
ধুর</w>
ধুর।</w>
ধুরা
ধুরা</w>
ধুরাই
ধুরাই</w>
ধুরানী
ধুরানী,</w>
ধুরানী</w>
ধুরানীর</w>
ধুরাম</w>
ধুরাষ্ট
ধুরি
ধুরি</w>
ধুরিকে</w>
ধুরির</w>
ধুরী
ধুরী,</w>
ধুরী</w>
ধুরীর</w>
ধুরু
ধুরূ
ধুরো
ধুর্
ধুর্য
ধুর্য</w>
ধুর্যে</w>
ধুর্যের</w>
ধুল
ধুল</w>
ধুলা
ধুলা</w>
ধুলাও</w>
ধুলাতে
ধুলায়
ধুলায়,</w>
ধুলায়</w>
ধুলার</w>
ধুলি
ধুলি</w>
ধুলিক
ধুলিকনায়</w>
ধুলিকা</w>
ধুলিখ
ধুলিয়া
ধুলিয়া</w>
ধুলিয়ান</w>
ধুলিয়ানের</w>
ধুলু
ধুলে</w>
ধুলো
ধুলো</w>
ধ্ব
ধ্ব</w>
ধ্বং
ধ্বংশ</w>
ধ্বলে
ধ্বলোক
ধ্বলোক</w>
ধ্বলোকে</w>
ধ্বা
ধ্বাংশ</w>
ধ্বান্ত</w>
ধ্বালের</w>
ধ্বী
ধ্বী</w>
ধ্বীদের</w>
ধ্বীর</w>
ধ্বে,</w>
ধ্বে</w>
ধ্বে।</w>
ধ্বের</w>
ধ্ব্ব
ধ্য
ধ্য</w>
ধ্যা
ধ্যা</w>
ধ্যাত
ধ্যাতিক</w>
ধ্যাত্
ধ্যাত্বিক
ধ্যাত্বিক</w>
ধ্যাত্ম
ধ্যাত্ম</w>
ধ্যাত্মিক
ধ্যাত্মিক,</w>
ধ্যাত্মিক</w>
ধ্যাত্মিক।</w>
ধ্যাত্মিকদের</w>
ধ্যাত্মিকরা</w>
ধ্যাত্মিকী
ধ্যান
ধ্যান,</w>
ধ্যান.</w>
ধ্যান</w>
ধ্যানগ
ধ্যানগুলি</w>
ধ্যানী,</w>
ধ্যানী</w>
ধ্যানীর</w>
ধ্যানে,</w>
ধ্যানে</w>
ধ্যানের</w>
ধ্যামের</w>
ধ্যায়
ধ্যায়,</w>
ধ্যায়</w>
ধ্যায়।</w>
ধ্যায়ে
ধ্যায়ে</w>
ধ্যায়ের</w>
ধ্যার</w>
ধ্যে
ধ্যে,</w>
ধ্যে</w>
ধ্যে।</w>
ধ্যের</w>
ন
ন,</w>
ন.</w>
ন</w>
ন।</w>
নং</w>
নগ
নগঞ্জ</w>
নগঠন</w>
নগণ
নগণ</w>
নগণের</w>
নগণ্য
নগণ্য</w>
নগত</w>
নগা
নগাই</w>
নগাতী</w>
নগান
নগান,</w>
নগানা
নগাম
নগাম</w>
নগার</w>
নগারি
নগারিয়ার</w>
নগার্
নগালা
নগালামি</w>
নগালী</w>
নগি
নগিয়া
নগিয়ার
নগু
নগুরা</w>
নগুলা
নগুলি
নগুলি</w>
নগুলিকে
নগুলিকে</w>
নগুলিতে,</w>
নগুলিতে</w>
নগুলির</w>
নগুলী</w>
নগুলো
নগুলো</w>
নগুলোকে
নগুলোকে</w>
নগুলোর</w>
নগুল্ম</w>
নগে
নগে</w>
নগেন</w>
নগেন্দ্র
নগেন্দ্র</w>
নগের</w>
নগো
নগো</w>
নগোল
নগোলা</w>
নগ্
নগ্য
নগ্রন্
নগ্রহ
নগ্রহণ</w>
নগ্রহের</w>
নগ্রা
নগ্রাম
নগ্রাম</w>
নগ্রামে</w>
নগ্রিয়ার
নগ্রী
নগ্রু
নগ্রে
নগ্রোল
নতু
নতু</w>
নতুন</w>
নতুর</w>
নতুর্
নদীর</w>
নভে
নভেনা,</w>
নভেনা</w>
নভেল
নভেল</w>
নভেলা
নভেলা</w>
নভেলী</w>
নভেলের</w>
নভেলো
নভেলো</w>
নভেল্
নয়
নয়,</w>
নয়</w>
নয়।</w>
নয়া
নয়া</w>
নয়াই</w>
নয়াতে</w>
নয়ান
নয়ানগ
নয়ানের</w>
নয়ায়</w>
নয়ার</w>
নয়ারহা
নয়ারের</w>
নয়ালা
নয়ে
নয়ে,</w>
নয়ে</w>
নয়ে।</w>
নয়ের</w>
না
না,</w>
না</w>
না।</w>
নাই
নাই</w>
নাইং
নাইং</w>
নাইউ</w>
নাইন
নাইন</w>
নাইনা
নাইনা</w>
নাইনি</w>
নাইনে</w>
নাইনের</w>
নাইন্
নাইবোর্
নাইব্যা
নাইস,</w>
নাইস</w>
নাইসফো
নাইসা</w>
নাইসাই</w>
নাইসিয়া
নাইসিয়া</w>
নাইসু
নাইসে</w>
নাইসের</w>
নাইস্টি
নাও</w>
নাট
নাট,</w>
নাট</w>
নাটা
নাটা</w>
নাটাই
নাটাই</w>
নাটান
নাটাম
নাটাম</w>
নাটামাম</w>
নাটার</w>
নাটারিক্যা
নাটাল
নাটাল</w>
নাটালি
নাটালি</w>
নাটালিয়া</w>
নাটালির</w>
নাটালে</w>
নাটালের</w>
নাটাল্যা</w>
নাটি
নাটি</w>
নাটিক</w>
নাটিকরি</w>
নাটিকা
নাটিকা</w>
নাটিকাও</w>
নাটিকায়</w>
নাটিকার
নাটিকার</w>
নাটিকারীর</w>
নাটিকে</w>
নাটিকে।</w>
নাটিকেই</w>
নাটিকের</w>
নাটিতে</w>
নাটিয়া
নাটির</w>
নাটু
নাটে
নাটের</w>
নাটেল
নাটেশ্বর,</w>
নাটেশ্বর</w>
নাটেশ্বরে</w>
নাটো
নাটো</w>
নাটোলিনের</w>
নাট্
নাট্য
নাট্য</w>
নাট্যা
নাট্যান
নাট্যায়
নাট্যাল
নাট্যে</w>
নাট্যের</w>
নাট্যো
নাট্রিয়েন্
নাড়
নাড়</w>
নাড়া
নাড়া</w>
নাড়াতে</w>
নাড়ানি</w>
নাড়ানো
নাড়ানো</w>
নাড়ায়</w>
নাড়ায়।</w>
নাড়ার</w>
নাড়ে</w>
নাত
নাত</w>
নাতা
নাতা</w>
নাতানাই
নাতারা</w>
নাতাল</w>
নাতালি</w>
নাতালিয়া</w>
নাতালে</w>
নাতাল্যা</w>
নাতি
নাতি</w>
নাতিকে</w>
নাতিত</w>
নাতিনাত
নাতিনী
নাতিয়া</w>
নাতির</w>
নাতিল</w>
নাতিলে
নাতী
নাতী</w>
নাতীত</w>
নাতীদের</w>
নাতীর</w>
নাতু
নাতুরা</w>
নাতুরার</w>
নাতুরেল</w>
নাতুল</w>
নাতুল্
নাতে
নাতে,</w>
নাতে</w>
নাতে।</w>
নাতেন,</w>
নাতেন</w>
নাতেন।</w>
নাতের</w>
নাতেলী</w>
নাতেল্
নাতেশ</w>
নাতো
নাতো</w>
নাত্
নাত্ব
নাত্ম
নাত্য
নাত্রিনাই</w>
নান
নান,</w>
নান.</w>
নান</w>
নান।</w>
নানগ
নানগেলির</w>
নানয়া
নানা
নানা,</w>
নানা</w>
নানাই
নানাও</w>
নানাত্ম
নানান</w>
নানানানি
নানানানী</w>
নানানানীর</w>
নানানের</w>
নানামাত্রিক</w>
নানামুখ
নানার
নানার</w>
নানারু
নানাল
নানি
নানি</w>
নানিকারী</w>
নানিতে</w>
নানিয়া
নানিয়া</w>
নানিয়ান</w>
নানিয়ার
নানির</w>
নানির্
নানিল</w>
নানী
নানী</w>
নানীতে</w>
নানীয়</w>
নানীর</w>
নানে
নানে</w>
নানের</w>
নানো
নানো</w>
নান্
নান্ত
নান্ত</w>
নান্তাই</w>
নান্তে</w>
নান্তো</w>
নান্দ
নান্দা</w>
নান্দাই
নান্দামুরী</w>
নান্দারিয়া
নান্দিকার</w>
নান্দিকারের</w>
নান্দিকুরে</w>
নান্দিনা</w>
নান্দিনার</w>
নান্দিনো
নান্দিনো</w>
নান্দিয়া
নান্দী
নান্দুর</w>
নান্দে
নান্দের</w>
নান্দো
নান্দো</w>
নান্ধা
নান্বান</w>
নান্ম
নান্মৃত্যো
নান্য
নান্যা</w>
নান্যার
নান্যারো
নাম
নাম</w>
নামক</w>
নামত
নামত</w>
নামতার</w>
নামতি
নামতি</w>
নামতিতে</w>
নামতির</w>
নামতী,</w>
নামতী</w>
নামতীতে</w>
নামতে
নামতে,</w>
নামতে</w>
নামতেন</w>
নামতেন।</w>
নামতো
নামন</w>
নামনাম</w>
নামনি</w>
নামনো
নামন্ত্র।</w>
নামন্ত্রী
নামসং
নামসমূ
নামসহ</w>
নামসাং
নামসাং</w>
নামসাই</w>
নামসান</w>
নামসু
নামসূ
নামস্থান</w>
নামস্থানের</w>
নামস্পে
নামা
নামা</w>
নামাই
নামাই</w>
নামাত</w>
[...]
