{
  "!": 1,
  "!!": 1595,
  "!!!": 4352,
  "!!!!": 5754,
  "!!!!!": 17767,
  "!!!!!!": 24286,
  "!!!!!!!!": 14237,
  "!!!!!!!!!!": 47398,
  "!!!!!!!!!!!!!!!!": 30592,
  "!!!!)": 45133,
  "!!!\"": 44357,
  "!!!.......": 29567,
  "!!!??": 44358,
  "!!'": 41395,
  "!\"": 4575,
  "!\")": 31705,
  "!\")!": 49882,
  "!\",": 31702,
  "!\"-": 31704,
  "!\":": 13078,
  "!\";": 31706,
  "!&&": 9617,
  "!&&/": 30302,
  "!&&[],(=.(": 11259,
  "!&&[],(=.())?[.([": 11340,
  "!'": 3965,
  "!''": 19563,
  "!',": 31703,
  "!(){": 9616,
  "!)": 7609,
  "!,": 31698,
  "!-": 4550,
  "!--": 31700,
  "!...": 16711,
  "!...'": 24825,
  "!//": 31701,
  "!:": 16709,
  "!;": 13077,
  "!=": 3105,
  "!=&&": 21189,
  "!=&&\"\"==.&&(=": 30947,
  "!=&&\"\"==.&&(=\"\");": 31630,
  "!=&&(": 13588,
  "!=&&(\"\"==.&&.(": 30531,
  "!=&&(\"\"==.&&.(\"-\"),$(\".-\").(\"\",(){\"\"!=.?(": 31599,
  "!=&&(\"\"==.&&.(\"-\"),$(\".-\").(\"\",(){\"\"!=.?(.(\"-\"),.=\"\"):(.(\"-\"),.=\"\")}))}),$(\".": 31691,
  "!=&&(.(\"": 30530,
  "!=&&(=(,\"\"),=(,\"\"),": 21576,
  "!=&&(=.(": 21190,
  "!=&&(=.(),(,\"\",": 30948,
  "!=&&(_=),(_),.(": 30532,
  "!=&&(_=),(_),.().();;\"\":.().(\"#\").(": 31600,
  "!=&&(_=),(_),.().();;\"\":.().(\"#\").('": 31692,
  "!=&&.(": 13589,
  "!=&&.(\"#--\").(),": 30534,
  "!=&&.(\"-\").(\"\",\"-:": 30535,
  "!=&&.(\"-\").(\"\",\"-:\"++\";\"))}),$(\".-": 31601,
  "!=&&.(\".---": 21577,
  "!=&&.(\".---\").()": 30989,
  "!=&&.(\".---\").())}),$(\".-": 31636,
  "!=&&.(\".---\").(),": 30988,
  "!=&&.(),": 30533,
  "!=(": 24824,
  "!=(,\"\")": 31169,
  "!=(,\"\")?(,\"\"):\"": 31652,
  "!=)(": 29215,
  "!=-": 11167,
  "!=.(": 14283,
  "!=.(\"": 3854,
  "!=.(\"..\")": 3876,
  "!=.(\"..\")?''": 5456,
  "!=.(\"..\")?'':\"\")+": 5465,
  "!=.(\"..\")?'':\"\")+\"\"+(.===!": 15295,
  "!=.(\"..\")?'':\"\")+\"\"+([$]===[": 15294,
  "!=.(\"..\")?'':\"\")+\"\"++'": 10074,
  "!=.(\"..\")?'':\"\")+'": 10073,
  "!=.(\"..\")à¥¤à¥¤-": 5457,
  "!=.);": 15161,
  "!=.);=('": 15640,
  "!=.){": 15160,
  "!=..à¥¤à¥¤": 15162,
  "!=..à¥¤à¥¤.)(": 15641,
  "!==": 3317,
  "!==!": 15178,
  "!==&&": 10018,
  "!==&&().(),().(": 15180,
  "!==&&().(),().((": 15646,
  "!==){": 13594,
  "!==){(": 13595,
  "!==){=\"": 15537,
  "!==?'": 15179,
  "!==[": 5982,
  "!=?'": 29216,
  "!=?=():": 29217,
  "!=?=():=": 31445,
  "!=[": 21188,
  "!?": 16710,
  "![]);(": 24826,
  "!à¥¤": 31699,
  "!à¥¤à¥¤": 18146,
  "\"": 2,
  "\"!": 18147,
  "\"!!!": 24828,
  "\"!!!!": 24830,
  "\"!!!!!!!": 49051,
  "\"!==": 7457,
  "\"!==$.(\"__": 30065,
  "\"!==$.(\"__\")&&(.(\"\",\"\"),((){.(\"-\")}": 31542,
  "\"!==$.(\"__\")&&(.(\"\",\"\"),((){.(\"-\")},": 31686,
  "\"!==..&&\"": 15366,
  "\"!==..&&..&&\"": 15368,
  "\"!==..à¥¤à¥¤((\"#": 15367,
  "\"!==..à¥¤à¥¤((\"#-,#-\").((){(\".\").(\":(:)\").()}).((){(\".\").(\":(:)\").()}),.$.(\".": 15689,
  "\"\"": 705,
  "\"\"!=": 5125,
  "\"\"!=.?(": 29712,
  "\"\"!==[": 14737,
  "\"\"!=?((),()):()&&": 10062,
  "\"\"!=?((),()):()&&\"\"!=?((),()):()?((),()):()": 15479,
  "\"\"!=?((),()):()&&\"\"!=?((),()):()?((),()):()?((),()):()?((),()):\"\"==?((),()):\"\"==?((),()):((),()),.(),.(": 15713,
  "\"\"!=?((),()):()?((),()):()": 15277,
  "\"\"\"": 37608,
  "\"\"\"),": 14735,
  "\"\"&&.>": 14738,
  "\"\"&&.>..){=.(": 15595,
  "\"\")": 2166,
  "\"\")&&(=.-": 9974,
  "\"\")&&(=.-(+": 10145,
  "\"\"))?": 28792,
  "\"\"))}).(\"\"": 28794,
  "\"\"))}).(\"\")})}}),$(\".": 31407,
  "\"\"))},:(){$(\"#-": 28793,
  "\"\")+": 3747,
  "\"\")+\"": 7587,
  "\"\")+\"///\"++\"?=--&=": 30081,
  "\"\"),.": 9836,
  "\"\"),.(": 20482,
  "\"\"),.(\"\"),(": 20483,
  "\"\"),.(\":\").(\"\",(,){": 30898,
  "\"\"),.>._&&(=.(": 15451,
  "\"\"),=": 27097,
  "\"\"),=$().())})}}": 31284,
  "\"\"),=.(": 27095,
  "\"\"),=.(\"/\")à¥¤à¥¤": 31283,
  "\"\").(": 3772,
  "\"\").(\"\");": 24125,
  "\"\").(\"\");.=;.(": 48888,
  "\"\").(\"\",(){.(": 29424,
  "\"\").(\".-": 29422,
  "\"\").(\">": 44023,
  "\"\").((\"": 44024,
  "\"\").((){": 27096,
  "\"\").();..(": 37609,
  "\"\").()}),$(": 29423,
  "\"\").(/": 7851,
  "\"\").(/\"/,": 7950,
  "\"\").(/\"/,\"\"\"),": 15396,
  "\"\").(/\"/,\"\").(/'/,\"\");": 10120,
  "\"\").(/'/,\"\");": 10034,
  "\"\").([": 15208,
  "\"\").({:===[": 15209,
  "\"\"):.(": 27098,
  "\"\"):.(\"\"),=$().())})}}": 31285,
  "\"\");": 2671,
  "\"\");(\"#\").()}": 15127,
  "\"\");(\"#\").()}{(\"#\").()}});((){(\"#": 15635,
  "\"\");(.==\"\"){(.().(\":\")){.(": 15126,
  "\"\");.=\"": 29048,
  "\"\");.=.(": 43077,
  "\"\");=.(/": 15125,
  "\"\"){(": 7852,
  "\"\")})}})();": 14739,
  "\"\"+": 3201,
  "\"\"+(.===!": 15168,
  "\"\"+([$]===[": 10014,
  "\"\"++'": 9835,
  "\"\"+,:,\"\":": 11169,
  "\"\"+,:,\"\":\"\"+},(,){.[]=(,){": 11319,
  "\"\"+],[\"\"+": 7278,
  "\"\"+},(,){": 11168,
  "\"\"+},(,){.[]=(,){": 11318,
  "\"\",": 2052,
  "\"\",!": 5025,
  "\"\",\"": 7250,
  "\"\",\"\"": 5910,
  "\"\",\"\"),((){.(\"-\")}": 29863,
  "\"\",\"\")}": 13022,
  "\"\",\"\")}),(\".\").((){": 15528,
  "\"\",\"\")},": 30490,
  "\"\",\"\",": 5026,
  "\"\",\"\",\"\",\"\",": 11197,
  "\"\",\"\",\"\",\"\",\"\",\"\"],(,){.[]=(){": 11326,
  "\"\",\"\":": 23823,
  "\"\",\"\":\"\",\"\":": 31112,
  "\"\",\"\"],(,){": 7307,
  "\"\",\"\"],(,){.[]=(){": 11241,
  "\"\",\"-:": 28737,
  "\"\",(){": 5582,
  "\"\",(){\"\"!=.?(": 29789,
  "\"\",(){$(": 15303,
  "\"\",(){$(\"\").(": 18104,
  "\"\",(){$(\"\").(\"-\"),$(\"#--": 21630,
  "\"\",(){$(\"\").(\"-\"),$(\"#--\").(": 21732,
  "\"\",(){$(\"#----\").(),": 29788,
  "\"\",(){$().(": 21377,
  "\"\",(){.(": 21376,
  "\"\",(){.()}": 13635,
  "\"\",(){.()}))}.$.(..)}": 15538,
  "\"\",(){.()}),.(\"\",(){": 30547,
  "\"\",(,){": 21022,
  "\"\",);": 12511,
  "\"\",+=": 28736,
  "\"\",+=),": 31400,
  "\"\",.$).(": 15054,
  "\"\",.$).(),.$.(\"\").(": 15627,
  "\"\",:": 2907,
  "\"\",:!": 10005,
  "\"\",:\"\",:": 6392,
  "\"\",:.,:!": 15141,
  "\"\",:.,:.,:!": 15142,
  "\"\",:===à¥¤à¥¤": 15140,
  "\"\",=\"\"===[": 9970,
  "\"\",=..;(": 15055,
  "\"\":": 1314,
  "\"\":\"\")+": 7889,
  "\"\":\"\")+(..": 10112,
  "\"\":\"\")+(..?:\"\")+\"": 15488,
  "\"\":+='": 28131,
  "\"\":=\"": 28129,
  "\"\":='": 28130,
  "\"\":})}": 11068,
  "\"\"==": 3552,
  "\"\"==)": 29370,
  "\"\"==.&&(=": 29371,
  "\"\"==.&&.(": 29372,
  "\"\"===": 1960,
  "\"\"===&&(": 11119,
  "\"\"===&&(..=\"\"),=.(),=.(,\"\"": 11306,
  "\"\"===)&&": 11120,
  "\"\"===)&&-": 11307,
  "\"\"===.(,": 5827,
  "\"\"===.(,\"\")": 5840,
  "\"\"===.(,\"\"))=.();": 11212,
  "\"\"===..": 3746,
  "\"\"===..?+='": 15206,
  "\"\"===?!": 15042,
  "\"\"===?\"": 7900,
  "\"\"===?\"\":": 6683,
  "\"\"===?\"\":\"": 15043,
  "\"\"===?\"\":\"\"===?\"\":": 10096,
  "\"\"===?\"\":\"\"===?\"\":\"": 15342,
  "\"\"===[": 3874,
  "\"\"===à¥¤à¥¤": 5578,
  "\"\"==?((),()):": 10026,
  "\"\"==?((),()):((),()),.(),.(": 15471,
  "\"\"==?((),()):()&&": 7920,
  "\"\"==?((),()):()&&\"\"!=?((),()):()&&": 15383,
  "\"\"==?((),()):()&&\"\"==?((),()):()&&": 10116,
  "\"\"==?((),()):()&&\"\"==?((),()):()&&\"\"==?((),()):()&&\"\"!=?((),()):()&&": 15492,
  "\"\"==?((),()):()&&\"\"==?((),()):()&&\"\"==?((),()):()&&\"\"!=?((),()):()&&\"\"!=?((),()):()&&\"\"!=?((),()):()?((),()):()?((),()):()?((),()):\"\"==?((),()):\"\"==?((),()):((),()),.(),.(": 15717,
  "\"\"}))}": 37610,
  "\"\"},(,){": 7187,
  "\"\"};": 14736,
  "\"#": 1849,
  "\"#\").(": 7580,
  "\"#\");": 7051,
  "\"#\",:": 15028,
  "\"#\";": 15027,
  "\"##": 41917,
  "\"#-": 19131,
  "\"#-\",:\"": 28600,
  "\"#--": 12500,
  "\"#--\").(),": 30443,
  "\"#----\").(": 28601,
  "\"#----\").(\"\"))?": 31385,
  "\"#_": 9958,
  "\"$\":\"": 18149,
  "\"'": 16712,
  "\"';": 21737,
  "\"(": 8753,
  "\")": 2213,
  "\")!=-": 15079,
  "\")&&(.(": 21058,
  "\")&&(.(\"\",\"\"),((){.(\"-\")}": 30934,
  "\")&&(.(),$().().(\"\")": 30933,
  "\")&(\"": 42545,
  "\"))&&(=\"": 28824,
  "\"))),.(\"{}\")&&.(\"\"),.(\"{}\")&&.(\"\"": 28825,
  "\"))),.(\"{}\")&&.(\"\"),.(\"{}\")&&.(\"\"),.(\"{}\")&&.(\"\")}),$(\"#----\").((){": 31410,
  "\")),().(": 15078,
  "\"));": 28821,
  "\"));});": 42544,
  "\")){": 5830,
  "\"))}((": 15080,
  "\"))}((\"\",.$).(),.$.(\"\").(": 15631,
  "\"))}),$(\"#----": 28823,
  "\"))}),$(\".-": 21057,
  "\")+": 9978,
  "\")+([$]!==[": 15463,
  "\")+([$]!==[+": 15711,
  "\"),": 2705,
  "\"),'": 29058,
  "\"),(\".\").(": 9620,
  "\"),(\".\").(\":(:)\").(": 10130,
  "\"),(.).(\"\").(": 14285,
  "\"),.$": 15128,
  "\"),.$.());": 15636,
  "\"),.(": 16713,
  "\"),.(\"": 31719,
  "\"),=": 7909,
  "\"),=();": 29059,
  "\"),=();=": 31432,
  "\"),=.(": 13080,
  "\"),=.(\"\"),=.(\"\"": 14286,
  "\"),=.-": 15129,
  "\"),=..$,=..$.(": 15380,
  "\").": 6940,
  "\").(": 1382,
  "\").(\"\"),.(\"\"),(": 20858,
  "\").(\"\");": 28193,
  "\").(\"\");!=&&(=(,\"\"),=(,\"\"),": 31349,
  "\").(\"-": 23568,
  "\").(\".\").(": 40719,
  "\").('');": 40718,
  "\").((){": 4405,
  "\").((){(": 10049,
  "\").((){(\",": 15476,
  "\").((){().();.(\".-\").('": 15477,
  "\").()": 23567,
  "\").(),": 7575,
  "\").(),$(\"#---": 21448,
  "\").(),$(\".-": 30080,
  "\").(),.&&('": 15372,
  "\").(),=": 14963,
  "\").(),=(": 14964,
  "\").(),=('": 15617,
  "\").(),=[],=().(\"\");=.(/": 15616,
  "\").(),=[],=().(\"\");=.(/[^[\\]]+(?=])/),/[^[\\]]+(?=])/.()&&(=().(\".-": 15751,
  "\").():": 14962,
  "\").():.&&(\"": 15615,
  "\").();": 2816,
  "\").();.(\"\",\"": 29103,
  "\").()}": 9562,
  "\").()});": 46485,
  "\").(.()": 11081,
  "\").(.()).():)}).(&&(": 11303,
  "\").(.()).():)}).(&&(,){.((){.(,à¥¤à¥¤[.,,": 11347,
  "\").(.()).():)}).(&&(,){.((){.(,à¥¤à¥¤[.,,])})}),},...=(){": 11356,
  "\").(..);": 14965,
  "\").(..);.$.(\"\").(": 15618,
  "\").([": 14961,
  "\").(__);": 7233,
  "\").({:": 20857,
  "\").({:$(.(\"\")": 30919,
  "\")..": 42543,
  "\"):": 9618,
  "\");": 2018,
  "\");(){\"\":": 28707,
  "\");.(": 19169,
  "\");.(\"\",(){.(": 30836,
  "\");.(\"\",(){.(),.(\"--\"),.()}),.(\"\",(){.()}),.(\"\",(){": 31625,
  "\");.('._": 48135,
  "\");..(.(\"\"));": 42259,
  "\");;:": 21017,
  "\");;:.(())}}}": 30931,
  "\");;:.(())}}})}}": 49793,
  "\");;:.(())}}})}}}": 49794,
  "\");=(.[": 15049,
  "\")}": 3878,
  "\")}(.(\"{}\")){": 15212,
  "\")}),$(\"#----": 29445,
  "\")}).().();.(": 15213,
  "\")}).().();.(\".-": 15651,
  "\")}):.(\"": 44081,
  "\")});';*/": 7288,
  "\")})}": 29444,
  "\")},=(){": 15214,
  "\")}.(\"": 44080,
  "\")}.('": 44079,
  "\")}}": 18148,
  "\")}}),$(\".---": 30784,
  "\")}},:(){..(\"\").(": 47974,
  "\")à¥¤à¥¤": 28822,
  "\"**": 7096,
  "\"**\"):": 11228,
  "\"**\",)},:(,){": 11229,
  "\"+": 2298,
  "\"+(\"\"===..": 9985,
  "\"+(\"\"===..?\"": 15464,
  "\"+(\"\"===..?'": 15465,
  "\"+(.-": 15098,
  "\"+(..?'": 15096,
  "\"+(.===!": 15095,
  "\"+([$]!==[": 15097,
  "\"+).()}),$(\".": 28892,
  "\"++": 11139,
  "\"++\"\").({:===[": 15513,
  "\"++\",=": 18071,
  "\"++\",=\"+).()}),$(\".": 30780,
  "\"++\",=\"++\",=": 21625,
  "\"++\",=\"++\",=\"++\",=\"+).()}),$(\".": 31000,
  "\"++\",=\"++\",=\"++\",=\"+).()}),$(\".---\").((){": 31641,
  "\"++\";\"))}),$(\".-": 28893,
  "\"+.+\"": 9984,
  "\"+[": 9983,
  "\",": 969,
  "\",\"": 1679,
  "\",\"!\":": 13528,
  "\",\"\");": 8680,
  "\",\"\":": 1562,
  "\",\"$\":": 13529,
  "\",\"'\":": 3202,
  "\",\"(\":": 13530,
  "\",\")\":": 13531,
  "\",\"*\":": 13532,
  "\",\"+\":": 13533,
  "\",\",\":": 13434,
  "\",\"-\":": 13527,
  "\",\".": 13433,
  "\",\".\":": 13684,
  "\",\"/": 28471,
  "\",\"//": 28472,
  "\",\":": 5961,
  "\",\":\":": 6939,
  "\",\"=": 12498,
  "\",\"=,=,=,=,=": 30442,
  "\",\"@\":": 13534,
  "\",\"[\":": 13535,
  "\",\"\\": 8083,
  "\",\"]\":": 13536,
  "\",\"^\":": 13537,
  "\",\"_": 13526,
  "\",\"à¥¤\":": 3423,
  "\",(){": 14814,
  "\",(.(\"\")[": 27593,
  "\",);$(\".-\").(": 14816,
  "\",);$(\".-\").(\"-\",+\"\");": 15599,
  "\",)},:(,){": 11026,
  "\",+\"\");": 14815,
  "\",,,": 27588,
  "\",,,))}).(\"\")": 31303,
  "\",,,))}).(\"\"))}),$(\"#---": 31671,
  "\",.$).(": 9891,
  "\",.().(": 27590,
  "\",.().(\"\"),.(\":\").(\"\",(,){": 31305,
  "\",.().(\"\"),.(\":\").(\"\",(,){(){\"\":=.(,\"/\");;:=.(,\"///\"+)}": 31673,
  "\",.()}": 27591,
  "\",.()}.(\".-\").()},:(){(){\"\":.('": 31306,
  "\",.(.(/-": 27594,
  "\",:": 6289,
  "\",:,:\"\",:\"\",:": 15328,
  "\",:.,:": 15327,
  "\",=": 17339,
  "\",_": 38903,
  "\",{\"\":": 27592,
  "\",{\"\":\"\"}))}": 49285,
  "\",{\"\":..}));": 49284,
  "\",{:": 27589,
  "\",{:,:\"/\"}": 31304,
  "\",{:,:\"/\"}),.(\"-\"),((){.(\"\",\"\")},": 31672,
  "\"-": 2094,
  "\"-\"": 15059,
  "\"-\"),": 3646,
  "\"-\"),$(\"#--": 21248,
  "\"-\"),$(\".-\").(": 21249,
  "\"-\"),$(\".-\").(\"\",(){\"\"!=.?(": 30952,
  "\"-\"),=().(": 3875,
  "\"-\"),=().(\"-\"),=().(": 4719,
  "\"-\"),=().(\"-\"),=().(\"-\");": 10055,
  "\"-\"),=().(\"-\");": 10036,
  "\"-\"),>?.(": 29400,
  "\"-\").(": 13559,
  "\"-\").(\"": 15535,
  "\"-\").(\"\",\"-:": 30527,
  "\"-\"):": 28754,
  "\"-\"):<=": 31403,
  "\"-\");": 5083,
  "\"-\");..(\"-\");": 44794,
  "\"-\");=.(\"\",": 15274,
  "\"-\")}": 19176,
  "\"-\")}),$(\".---": 30837,
  "\"-\")})},:(){..(\"": 48136,
  "\"-\",+\"\");": 15060,
  "\"-\"}": 23839,
  "\"--": 21736,
  "\"--\",": 24829,
  "\"---": 13694,
  "\"---\")),().(": 15540,
  "\"----": 31712,
  "\"-:": 23838,
  "\".": 1430,
  "\".\"),=.(": 14976,
  "\".\").(": 2663,
  "\".\").(\"\");": 15121,
  "\".\").((){": 15120,
  "\".\").();": 14975,
  "\".\").({\"-": 43071,
  "\".\").({:===à¥¤à¥¤\"\"===à¥¤à¥¤": 15122,
  "\".\",.$).(": 9935,
  "\".\",.$).({:\"\",:\".": 15458,
  "\".-": 5293,
  "\".-\").(": 5689,
  "\".-\").(\"\"),.(": 29820,
  "\".-\").(\"-": 29818,
  "\".-\").(\".\").(\"\");": 15309,
  "\".-\").('": 15308,
  "\".-\").(),$(\".---": 29819,
  "\".-\").(),.(\".-": 29821,
  "\".-\");.(": 29730,
  "\".--": 20873,
  "\".---": 17747,
  "\"..": 19564,
  "\"..\")": 24827,
  "\"..\")&&.('": 31170,
  "\"..\"-": 48222,
  "\"...": 14284,
  "\"/": 7957,
  "\"/\")à¥¤à¥¤": 30116,
  "\"/\"+": 9619,
  "\"/\"==": 9319,
  "\"/\"==)&&(=\"": 30276,
  "\"/,": 7762,
  "\"/.": 31716,
  "\"////-/\"++\"?=&-=\"+": 24832,
  "\"/>": 21738,
  "\"/>\\';": 24711,
  "\"/>\\';=.(": 49041,
  "\":": 1251,
  "\":\"": 7573,
  "\":\"\")+": 14925,
  "\":\"\")+\"\":\"\")+(..?:\"\")+\"": 15611,
  "\":\"\",:": 14924,
  "\":\"\",:\"\"===?!": 15610,
  "\":\"\",=\"\"===[": 14927,
  "\":\"\":": 28038,
  "\":\"\"===?\"": 14926,
  "\":\"\"===?\"\":\"\"===?\"\":": 14928,
  "\":\"\"===?\"\":\"\"===?\"\":\"\"===?\"\":\"\"===?\"\":\"": 15612,
  "\":\"\"===[": 9921,
  "\":\")){": 6669,
  "\":\").(": 17711,
  "\":\").(\"\",(,){": 30755,
  "\":\"-\"}": 28042,
  "\":(": 4465,
  "\":(){\"\":": 28040,
  "\":(){\"\":+=(,,);": 31341,
  "\":(){\"\":+=(,,);;:+='": 31677,
  "\":(:)\").(": 4723,
  "\":(='',": 14929,
  "\":(='',+='": 15613,
  "\":+\"\"": 40293,
  "\":.(()": 28041,
  "\":.(());;\"\":.(()).().(\"-\"": 31342,
  "\":.(());;\"\":.(()).().(\"-\")}},:(){": 31678,
  "\"://": 4191,
  "\"://..//": 8516,
  "\"://..//\"+[": 10121,
  "\"://..//.": 21480,
  "\"://..//.\",.(.(/-": 30975,
  "\"://..//.\"}": 30974,
  "\":=\"\"": 28039,
  "\":=\"\"!=?'": 31340,
  "\";": 3966,
  "\";$((){$(\".-": 44141,
  "\";.$.('": 15218,
  "\";.()};": 29478,
  "\";.()};=;=;(..(/\\": 31476,
  "\";.()};=;=;(..(/\\/$/,\"\")+\"///\"++\"?=--&=&-=": 31680,
  "\";.à¥¤à¥¤(": 15217,
  "\";.à¥¤à¥¤(.$.(\".\").(),(..à¥¤à¥¤": 15653,
  "\";.à¥¤à¥¤(.$.(\".\").(),(..à¥¤à¥¤..à¥¤à¥¤\"": 15756,
  "\";;\"": 29479,
  "\";;:": 29477,
  "\";;:=()}(){\"\":+=\"": 31475,
  "\";=": 10038,
  "\";=(": 10039,
  "\";=(\"\"": 15475,
  "\";=..$.(": 15474,
  "\"<#": 12175,
  "\"==": 8105,
  "\"==)": 30144,
  "\"===": 3330,
  "\"===..)&&.$.(\".\").(),.$.(\".\").(),": 15184,
  "\"===..)&&.$.(\".\").(),.$.(\".\").(),..&&.$.(\".": 15647,
  "\"===?!": 15182,
  "\"===?\"": 5455,
  "\"===?\"\":\"": 15183,
  "\"===[": 5030,
  "\"===à¥¤à¥¤": 15181,
  "\"==?\"///?=&-=\"+": 30145,
  "\"==?\"///?=&-=\"+:\"////-/\"++\"?=&-=\"+;;:": 31549,
  "\"==?\"///?=&-=\"+:\"////-/\"++\"?=&-=\"+;;:=\"////-/\"++\"?=&-=\"+}": 31689,
  "\">": 3877,
  "\"></></>": 44078,
  "\">{{": 24136,
  "\"?": 31707,
  "\"[": 11357,
  "\"[='_']": 46867,
  "\"\\": 31708,
  "\"]": 6396,
  "\"];": 31713,
  "\"][__": 24831,
  "\"][__][__": 49052,
  "\"]]": 31714,
  "\"]]</>": 49883,
  "\"]Â©": 45424,
  "\"_": 13079,
  "\"_\",\"=,=,=,=,=": 30494,
  "\"______": 31720,
  "\"_______": 31721,
  "\"}": 6709,
  "\"}(": 31718,
  "\"}(()){": 49885,
  "\"}(.).('": 15348,
  "\"}),$(\"#": 29969,
  "\"}+=}": 29968,
  "\"},": 31715,
  "\"},=.({},,);": 49884,
  "\"};": 6588,
  "\"};\"\":+='": 29952,
  "\"}]": 29967,
  "\"ÃĹ": 31717,
  "\"ØĮ": 19565,
  "\"à¥¤": 31711,
  "\"à¦¿": 31710,
  "\"à§ĩ": 31709,
  "\"ãĢĤ": 21739,
  "\"ãĢı": 31722,
  "#": 3,
  "#!//": 31728,
  "#\":": 13081,
  "##": 8983,
  "###": 24432,
  "##**": 24433,
  "##**\"##": 48957,
  "#'": 31723,
  "#(": 21740,
  "#)": 19566,
  "#-": 10178,
  "#-\").((){(\".\").(\":(:)\").()}).((){(\".\").(\":(:)\").(": 14287,
  "#:": 15772,
  "#=": 21741,
  "#=&&=": 31022,
  "#=&=%": 48566,
  "#>": 31724,
  "#@": 31725,
  "#\\": 9621,
  "#\\&\\?": 10131,
  "#\\'+": 31727,
  "#\\'+).": 49886,
  "#\\'++\\'": 24833,
  "#\\'++\\':": 31171,
  "#_": 19567,
  "#_-": 31726,
  "#__": 21742,
  "#__@": 31023,
  "#___'": 21743,
  "#à¥¤": 6818,
  "#à¥¤$)": 7082,
  "$": 4,
  "$\"": 9622,
  "$\",\"": 13083,
  "$\":": 13082,
  "$\":\"": 14290,
  "$$": 6589,
  "$'": 31729,
  "$(": 847,
  "$(\"#": 3431,
  "$(\"#\").(": 29330,
  "$(\"#\").({:": 29332,
  "$(\"#-": 11178,
  "$(\"#-\").(": 13601,
  "$(\"#-\").((,){": 30538,
  "$(\"#-\").().-": 21579,
  "$(\"#-,": 29331,
  "$(\"#--": 7280,
  "$(\"#---": 13600,
  "$(\"#---\").(),$(\"#---": 30537,
  "$(\"#----": 7916,
  "$(\"#----\").(": 21458,
  "$(\"#----\").(\"\",(){$(\"#----\").(),": 30968,
  "$(\"#----\").(),": 18038,
  "$(\"#----\").():($(\"#----\").(),": 30969,
  "$(\"#----\").():($(\"#----\").(),$(\"#-": 31632,
  "$(\"#----\").();.(\"\",\"": 30110,
  "$(\"#_": 43763,
  "$(\".": 3828,
  "$(\".-": 16602,
  "$(\".-\").(": 7595,
  "$(\".-\").($(\"#": 30084,
  "$(\".-\").(.()),(=$().(": 30085,
  "$('.__": 7207,
  "$((){$(\".-": 38392,
  "$()": 20588,
  "$().(": 3442,
  "$().(\"\",(){$().(": 29336,
  "$().(\"\",(,){": 29335,
  "$().('')": 29333,
  "$().())})}}": 29334,
  "$().().(\"\").(": 21219,
  "$().().('',": 43769,
  "$().(\\'\\'": 43768,
  "$().({:\"#-": 29337,
  "$(.(\"\")": 27390,
  "$(\\'": 23170,
  "$(\\'.": 27391,
  "$)": 6941,
  "$){": 24836,
  "$+": 31730,
  "$++": 14289,
  "$++)(\"\"==[].[$]": 15548,
  "$,": 24834,
  "$-)'": 31731,
  "$.": 24835,
  "$.(\"": 12176,
  "$.(\"__": 21543,
  "$.({:": 19568,
  "$.({:,:\"\",:\"\",:!": 30860,
  "$.({:,:(){": 30859,
  "$..=(,,){": 24837,
  "$/,": 2753,
  "$/,'');": 2793,
  "$;": 14288,
  "$=": 4329,
  "$=$=": 12553,
  "$=-": 15241,
  "$=-$=": 19484,
  "$]": 4676,
  "${": 5196,
  "${()}": 44855,
  "${._": 24255,
  "${._}": 31133,
  "${.}": 44854,
  "${___(.": 44856,
  "${}": 16714,
  "%": 5,
  "%!": 31732,
  "%\"": 31733,
  "%\":": 13084,
  "%%": 816,
  "%%%%": 1203,
  "%%%%%%%%": 1718,
  "%%%%%%%%%%": 23700,
  "%%%%%%%%%%%%": 10525,
  "%%%%%%%%%%%%%%": 16670,
  "%%%%%%%%%%%%%%%%": 2554,
  "%%%%%%%%%%%%%%%%%%%%%%%%%%": 23960,
  "%%%%%%%%%%%%%%%%%%%%%%%%%%%%%%": 21127,
  "%%%%%%%%%%%%%%%%%%%%%%%%%%%%%%%%": 4092,
  "%%%%%%%%%%%%%%%%%%%%%%%%%%%%%%%%%%%%%%%%%%%%%%%%": 12551,
  "%%%%%%%%%%%%%%%%%%%%%%%%%%%%%%%%%%%%%%%%%%%%%%%%%%%%%%%%": 30449,
  "%%%%%%%%%%%%%%%%%%%%%%%%%%%%%%%%%%%%%%%%%%%%%%%%%%%%%%%%%%%%%%": 30450,
  "%%%%%%%%%%%%%%%%%%%%%%%%%%%%%%%%%%%%%%%%%%%%%%%%%%%%%%%%%%%%%%%%": 44234,
  "%%%%%%%%%%%%%%%%%%%%%%%%%%%%%%%%%%%%%%%%%%%%%%%%%%%%%%%%%%/';": 49694,
  "%%%%%%%%%%%%%%%%%%%%%%%%%%%%%%%%%%%%%%%%%%%%%%%%%-%%%%%%%%%%%%%%%%%%%%%%%%%%%%%%%%%%%%%%%%%%%%": 47044,
  "%%%%%%%%%%%%%%%%%%%%%%%%%%%%%%%%%%%%%%%%%%%%%%%%%-%%%%%%%%%%%%%%%%%%%%%%%%%%%%%%%%%%%%%%%%%%%%%%%%%%%%%%%%%%%%%%": 47045,
  "%%%%%%%%%%%%%%%%%%%%%%%%%%%%%%%%%%%%%%%%%%%%%%%%%-%%%%%%%%%%%%%%%%%%%%%%%%%%%%%%%%%%%%%%%%%%%%%%%%%%%%%%%%%%%%%%%%%%%%%%%%%%%%%%%%%%%%%%%%": 47046,
  "%%%%%%%%%%%%%%%%%%%%%%%%%%%%%%%%%%%%%%%%%%%%%%%%%-%%%%%%%%%%%%%%%%%%%%%%%%%%%%%%%%%%%%-%%%%%%%%%%%%%%%%%%%%%%%%%%%%%%%%": 47043,
  "%%%%%%%%%%%%%%%%%%%%%%%%%%%%%%%-%%%%%%%%%%%%%%%%%%%%%%%%%%%%%%%%%%%%-%%%%%%%%%%%%%%%%%%%%%%%%%%%%%%%%": 48434,
  "%%%%%%%%%%%%%%%%%%%%%%%%%%%%%%%-%%%%%%%%%-%%%%%%%%%%%%%%%%%%%%%%%%%%%%%%%%%%%%%%%%%%%%": 48435,
  "%%%%%%%%%%%%%%%%%%%%%%%%%%%%/';": 42976,
  "%%%%%%%%%%%%%%%%%%%%%%%%%%%-%%%%%%%%%%%%%%%%%%%%%%%%%%": 48857,
  "%%%%%%%%%%%%%%%%%%%%%%-%%%%%%%%%%%%%%%%%%%%%%%%%%%%%%%%": 29010,
  "%%%%%%%%%%%%%%%%%%%%%%-%%%%%%%%%%%%%%%%%%%%%%%%%%%%%%%%%%%%%%%%%%%%%%%%%%%%%%%%%%%%%%%%%%%%%%%%%%%%%%%%%%%%%%%%%%%%%%%%": 49475,
  "%%%%%%%%%%%%%%%%%%%%%%/';": 29011,
  "%%%%%%%%%%%%%%%%%%-%%%%%%%%%%%%%%%%%%%%%%%%%%%%%%%%": 42974,
  "%%%%%%%%%%%%%%%%%%/';": 42975,
  "%%%%%%%%%%%%%%%-%%%%%%%%%%%%%%%%%%%%%%%%%%%%%%%%%%%%%%%%%%%%%%%%%%%%%%%%%%%%%%": 47723,
  "%%%%%%%%%%%%%-%%%%%%%%%%%%%%%%%%%%%%%%%%%%%%%%%%%%-%%%%%%%%%%%%%%%%%%%%%%%%%%%%%%%%": 46698,
  "%%%%%%%%%%%%/';": 30356,
  "%%%%%%%%%-%%%%%%%%%%%%%%%%%%%%%%%%%%%%%%%%%%%%%%%%%%%%": 41652,
  "%%%%%%%%-%%%%%%%%%%%%%%%%%%%%%%%%%%%%%%%%": 41651,
  "%%%%%%-%%%%%%%%%%%%%%%%%%%%%%%%%%%%%%%%": 18981,
  "%%%%%%/';": 27990,
  "%%%%-": 27989,
  "%%%%-%%%%%%%%%%%%%%%%%%%%%%%%%%%%%%%%": 14911,
  "%%%%-%%%%%%%%%%%%%%%%%%%%%%%%%%%%%%%%%%%%%%%%%%%%": 30624,
  "%%%%-%%%%%%%%%%%%%%%%%%%%%%%%%%%%%%%%%%%%%%%%%%%%%%%%%%%%%%%%%%%%%%%%%%%%%%%%%%%%%%%%%-%%%%%%%%%%%%%%%%%%%%%%%%%%%%%%%%%%%%%%%%%%%%%%%%%%%%%%%%%%%%%%%%%%%%%%%%%%%%%%%%%%%%%%%%": 47505,
  "%%%%-%%%%%%%%%%%%%%%%%%%%%%%%%%%%%%%%%%%%%%%%%%%%%-%%%%%%%%%%%%%%%%%%%%%%%%%%%%%%%%%%%%%%%%%%%%%,-%%%%%%%%%%%%%%%%%%%%%%%%%%%%%%%%": 49725,
  "%%%%-%%%%%%%%%%%%%%%%%%%%%%%%%%%%%%%%%%%%-": 47504,
  "%%%%-%%%%%%%%%%%%%%%%%%%%%%%%%%%-%%%%%%%%%%%%%%%%%%%%%%%%%%": 49356,
  "%%-%%%%%%%%%%%%%%%%%%%%%%%%%%%%%%%%": 16191,
  "%%-%%%%%%%%%%%%%%%%%%%%%%%%%%%%%%%%%%%%%%%%%%%%%%%%%%%%%%%%%%%%%%%%%%%%%%%%%%%%%%%%%-%%%%%%%%%%%%%%%%%%%%%%%%%%%%%%%%%%%%%%%%%%%%": 47623,
  "%%/';": 20568,
  "%',": 21744,
  "%';": 6075,
  "%(": 16715,
  "%()": 15773,
  "%)": 4836,
  "%),": 31738,
  "%)[": 31739,
  "%+%": 24840,
  "%,": 5092,
  "%,-%%%%%%%%%%%%%%%%%%%%%%%%%%%%%%%%": 44795,
  "%-": 12177,
  "%-%": 4863,
  "%-%%%%%%%%%%%%%%%%%%%%%%%%%%": 30415,
  "%-%%%%%%%%%%%%%%%%%%%%%%%%%%%%%%%%": 10180,
  "%-%%%%%%%%%%%%%%%%%%%%%%%%%%%%%%%%%%%%%%%%%%%%": 24460,
  "%-%%%%%%%%%%%%%%%%%%%%%%%%%%%%%%%%%%%%%%%%%%%%%%%%%%%%%%%%%%%%%%": 30332,
  "%-%%%%%%%%%%%%%%%%%%%%%%%%%%%%%%%%%%%%%%%%%%%%%%%%%%%%%%%%%%%%%%%%": 24459,
  "%-%%%%%%%%%%%%%%%%%%%%%%%%%%%%%%%%%%%%%%%%%%%%%%%%%%%%%%%%%%%%%%%%%%%%%%%%%%%%%%%%%%%%%%%%": 46607,
  "%-%%%%%%%%%%%%%%%%%%%%%%%%%%%%%%%%%%%%%%%%%%%%%%%%%%%%%%%%%%%%%%%%%%%%%%%%%%%%%%%%%%%%%%%%%%%%%%%%%%%%%%%%%%%%%%%%%%%%%%%%%%%%%%": 31148,
  "%-%%%%%%%%%%%%%%%%%%%%%%%%%%%%%%%%%%%%%%%%%%%%%%%%%%%%%%%%%%%%%%%%%%%%%%%%%%%%%%%%%%%%%%%%%%%%%%%%%%%%%%%%%%%%%%%%%%%%%%%%%%%%%%,-%%%%%%%%%%%%%%%%%%-%%%%%%%%%%%%%%%%%%%%%%%%%%%%%%%%": 49839,
  "%-%%%%%%%%%%%%%%%%%%%%%%%%%%%%%%%%%%%%%%%%%%%%%%%%%%%%%%%%%%%%%%%%%%%%%%%%%%%%%%%%%%%%%%%%%%%%%%%%%%%%%%%%%%%%%%%%%%%%%%%%%%%%%%/';": 49838,
  "%-%%%%%%%%%%%%%%%%%%%%%%%%%%%%%%%%%%%%%%%%%%%%%%%%%%%%%%%%%%%%%%%%%%%%%%%%-%%%%%%%%%%%%%%%%%%%%%%%%%%%%%%%%": 48963,
  "%-%%%%%%%%%%%%%%%%%%%%%%%%%%%%%%%%%%%%%%%%%%%%%%%%%%%%%%%%%%%%/';": 46608,
  "%-%%%%%%%%%%%%%%%%%%%%%%%%%%%%%%%%%%%%%%%%%%%%%%%%%%%%%%/';": 46606,
  "%-%%%%%%%%%%%%%%%%%%%%%%%%%%%%%%%%%%%%%%%%%%%%%,-%%%%%%%%%%%%%%%%%%%%%%%%%%%%%%%%": 48964,
  "%-%%%%%%%%%%%%%%%%%%%%%%%%%%%%%%%%%%%%-%%%%%%%%%%%%%%%%%%%%%%%%%%%%%%%%": 21523,
  "%-%%%%%%%%%%%%%%%%%%%%%%%%%%%%%%%%%%%%-%%%%%%%%%%%%%%%%%%%%%%%%%%%%%%%%%%%%%%%%%%%%%%%%%%%%%%/';": 48540,
  "%-%%%%%%%%%%%%%%%%%%%%%%%%%%%-%%%%%%%%%%%%%%%%%%%%%%%%%%%%%%%%%%%%%%%%%%%%%%%%%%%%%%/';": 49686,
  "%-%%%%%%%%%-%%%%%%%%%%%%%%%%%%%%%%%%%%%%%%%%%%%%%%%%%%%%": 46955,
  "%.": 31734,
  "%/": 31735,
  "%/\">": 24839,
  "%/)": 31740,
  "%:": 24838,
  "%;": 4305,
  "%;');": 7925,
  "%=": 10179,
  "%>": 31736,
  "%_%": 31741,
  "%à¥¤": 31737,
  "%à¥¤=}}": 31743,
  "%à¥¤[": 31742,
  "%âĢł": 24841,
  "&": 6,
  "&\");": 6943,
  "&\":": 13085,
  "&#": 6819,
  "&$,": 24843,
  "&&": 1543,
  "&&!==&&": 11090,
  "&&\"\"===.(,\"\")": 7243,
  "&&\"\"===.(,\"\"))=.;": 7325,
  "&&\"/\"==": 9941,
  "&&$(\"#----\").(),": 28360,
  "&&(": 2104,
  "&&(!==[": 15064,
  "&&(\"": 23840,
  "&&(\":(": 15063,
  "&&(\":(\"+(.-": 15628,
  "&&().(),().(": 15065,
  "&&(-=": 15062,
  "&&(.(": 21034,
  "&&(.('": 28760,
  "&&(.=": 42371,
  "&&(=": 6930,
  "&&(=().(": 15061,
  "&&(=+'": 45664,
  "&&(=+''++\"/\"+_+\"/\"++\"\"),": 45665,
  "&&(=.(": 7585,
  "&&(=.-": 9971,
  "&&(===.à¥¤à¥¤": 11125,
  "&&(===.à¥¤à¥¤===.)&&\"\"===.(,\"\"))=.;&&!==&&": 11308,
  "&&(>?.(": 28761,
  "&&(>?.(\"-\"):<=": 31404,
  "&&([": 28359,
  "&&([_": 31362,
  "&&.$.(\".\").(),": 9940,
  "&&.&&(": 11089,
  "&&.&&().(),.([],.)));": 11304,
  "&&.(": 4545,
  "&&.(\"\"": 17977,
  "&&.(\"\",": 10051,
  "&&.(\"-\"),>?.(": 29628,
  "&&.(\"-\"),>?.(\"\"):.(\"\"),=$().())})}}": 31493,
  "&&.(\"-\"),>?.(\"\"):.(\"\"),=$().())})}}),(),$(\"#-": 31682,
  "&&.(\".\").((){": 15258,
  "&&.('": 17761,
  "&&.('')=='//..//.": 44505,
  "&&.().(.()": 15257,
  "&&.().(.()))}": 15664,
  "&&.>": 13508,
  "&&=": 28358,
  "&(\"": 31746,
  "&)": 9623,
  "&-=": 24842,
  "&-=\"+": 9626,
  "&...": 31745,
  "&:": 31744,
  "&;": 16716,
  "&;ï¸ı": 47737,
  "&=": 1644,
  "&=\")}": 28459,
  "&=\")})(,,.(\"\")[": 31375,
  "&=%": 20939,
  "&=&-=\"+": 15011,
  "&=&=": 4353,
  "&=&='+;": 13616,
  "&=&=--\",": 6695,
  "&=&=--\",(){": 15344,
  "&=&=--\",,\"\")}": 15345,
  "&=&=___&=": 29568,
  "&='": 6143,
  "&='+;": 13521,
  "&=',": 7049,
  "&=+": 28458,
  "&=+&=": 49409,
  "&=++": 41519,
  "&=--\",": 15010,
  "&=.": 41516,
  "&=.]": 41520,
  "&=/-": 17780,
  "&=/-/'": 47867,
  "&=/-/-'": 24618,
  "&=/-/--'": 30759,
  "&=//": 8282,
  "&=//'": 46061,
  "&=//-'": 16652,
  "&=//--'": 15407,
  "&=//---'": 19412,
  "&=//----'": 46062,
  "&=</>": 41521,
  "&=]": 41517,
  "&=_": 41518,
  "&=_&=": 41522,
  "&\\\"": 9624,
  "&\\?": 9625,
  "&]\"": 6944,
  "&à¥¤": 6942,
  "'": 7,
  "'!": 4306,
  "'!à¥¤à¥¤": 24175,
  "'\"": 21745,
  "'\":": 3106,
  "'#": 2167,
  "'#').('');": 42483,
  "'#-": 10538,
  "'${": 12179,
  "''": 1421,
  "''!": 40819,
  "'''": 6574,
  "''',": 40821,
  "'''-": 40823,
  "'''[[": 45492,
  "'')": 3624,
  "''))": 23585,
  "'')){": 24109,
  "''),": 13503,
  "''),\"\"": 40824,
  "'').": 20869,
  "'').(": 23584,
  "'').('": 17744,
  "'').();": 20868,
  "'')..('');": 29397,
  "'');": 1954,
  "'');.().(": 16521,
  "'')=='//..//.": 43942,
  "''){": 14973,
  "'')}": 40822,
  "'')})}}();": 16463,
  "''+": 12058,
  "''++": 28229,
  "''++'": 14974,
  "'',": 7097,
  "'',(){": 30028,
  "''-": 40820,
  "'':.": 28230,
  "'';": 8710,
  "'';(": 20870,
  "''[": 7429,
  "''];": 9236,
  "''}": 12478,
  "'(": 14291,
  "'(!)": 47415,
  "'(://.-..//)": 47417,
  "'(?)": 47416,
  "')": 4307,
  "'),": 19570,
  "'),$(\".": 24850,
  "'),$(\".-\").($(\"#": 30861,
  "'),$(\".-\").((){(=$()": 31174,
  "'),$(\".-\").((){(=$()).(\"\",(){.(\"-\"),$(\"#\").(": 31653,
  "'),$(\".---": 24852,
  "'),().(": 14294,
  "'),().(\".\").({:===à¥¤à¥¤\"\"===à¥¤à¥¤": 15550,
  "'),.": 14293,
  "'),.(": 16718,
  "'),.(\"\").(\".-": 30711,
  "'),.(\"\").(\".-\")}),$(\"#----": 31617,
  "'),.(\"{}\")": 24851,
  "'),.(\"{}\")&&(=": 31175,
  "'),.();;\"\":": 30709,
  "'),.();;\"\":.();;:.(\"--": 31616,
  "'),.();;\"\":.();;:.(\"--\").(),$(\".-": 31693,
  "'),.(/(?:\\$\\=\\{": 30710,
  "'),.=\"#_": 15549,
  "'),.=\"#_\");": 15730,
  "'),=\"": 14295,
  "').(": 1481,
  "').($('.__": 7240,
  "').('": 6060,
  "').('')": 7237,
  "').('');": 3933,
  "').('.__');": 7241,
  "').((){": 6061,
  "').((,){": 41025,
  "').());": 7238,
  "').(),": 14985,
  "').().(.());\"": 5022,
  "').();": 2173,
  "').()}": 14986,
  "').(.());\"": 5021,
  "').(_));": 23612,
  "').(__);": 7239,
  "').(___": 4146,
  "').({": 6388,
  "');": 1003,
  "');(": 39176,
  "');.(\"-": 14849,
  "');.(\"-\").((){().();.(\".-\").('": 15602,
  "');.((){": 16318,
  "');.((){(.==){().(": 16697,
  "');.((){(.==){().()}.('.-').('": 16708,
  "');});": 18922,
  "')[": 8984,
  "')}": 15774,
  "')}),": 24848,
  "')}),$(\"#----\").((){": 24853,
  "')}),$(\".": 24849,
  "')}),$(\".-\").((){": 31173,
  "')}),.&&.().('": 31172,
  "')}).().().('-'+.);.('.-": 16690,
  "')}}": 16719,
  "'*'": 31754,
  "'+": 2042,
  "'+()+\"": 17837,
  "'+().(": 10535,
  "'+().(\"\")+\"": 15506,
  "'+().('-')": 16671,
  "'+().('-')+'": 16706,
  "'+(-": 5449,
  "'+(.,": 42308,
  "'+(..?'": 9969,
  "'+)[": 14163,
  "'++\"": 9966,
  "'++\"\");": 28732,
  "'++\"\",": 15052,
  "'++\"\",\"\"===..?+='": 15626,
  "'++'": 7438,
  "'+.(,": 42307,
  "'+.+": 15051,
  "'+.+\"": 9968,
  "'+.+'": 15625,
  "'+..+\"": 9967,
  "'+;": 8722,
  "'+[]+'';(": 23819,
  "',": 1193,
  "','": 9551,
  "',''": 40045,
  "',''),": 40048,
  "',''];": 27984,
  "','-": 27983,
  "',':": 6468,
  "',':${": 13642,
  "','://../": 46472,
  "','<>',": 46473,
  "',.[": 40047,
  "',:": 14910,
  "',___": 40046,
  "'-": 1738,
  "'-'": 17793,
  "'-')": 16501,
  "'-');": 8487,
  "'-');.('',": 19414,
  "'-'+": 8488,
  "'-'+.).().().('-'+.);": 16658,
  "'-'+.);": 11252,
  "'--'": 31751,
  "'---": 31749,
  "'-à§į": 41717,
  "'.": 1280,
  "'.').('');": 16444,
  "'.').();": 16443,
  "'.-": 13492,
  "'.-').(": 8469,
  "'.-').('.').('');": 16655,
  "'...": 12600,
  "'._": 40430,
  "'._'": 23524,
  "'.__": 7045,
  "'.__');": 7230,
  "'.___:(": 3033,
  "'/');": 21746,
  "'/';": 31752,
  "'//..//.": 31755,
  "':": 3584,
  "':\"\")+": 15199,
  "':\"\")+\"": 15200,
  "':\"\")+\"'++\"": 15650,
  "':\"\")+''++'": 15649,
  "':'+(.,": 43907,
  "'://../.?=": 31753,
  "'://..//": 3451,
  "'://..//.?=": 3495,
  "';": 1528,
  "';$(\"#": 7048,
  "';$(\"#\").();": 7091,
  "';$(\\'": 41149,
  "';*/": 5023,
  "';;\"": 28341,
  "';;\"\":": 28340,
  "';;\"\":='": 31359,
  "';}": 20914,
  "'===": 24845,
  "'>.</>": 8521,
  "'?": 7610,
  "'[": 31747,
  "'\\": 14292,
  "']": 31748,
  "'];": 24846,
  "'_');": 16720,
  "'}": 13086,
  "'},": 24847,
  "'};": 31750,
  "'à¥¤": 13695,
  "'à¥¤à¥¤": 16717,
  "'à¦¾": 12178,
  "'à¦¿": 24844,
  "'à§ĩ": 19569,
  "(": 8,
  "(!": 10583,
  "(!)": 31762,
  "(!=": 24857,
  "(!==": 14297,
  "(\"": 18150,
  "(\"\"": 31758,
  "(\"\")}')": 49887,
  "(\"\",": 31759,
  "(\"\",{\"\":\"-\"}": 49888,
  "(\"\"===": 9627,
  "(\"\"===..": 5918,
  "(\"\"===..?..+\"//\"+..:..)+\"": 7936,
  "(\"\"===..?..+\"//\"+..:..)+\"///\"+(..===!": 7953,
  "(\"\"===.?..+\"//\"+..:": 10132,
  "(\"\"===.?..+\"//\"+..:.)+\"": 10171,
  "(\"#": 5402,
  "(\"#\").()}": 10067,
  "(\".\").(": 4194,
  "(\".\").(\":(:)\").(": 5459,
  "(\".\").(\":(:)\").()}).((){": 10072,
  "(\".\").('": 10044,
  "(\".\").((\"": 44286,
  "(\".\").(),.+": 10045,
  "(\":": 13087,
  "(##": 31763,
  "($": 19571,
  "(%)": 24858,
  "('": 7098,
  "('[=\"\"": 15362,
  "('[=\"\"]:('+.+\"": 15688,
  "('^": 19397,
  "('^#": 48167,
  "('^/',": 21649,
  "((": 6397,
  "((\"#": 14298,
  "(()": 7611,
  "(()){$(\"#---\").(),$(\"#---": 45833,
  "((),()),.(),.(": 15333,
  "(()=>{": 30086,
  "(()=>{[": 31543,
  "((){(\"#": 14300,
  "((,": 29927,
  "((.": 9628,
  "()": 886,
  "()&&": 14788,
  "()(": 27446,
  "()){": 38549,
  "())}": 38548,
  "()+\"": 17300,
  "()+'": 38550,
  "(),": 16721,
  "()-": 38547,
  "().(": 3083,
  "().(\"\");(.==\"\"){(.().(\":\")){.(": 15158,
  "().(\"\");(.==\"\"){(.().(\":\")){.(.,.,(){..()}).().(.,.,(){..()})}}{(.==\"\"){(.().(\":\")){.(": 15639,
  "().(\".": 14197,
  "().(\":\").(": 43438,
  "().(),(\".\").(": 10013,
  "().().(": 9278,
  "().().('');.().(": 16663,
  "().().('');.().('-'+.).().().('-'+.);": 16705,
  "().({:===à¥¤à¥¤\"\"===à¥¤à¥¤": 15157,
  "():": 8059,
  "();": 5401,
  "();(": 21749,
  "();[": 29751,
  "();}};": 29752,
  "()=>{": 27447,
  "()]=[]": 38551,
  "(){": 1399,
  "(){\"": 28203,
  "(){\"\":": 9933,
  "(){\"\":+=\"": 30322,
  "(){\"\":.('": 30320,
  "(){\"\":='": 30321,
  "(){\"\":=.(,\"": 30323,
  "(){\"\":=.(,\"/\");;:=.(,\"///\"+)}": 31576,
  "(){$(\".-": 23575,
  "(){(": 8270,
  "(){(\"#": 9934,
  "(){(\"#_\"": 15457,
  "(){(\"#_\"!=.){": 15710,
  "(){.(": 16458,
  "(){.(\"-\")}": 28204,
  "(){.('-'": 19493,
  "(){{(.": 28205,
  "(){{(.===": 31350,
  "()}": 12418,
  "()}}": 12880,
  "()à¥¤à¥¤": 7209,
  "(+": 5533,
  "(,": 6945,
  "(,){": 3425,
  "(,,){": 5644,
  "(,,,){": 10586,
  "(-": 5093,
  "(-'": 21748,
  "(-)": 44796,
  "(.": 3020,
  "(.(\"\")[": 24860,
  "(.(\"{}\")){": 14301,
  "(.().(\":\")){.(": 14299,
  "(.().(\":\")){.().().()}}}": 15551,
  "(.().(\":\")){.().().()}}}}..();": 15731,
  "(.).('": 15151,
  "(.+\"": 6689,
  "(.,": 15775,
  "(.-": 14296,
  "(..": 4434,
  "(...": 31757,
  "(...)": 24859,
  "(..===!": 7927,
  "(..===\"\"": 15253,
  "(..?'": 7926,
  "(.==": 6804,
  "(.==\"\"){(": 7945,
  "(.==\"\"){(.().(\":\")){.(": 7954,
  "(.==){().(": 16641,
  "(.===!": 7911,
  "(.===\"\"": 43380,
  "(.\\/": 10009,
  "(:": 13696,
  "(://../": 31760,
  "(=": 4225,
  "(=$()": 21300,
  "(='',": 14219,
  "(=(": 24855,
  "(=().(": 10585,
  "(=().()).+=.(,\"\",!": 11264,
  "(=.(": 10584,
  "(==": 21747,
  "(==\\'\\'": 48567,
  "(?!": 2773,
  "(?!\\:)": 2796,
  "(?!\\:)/,": 2800,
  "(?)": 19573,
  "([": 1766,
  "([$]": 5974,
  "([$]!==[": 10080,
  "([$]===[": 7938,
  "([],,),": 11109,
  "([^": 4123,
  "([^&#": 7066,
  "([^>]*": 10042,
  "([^>]*[^\\/].(": 10154,
  "(\\": 31756,
  "(\\'": 1987,
  "(\\'#": 42207,
  "(\\'/,": 2789,
  "(_": 19572,
  "(___": 24854,
  "({:": 24856,
  "({:'${": 31176,
  "(âĪĴ": 18151,
  "(ðŁĵĸ": 31761,
  ")": 9,
  ")!": 15776,
  ")!!": 31772,
  ")!\"": 24867,
  ")!'": 24866,
  ")!'\"": 49053,
  ")\"": 7958,
  ")\").((){": 14304,
  ")\",": 13697,
  ")\".": 31770,
  ")\":": 13088,
  ")%": 19574,
  ")&": 19575,
  ")&&": 9630,
  ")&&!": 30303,
  ")&&(": 12181,
  ")&&(,,,,,,,,)}(": 15516,
  ")&&(,,,,,,,,)}(>=..){(.+\"": 15724,
  ")&&(=\"": 21544,
  ")&(": 30862,
  ")&+": 30863,
  ")&=": 21751,
  ")'": 4378,
  ")').(___": 4983,
  ")');": 7100,
  ")',": 31769,
  ")'-": 19578,
  ")(": 1974,
  ")(\"\"==": 6684,
  ")(\"\"===..": 15044,
  ")(\"\"==[].[$]": 15343,
  ")();": 2588,
  ")(,,.(\"\")[": 28686,
  ")(.('')": 42161,
  ")(?:\\\"à¥¤\\')?": 9963,
  ")(?:\\\"à¥¤\\')?/)))=[": 10143,
  "))": 2417,
  "))([^": 9988,
  ")))": 42816,
  "))),!=.&&(.=.-.+": 11147,
  ")));": 28945,
  ")));}": 28946,
  "))+": 21101,
  ")),": 6710,
  ")),(": 14302,
  ")),+>": 10102,
  ")),+>?=--": 10169,
  ")),.&&.(\"\",": 14306,
  ")),.&&.(\"\",.+)},=": 15553,
  ")),.&&.(\"\",.+)},=(){(\"#_\"!=.){": 15732,
  ")),.(\"{}\")": 24869,
  ")),.(\"{}\")&&.(\"\"),.(\"{}\")&&.(\"\"": 24871,
  ")),=(": 9631,
  ")),=((\".\").(),.+": 10133,
  ")).": 7101,
  ")).+=.(,\"\",!": 11230,
  "));": 3695,
  "));(": 21253,
  "));},!!": 29408,
  "));},!!{});": 31467,
  "));}[": 29407,
  "))>-+": 28948,
  "))?[": 11148,
  "))?[.([": 11311,
  "))[": 28944,
  "))[+": 28947,
  "))\\??": 9989,
  ")){": 12180,
  ")){(": 31776,
  "))}": 5301,
  "))}),$(\".": 19580,
  "))}),$(\".---": 30864,
  "))}).(\"\")": 29731,
  "))})}),$(\".": 29732,
  "))})}),$(\".--\").((){": 31511,
  "))})}}": 13633,
  "))}.$.(..)}": 15287,
  "))}.${": 29733,
  "))};(!''": 44892,
  "))}{:.-.-.(,\"\",!": 11204,
  "))}}": 14303,
  ")*": 7099,
  ")***": 24868,
  ")+": 12601,
  ")+\"": 7763,
  ")+\")\",": 15373,
  ")+\")\",(.+\"": 15690,
  ")+\"...": 10110,
  ")+\"...\"),=..$,=..$.(": 15487,
  ")+(": 19579,
  ")++": 31773,
  ")+[+": 47053,
  ")+\\'<": 47054,
  "),": 617,
  "),!": 26895,
  "),!=": 7174,
  "),!=.&&(.=.-": 7322,
  "),!=.&&(.=.-.+": 7332,
  "),!=.&&(.=.-.+),\"\"": 11245,
  "),\"\"": 10317,
  "),\"\")": 26896,
  "),\"\"===..": 14703,
  "),\"\"===..)(\"\"===..": 15593,
  "),\"\"===..)(\"\"===..){": 15743,
  "),$(\"#": 26897,
  "),$(\"#----": 26899,
  "),$(\".": 9782,
  "),$(\".--,": 30312,
  "),$(\".---": 15449,
  "),$().(": 5326,
  "),$().(),.(\"\"),.(\"\"": 7932,
  "),$().().(\"\")": 29736,
  "),$.(\"__": 26900,
  "),':": 26898,
  "),':${": 31274,
  "),(": 2216,
  "),(\"\"===à¥¤à¥¤": 11131,
  "),(\"#": 9979,
  "),(\".\").(": 5028,
  "),(\".\").((){": 15271,
  "),(\".\").({:,:})}": 10060,
  "),(\".\").({:,:})}).((){(\".\").(\":(:)\").().(\"\"": 10158,
  "),(\".\").({:,:})}).((){(\".\").(\":(:)\").().(\"\")}),.$.(\".\").(": 15501,
  "),(\".\").({:,:})}).((){(\".\").(\":(:)\").().(\"\")}),.$.(\".\").(\"\",(){.()}))}.$.(..)}": 15721,
  "),(\".\").({:,:})}).((){(\".\").(\":(:)\").().(\"\")})}": 15500,
  "),(\".-": 15081,
  "),((){.(": 28827,
  "),((){.(\"\",\"\")},": 31411,
  "),((){.(\"-\")}": 28831,
  "),()": 3623,
  "),()&&(=.(": 11182,
  "),()&&(=.(,,.({},))),!=.&&(.=.-.+": 11322,
  "),()&&(=.(,,.({},))),!=.&&(.=.-.+),!=.&&(.=.-.+),\"\"": 11348,
  "),()),.(),.(": 15201,
  "),()):": 4058,
  "),(),": 7257,
  "),(),$(\"#-": 30049,
  "),(),(),": 7906,
  "),(),(),!": 7952,
  "),()-,": 43941,
  "),().(": 5027,
  "),().(\".-\").(": 10059,
  "),()})}),$(": 29396,
  "),()})}),$((){$(\".-": 31465,
  "),(,\"\",": 28828,
  "),(.).(": 9980,
  "),(.).(\"\").(": 10146,
  "),(..à¥¤à¥¤": 15082,
  "),(=$().(": 28829,
  "),(_),.(": 28830,
  "),)})}})();": 37064,
  "),+": 20375,
  "),+='": 14704,
  "),.": 4703,
  "),.$.(\"\").(": 14705,
  "),.&&.(\"\",": 10054,
  "),.&&.(\"\",..(\"\",": 15478,
  "),.(": 2477,
  "),.(\"": 7059,
  "),.(\"\"": 4303,
  "),.(\"\"),(": 7298,
  "),.(\"\"),(,,": 7948,
  "),.(\"\"),.(\"\"": 5460,
  "),.(\"\",": 28971,
  "),.(\"\",(){": 28974,
  "),.(\"\",(){$(": 28977,
  "),.(\"\",(){$(\",": 31423,
  "),.(\"-\"": 28976,
  "),.(\"-\"),((){.(\"\",\"\")},": 31422,
  "),.(\"--\"),.(": 30026,
  "),.(\"--\"),.()}),.(\"\",(){.()}),.(\"\",(){": 31540,
  "),.(\".-": 28973,
  "),.(\"{}\")": 13643,
  "),.(\"{}\")&&.(\"\"": 18091,
  "),.(\"{}\")&&.(\"\"),.(\"{}\")&&.(\"\"": 21628,
  "),.(\"{}\")&&.(\"\")}),$(\"#----\").((){": 30782,
  "),.(''),\"\"": 42875,
  "),.((\"\"===.?..+\"//\"+..:.)+\"": 15105,
  "),.(),$.(\"__": 28978,
  "),.(),$.(\"__\",\"": 31424,
  "),.(),.(": 9995,
  "),.(),.(\"\"": 28972,
  "),.().>=": 28979,
  "),.().>=$(\"#-\").().-": 31425,
  "),.()})}),": 28975,
  "),.()};": 15104,
  "),.([": 7260,
  "),.([\"\",\"\"],(,){": 11237,
  "),.([\"\",\"\"],(,){.[]=$(.,(,){()": 11334,
  "),.({:\"\",:": 7261,
  "),.({:\"\",:\"\"},(,){": 7326,
  "),.({:\"\",:\"\"},(,){.({:": 11242,
  "),.({:\"\",:\"\"},(,){.({:\"\"+,:,\"\":\"\"+},(,){.[]=(,){": 11336,
  "),.+": 6881,
  "),.+=.(,\"\",!": 11224,
  "),..": 37063,
  "),..(": 10761,
  "),.>": 13623,
  "),/[^[\\]]+(?=])/": 14706,
  "),:.-.-.(,\"\",!": 10763,
  "),=": 3249,
  "),=\"": 13593,
  "),=(": 4239,
  "),=(().(),(\".\").(": 10046,
  "),=(,\"\"),=\"": 29540,
  "),=(,\"\"),=\"--\"+,=.(\"#-": 31483,
  "),=(,\"\"),=(": 21301,
  "),=(,\"\"),=(,\"\"),.(\"\",": 30958,
  "),=(,\"\"),=(,\"\"),=(,\"\");": 30959,
  "),=.(": 2524,
  "),=.(\"\"": 7908,
  "),=.(\"\"),=.(\"\"": 12577,
  "),=.(\"\"),=..,=": 30109,
  "),=.(\"\");": 9998,
  "),=.(\"\");!=&&(=.(": 30327,
  "),=.(\"\");()&&": 15468,
  "),=.(\"#--": 28998,
  "),=.(\".---": 28999,
  "),=.(),=.(,\"\"": 11151,
  "),=.().,=.(),=": 29000,
  "),=.();(": 28997,
  "),=.(,\"\"": 7262,
  "),=.(,\"\"),(\"\"===à¥¤à¥¤": 11238,
  "),=.(,\"\"),(\"\"===à¥¤à¥¤\"\"===)&&-": 11335,
  "),=.(/": 28996,
  "),=.+": 10016,
  "),=..,=": 29281,
  "),=..[(,": 15174,
  "),=.[": 10017,
  "),=.[(,": 10149,
  "),={};": 11175,
  "),={};\"\"===&&(..=\"\"),=.(),=.(,\"\"": 11320,
  "),>": 14702,
  "),[": 22902,
  "),à¥¤à¥¤(.": 10762,
  "),à¥¤à¥¤(.?((=(=..(\"\")": 11284,
  "),à¥¤à¥¤(.?((=(=..(\"\")).(\"\")).=..,..()):=),=": 11345,
  "),à¥¤à¥¤(.?((=(=..(\"\")).(\"\")).=..,..()):=),=!&&[],(=.())?[.([": 11355,
  "),âĺĳï¸ı": 37065,
  ")-": 2387,
  ")-)+": 23927,
  ")--": 31766,
  ").": 1621,
  ").\"": 28449,
  ").&&(": 20938,
  ").'": 2092,
  ").(": 627,
  ").(\"": 14708,
  ").(\"\"": 9121,
  ").(\"\")": 6640,
  ").(\"\")).=..": 11218,
  ").(\"\")).=..,..()):=),=": 11330,
  ").(\"\").(": 14709,
  ").(\"\").(\"\").()}),$(": 30615,
  ").(\"\").(\"\").()}),$(\"\").((){": 31607,
  ").(\"\").()}),$(\".-\").(": 30616,
  ").(\"\").()}),$(\".-\").(\"\",(){$(\"\").(\"-\"),$(\"#--\").(": 31608,
  ").(\"\")?(=(=.()).": 11219,
  ").(\"\",(){": 26911,
  ").(\"\",(){.(\"-\"),$(\"#\").(": 31276,
  ").(\"-": 26910,
  ").(\"-\")&&(.(),$().().(\"\")": 31275,
  ").(\".-": 9786,
  ").(\":\").(": 26914,
  ").(&&(": 10766,
  ").('": 9784,
  ").('',": 37100,
  ").('.___:(": 3299,
  ").((\"\"===.?..+\"//\"+..:.)+\"": 14713,
  ").((){": 3065,
  ").((){(\".\").(\":(:)\").(": 10011,
  ").((){(\".\").(\":(:)\").().(\"\"": 10148,
  ").((){.(\"": 7273,
  ").((,": 26912,
  ").(),().(": 14710,
  ").(),(.).(\"\").(": 14712,
  ").(),.(": 10767,
  ").(),.([],.)));": 11286,
  ").(),.>": 14714,
  ").(),=.(\"\");": 26913,
  ").().(": 4024,
  ").().(\"-\"": 29504,
  ").().('.').();": 24148,
  ").().(),=.();(": 29505,
  ").().().(": 8513,
  ").().().('-'+.);": 11253,
  ").().().('-'+.);.('.-": 16676,
  ").().();.(": 14711,
  ").().()}}}": 15223,
  ").().(.,.,(){..()})}}{(.==\"\"){(.().(\":\")){.(": 15224,
  ").().(.,.,(){..()})}}{(.==\"\"){(.().(\":\")){.(.,.,(){..()}).().(.).(.,.,(){..()})}}{": 15657,
  ").().(.,.,(){..()})}}{(.==\"\"){(.().(\":\")){.(.,.,(){..()}).().(.).(.,.,(){..()})}}{(.().(\":\")){.().().()}}}}..();": 15758,
  ").().-": 26915,
  ").():": 10765,
  ").():)}).(&&(": 11285,
  ").();": 1122,
  ").();$(\\'": 39812,
  ").();'": 1860,
  ").();().(": 10502,
  ").();.(": 9219,
  ").();.(\".-\").('": 15426,
  ").();.(/(?:\\$\\=\\{": 30267,
  ").();..(": 27908,
  ").();;\"\":": 27909,
  ").();;\"\":.().(\"#\").(": 31332,
  ").();<$(\"#-\").().-": 27910,
  ").();=\\'": 39811,
  ").()[]+": 10768,
  ").()[]+\"\":})}": 11287,
  ").()}),$(\".": 17176,
  ").(.()": 9785,
  ").(.()))}}": 15450,
  ").(.()))}}(.+\"": 15707,
  ").(.());\"": 3638,
  ").(..(\"\")": 37101,
  ").(/": 2625,
  ").(/'": 22906,
  ").(__);": 7177,
  ").({});": 26916,
  ").(à¥¤à¥¤": 10764,
  ").*/": 9947,
  ").,=.(),=": 28451,
  ").-": 17775,
  ")..": 31765,
  ")...": 9629,
  ")....": 31767,
  ")....\"": 49889,
  ").;": 17776,
  ").=..": 11101,
  ").>=": 28450,
  ").},": 11100,
  ").},.={:(,,){": 11305,
  ").à¥¤à¥¤à¥¤": 23672,
  ")/": 8985,
  ")/,": 19577,
  ")/,\"/\"+": 14305,
  ")/,\"/\"+..+\"$": 15552,
  ")/,'": 21656,
  ")//": 19576,
  "):": 1861,
  "):\"": 28603,
  "):$().().(\"\").(": 28604,
  "):$().().(\"\").(\".-\").(": 31386,
  "):(": 9260,
  "):(\"\"==": 11257,
  "):($(\"#----\").(),": 30271,
  "):(.(\"-\"),.=\"\"": 30272,
  "):-": 41925,
  "):.(": 7052,
  "):.(\"": 41926,
  "):.(\"-\")}": 30024,
  "):=),=": 11115,
  "):{:": 11114,
  ");": 511,
  ");$(\".-\").(": 14651,
  ");&&": 9765,
  ");';*/": 7168,
  ");(": 4343,
  ");(!": 29561,
  ");(!=-": 44351,
  ");(!==){(": 29563,
  ");(!==){(!&&/": 31485,
  ");(.(\"\")": 15243,
  ");(.(\"\")==){(,++);(": 15663,
  ");(.(/\\/[": 29562,
  ");(<": 15242,
  ");([": 26681,
  ");+": 26680,
  ");-": 14648,
  ");.$.(": 14649,
  ");.$.(\".\").(": 14650,
  ");.$.(\".\").({:\"\",:\".": 15586,
  ");.(\":\").(": 36508,
  ");.('',": 18656,
  ");.('',(){.('-'": 19522,
  ");.(,": 26682,
  ");.(,\"_\",\"=,=,=,=,=": 31267,
  ");.(,\"_\",\"=,=,=,=,=\"++\",=\"++\",=\"++\",=\"+).()}),$(\".---\").((){": 31666,
  ");;\"\":": 20285,
  ");;\"\":.(()).().(\"-\"": 30893,
  ");=.();": 26683,
  ");=.();=.(": 26684,
  ");=.();=.()}": 49213,
  ");=.();=.()}=\\'": 49214,
  ");}": 6753,
  ");});": 22760,
  ");}});": 26685,
  ")</>": 31775,
  ")</><": 24870,
  ")<>": 31778,
  ")=": 5152,
  ")=.(": 31771,
  ")=.();": 10588,
  ")=.;": 7303,
  ")=[": 10063,
  ")>=": 24865,
  ")?": 5340,
  ")?\"": 24863,
  ")?\"/\":\"": 31177,
  ")?\"/\":\"///\"+,.(\"\",)}),.(),$(\".--,": 31654,
  ")?(": 24864,
  ")?(.+)/,'": 31178,
  ")?\\//": 44908,
  ")[": 3676,
  ")[]+": 10587,
  ")]": 2929,
  ")]!==": 29150,
  ")]!==!!": 31439,
  ")](": 4408,
  ")](![]);(": 29592,
  ")]((": 29590,
  ")]()": 17931,
  ")]());}": 30768,
  ")]();": 9301,
  ")]();;}": 30274,
  ")]();[": 13660,
  ")]();[,": 30549,
  ")]();},!!": 30275,
  ")]();},!![]);};})();": 31566,
  ")]()[": 21620,
  ")](+": 29591,
  ")]([": 29149,
  ")]),": 29147,
  ")]);(": 29151,
  ")]);}": 29154,
  ")]);});": 29156,
  ")]);}{[": 31440,
  ")]){": 29148,
  ")]+": 29146,
  ")]+=": 29155,
  ")],": 24861,
  ")]-(": 29152,
  ")];": 16722,
  ")];(": 30712,
  ")];}": 30713,
  ")];}[": 30714,
  ")]=": 12534,
  ")]='": 17932,
  ")]='${": 18138,
  ")]=+": 30445,
  ")]===!!": 29157,
  ")]===!!(": 31441,
  ")]=[": 29153,
  ")]>": 21171,
  ")][": 5094,
  ")]]": 31774,
  ")]}": 8730,
  ")]}${": 30217,
  ")]}',:": 15416,
  ")]}',:'${": 18105,
  ")]}';}": 30218,
  ")]}'===": 30219,
  ")]}?';": 21485,
  ")]}?';}}}": 30976,
  ")]}?=${": 30220,
  "){": 1513,
  "){$(\"#---\").(),$(\"#---": 41095,
  "){$(\\'": 41094,
  "){(": 4054,
  "){(\"#\").(": 15227,
  "){(\"#\").(\"\");(\"#\").()}{(\"#\").()}});((){(\"#": 15659,
  "){(\"#\").(\"\");(\"#\").()}{(\"#\").()}});((){(\"#\").((){(\",": 15759,
  "){().(": 16475,
  "){(.(\"\")": 17969,
  "){([": 28317,
  "){++": 14993,
  "){++}{-=": 15619,
  "){+='": 28319,
  "){.();": 41093,
  "){;}": 28318,
  "){;}(": 28320,
  "){=": 8939,
  "){=\"\"": 14994,
  "){=\"\"}{=\"\"}(": 15620,
  "){=\"\"}{=\"\"}(===": 15752,
  "){=-": 15420,
  "){=.(": 41092,
  "){=.();=.(": 28321,
  "){=.();=.(+.": 31355,
  "){=.;=.(,": 30246,
  "){=.;=.(,);(!==){(!&&/": 31563,
  "){=\\'": 46299,
  "){}": 14992,
  ")}": 1317,
  ")}%": 28132,
  ")}')": 40557,
  ")}(": 14112,
  ")}((": 14953,
  ")}(){": 40556,
  ")}))}": 28134,
  ")}))})": 31347,
  ")}))}),$(\".": 28137,
  ")}),": 4351,
  ")}),$(": 21304,
  ")}),$(\"#---": 29566,
  ")}),$(\"#----": 13615,
  ")}),$(\"#----\").((){": 18090,
  ")}),$(\".": 8302,
  ")}),$(\".-": 15408,
  ")}),$(\".-\").(": 29565,
  ")}),(": 14951,
  ")}),.$.(\".": 15247,
  ")}),.$.(\".\").(": 15246,
  ")}),.(": 20841,
  ")}),.(\"\",(){.()}),.(\"\",(){": 30917,
  ")}),.(),$(\".--,": 30916,
  ")}),.([": 11069,
  ")}).(\"\"": 28135,
  ")}).(&&(": 11070,
  ")}).((){": 6670,
  ")});": 10513,
  ")});}": 23539,
  ")});}[];});": 31092,
  ")})}": 6571,
  ")})}),": 9232,
  ")})}),$(\"#\").({:": 30269,
  ")})}),$(\"#\").({:\"#-\",:\"": 31565,
  ")})})});": 45490,
  ")})})});}": 45491,
  ")})})}}();": 19387,
  ")})}}": 7427,
  ")})}}();": 10576,
  ")})}})();": 14249,
  ")})}}),$(\".": 30062,
  ")},:": 5019,
  ")},:(){": 14952,
  ")},:(){$(\"#-": 21593,
  ")},:(){(){\"\":.('": 30626,
  ")},:(){..(\"": 47510,
  ")},:(,){": 7302,
  ")},:(,,){": 11195,
  ")},:(,,,){": 11196,
  ")},=": 14950,
  ")}.('.-').(": 16451,
  ")}.('.-').('": 16699,
  ")};": 6471,
  ")}=\\'": 28136,
  ")}=\\'#": 49371,
  ")}{": 28133,
  ")}{$().(\\'\\'": 49370,
  ")}}": 2864,
  ")}}();": 19246,
  ")}}),.(\"": 11160,
  ")}}),.()})}),": 29125,
  ")}}),..(": 11161,
  ")}},:(){": 29124,
  ")}}-{{(.,": 24007,
  ")}};..=(){": 43256,
  ")}}}": 7426,
  ")}}},:(){": 11246,
  ")~": 31764,
  ")ØĮ": 21750,
  ")à¥¤": 3484,
  ")à¥¤&à¥¤": 7063,
  ")à¥¤à¥¤": 24862,
  ")à¥¥": 31768,
  ")à¦ĥ": 18152,
  ")âĺĳï¸ı": 31779,
  ")ãĢĤ": 31777,
  "*": 10,
  "*\"": 31780,
  "*\":": 13089,
  "*'": 19581,
  "*(": 31781,
  "*)": 7458,
  "**": 1239,
  "**##": 40255,
  "**):": 28030,
  "***": 6217,
  "***(": 29904,
  "****": 2000,
  "*****": 42231,
  "******": 42232,
  "********": 2887,
  "*********": 43270,
  "**********": 29128,
  "***********": 43271,
  "************": 14191,
  "****************": 4250,
  "**********************": 44302,
  "********************************": 7296,
  "********************************************": 18026,
  "************************************************": 21441,
  "************************************************************": 24702,
  "****************************************************************": 18025,
  "********************************************************************************************************************************": 30776,
  "******************************************************************************************************************************************": 49756,
  "*******************************************************************************************************************************************": 49757,
  "**,": 40254,
  "*+": 19582,
  "*,": 11358,
  "*-": 18153,
  "*.": 24872,
  "*/": 2064,
  "*:": 8986,
  "*;": 15777,
  "*_);": 21752,
  "+": 11,
  "+\"": 1877,
  "+\"\"": 21754,
  "+\"\"),": 31024,
  "+\"\");": 13092,
  "+\"\",": 14307,
  "+\"&=--\",": 15034,
  "+\"&=--\",,\"\")},\"\"):.(": 15623,
  "+\"-\");": 15033,
  "+\"../": 28616,
  "+\"../_.\",(.(\"\")[": 31387,
  "+\"/\"+": 20988,
  "+\"/\"+_+\"/\"+": 30928,
  "+\":": 13090,
  "+\";\"))}),$(\".-": 28618,
  "+\"?=&-=\"+": 20989,
  "+\"?=--&=": 28617,
  "+%": 12602,
  "+'": 6155,
  "+''+": 24876,
  "+''++\"/\"+_+\"/\"+": 31179,
  "+''++\"/\"+_+\"/\"++\"\"),": 31655,
  "+(": 6711,
  "+(?=])": 10103,
  "+(\\.à¥¤\\.à¥¤": 29970,
  "+(\\.à¥¤\\.à¥¤\\.à¥¤\\.))/,'": 31536,
  "+)": 4984,
  "+)})}}": 31785,
  "+)})}}',": 49891,
  "+)à¥¤": 31784,
  "++": 2645,
  "++\"\":\"\")+": 15117,
  "++'": 4248,
  "++)": 29032,
  "++,..": 15118,
  "++;$(": 29034,
  "++;$().((){": 31428,
  "++}": 29033,
  "+,": 24873,
  "+.": 9632,
  "+.()": 19583,
  "+.)": 31782,
  "+.))}(){": 49890,
  "+/,": 6946,
  "+/-": 31783,
  "+:": 21753,
  "+=": 11359,
  "+=\"": 10589,
  "+=\"...\"}": 15510,
  "+='": 5919,
  "+=(": 8987,
  "+=(,,);": 30255,
  "+=(..": 10124,
  "+=(..===?'": 15496,
  "+=(..>": 15495,
  "+=+": 30392,
  "+=.(,\"\",!": 10590,
  "+=\\'": 46868,
  "+=}": 24875,
  "+>": 9633,
  "+[]": 13091,
  "+[].": 30495,
  "+\\'": 24874,
  "+\\'\\';$().(": 49054,
  ",": 12,
  ",\"": 3627,
  ",\"\"": 3648,
  ",\"\")": 24880,
  ",\"\"),": 14210,
  ",\"\"),.(\"\",": 29403,
  ",\"\"),=\"": 29402,
  ",\"\"),=(": 7593,
  ",\"\"),=(,\"\"),": 18031,
  ",\"\"),=(,\"\");": 30083,
  ",\"\"):.(": 15203,
  ",\"\");": 12183,
  ",\"\")}": 7922,
  ",\"\")}()}": 15384,
  ",\"\")},\"\"):.(": 15385,
  ",\"\")};": 15202,
  ",\"\",": 24879,
  ",\"\",,,": 29401,
  ",\"\":": 10591,
  ",\"...": 43944,
  ",\"/": 43943,
  ",%": 16723,
  ",'": 3318,
  ",''": 16724,
  ",'à¥¤à¥¤à¥¤à¥¤à¥¤à¥¤à¥¤à¥¤": 43676,
  ",(": 13698,
  ",(\"#": 14312,
  ",(\"#\"++\"\").({:===[": 15556,
  ",(),()-,": 47260,
  ",(){": 9336,
  ",(){().(\":\").(": 46395,
  ",(,\"\"),": 30551,
  ",(,\"\"),))}),$(\".---": 31603,
  ",(,,){": 7104,
  ",)": 21755,
  ",)+\"...": 14317,
  ",),": 7103,
  ",),=.(": 19585,
  ",),=.(,),=.(": 30865,
  ",),=.(,),=.();(.(/\\/[": 31626,
  ",){": 2616,
  ",){.((){": 11156,
  ",){.((){.(,à¥¤à¥¤[.,,": 11314,
  ",){.[]=(,){": 11157,
  ",){=(){": 43030,
  ",)}}": 10593,
  ",)}})}),.([": 11266,
  ",)}})}),.([\"\",\"\",\"\",\"\",\"\",\"\"],(,){.[]=(){": 11342,
  ",+": 12603,
  ",++": 14310,
  ",++);(": 15554,
  ",+=": 31792,
  ",,": 1221,
  ",,):.(": 11059,
  ",,):.(,,,)},,?:": 11295,
  ",,);": 20795,
  ",,){": 3745,
  ",,)});": 11060,
  ",,,": 3744,
  ",,,){": 8076,
  ",,,)}": 10030,
  ",,,)},,?:": 11261,
  ",,,,": 2960,
  ",,,,!": 43330,
  ",,,,,": 7271,
  ",,,,,){=(){": 43331,
  ",,,,,,,,": 5766,
  ",,,,,,,,){(": 15310,
  ",,,,,,,,)}(": 15311,
  ",,,,,=[],=[],=": 15149,
  ",,,.)}}": 11185,
  ",,,??": 44008,
  ",,-": 20794,
  ",,-..": 48382,
  ",,.(\"\")[": 28016,
  ",,.({": 11058,
  ",,.({},))),!=.&&(.=.-.+": 11294,
  ",,=..": 14912,
  ",,?:": 11057,
  ",-": 12604,
  ",-%%%%%%%%%%%%%%%%%%-%%%%%%%%%%%%%%%%%%%%%%%%%%%%%%%%": 47055,
  ",---": 31788,
  ",---,": 49892,
  ",.": 14308,
  ",.(\"\",": 24883,
  ",.()}": 14316,
  ",.()},..={:\"\",:": 15560,
  ",.)+\"": 14314,
  ",.)+\"...\"),": 15558,
  ",.)+\"...\"),=[]..$.(": 15734,
  ",.,": 31789,
  ",..": 9634,
  ",..$.$": 14315,
  ",..$.$-..);.(": 15559,
  ",..$.$-..);.((\"\"===..?..+\"//\"+..:..)+\"///\"+(..===!": 15735,
  ",..(": 10592,
  ",..()": 8106,
  ",..()!=.(": 15401,
  ",..()):=),=": 11249,
  ",..({:(){(": 11265,
  ",..);": 14313,
  ",..);+=\"...\"}": 15557,
  ",..);+=\"...\"}{=}+=(..>": 15733,
  ",...": 7102,
  ",..={:\"\",:": 15434,
  ",.:": 31791,
  ",.=\"//\"+": 30596,
  ",.=\"//\"++\"../_.\",(.(\"\")[": 31606,
  ",._": 12184,
  ",._)+\"...\"),=..$,=..$.(": 15518,
  ",._,__": 46956,
  ",/": 19584,
  ",:": 1237,
  ",:!": 3643,
  ",:\"": 7572,
  ",:\"\",:": 14916,
  ",:\"\",:\"\",:": 8923,
  ",:\"\",:\"\",:!": 30245,
  ",:\"\",:\"\",:\"\",:.,:.,:!": 15419,
  ",:\"\",:\"\",:\"/.": 46295,
  ",:\"\",:,:\"://": 15605,
  ",:\"\"===?\"\":": 14918,
  ",:\"\"===?\"\":\"\",:===à¥¤à¥¤": 15606,
  ",:\"\"===?\"\":\"\",:===à¥¤à¥¤\"": 15748,
  ",:\"\"};": 14922,
  ",:\"\"};..=(){": 15609,
  ",:\"#_": 14919,
  ",:\"#_\",:,:\"\",:\"\",:": 15607,
  ",:\"#_\",:,:\"\",:\"\",:\"\",:!": 15749,
  ",:\"/\"}": 30079,
  ",:\"://": 14917,
  ",:(){": 4544,
  ",:(){(){\"": 29627,
  ",:(){(.===\"\"": 44504,
  ",:(){..(\"\").(": 44503,
  ",:(){=.(\".": 44502,
  ",:,\"\":": 11061,
  ",:,:": 3259,
  ",:,:!": 7914,
  ",:,:,:(){": 15175,
  ",:,:,:(){},:(){},:(){": 15645,
  ",:,:,:(){},:(){},:(){}},);": 15755,
  ",:,:,:,:": 6691,
  ",:,:,:,:,:,:": 10099,
  ",:.": 14915,
  ",:.,:": 9918,
  ",:.,:\"": 15456,
  ",:.,:.,:": 7886,
  ",:.,:.,:\"\",:!": 15375,
  ",:.,:.,:\"#\",:": 15376,
  ",:.,:.,:\"#\",:.,:.,:!": 15691,
  ",:.,:.,:.,:.,:\"\",:.,:!": 15377,
  ",:..});": 14921,
  ",:..});{": 15608,
  ",:_,:": 14920,
  ",:})}": 9919,
  ",=": 2184,
  ",=!": 8949,
  ",=\"\"===[": 9975,
  ",=(": 14309,
  ",=(){": 15073,
  ",=()à¥¤à¥¤": 11129,
  ",=,=": 6799,
  ",=,=,=,=": 19390,
  ",=,=;.à¥¤à¥¤(": 15350,
  ",=,=;.à¥¤à¥¤(.('": 15683,
  ",=.(": 12182,
  ",=.(\"": 9635,
  ",=.(\"#-": 30416,
  ",=.(\".\"),=.(": 15517,
  ",=.(\".\"),=.(\"-\").(\"": 15725,
  ",=.(\"/\",": 30304,
  ",=.(\"/\",-": 31571,
  ",=.(),=": 24881,
  ",=.(/<\\[^>]*>/,": 14318,
  ",=.(/<\\[^>]*>/,\"\").(/\"/,\"\"\"),": 15561,
  ",=.):(=": 11130,
  ",=.):(=()à¥¤à¥¤": 11309,
  ",=..": 7904,
  ",=..$.(": 15075,
  ",=...;>;++){(": 15077,
  ",=..;\";=(": 15379,
  ",=..;\";=(==\"://": 15693,
  ",=..;>;++)(\"\"==": 10113,
  ",=..;>;++)(\"\"==.[].&&\"/\"==": 15490,
  ",=..;>;++)(\"\"==.[].&&\"/\"==.[].){=.[]..(\"": 15716,
  ",=..;>;++)(\"\"==.[].){=": 15489,
  ",=..;>;++)(\"\"==.[].){=.[].;}(": 15715,
  ",=.;": 15074,
  ",=.;>;++){": 15630,
  ",=/),(": 9976,
  ",=/),(\".\",.$).({:\"\",:\".": 15462,
  ",=/),(.+\"": 15461,
  ",=/):": 5451,
  ",=/):(=": 10070,
  ",=;": 28800,
  ",=>{": 21051,
  ",=[],=[],=": 15076,
  ",=[].[": 28802,
  ",=[];": 28801,
  ",?:": 10594,
  ",?:.):[]": 11267,
  ",@": 24877,
  ",@.,": 24882,
  ",[": 11360,
  ",_": 24878,
  ",_,_,": 31795,
  ",_,_,_,": 49895,
  ",_:": 14311,
  ",_:.,:.,:.,_:": 15555,
  ",_=": 6316,
  ",_=\"://": 45385,
  ",_=/),(": 15330,
  ",_=/),(.+\"": 15679,
  ",_=/):": 7943,
  ",_=/):(=": 15393,
  ",__": 31787,
  ",{}": 31790,
  ",{}))": 49893,
  ",à§ģ": 31786,
  ",âĺĳï¸ı": 31793,
  ",ðŁķ": 31794,
  ",ðŁķ§": 49894,
  "-": 13,
  "-!!": 31804,
  "-!\"": 31809,
  "-\"": 5197,
  "-\").(": 3048,
  "-\").((){": 6483,
  "-\").((){(\".\").(\":(:)\").()}).((){": 10085,
  "-\").((){(\".\").(\":(:)\").()}).((){(\".\").(\":(:)\").(": 10162,
  "-\").((){(=$()": 29932,
  "-\");": 14322,
  "-\",": 14321,
  "-\",:": 13093,
  "-\",:!": 15563,
  "-\",:\"": 13674,
  "-\":": 3988,
  "-\":\"": 5458,
  "-\":\"\"===?\"": 10041,
  "-\":\"\"===[": 10040,
  "-\">": 31807,
  "-\">[[:_à¥¤<": 49897,
  "-\"}),().(": 15283,
  "-\"}),().(\"\").([": 15671,
  "-\"})})})}": 15284,
  "-#à¥¤": 31812,
  "-#à¥¤=": 49899,
  "-$": 31796,
  "-%": 3190,
  "-%%%%%%%%%%%%%%%%%%%%%%%%%%%%%%%%": 6590,
  "-'": 4330,
  "-').(": 4985,
  "-'>.</>": 16612,
  "-(": 5920,
  "-)": 16725,
  "-)\"": 31813,
  "-)'": 19590,
  "-**": 31802,
  "-+": 24884,
  "-,": 6820,
  "-,#-\").((){(\".\").(\":(:)\").()}).((){(\".\").(\":(:)\").(": 15351,
  "-,#-\").((){(\".\").(\":(:)\").()}).((){(\".\").(\":(:)\").()}),.$.(\".": 15684,
  "-,,,": 31806,
  "-,-----": 45606,
  "--": 540,
  "--\"),.(": 20314,
  "--\"),.(\".-\").(),.(\".-": 30894,
  "--\").(": 14663,
  "--\").((){": 20313,
  "--\"+": 26750,
  "--\"+,=.(\"#-": 31268,
  "--\",": 5324,
  "--\",).(),.>": 15290,
  "--\"]": 18679,
  "--\"]').('": 19523,
  "--'": 12808,
  "--');": 2758,
  "--'>.</>": 14664,
  "--(": 36657,
  "--)": 36658,
  "--)(": 36662,
  "--)[": 36663,
  "--,": 20312,
  "---": 1602,
  "---\"": 28420,
  "---\").((){": 28425,
  "---\";": 28424,
  "---'": 19093,
  "---'>.</>": 19094,
  "---()": 28423,
  "----": 1020,
  "----!": 39225,
  "----\"),": 20696,
  "----\"),++}": 30908,
  "----\"),=[]..$;(.(\"//": 30909,
  "----\").(": 27709,
  "----\").((){": 27711,
  "----'": 39226,
  "----'>.</>": 39229,
  "-----": 14061,
  "------": 7221,
  "------%": 45737,
  "-------": 17470,
  "--------": 1676,
  "---------": 9579,
  "----------": 13525,
  "-----------": 12497,
  "------------": 7898,
  "-------------": 18037,
  "--------------": 20944,
  "---------------": 13647,
  "----------------": 2689,
  "-----------------": 43082,
  "-------------------": 19231,
  "---------------------": 29053,
  "----------------------": 43083,
  "-----------------------": 43086,
  "--------------------------": 43085,
  "---------------------------": 43084,
  "--------------------------------": 4496,
  "---------------------------------": 44471,
  "-----------------------------------": 29619,
  "-------------------------------------": 44475,
  "---------------------------------------": 44476,
  "----------------------------------------": 44472,
  "--------------------------------------------": 44473,
  "-----------------------------------------------": 44474,
  "------------------------------------------------": 16615,
  "------------------------------------------------------": 47699,
  "---------------------------------------------------------": 47701,
  "------------------------------------------------------------": 47700,
  "----------------------------------------------------------------": 9303,
  "-----------------------------------------------------------------": 46390,
  "------------------------------------------------------------------": 46391,
  "----------------------------------------------------------------------": 46392,
  "---------------------------------------------------------------------------": 21497,
  "----------------------------------------------------------------------------------------------------------------": 21498,
  "--------------------------------------------------------------------------------------------------------------------": 48527,
  "------------------------------------------------------------------------------------------------------------------------": 48528,
  "-----------------------------------------------------------------------------------------------------------------------------": 30980,
  "--------------------------------------------------------------------------------------------------------------------------------------": 46393,
  "----------------?=-": 43087,
  "-----------...": 47021,
  "----------/": 41586,
  "---------/": 41585,
  "--------/": 41584,
  "-------:": 39230,
  "------.": 45738,
  "------...": 30043,
  "------_": 30042,
  "-----...": 47343,
  "-----/": 20698,
  "-----:": 20697,
  "----.": 18928,
  "----...": 27708,
  "----/": 27706,
  "----/#": 49328,
  "----/---": 39231,
  "----/.": 27710,
  "----/.\"),'": 31323,
  "----:": 27707,
  "----[": 39227,
  "----__": 39228,
  "---.": 9945,
  "---...": 28421,
  "---../--": 23665,
  "---/": 23663,
  "---//": 28422,
  "---///-/--": 49405,
  "---:": 12067,
  "---_": 23664,
  "---__": 41415,
  "--.": 8408,
  "--../--": 36665,
  "--../-.": 36666,
  "--.[/]": 36664,
  "--/": 8833,
  "--/-": 26749,
  "--/-----/": 46254,
  "--/---.": 24426,
  "--//": 13937,
  "--//---\";": 30562,
  "--//--.": 21583,
  "--:": 6876,
  "--}": 36659,
  "--}(": 26751,
  "--à¥¤": 36661,
  "--à§į": 36660,
  "-.": 4726,
  "-.\"))&&(=\"": 29652,
  "-.\"))&&(=\"//": 31497,
  "-..": 24887,
  "-..);.(": 14324,
  "-...": 19588,
  "-../": 24888,
  "-./": 19589,
  "-.///": 13624,
  "-.[/]": 31815,
  "-.à¥¤=": 44611,
  "-/": 6821,
  "-/\"));});": 45610,
  "-/\"+": 19591,
  "-/-": 14323,
  "-/-'>.</>": 24561,
  "-/------": 45607,
  "-/----/---": 45609,
  "-/---.": 45608,
  "-/-.": 24889,
  "-/-.\",_": 49055,
  "-/-.\";$((){$(\".-": 49056,
  "-/-/---": 31818,
  "-/-/-/-//": 47418,
  "-/-/-/////-//": 47419,
  "-/-//": 31811,
  "-/.": 18154,
  "-/.\")})}": 30785,
  "-/.\")})}$(\"#---\").(),$(\"#---": 49759,
  "-/.\")})}(()){$(\"#---\").(),$(\"#---": 49760,
  "-//": 8988,
  "-//-": 21492,
  "-//---": 46333,
  "-//-//": 30256,
  "-//-//.[/]": 49654,
  "-///": 31805,
  "-///-//-/-//": 46334,
  "-:": 2844,
  "-:-%": 43233,
  "-://../": 15779,
  "-://../?=": 31808,
  "-;": 24885,
  "-=": 4379,
  "-=\"+": 5461,
  "->": 24886,
  "-@": 19586,
  "-@)": 21657,
  "-@.": 31801,
  "-@.-": 49896,
  "-[": 21756,
  "-[=://../?=&=": 48568,
  "-]": 14319,
  "-]\"),=.-": 15562,
  "-_": 19587,
  "-_-": 31817,
  "-_/": 31816,
  "-___": 31803,
  "-________": 31810,
  "-__________": 49898,
  "-{{(.,": 21757,
  "-à¥¤": 31799,
  "-à¥¤=": 31814,
  "-à¥¤=://..//": 49900,
  "-à¦¾": 16726,
  "-à¦¾,": 31800,
  "-à¦¿": 14320,
  "-à§Ģ": 31798,
  "-à§ĩ": 15778,
  "-à§į": 31797,
  "-â§": 31819,
  ".": 14,
  ".!": 31820,
  ".\"": 8318,
  ".\"),.(\"": 46067,
  ".\")}": 9637,
  ".\".": 31823,
  ".\";": 31828,
  ".#": 24890,
  ".$": 2719,
  ".$).(": 7910,
  ".$.(": 3748,
  ".$.(\"\").(": 10032,
  ".$.(\".": 10031,
  ".$.(\".\").(": 5033,
  ".$.(\".\").(),": 6700,
  ".$.(\".\").(),(..à¥¤à¥¤": 15272,
  ".$.('": 15130,
  ".$.(..)}": 15207,
  ".$..(/\\": 15131,
  ".$.:": 29074,
  ".$.:\"://..//.\",.(.(/-": 31433,
  ".$=();": 15132,
  ".$?[]": 29075,
  ".${": 29073,
  ".%": 19592,
  ".&&": 19594,
  ".&&\"/\"==": 14329,
  ".&&\"/\"==[].[$].){=[].[$]": 15565,
  ".&&\"/\"==[].[$].){=[].[$]..(\"": 15736,
  ".&&(": 3465,
  ".&&(\"": 15192,
  ".&&('": 15193,
  ".&&(.=.-": 7284,
  ".&&(=": 6693,
  ".&&(=.(": 15194,
  ".&&.(": 14327,
  ".&&.().('": 30597,
  ".'": 19593,
  ".'')": 31826,
  ".',": 6591,
  ".';": 31824,
  ".(": 499,
  ".(\"": 3379,
  ".(\"\")": 5503,
  ".(\"\")&&": 29772,
  ".(\"\"));": 14234,
  ".(\"\"),.": 14641,
  ".(\"\").(": 12339,
  ".(\"\").(),\"\")": 30433,
  ".(\"\")[": 18006,
  ".(\"\",": 10737,
  ".(\"\",\"": 26650,
  ".(\"\",),(": 21532,
  ".(\"\",),.&&.(\"\",..(\"\",": 15511,
  ".(\"-": 12338,
  ".(\"-\"),": 17102,
  ".(\"-\"),$(\"#\").(": 30739,
  ".(\"-\"),.=\"\"": 21613,
  ".(\"-\"),.=\"\"):(.(\"-\"),.=\"\"": 30996,
  ".(\"-\"),.=\"\"):(.(\"-\"),.=\"\")}))}),$(\".": 31638,
  ".(\"-\")}": 21548,
  ".(\"--": 12544,
  ".(\"--\")!=-": 15524,
  ".(\"--\"),.(": 30446,
  ".(\"--\"),.(),()})}),$((){$(\".-": 31587,
  ".(\".-\").(": 26649,
  ".(\".-\").()},:(){(){\"\":.('": 31265,
  ".(\"//": 21215,
  ".(\":\").(": 36446,
  ".(\">\").((){": 43728,
  ".(\"{}": 13597,
  ".(\"{}\")){": 13689,
  ".('": 2335,
  ".('')": 20271,
  ".(''),": 26651,
  ".('',": 13574,
  ".('.-": 16066,
  ".('.-').(": 16065,
  ".('/'": 7258,
  ".('à¥¤'": 42723,
  ".((\"": 26652,
  ".((\"%": 31266,
  ".(()": 14640,
  ".(()).().(\"-\"": 30612,
  ".(())}}": 30610,
  ".(())}}}": 30611,
  ".((){": 6190,
  ".((){..(,,)});": 11215,
  ".((___": 26654,
  ".()": 2283,
  ".()&&(=().(": 15091,
  ".()&&(=().(\".-": 15634,
  ".()),(=$().(": 28887,
  ".()),=(": 15090,
  ".());": 2928,
  ".());\"": 3039,
  ".());(()": 15145,
  ".())}}": 11133,
  ".()+.()": 21077,
  ".().": 10736,
  ".().(": 5614,
  ".().(\"#\").(": 29793,
  ".().(\":\")){": 6704,
  ".().(\":\")){.(": 6708,
  ".().(),$(\".": 29794,
  ".();": 17101,
  ".();..(\"": 47791,
  ".();;:.(\"--": 30738,
  ".()?(": 11132,
  ".()?().()[]+\"\":})}": 11310,
  ".()}": 8401,
  ".()};": 13329,
  ".()}}}": 36444,
  ".(,": 3174,
  ".(,\"\",!": 7277,
  ".(,à¥¤à¥¤": 7276,
  ".(,à¥¤à¥¤\"**\",)},:(,){": 11240,
  ".(,à¥¤à¥¤[.,,": 11239,
  ".(.(/-": 26653,
  ".(.[\"\"+],[\"\"+": 10738,
  ".(/-": 20270,
  ".(/\\": 2530,
  ".(/\\/[": 12524,
  ".(/\\\\(\\'": 2790,
  ".(/^": 36445,
  ".([": 10735,
  ".([]": 36443,
  ".([]);(": 36447,
  ".({": 6440,
  ".({:": 9081,
  ".)": 1080,
  ".)!": 39612,
  ".)&&\"\"===.(,\"\"))=.;": 11047,
  ".)&&(": 14888,
  ".)'": 7731,
  ".)(": 14886,
  ".)));": 11044,
  ".)+\"": 6666,
  ".)+\"?-=\"+.+\"&=&=--\",": 15341,
  ".),": 10181,
  ".),(\"#": 14330,
  ".)-": 6134,
  ".).": 39613,
  ".).(": 6317,
  ".).(\".\").();": 15332,
  ".).('._'": 24322,
  ".).().().('-'+.);": 15781,
  ".).(.,.,(){..()})}}{": 15331,
  ".)...": 39614,
  ".):(=": 11046,
  ".):[]": 11045,
  ".);": 6398,
  ".)]": 14887,
  ".){": 5965,
  ".){=[].[$]": 15318,
  ".)}}": 9906,
  ".*": 6492,
  ".*&)": 10086,
  ".*&)?=à¥¤(à¥¤)\\/))([^": 10163,
  ".*&)?=à¥¤(à¥¤)\\/))([^\\?&\\\"\\'>]+)/))){": 10173,
  ".*((.": 10087,
  ".*((.\\/)à¥¤(\\/)à¥¤(\\/\\/\\": 10164,
  ".+": 3145,
  ".+\"": 4435,
  ".+\"&=&=--\",": 10050,
  ".+)/,'": 29239,
  ".+)},=": 15164,
  ".+..>=": 15163,
  ".+..>=..$.$à¥¤à¥¤..)&&.$.(\".\").(),.$.(\".\").(),": 15642,
  ".+=\"\"": 7275,
  ".,": 2525,
  ".,(){": 5144,
  ".,(,){": 11152,
  ".,(,){()": 11313,
  ".,,": 9636,
  ".,.(.[\"\"+],[\"\"+": 11153,
  ".,.,(){": 5976,
  ".,.,(){..()": 5992,
  ".,.,(){..()}).().(": 10083,
  ".,.,(){..()}).().(.).(.,.,(){..()})}}{": 15485,
  ".,.,(){..()}).().(.,.,(){..()})}}{(.==\"\"){(.().(\":\")){.(": 15484,
  ".,.,(){..()})}}{": 7941,
  ".,.,(){..()})}}{(.==\"\"){(.().(\":\")){.(": 10118,
  ".,:": 2871,
  ".,:!": 10004,
  ".,:\"": 15137,
  ".,:.+": 11162,
  ".,:.+.}):{:": 11316,
  ".,:.,:": 4249,
  ".,:.,:!": 10047,
  ".,:.,:\"\",:.,:!": 15238,
  ".,:.,:.,:!": 15236,
  ".,:.,:.,_:": 15237,
  ".,=": 6822,
  ".,=.à¥¤à¥¤.;(": 11222,
  ".,_:": 15107,
  ".-": 2540,
  ".-%": 42964,
  ".--": 12605,
  ".-----": 31830,
  ".-.": 5977,
  ".-.-": 7263,
  ".-.-.(,\"\",!": 7327,
  ".-./.../---...": 42965,
  ".-.//": 13580,
  ".-.///": 29871,
  ".-{": 23957,
  ".-{:": 16568,
  "..": 362,
  "..!": 13258,
  "..!!": 20073,
  "..\"": 12285,
  "..\")": 3806,
  "..$": 3183,
  "..$,=..$.(": 15166,
  "..$.$": 7913,
  "..$.$à¥¤à¥¤..)&&.$.(\".\").(),.$.(\".\").(),": 15381,
  "..$.(": 5981,
  "..$:": 5454,
  "..$:\"\"": 7933,
  "..$:\"\",\"": 10071,
  "..$:\"\",\"$\"": 10161,
  "..$:\"\";": 15390,
  "..$:(\"\"": 15165,
  "..$;": 21193,
  "..&&": 6625,
  "..&&\"": 10095,
  "..&&.$.(\".": 15339,
  "..&&..&&\"": 15340,
  "..'": 26187,
  "..';": 26189,
  "..(": 1770,
  "..(\"": 9256,
  "..(\"\")": 10527,
  "..(\"\").(": 41770,
  "..(\"\");": 20963,
  "..(\"\");..(\"\",\"\")}": 48419,
  "..(\"\",": 15022,
  "..(\"\",\"\")}": 41772,
  "..(\"-\");": 41771,
  "..(\"/": 28545,
  "..('');": 28544,
  "..(()": 2007,
  "..()": 4767,
  "..(,": 9954,
  "..(,,)});": 11110,
  "..(.(\"\"));": 41773,
  "..(/\\": 13541,
  "..)": 3656,
  "..)&&.$.(\".\").(),": 10027,
  "..)&&.$.(\".\").(),.$.(\".\").(),": 10153,
  "..)+\"": 5031,
  "..),.": 10704,
  "..).": 16999,
  "..);": 6623,
  "..);.(": 10094,
  "..);.((..===\"\"": 15486,
  "..){": 9732,
  "..){=.(": 15440,
  "..)}": 14557,
  "..)}}": 14559,
  "..)}},\"\")};": 15581,
  "..+\"": 3865,
  "..+\"$": 15211,
  "..,": 6744,
  "..,);.$.(": 15349,
  "..,);.$.(..);.((..===\"\"": 15682,
  "..,);.$.(..);.((..===\"\"?..+\"//\"+..:..)+\"///?=--&=\",(){": 15763,
  "..,:": 14556,
  "..,=": 13259,
  "..,=.(/": 29976,
  "..,{:.+": 11221,
  "..,{:.+.,:.+.}):{:": 11331,
  "...": 461,
  "...!": 12320,
  "...!!": 22698,
  "...!'": 26578,
  "...\"": 9077,
  "...\"),": 14628,
  "...\"}": 14629,
  "...$": 36258,
  "...'": 5370,
  "...',": 14627,
  "...(": 10729,
  "...)": 5499,
  "...,": 17081,
  "...-": 36259,
  "...-(": 36260,
  "....": 756,
  "....!!!": 37853,
  "....'": 37852,
  "....,": 27186,
  ".....": 3027,
  ".....!": 43383,
  ".....,": 43384,
  "......": 3538,
  "......-...": 43855,
  ".......": 4377,
  ".......(": 44380,
  "........": 1287,
  ".........": 10401,
  ".........!!!!!": 46663,
  "..........": 28100,
  "...........": 13493,
  "............": 20834,
  ".............": 28101,
  "...............": 6140,
  "................": 2026,
  ".................": 23529,
  "..................": 23811,
  "...................": 28713,
  ".......................": 42278,
  "........................": 16531,
  ".........................": 42279,
  "..........................": 47669,
  "............................": 47670,
  "..............................": 47671,
  "................................": 3315,
  "......................................": 43673,
  ".......................................": 29295,
  "........................................": 43672,
  "...............................................": 43674,
  "................................................": 6584,
  "...................................................": 45499,
  "......................................................": 45500,
  "...............................................................": 8100,
  "................................................................": 12997,
  "...............................................................................................": 8296,
  "................................................................................................................................": 19459,
  ".................................................................................................................................................": 48203,
  "................................................................................................................................................................................................................................................................": 30856,
  "...../": 43385,
  ".....?": 43386,
  ".....____,": 43387,
  ".../": 6357,
  ".../-": 7378,
  ".../--": 20236,
  ".../----...": 45401,
  ".../---...": 29917,
  ".../-//": 26579,
  "...//": 26577,
  "...//_.": 31263,
  "...;>;++){(": 14630,
  "...=(){": 10730,
  "...?": 13314,
  "...]": 2194,
  "../": 7667,
  "../-": 26190,
  "../--": 20074,
  "../---__": 45854,
  "../-.": 35312,
  "../-/": 17000,
  "../-//": 12739,
  "../-///": 35314,
  "../.": 35310,
  "../......-...": 45855,
  "../.../": 18032,
  "../.../------": 47936,
  "../.../-----------...": 47939,
  "../.../------...": 47938,
  "../.../-----...": 47940,
  "../.../----...": 47937,
  "..//": 4137,
  "..//)": 29526,
  "..//.": 10043,
  "..//.\")": 13665,
  "..//.\")?..:": 15539,
  "..//.\")?..:.(/\\/[": 15727,
  "..//.\")à¥¤à¥¤.(\"//": 30550,
  "..//.?=": 6936,
  "..///": 12286,
  "..///.?=--": 19451,
  "..:": 4997,
  "..=\"\"": 10703,
  "..=\"\"),=.(),=.(,\"\"": 11276,
  "..=(){": 6858,
  "..=(){=.({:": 15353,
  "..=(,,){": 9733,
  "..={:\"\",:": 14562,
  "..>=": 14560,
  "..?": 16998,
  "..?.(": 14561,
  "..?.((\"\"===..?..+\"//\"+..:..)+\"///\"+(..===!": 15582,
  "..@.": 35309,
  "..[\"\"+]:": 10705,
  "..[(,": 14563,
  "..]": 8589,
  ".._": 26188,
  "..}));": 35315,
  "..});": 14558,
  "..à¥¤à¥¤": 6624,
  "..à¥¤à¥¤\"": 15337,
  "..à¥¤à¥¤((\"#": 15338,
  "..ðŁ¤Ķ": 35313,
  "..ðŁĺ": 35311,
  "./": 2029,
  "./\"": 28714,
  "./',": 28715,
  "./,": 24891,
  "./-": 21019,
  "./------...": 42284,
  "./--.": 21020,
  "./-/": 42282,
  "./-//": 28716,
  "./.": 42280,
  "./.../---...": 42283,
  ".//": 3524,
  ".//%": 29369,
  ".//--.": 43845,
  ".//--.[/]": 43846,
  ".//-.": 43844,
  ".//.)": 43843,
  ".///": 21758,
  ".////": 43842,
  "./_": 42281,
  ".:": 5842,
  ".://..//%": 31829,
  ".;": 4308,
  ".;(": 7105,
  ".;=.(,": 29555,
  ".<<": 31827,
  ".<<<<": 49901,
  ".=": 8522,
  ".=!": 30196,
  ".=\"": 24894,
  ".=\"\"": 19595,
  ".=(){": 14326,
  ".=(){.=.({},": 15564,
  ".=(,){": 14328,
  ".=+=\"": 30197,
  ".=.(": 13094,
  ".=.({},": 15529,
  ".=.-": 7106,
  ".=;.(": 46138,
  ".={:(,,){": 11254,
  ".>": 8989,
  ".>.&&(=.(": 15421,
  ".?(": 24892,
  ".?..+\"//\"+..:": 9638,
  ".?=": 2845,
  ".?=--": 19239,
  ".?=:_/": 43234,
  ".@": 31821,
  ".@.": 5534,
  ".@.,": 45008,
  ".[": 3463,
  ".[\"\"+],[\"\"+": 7281,
  ".[$]": 7917,
  ".[..]": 15190,
  ".[..]=)})),": 15648,
  ".[/]": 11179,
  ".[]": 3464,
  ".[].": 7918,
  ".[].&&\"/\"==": 15382,
  ".[].){": 7919,
  ".[].){=": 10115,
  ".[].){=.[]..(\"": 15491,
  ".[]..(\"": 15191,
  ".[].;}(": 10114,
  ".[]=$(": 11180,
  ".[]=$(.,(,){()": 11321,
  ".[]=(){": 7282,
  ".[]=(,){": 7283,
  ".]": 3661,
  "._": 7459,
  "._);": 16727,
  "._+\"-\");": 15369,
  "._,": 30066,
  "._:": 24893,
  ".__.": 13699,
  ".__.---": 16685,
  ".__.____": 30552,
  ".____": 21759,
  ".{:": 31825,
  ".}": 6712,
  ".}';": 29971,
  ".}):{:": 11220,
  ".}}": 14325,
  ".à¥¤": 15780,
  ".à¥¤à¥¤": 5095,
  ".à¥¤à¥¤(": 10061,
  ".à¥¤à¥¤.,=": 15275,
  ".à¥¤à¥¤.,=$(\"#--": 15669,
  ".à¥¤à¥¤.;(": 11198,
  ".à¦¾": 31822,
  "/": 15,
  "/\"": 31831,
  "/\")+": 14333,
  "/\");;:": 24902,
  "/\");;:=.(,\"///\"+)}": 31181,
  "/\"+": 4864,
  "/\"+___,": 24228,
  "/\",": 19596,
  "/\",.=!": 30866,
  "/\":\"": 24898,
  "/\">": 7765,
  "/\"}": 24897,
  "/#-": 24900,
  "/#:": 31846,
  "/#:~:=%": 49905,
  "/$/,": 24895,
  "/$/,\"\")+\"///\"++\"?=--&=": 31180,
  "/$/,\"\")+\"///\"++\"?=--&=&-=": 31656,
  "/%": 5993,
  "/%%%%%%%%%%%%%%%%%%%%%%%%%%%%%%%%": 21762,
  "/%%%%%%%%%%%%%%%%%%%%%%%%%%%%%%%%%%%%%%%%%%%%%%%%": 19601,
  "/%%%%%%%%%%%%%%%%%%%%%%%%%%%%%%%%%%%%%%%%%%%%%%%%%%%%%%%%%%%%%%%%%%%%%%%%%%%%%%%%%-%%%%%%%%%%%%%%%%%%%%%%%%%%%%%%%%%%%%-%%%%%%%%%%%%%%%%%%%%%%%%%%%%%%%%": 48570,
  "/%%%%%%%%%%%%%%%%%%%%%%%%%%%%%%%%%%%%%%%%%%%%%%%%%%%%%%%%%%%%%%%-%%%%%%%%%%%%%%%%%%%%%%%%%%%%%%%%%%%%%%%%%%%%%%%%%%%%%%%%%%%%%%": 48227,
  "/%%%%%%%%%%%%%%%%%%%%%%%%%%%%%%%%%%%%%%%%%%%%%%%%%%%%%%-%%%%%%%%%%%%%%%%%%%%%%%%%%%%%%%%": 24666,
  "/%%%%%%%%%%%%%%%%%%%%%%%%%%%%%%%%%%%%%%%%%%%%%%%%%%%%%%-%%%%%%%%%%%%%%%%%%%%%%%%%%%%%%%%%%%%%%%%%%%%%%%%%%%%%%%%%%%%%%%-%%%%%%%%%-%%%%%%%%%%%%%%%%%%%%%%%%%%%%%%%%%%%%%%%%%%%%": 49027,
  "/%%%%%%%%%%%%%%%%%%%%%%%%%%%%%%%%%%%%%%%%%%%%%%%%%%%%%%-%%%%%%%%%%%%%%%%%%%%%%%%%%%%%%%%%%%%%%%%%%%%%%%%%%%%%%-%%%%%%%%%%%%%%%%%%%%%%%%%%%%%%%%": 49025,
  "/%%%%%%%%%%%%%%%%%%%%%%%%%%%%%%%%%%%%%%%%%%%%%%%%%%%%%%-%%%%%%%%%%%%%%%%%%%%%%%%%%%%%%%%%%%%-%%%%%%%%%%%%%%%%%%%%%%%%%%%%%%%%%%%%%%%%%%%%": 49026,
  "/%%%%%%%%%%%%%%%%%%%%%%%%%%%%%%%%%%%%%%%%%%%%%-%%%%%%%%%%%%%%%%%%%%%%%%%%%%%%%%%%%%-%%%%%%%%%%%%%%%%%%%%%%%%%%%%%%%%": 48569,
  "/%%%%%%%%%%%%%%%%%%%%%%%%%%%%%%%%%%%%-%%%%%%%%%%%%%%%%%%%%%%%%%%%%%%%%%%%%%%%%%%%%%%%%%%%%%%%%%%%%%%%%%%%%%%%%%%%%%%%%%-%%%%%%%%%%%%%%%%%%%%%%%%%%%%%%%%%%%%%%%%%%%%%%%%%%%%%%%%%%%%%%%%%%%%%%%%%%%%%%%%%%%%%%%%": 48571,
  "/'": 2448,
  "/'%": 42840,
  "/');": 19597,
  "/',": 16728,
  "/'/,\"\");": 9990,
  "/';": 14332,
  "/'>.</>": 42841,
  "/(": 9337,
  "/(:\\/\\/\\": 30277,
  "/(?::": 30278,
  "/(?:\\$": 21499,
  "/(?:\\$\\=\\{": 21723,
  "/)": 7959,
  "/)&&.('": 21463,
  "/))": 6592,
  "/)))=[": 10090,
  "/))){": 10089,
  "/),(": 7764,
  "/):": 4436,
  "/)?(?:\\.)": 30117,
  "/)à¥¤à¥¤": 21462,
  "/+": 31832,
  "/,": 1488,
  "/,\"\")": 14987,
  "/,\"\");": 7896,
  "/,\"\");(!==": 15378,
  "/,\"\");(!==\"\"&&.>..){=.(": 15692,
  "/,\"/\"+": 9938,
  "/,)){(": 41030,
  "/,,,": 19600,
  "/-": 2187,
  "/-\"": 42502,
  "/-'": 23865,
  "/-(": 28803,
  "/-)": 19186,
  "/-),": 17861,
  "/--": 5466,
  "/--'": 29768,
  "/--'>.</>": 29769,
  "/---": 21761,
  "/----": 10595,
  "/-----": 24477,
  "/------": 21763,
  "/-------": 30361,
  "/--------": 19598,
  "/---------": 13095,
  "/-----------": 31844,
  "/------------": 31842,
  "/-------------": 31848,
  "/------------.": 49904,
  "/----------/": 48225,
  "/---------/": 48224,
  "/--------/": 48223,
  "/------.": 48572,
  "/------/": 48573,
  "/-----.": 30362,
  "/-----/": 46739,
  "/----.": 46738,
  "/----/": 30360,
  "/---.": 24899,
  "/---/--": 31025,
  "/--.": 9606,
  "/--.\",:.,:": 15433,
  "/--/": 18004,
  "/--/----": 44980,
  "/-.": 9588,
  "/-...": 28804,
  "/-/": 9977,
  "/-/\"+": 6686,
  "/-/--": 42503,
  "/-/---": 21520,
  "/-/-//": 28805,
  "/-/-//-/-/-/////-//": 49447,
  "/-/.": 19188,
  "/-//": 6482,
  "/-//----------": 45445,
  "/-//--/-": 45447,
  "/-//-/-//": 45448,
  "/-//-//-": 45446,
  "/-///": 19187,
  "/-/////-//": 45449,
  "/-?=%": 42504,
  "/-_": 23866,
  "/.": 3750,
  "/.\")": 16600,
  "/..": 14331,
  "/...": 21760,
  "/...)": 24896,
  "/.............": 31850,
  "/...............": 31840,
  "/.................": 31849,
  "/........................": 31847,
  "/............./........................": 49906,
  "/..//.?=": 31841,
  "/..//.?=&": 49903,
  "/.:": 44009,
  "/.?=": 8523,
  "/.[/]": 24901,
  "//": 796,
  "//\"+": 5330,
  "//\"+..:": 5463,
  "//${": 38155,
  "//'": 38148,
  "//';": 38152,
  "//(:": 38159,
  "//),": 38151,
  "//,": 38149,
  "//-": 20557,
  "//----------": 38158,
  "//----.": 38160,
  "//--.": 27295,
  "//--/": 38157,
  "//-:": 38153,
  "//.": 38150,
  "//..//.": 20558,
  "//..///": 27296,
  "//..///.": 31294,
  "//./": 23114,
  "//.//": 38154,
  "///": 2883,
  "///\"+": 6146,
  "///\"+(..===!": 7942,
  "///\"+(.===!": 15323,
  "///\"+)}": 29896,
  "///\"++\"?=--&=": 29898,
  "///\"+,.(\"\",": 29897,
  "///\"+,.(\"\",)}),.(),$(\".--,": 31532,
  "///-------": 43267,
  "///-//": 38156,
  "///.//": 24009,
  "////": 7708,
  "////-/\"+": 21452,
  "////-/\"++\"?=&-=\"+": 21717,
  "////-//-": 30096,
  "////-//-/-//-//-": 49626,
  "////-//-//": 45868,
  "////-//-////-//-//": 49627,
  "////.": 30095,
  "///?-=\"+.+\"&=&=--\",": 15138,
  "///?-=\"+.+\"&=&=--\",,\"\");": 15637,
  "///?=&-=\"+": 21167,
  "///?=--&=": 15139,
  "///_.": 43265,
  "///_/": 43266,
  "//://./": 7397,
  "//://./-": 45768,
  "//______": 38161,
  "/:": 31833,
  "/://...//": 31845,
  "/://../": 31837,
  "/://./": 31839,
  "/;": 18155,
  "/;(": 31838,
  "/;(=.(,\"\"),": 49902,
  "/<\\[^>]*>": 31843,
  "/=": 6713,
  "/=(": 31836,
  "/=)": 45551,
  "/=,": 45552,
  "/=_": 29972,
  "/>": 3628,
  "/?": 31834,
  "/?=": 19599,
  "/?=_": 48226,
  "/[": 7960,
  "/[/]": 45929,
  "/[\\": 6947,
  "/[^[\\]]+(?=])/": 14334,
  "/\\": 1817,
  "/\\/,\"\")": 15025,
  "/\\/,\"\"));-": 15622,
  "/]": 5705,
  "/^": 9338,
  "/_": 9339,
  "/_.[/]": 46397,
  "/_/-/.": 46398,
  "/_?=": 46396,
  "/__": 4029,
  "/__',": 5035,
  "/__][/_": 24149,
  "/___": 4898,
  "/___',": 5038,
  "/___)}%": 29685,
  "/____": 6823,
  "/{_}": 21764,
  "/}}": 4677,
  "/ØĮ": 31835,
  "0": 16,
  "00": 635,
  "000": 1542,
  "0000": 3420,
  "00000": 4884,
  "000000": 6585,
  "00002453": 43758,
  "0001": 41205,
  "00010101": 28357,
  "000137": 41208,
  "0003": 41206,
  "00031": 20922,
  "00047": 41207,
  "0007980": 41209,
  "001": 10321,
  "0011244828": 46654,
  "001160": 26955,
  "001200": 37211,
  "0013": 37198,
  "0014": 37199,
  "002": 5009,
  "00201": 37210,
  "0022": 37197,
  "00221": 37209,
  "00273715": 26956,
  "0028": 37200,
  "003": 37195,
  "0032": 37203,
  "00320200908": 37215,
  "00322": 37208,
  "0034": 37204,
  "004": 37196,
  "0040": 37201,
  "004060": 37214,
  "004200": 37213,
  "0045": 26951,
  "005": 22929,
  "0050": 37202,
  "00501": 26954,
  "0054": 26952,
  "006": 12375,
  "00606": 37212,
  "0061": 22931,
  "0067": 26950,
  "007": 16128,
  "007292": 30671,
  "008": 10771,
  "0082": 37206,
  "0083": 37207,
  "0085753": 46782,
  "0086": 26953,
  "00879": 46781,
  "0088018": 37216,
  "009": 22930,
  "0090": 16129,
  "009201020112012": 48712,
  "0095": 37205,
  "01": 1930,
  "010": 31852,
  "0103": 31865,
  "0104": 31866,
  "011214": 42100,
  "0125": 15783,
  "013": 21765,
  "01319": 31026,
  "014": 21766,
  "0140": 31864,
  "01436598": 48574,
  "0147": 31863,
  "015": 13096,
  "01534": 47149,
  "01552470211": 21565,
  "016": 6593,
  "01608387": 21417,
  "01608387098": 21714,
  "0167399": 45502,
  "016757": 45501,
  "017": 4380,
  "01705": 29577,
  "01710286369": 44387,
  "01711": 29575,
  "0171269": 17973,
  "01712692220": 18139,
  "01715": 21308,
  "01716145981": 44389,
  "0171919": 29579,
  "01719198836": 31486,
  "017192037": 44388,
  "017218": 44385,
  "01722038328": 44391,
  "01730169": 29581,
  "01730169555": 31488,
  "01731": 44381,
  "0173646": 29580,
  "01736461937": 31487,
  "01747738": 29582,
  "01747738999": 31489,
  "01752": 29576,
  "01757": 21309,
  "017636": 24180,
  "01763678221": 24786,
  "01764299": 44390,
  "017689": 44386,
  "017750": 44384,
  "01776": 15248,
  "01787": 29578,
  "01791": 44382,
  "01798": 44383,
  "018": 9340,
  "01815154": 30280,
  "01815154000": 31568,
  "018173591": 46402,
  "01817721646": 30281,
  "01819": 18055,
  "01819082898": 47949,
  "01821713": 30279,
  "01821713588": 31567,
  "018426": 31876,
  "01844": 46399,
  "01855597712": 46401,
  "0188824": 46400,
  "019": 11361,
  "01917": 46869,
  "01917834571": 46875,
  "01929": 46870,
  "0194": 18158,
  "01943589": 19514,
  "01943589243": 19559,
  "01944855": 46874,
  "01958": 30393,
  "01970": 31867,
  "01972": 46872,
  "019839": 46873,
  "019970524": 24486,
  "01997052402": 24810,
  "01999": 46871,
  "02": 1372,
  "02001200": 40711,
  "0208": 24908,
  "0208333333333333": 31182,
  "021": 19602,
  "0210": 40708,
  "021323047": 48228,
  "0218": 31868,
  "02202": 40710,
  "02205": 40709,
  "022056": 40712,
  "025": 21768,
  "0255": 21771,
  "026": 31853,
  "027": 21767,
  "0272775718300": 48575,
  "028": 18156,
  "0286": 47975,
  "029": 6236,
  "02930": 45359,
  "03": 1937,
  "030": 16729,
  "030105": 47738,
  "031": 6156,
  "031327": 42107,
  "0317": 42106,
  "032": 11362,
  "0322": 42105,
  "033": 24904,
  "0339": 24909,
  "033909": 31183,
  "034": 31859,
  "035": 31854,
  "0355": 31869,
  "035537": 49908,
  "037": 31855,
  "03737": 49907,
  "0393": 31874,
  "04": 2154,
  "040": 14335,
  "0400": 17856,
  "0401": 31870,
  "04022": 19480,
  "040654": 47420,
  "041": 24907,
  "0415": 16542,
  "0415864852": 18117,
  "042": 14336,
  "043": 21770,
  "044": 24903,
  "045": 24906,
  "046": 15782,
  "0466": 31871,
  "047": 31857,
  "048": 24905,
  "04868": 49057,
  "0489": 31873,
  "05": 2010,
  "050": 21769,
  "0505": 14337,
  "051": 31861,
  "051214": 42244,
  "0516": 28704,
  "052": 31858,
  "052651": 12507,
  "053": 31862,
  "0554": 31872,
  "057854": 31877,
  "059": 19603,
  "05992": 42243,
  "06": 1836,
  "060": 18157,
  "0604": 24910,
  "06140": 41884,
  "0618": 41883,
  "0619": 41882,
  "062": 41879,
  "064": 28585,
  "065": 28586,
  "066": 41880,
  "069": 41881,
  "07": 1888,
  "070": 31856,
  "0700": 19142,
  "0709": 28634,
  "070911": 49429,
  "0713": 41995,
  "072": 19141,
  "074": 23757,
  "07497": 41996,
  "075": 23758,
  "075254": 48828,
  "077078": 41997,
  "079": 31860,
  "08": 1982,
  "0811": 42171,
  "081513": 42175,
  "082898": 42176,
  "083": 23783,
  "08387": 21013,
  "084": 28689,
  "085": 42170,
  "08610": 42174,
  "0871": 42172,
  "0885": 31875,
  "0896": 42173,
  "09": 878,
  "090": 4050,
  "09000": 38525,
  "09001": 14027,
  "0902445": 29515,
  "0903": 38528,
  "0905": 38529,
  "0906": 38526,
  "0907": 38527,
  "09081": 44219,
  "0909": 38521,
  "091": 6774,
  "0919": 38522,
  "092": 5282,
  "0920": 38520,
  "09201250": 38531,
  "09251": 38530,
  "093": 6897,
  "0938": 14787,
  "094": 6556,
  "0940": 38523,
  "0944": 38524,
  "095": 11947,
  "096": 6371,
  "0960": 27440,
  "09609": 29925,
  "0964": 13416,
  "097": 4178,
  "0970": 27439,
  "097086": 49279,
  "098": 3657,
  "0981": 8058,
  "09812069": 30132,
  "0982": 6898,
  "0983": 6899,
  "0985": 5896,
  "09854": 21250,
  "0986": 8669,
  "0987": 8449,
  "09876270": 46096,
  "0988": 13415,
  "0989": 8672,
  "099": 3929,
  "0990": 10473,
  "09903": 19436,
  "0993": 8670,
  "0994": 13417,
  "0995": 8668,
  "0996": 13418,
  "0997": 8671,
  "0998": 12417,
  "0999": 8667,
  "0à§§": 31851,
  "1": 17,
  "10": 836,
  "100": 2997,
  "1000": 5302,
  "10000": 29181,
  "1000000": 43362,
  "1002": 21182,
  "100224": 43363,
  "100393": 43364,
  "1005": 29180,
  "1006": 43360,
  "1007": 12538,
  "1009": 43361,
  "101": 4347,
  "1010": 12415,
  "10101": 27372,
  "10110210": 44353,
  "101111": 38350,
  "101112": 38351,
  "10144": 38349,
  "1015": 23150,
  "1015120347506": 31076,
  "10151203475068053": 31645,
  "10154": 27373,
  "1015411369": 31299,
  "10154113693553980": 31669,
  "1016": 16203,
  "10168": 38348,
  "1017": 16202,
  "1018": 7861,
  "101980": 38352,
  "102": 5279,
  "1020": 14777,
  "10201250": 38354,
  "102021": 38335,
  "102030": 47485,
  "1021": 27366,
  "10210": 38347,
  "10215": 38346,
  "1022": 7860,
  "1022218": 45909,
  "1023": 23151,
  "10286369": 38353,
  "103": 5681,
  "1030": 12871,
  "1030748": 47109,
  "1031": 38336,
  "1031141": 45085,
  "103144": 21384,
  "1032": 38337,
  "10323": 45084,
  "1032430": 45086,
  "1035": 38333,
  "1037": 38334,
  "1038": 27367,
  "10399": 19369,
  "104": 7206,
  "10400": 38345,
  "105": 4429,
  "105106": 44430,
  "1053": 23154,
  "1055": 23152,
  "1056": 38338,
  "10588": 44429,
  "106": 8232,
  "1061": 7862,
  "1062": 38340,
  "1063": 27369,
  "1068": 38339,
  "107": 3985,
  "107108": 44168,
  "1071323": 13608,
  "1073": 38342,
  "107374": 44169,
  "1074": 38343,
  "10748": 44166,
  "10749526": 44170,
  "1075": 23155,
  "1075298": 48746,
  "1075302": 48745,
  "10760": 44167,
  "1078": 27368,
  "1079": 23153,
  "107981": 31077,
  "108": 4005,
  "1080": 20581,
  "1081616": 44182,
  "1083": 23157,
  "1088": 20582,
  "10880": 38344,
  "1089": 23156,
  "10892": 44181,
  "108949996": 15221,
  "1089499963040938": 15656,
  "108949996304093815163": 15757,
  "108978": 48747,
  "109": 5959,
  "1091": 38341,
  "1093": 27370,
  "10961": 45228,
  "1097": 27371,
  "11": 905,
  "110": 8319,
  "1101": 31880,
  "1101063": 46068,
  "1102": 31882,
  "1105": 31881,
  "11053647": 49909,
  "1108": 7766,
  "1109": 31883,
  "111": 4243,
  "1111": 16223,
  "1112": 20633,
  "1113": 38676,
  "11139401": 38700,
  "111999": 38699,
  "112": 8524,
  "11204": 38695,
  "11214": 19416,
  "1121996": 46139,
  "1122": 20632,
  "11221945": 48351,
  "112222": 38689,
  "1123": 31878,
  "1125": 31879,
  "1128": 16730,
  "113": 7718,
  "1130": 17310,
  "11321": 38694,
  "1133": 20634,
  "11331": 30902,
  "11339": 38697,
  "11353": 38698,
  "1136": 38678,
  "11369": 27518,
  "1139": 38680,
  "114": 6901,
  "1141": 38683,
  "114115": 45641,
  "1144": 27516,
  "114514": 7557,
  "115": 8240,
  "1150": 38677,
  "1151": 38686,
  "115222": 46039,
  "1153": 27517,
  "1155": 23223,
  "115555": 31078,
  "1156": 38682,
  "1158": 4274,
  "11586000": 44315,
  "1159": 18893,
  "11593782": 19528,
  "116": 5235,
  "1160": 23224,
  "11609": 44866,
  "116094": 9309,
  "1161": 7867,
  "116117": 44868,
  "11643": 44867,
  "1168": 38685,
  "117": 6374,
  "1170": 38679,
  "1172": 38687,
  "1172173": 45420,
  "1174": 38692,
  "1179": 38684,
  "118": 3422,
  "1181191": 43759,
  "1184": 38690,
  "1186": 38688,
  "1188": 38681,
  "1189": 38693,
  "119": 10480,
  "1191": 38691,
  "119202": 46685,
  "1198": 20635,
  "1198601": 30903,
  "1199": 27515,
  "11999": 38696,
  "12": 871,
  "120": 3220,
  "1200": 14786,
  "12008": 38497,
  "1201": 43581,
  "12019": 21772,
  "120200908": 29269,
  "1203": 6807,
  "120347506": 29994,
  "12044120200908": 43584,
  "12047934": 29270,
  "1205": 21203,
  "1206": 19278,
  "1207": 24049,
  "1209": 43582,
  "120971": 43583,
  "121": 8447,
  "1210": 27426,
  "1211": 38479,
  "12113": 38496,
  "1212": 12878,
  "1213": 38480,
  "12130": 38493,
  "1214": 18872,
  "1215": 7555,
  "1216": 12879,
  "1217": 18871,
  "1219": 27427,
  "121932": 49278,
  "122": 3596,
  "12209": 38495,
  "122521": 24106,
  "1226": 43917,
  "1229": 7921,
  "123": 4176,
  "1230": 7865,
  "123124": 44281,
  "1232211": 44282,
  "1233": 38483,
  "1234": 27430,
  "12341990": 31300,
  "12345": 19319,
  "123456789": 48155,
  "1236": 5015,
  "1237": 27428,
  "1239": 27429,
  "124": 6896,
  "1240": 38482,
  "12406": 38499,
  "1241": 38485,
  "1242": 23190,
  "1244": 7716,
  "1244828": 45874,
  "1246": 23189,
  "12487": 38498,
  "125": 4177,
  "125126": 44283,
  "1256": 23191,
  "125630": 48748,
  "126": 4824,
  "126255": 21345,
  "1264": 23192,
  "1265": 38487,
  "1268": 23193,
  "1269": 17298,
  "12697": 38494,
  "127": 5816,
  "1271010": 45163,
  "127128129": 45164,
  "12722": 27431,
  "1272258": 31301,
  "1278": 38486,
  "128": 3928,
  "1280": 38481,
  "128129": 44131,
  "1283": 38492,
  "1284": 23194,
  "1286": 38489,
  "1288": 38484,
  "129": 7208,
  "1291144": 45735,
  "1292": 38488,
  "1293": 38490,
  "12948": 45734,
  "1298": 38491,
  "13": 1053,
  "130": 5438,
  "1300": 17541,
  "1301": 17543,
  "1301311321": 44972,
  "1303": 39358,
  "1304": 27757,
  "1305": 23345,
  "1307": 27754,
  "1308": 39359,
  "131": 5820,
  "131015": 39365,
  "131078": 39366,
  "1311321": 39368,
  "1312": 12033,
  "13123872723": 15515,
  "1312805": 46921,
  "1314": 17542,
  "13141516": 47835,
  "131512": 39369,
  "1316": 8068,
  "132": 11039,
  "132019": 39363,
  "132179": 39367,
  "1322": 27749,
  "132280322": 49332,
  "1323": 11040,
  "132322323213": 46839,
  "132342": 46838,
  "1325": 27750,
  "1325362359": 49333,
  "1326": 39347,
  "1327": 39345,
  "1328": 39344,
  "1329": 39346,
  "133": 8067,
  "1333": 27751,
  "1334": 39354,
  "1337": 39348,
  "1339": 39351,
  "13398": 39364,
  "134": 5288,
  "1340": 6781,
  "1341": 27753,
  "1343": 39353,
  "1344": 39349,
  "1345": 23344,
  "1347": 23343,
  "13477579485": 24751,
  "135": 7878,
  "1350": 23342,
  "135136137138": 45917,
  "1355": 27752,
  "136": 6213,
  "1361": 39355,
  "1361298": 45351,
  "136137138": 45352,
  "1363": 18936,
  "1365": 39357,
  "137": 5821,
  "1370": 39350,
  "1371": 23346,
  "137138": 45168,
  "1375": 39361,
  "13750": 45167,
  "1378": 39356,
  "138": 6131,
  "138134": 29890,
  "13813457209": 49594,
  "1381345740907": 49595,
  "13852": 45314,
  "1388": 39352,
  "139": 8911,
  "1391": 39362,
  "13914014114": 46293,
  "1392": 27755,
  "1393": 27756,
  "139401": 30244,
  "1395": 39360,
  "1395868": 18051,
  "13958681640745950": 18142,
  "14": 1061,
  "140": 5389,
  "1400": 27794,
  "1401": 23376,
  "14014114": 44940,
  "1402": 39498,
  "1403": 20731,
  "1405": 39506,
  "14053373": 44941,
  "141": 7565,
  "1410": 7879,
  "14114": 39513,
  "1414": 27795,
  "1419": 39495,
  "142": 9901,
  "1422": 39493,
  "14224": 39511,
  "1424": 39494,
  "14243": 39510,
  "1425": 39497,
  "143": 4245,
  "14300": 39509,
  "143046": 39514,
  "1432213": 44301,
  "144": 7730,
  "1440": 39496,
  "1441": 20730,
  "144121": 30097,
  "144145146": 45879,
  "14420": 19403,
  "1443": 20729,
  "14432756736": 21677,
  "1445": 39500,
  "144506": 45878,
  "1449": 39499,
  "145": 5289,
  "145146": 44887,
  "1454": 39501,
  "1455": 27796,
  "145536": 31328,
  "1459": 27797,
  "145981": 31329,
  "146": 12034,
  "1463": 27798,
  "1464": 39503,
  "1468": 39504,
  "14681": 27800,
  "147": 4026,
  "14708": 39512,
  "147147": 14216,
  "147148": 44201,
  "1473": 23377,
  "14736": 44200,
  "1477": 39505,
  "1479": 39502,
  "148": 5963,
  "149": 5190,
  "14915015115": 44851,
  "1493": 39507,
  "1494": 18944,
  "1494312": 44850,
  "1496": 27799,
  "1497": 39508,
  "14987": 44849,
  "15": 996,
  "150": 4607,
  "1500": 39110,
  "15000": 27670,
  "15015115": 44548,
  "1502": 39120,
  "1503": 8065,
  "151": 5901,
  "1511": 39113,
  "15115": 39134,
  "1512": 39112,
  "15127": 39131,
  "1513": 39115,
  "15148": 23311,
  "1515": 23306,
  "151519": 48758,
  "15154": 27675,
  "1516": 23307,
  "15163": 14839,
  "1517": 27667,
  "151702": 31319,
  "1518": 39114,
  "152": 5436,
  "15200": 7220,
  "1520082975159": 7323,
  "1522": 39111,
  "1523": 23308,
  "152320200908": 48759,
  "1525": 39117,
  "15256": 39135,
  "15269": 27676,
  "1527": 27668,
  "1527970": 49320,
  "15280": 39132,
  "15283": 39133,
  "152899": 39136,
  "1529": 39116,
  "15293": 23312,
  "153": 7561,
  "153148": 45820,
  "153220": 39137,
  "1533": 39121,
  "1534": 27671,
  "1534131078": 49323,
  "1535": 39119,
  "1539": 39123,
  "154": 5683,
  "1541": 20692,
  "154155": 45087,
  "154277179": 45088,
  "1547": 39122,
  "155": 8686,
  "15520": 46195,
  "1552881": 46196,
  "15547666": 24420,
  "1558": 39125,
  "1559": 17404,
  "156": 7873,
  "1560": 39124,
  "1561": 39126,
  "156157158": 45914,
  "1562": 27673,
  "15622970701227829": 45913,
  "1563": 20693,
  "1568": 39127,
  "157": 4929,
  "1570": 27669,
  "1570219167": 49322,
  "1570491": 49321,
  "1571172": 44713,
  "157153": 14231,
  "157153147147": 14280,
  "157158": 44712,
  "1573": 39129,
  "15739278": 44714,
  "1574": 39130,
  "1577": 23309,
  "158": 9896,
  "1581": 17405,
  "1584": 27674,
  "1587": 39128,
  "1588": 4930,
  "15887674795": 5040,
  "1588767479536": 5041,
  "15888": 44715,
  "158899": 44716,
  "159": 4349,
  "159160": 44354,
  "1592895": 44355,
  "1593": 27672,
  "15944200": 9300,
  "1597050765": 44356,
  "1598": 23310,
  "1599": 39118,
  "16": 1065,
  "160": 5017,
  "1600": 20736,
  "16000": 39544,
  "1601": 39552,
  "160180": 44754,
  "1603": 23388,
  "160350": 44755,
  "1604": 39555,
  "1606": 27809,
  "16075": 39564,
  "1608": 39553,
  "1609": 39532,
  "16098": 39559,
  "161": 11043,
  "16101": 39560,
  "1611139401": 39566,
  "16114": 39562,
  "16116": 39561,
  "16121": 20738,
  "1614": 39535,
  "16145981": 39565,
  "1615": 23384,
  "161596681": 31083,
  "1616": 27806,
  "1618": 27805,
  "1619": 39534,
  "162": 4638,
  "1620": 39531,
  "16219": 27813,
  "1624": 39533,
  "1625": 39537,
  "1626": 23385,
  "1626497": 48776,
  "1628": 39536,
  "163": 6782,
  "1630": 17556,
  "1630283": 47841,
  "1630720090": 19505,
  "1633": 27808,
  "1634": 39548,
  "163466": 45586,
  "1635": 39538,
  "1637": 39542,
  "164": 6132,
  "1640": 17557,
  "1640745950": 18132,
  "1641241": 45316,
  "164165": 45315,
  "1641772": 45317,
  "1642": 39547,
  "1644": 27807,
  "1646": 39541,
  "1647": 39545,
  "1648": 39543,
  "1649": 23386,
  "165": 8456,
  "1650": 39539,
  "16536772": 46101,
  "1654": 39549,
  "1655": 39546,
  "1657": 39540,
  "166": 7881,
  "16615": 45919,
  "166167": 45920,
  "1662": 39556,
  "1662166": 45921,
  "1662598": 45922,
  "1664": 23387,
  "167": 8457,
  "16705": 27814,
  "1674": 27812,
  "1676": 20737,
  "1677": 39550,
  "1679": 27810,
  "168": 6133,
  "1681": 39551,
  "168169": 45318,
  "1684": 27811,
  "1685": 39557,
  "1686": 16356,
  "168822": 39563,
  "1689": 39558,
  "169": 6908,
  "16900031": 21429,
  "1693": 39554,
  "16937": 45653,
  "169375": 45654,
  "17": 1057,
  "170": 6907,
  "1700": 39400,
  "17017": 39420,
  "17048358": 45652,
  "170487": 45651,
  "1707": 23356,
  "1708": 39416,
  "1709": 39401,
  "171": 17548,
  "17120": 39419,
  "17175": 39424,
  "1718": 27765,
  "171819": 27770,
  "1718192021": 31325,
  "171819202122232425": 49859,
  "17189": 39423,
  "172": 9900,
  "1720200908": 13455,
  "172467": 39422,
  "1725": 39405,
  "1727": 39402,
  "17270": 39425,
  "172737": 39427,
  "173": 4781,
  "1730": 39403,
  "1732216": 44625,
  "173591": 39428,
  "1736": 39407,
  "174": 13454,
  "1740": 39404,
  "1741": 39412,
  "174175176177": 47230,
  "174312": 20716,
  "1744": 39408,
  "1747": 39409,
  "175": 11042,
  "1750": 27766,
  "175176177": 46840,
  "1756": 39411,
  "1757": 39406,
  "1758": 23355,
  "176": 5387,
  "1760": 39410,
  "176177": 44939,
  "1763": 39417,
  "17689": 39426,
  "177": 9210,
  "1772": 39415,
  "17721646": 30265,
  "1774": 27768,
  "17756": 46374,
  "1777": 39413,
  "17770": 39421,
  "178": 6664,
  "1780": 20715,
  "1781": 39414,
  "17814": 45528,
  "178179": 45529,
  "1782": 39418,
  "17834571": 45530,
  "1786": 27767,
  "1787": 23357,
  "1789": 27769,
  "179": 17549,
  "18": 983,
  "180": 3691,
  "1800": 39020,
  "18008": 14823,
  "180145": 7285,
  "18014517": 7330,
  "18018118": 43968,
  "180266": 43967,
  "1803": 39039,
  "180463647": 43969,
  "1809": 17348,
  "181": 8247,
  "18110749526": 46040,
  "181155": 39051,
  "18118": 39045,
  "1812": 39021,
  "1813": 27636,
  "18132648": 49300,
  "181395": 49299,
  "181401": 39052,
  "18156": 39050,
  "1817": 39022,
  "1819": 20684,
  "182": 7724,
  "1823": 27637,
  "1825": 18912,
  "18258716121": 21637,
  "1826": 39024,
  "18280": 39049,
  "183": 9894,
  "1830": 39023,
  "18300": 39044,
  "1832": 39032,
  "18322": 39047,
  "1833": 39028,
  "18340": 20687,
  "1835": 39025,
  "1836": 20685,
  "1837": 39027,
  "1838": 39030,
  "184": 6779,
  "184185186187": 45585,
  "1842": 39034,
  "18426": 29985,
  "184305": 45584,
  "18477": 39053,
  "1848": 39029,
  "1849": 27640,
  "185": 6562,
  "1850": 27638,
  "1850431985": 49302,
  "185073": 49301,
  "185186187": 45483,
  "1854": 8248,
  "1855": 39031,
  "1857": 39026,
  "1858": 23298,
  "186": 4637,
  "1860": 39033,
  "186097": 44569,
  "186187": 44570,
  "1864": 39037,
  "1865": 27641,
  "18650085753": 49303,
  "1867": 20686,
  "1867665797": 30905,
  "1868": 23300,
  "1869": 23299,
  "187": 7725,
  "1870": 27639,
  "1874": 39043,
  "18747": 27642,
  "187472": 31312,
  "18750": 39048,
  "1876": 23302,
  "1878": 39035,
  "1879": 39036,
  "188": 8063,
  "188108": 45977,
  "188157153147147": 18041,
  "18818": 39046,
  "1882": 39041,
  "1886": 39040,
  "189": 9536,
  "1890": 39038,
  "1891": 23301,
  "1896": 39042,
  "1899": 23297,
  "19": 977,
  "190": 5962,
  "1900": 23271,
  "1901": 38955,
  "19016": 45229,
  "1903": 38956,
  "1904": 18910,
  "1906": 38954,
  "1908": 23284,
  "1909": 38942,
  "191": 13437,
  "1911": 27610,
  "191120200908": 49289,
  "19119": 38970,
  "19122": 38962,
  "19123": 27622,
  "1913": 38944,
  "1914": 38945,
  "191503": 38969,
  "19184": 38966,
  "1919": 20670,
  "192": 12895,
  "192020": 38961,
  "192037": 38973,
  "1921": 23273,
  "19216": 38964,
  "1922": 23272,
  "1923": 17343,
  "1924": 38943,
  "1926": 38946,
  "1927": 23275,
  "192887": 27623,
  "1928874627279": 31310,
  "1928874627279097": 31674,
  "1929": 27611,
  "193": 7216,
  "1931": 38951,
  "19322": 38963,
  "1933": 38948,
  "1934": 23280,
  "1935": 38947,
  "1937": 20672,
  "1938": 38950,
  "19384": 38972,
  "1939": 20675,
  "19393": 48357,
  "194": 8908,
  "1940": 20671,
  "194050": 48356,
  "1941": 17344,
  "194195196197198": 46292,
  "1944": 20673,
  "1945": 23279,
  "1947": 38949,
  "1948": 20674,
  "1949": 23278,
  "195": 7871,
  "1950": 23276,
  "1950647031": 48751,
  "195196197198": 45912,
  "1953": 27618,
  "1954": 27614,
  "1955": 38952,
  "1956": 23281,
  "19564": 38971,
  "19575": 38968,
  "1958": 27612,
  "1959": 14051,
  "195920": 15545,
  "196": 7217,
  "1961": 27613,
  "196197198": 45736,
  "1963": 27619,
  "1966": 38958,
  "1967": 23277,
  "1969": 27616,
  "1969197719781979": 49290,
  "197": 7037,
  "1970": 7872,
  "19709": 38965,
  "1971": 14052,
  "197198": 45696,
  "1972": 23283,
  "1973": 8683,
  "1974": 20679,
  "1976": 38960,
  "1977": 23282,
  "197719781979": 48752,
  "1978": 20676,
  "19781979": 48358,
  "1979": 27615,
  "198": 12434,
  "1980": 23274,
  "19801981198": 48750,
  "1981": 27617,
  "1981198": 47006,
  "1983": 17347,
  "1984": 23289,
  "1985": 23290,
  "198519861988": 48755,
  "1986": 23286,
  "19861": 38967,
  "19861988": 48754,
  "19867686": 47007,
  "1987": 38959,
  "1988": 38953,
  "1989": 27621,
  "199": 6906,
  "1990": 17345,
  "199019921993": 47826,
  "1991": 20678,
  "199119": 45647,
  "1992": 23285,
  "199200201": 48753,
  "19921993": 45648,
  "1993": 23287,
  "199371020": 45649,
  "1994": 20677,
  "19941995": 48359,
  "1995": 38957,
  "1995323": 45650,
  "1996": 17346,
  "19961997": 47827,
  "19964": 45646,
  "1997": 23288,
  "1998": 27620,
  "1998199920002001200": 49291,
  "1999": 18909,
  "199920002001200": 48098,
  "2": 18,
  "20": 667,
  "200": 2116,
  "2000": 7767,
  "20002001200": 42385,
  "2001": 17849,
  "2002": 17850,
  "2003": 23845,
  "2003020": 42384,
  "2004": 19177,
  "200406": 42383,
  "2005": 13560,
  "2006": 11128,
  "2007": 8493,
  "2007112222": 46132,
  "200720082": 42387,
  "2008": 12513,
  "200805": 42382,
  "2009": 12092,
  "200901300": 42386,
  "200906140": 46938,
  "200908": 7254,
  "200910": 46937,
  "201": 9130,
  "2010": 8428,
  "20100": 37425,
  "201020112012": 46092,
  "2010373": 46091,
  "2011": 6644,
  "20110": 22965,
  "20110107": 48717,
  "20110323": 46352,
  "201108031": 48718,
  "201108081312805": 48719,
  "20112012": 45521,
  "2012": 8864,
  "20121122": 46263,
  "201250": 30232,
  "2013": 5514,
  "20132014": 44997,
  "2014": 6645,
  "20141113": 45522,
  "2015": 8215,
  "2015201620172018201920202021": 46022,
  "201523": 46021,
  "2016": 5232,
  "201620172018201920202021": 19350,
  "2017": 5380,
  "20172018201920202021": 18002,
  "2018": 4704,
  "2018201920202021": 17980,
  "2019": 2751,
  "201920202021": 17920,
  "202": 6367,
  "2020": 2410,
  "20200908": 8040,
  "202017": 42810,
  "202019": 28941,
  "20202": 28940,
  "20202021": 17889,
  "202021": 37418,
  "2021": 1527,
  "20210": 17220,
  "20210616": 47807,
  "2021071323": 13641,
  "20210713231720200908": 13690,
  "2021081616": 45416,
  "20210902": 47808,
  "20210904100": 47810,
  "202109081355": 47811,
  "20210914": 47806,
  "20210921": 47809,
  "20211": 23626,
  "202111": 17757,
  "202111022218": 48809,
  "20211108": 41147,
  "20211111": 41148,
  "20211112044120200908": 47861,
  "202111131015": 47859,
  "20211114": 47856,
  "202111181401": 47858,
  "2021112": 28339,
  "20211120100": 47857,
  "20211122222920200908": 47860,
  "20211127100320200908": 49396,
  "202111271010": 48807,
  "20211129043520200908": 49397,
  "202111291144": 48808,
  "2022": 5513,
  "20222023": 19357,
  "2022202320242025": 19547,
  "20222023202420252026": 48221,
  "2023": 7184,
  "2024": 17218,
  "20242025": 19502,
  "2025": 17219,
  "2026": 27027,
  "2027": 27025,
  "2028": 37415,
  "2029": 27026,
  "202938": 49238,
  "203": 7183,
  "2030": 37416,
  "2037": 27028,
  "203768": 49239,
  "204": 10780,
  "2048": 37419,
  "2049": 37420,
  "205": 6041,
  "2050": 37417,
  "2054": 37422,
  "2056": 37421,
  "205883": 45274,
  "2059": 8429,
  "206": 37414,
  "2063": 37424,
  "2069": 27030,
  "207": 8863,
  "20730": 37426,
  "2073220": 46262,
  "2078": 27029,
  "2078164": 49240,
  "207879943410": 49241,
  "208": 10781,
  "20832": 30378,
  "2083210760": 49679,
  "209": 5512,
  "2093220832": 44996,
  "2095": 37423,
  "2098": 27031,
  "20990": 37427,
  "20992": 37428,
  "21": 901,
  "210": 4576,
  "21028": 44515,
  "21032": 44516,
  "2105": 19604,
  "210529": 21658,
  "210924": 44517,
  "21094118": 44518,
  "211": 13420,
  "211214": 38646,
  "2115": 38623,
  "212": 7107,
  "212021": 38625,
  "2121": 30029,
  "2123": 31884,
  "213": 9527,
  "21320": 38631,
  "21322": 38643,
  "2134": 38629,
  "2138": 38626,
  "21399": 38644,
  "214": 9528,
  "214198": 46469,
  "2143": 38627,
  "215": 4520,
  "2151": 27496,
  "21521": 44485,
  "2153": 38634,
  "2158": 38628,
  "2159": 38630,
  "216": 5897,
  "216190": 45208,
  "2163": 38635,
  "21646": 29861,
  "2165": 38633,
  "2166": 38636,
  "217": 11016,
  "21707": 2959,
  "21713": 27497,
  "217188157153147147": 18070,
  "217276": 46834,
  "21728": 38639,
  "2173": 38640,
  "2174": 38641,
  "2179": 27494,
  "218": 9189,
  "2180": 38624,
  "2181": 27495,
  "21818": 23218,
  "218188157153147147": 24748,
  "21826": 46369,
  "2183": 38642,
  "219": 6456,
  "2190": 38632,
  "219167": 45438,
  "2193": 38637,
  "21933219": 45439,
  "2197": 38638,
  "2198": 20626,
  "219831984": 48349,
  "219852": 48348,
  "219858": 48347,
  "21993": 38645,
  "21996": 20627,
  "22": 768,
  "220": 3900,
  "220032": 37939,
  "2203": 8512,
  "22035265": 44100,
  "22037157": 44099,
  "22038328": 44101,
  "2208": 44097,
  "220994": 44098,
  "221": 6449,
  "2210": 27213,
  "221054": 49246,
  "2211": 37924,
  "22119": 37938,
  "2212": 37923,
  "2213": 37925,
  "2214": 27214,
  "221480": 49247,
  "221492": 49248,
  "2216": 37926,
  "222": 5748,
  "2220": 17262,
  "2222": 2083,
  "222221707": 2962,
  "22222239": 42353,
  "22222240": 28751,
  "2222224057": 31401,
  "2222277": 2961,
  "222227780": 2963,
  "22222920200908": 42354,
  "2222322": 42352,
  "2223": 27215,
  "22232425": 49249,
  "223": 9859,
  "2231322": 46542,
  "22315": 46541,
  "22323213": 46543,
  "2233": 37928,
  "2239": 27216,
  "2239334": 49250,
  "224": 6047,
  "2240": 23070,
  "224032238322": 48728,
  "22423": 45278,
  "2244": 37927,
  "2249": 37929,
  "225": 6281,
  "2255": 23071,
  "2259": 18818,
  "226": 9860,
  "2264": 37931,
  "22643226": 46544,
  "2268": 37932,
  "2269": 37930,
  "227": 10429,
  "22708": 37937,
  "2273": 37936,
  "22737344": 46672,
  "2277": 37934,
  "228": 5624,
  "22823228": 45052,
  "228800": 17263,
  "229": 13397,
  "2290": 37933,
  "2297": 37935,
  "22970": 27217,
  "2297070122": 31288,
  "22970701227829": 31668,
  "23": 1305,
  "230": 8320,
  "2307": 24400,
  "2308": 31885,
  "231": 4404,
  "2310": 40480,
  "231363": 19013,
  "2314": 40484,
  "2315": 40482,
  "2317": 40483,
  "231832": 40509,
  "23192": 20837,
  "232": 7046,
  "2321": 40481,
  "23213": 40506,
  "23219": 23535,
  "23219132179": 48796,
  "232273": 40508,
  "23228": 40503,
  "23233": 40504,
  "23274": 40505,
  "2328": 40485,
  "233": 6914,
  "2330": 40486,
  "2331": 40491,
  "23323233": 45658,
  "2333": 40488,
  "2334": 40494,
  "2336": 28113,
  "2337": 28115,
  "234": 10512,
  "2340": 14945,
  "2342971": 46691,
  "23456": 40507,
  "2346": 28114,
  "23461992": 49369,
  "2348": 40489,
  "2349": 40490,
  "235": 28112,
  "2355": 40492,
  "2359": 40495,
  "236": 13495,
  "2362": 40499,
  "2367": 40487,
  "2369": 40497,
  "237": 9230,
  "23722": 40502,
  "237390": 46376,
  "2374": 40501,
  "237598": 46377,
  "2378": 40496,
  "238": 16448,
  "2385": 40500,
  "23853213": 47655,
  "2388": 40493,
  "239": 12049,
  "2392": 40498,
  "24": 952,
  "240": 4636,
  "2400": 11021,
  "2403": 23253,
  "240400": 18900,
  "2406": 27566,
  "240650": 49283,
  "2407": 38826,
  "241": 6559,
  "24109": 9199,
  "2413": 38817,
  "242": 4890,
  "2420": 38816,
  "2422": 18899,
  "2425": 38820,
  "24280": 38834,
  "243": 5900,
  "2430": 38818,
  "2432222322": 45211,
  "243629": 38836,
  "24365": 38833,
  "2437": 38821,
  "2438": 38823,
  "244": 14045,
  "2440": 38819,
  "2441": 27565,
  "2445": 27564,
  "245": 6560,
  "245258": 45481,
  "2453": 38830,
  "2454": 38824,
  "2458824": 45482,
  "246": 23252,
  "24626": 38835,
  "2463": 23254,
  "2464": 38827,
  "24666": 27567,
  "2467": 8243,
  "247": 3895,
  "2470": 38822,
  "2472": 38829,
  "2473733": 44094,
  "2474": 38832,
  "2477": 38828,
  "2479": 38825,
  "248": 8907,
  "2482": 38831,
  "249": 17334,
  "249990": 27568,
  "25": 1257,
  "250": 4301,
  "250108": 44332,
  "25036": 44331,
  "2507": 40333,
  "25075": 40345,
  "251": 8078,
  "2510": 40322,
  "2511": 40323,
  "2515": 40324,
  "2516": 40325,
  "252": 11065,
  "252019": 40341,
  "252020": 40340,
  "2527": 40326,
  "25284": 40344,
  "253": 5966,
  "253100": 40346,
  "25316705": 45231,
  "25321521": 45232,
  "253251": 45230,
  "25338": 40343,
  "2536": 40328,
  "2537": 40329,
  "25390": 40342,
  "254": 11066,
  "2540": 28053,
  "2541": 40332,
  "2542": 40330,
  "2549": 28054,
  "255": 5967,
  "2550": 5574,
  "255055": 45033,
  "25545": 45233,
  "256": 14930,
  "2561": 40331,
  "2568": 40334,
  "257": 14110,
  "2573": 40337,
  "258": 12047,
  "2581": 40335,
  "2582": 40336,
  "2589": 40339,
  "259": 20814,
  "2590": 20815,
  "2598": 40338,
  "2599": 40327,
  "26": 1307,
  "260": 8267,
  "2600": 40512,
  "2607": 40525,
  "261": 8928,
  "2611": 40513,
  "2615": 40515,
  "26151702": 40542,
  "26152": 40534,
  "26159": 40533,
  "2618": 40514,
  "261867": 40539,
  "262": 16449,
  "262020": 40532,
  "2623": 40517,
  "2624365": 40543,
  "2626": 40518,
  "26268": 40536,
  "26272829": 40544,
  "2628": 40516,
  "2629": 28119,
  "263": 6915,
  "26378": 40537,
  "2639": 40520,
  "264": 8929,
  "26457": 46297,
  "2648": 40519,
  "265": 11067,
  "2651": 12472,
  "266": 5018,
  "2660": 40521,
  "2661": 40522,
  "2663": 40527,
  "266686666": 44756,
  "266787": 40541,
  "26696": 40538,
  "267": 6569,
  "2672": 28120,
  "2678": 40523,
  "2679": 40524,
  "26797": 40540,
  "268": 14947,
  "26824": 40535,
  "2686": 40528,
  "26869685": 47508,
  "2689": 40531,
  "269": 7888,
  "26911": 45925,
  "26913": 45927,
  "26919": 45926,
  "2692": 40526,
  "2693": 40529,
  "2694": 40530,
  "2698": 28121,
  "27": 1179,
  "270": 12926,
  "27045": 47123,
  "2707": 40005,
  "270944": 40012,
  "271": 13472,
  "2711": 40001,
  "2713": 27968,
  "27158": 40010,
  "2719": 40002,
  "272": 5824,
  "2720": 23467,
  "2721": 40000,
  "2722": 39999,
  "2723": 14098,
  "27279": 27971,
  "272829": 40013,
  "273": 11053,
  "2732": 17697,
  "27322": 27970,
  "2737": 20783,
  "273715": 24690,
  "27380": 40009,
  "274": 8920,
  "275": 12462,
  "2753": 40007,
  "2756736": 21552,
  "276": 7226,
  "2760": 27969,
  "2760168": 49355,
  "2761": 17698,
  "2764": 23468,
  "2765": 40006,
  "2767": 40003,
  "2769": 40004,
  "277": 2686,
  "277179": 43080,
  "27751": 29052,
  "2775718300": 43081,
  "277866": 40011,
  "278": 4145,
  "278019": 40014,
  "2784": 40008,
  "27882": 16425,
  "279": 14905,
  "28": 1101,
  "280": 6565,
  "2800": 39714,
  "2801927": 45487,
  "28025": 45484,
  "2802784": 45488,
  "2803": 27878,
  "28032": 45486,
  "28039": 45485,
  "2804": 27880,
  "2805": 39730,
  "2809": 27872,
  "280916": 49350,
  "281": 5290,
  "2811": 39716,
  "28112": 44888,
  "2812": 39715,
  "2813": 23418,
  "28161": 39739,
  "2817": 39717,
  "282": 4403,
  "282020": 39734,
  "2820200908": 39738,
  "28258": 39740,
  "2828": 27873,
  "282856": 49351,
  "2829": 39718,
  "283": 7417,
  "2830": 14893,
  "283082": 24569,
  "2835": 17679,
  "2838": 39720,
  "28380": 39736,
  "284": 20754,
  "2844": 27874,
  "2845": 27875,
  "28464": 39735,
  "285": 7883,
  "2852": 39724,
  "2853": 39729,
  "2853031": 45923,
  "2854": 39725,
  "2858": 39723,
  "28586": 39742,
  "28594": 39741,
  "286": 23417,
  "2860": 39722,
  "28636": 23420,
  "286369": 24754,
  "2864": 39727,
  "2868": 27876,
  "2869": 39726,
  "287": 16412,
  "2870": 39719,
  "2877": 27877,
  "288": 4783,
  "2881": 39728,
  "2887": 23419,
  "2887663": 48778,
  "2888": 39721,
  "2889": 39733,
  "289": 20755,
  "28932": 39737,
  "2895": 27879,
  "2897": 39731,
  "2898": 39732,
  "2899": 16413,
  "29": 1205,
  "290": 6138,
  "290000": 40085,
  "2901": 27992,
  "29049": 45320,
  "2905": 40078,
  "291": 16430,
  "2910": 40065,
  "291198": 40093,
  "291199": 40096,
  "2912": 18982,
  "29120": 12043,
  "291200": 40090,
  "291201": 46922,
  "291202": 46923,
  "291203": 40086,
  "291204": 46924,
  "291205": 30402,
  "291206": 30403,
  "291207": 30404,
  "291208": 30405,
  "291209": 30406,
  "291210": 30823,
  "291211": 30824,
  "29122": 23478,
  "291221": 48782,
  "291222": 48783,
  "291223": 48784,
  "29127281": 48105,
  "2913": 23477,
  "291397": 48781,
  "291398": 31086,
  "2918": 40066,
  "291919": 40094,
  "292": 17702,
  "292020": 40084,
  "2920200908": 40088,
  "2923": 40069,
  "2925": 27991,
  "292505": 31334,
  "2929": 40068,
  "293": 17703,
  "2931": 40074,
  "2932": 40076,
  "2932227322": 40098,
  "2935": 40070,
  "2939": 16431,
  "293929": 18114,
  "29394959": 47652,
  "294": 4969,
  "294200": 40095,
  "2944": 40071,
  "29440829": 44727,
  "2947": 40073,
  "2948": 40072,
  "295": 7227,
  "2955": 40075,
  "2956": 40077,
  "296": 40064,
  "296059": 40097,
  "29615": 40092,
  "2966": 40080,
  "29674": 40091,
  "297": 17704,
  "2971": 40081,
  "29786": 40087,
  "298": 9553,
  "2980": 40067,
  "2983": 40083,
  "2985": 40082,
  "2986": 40079,
  "299": 6911,
  "29928161": 45655,
  "29990": 40089,
  "2à§¦": 24911,
  "3": 19,
  "30": 1206,
  "300": 3096,
  "3000": 13097,
  "30000": 43446,
  "30010": 21187,
  "300111": 29210,
  "300381": 43447,
  "301": 18983,
  "301304": 28002,
  "30145": 28000,
  "30145095": 31335,
  "3015": 27994,
  "30169": 28001,
  "30172467": 40119,
  "3018": 40099,
  "302": 8262,
  "3020": 27993,
  "30210": 23481,
  "302102": 24756,
  "3028": 40100,
  "302956": 40120,
  "303": 6912,
  "3030": 27995,
  "3031": 27997,
  "3031323": 45656,
  "3032689": 45657,
  "3033": 27996,
  "3034": 40109,
  "3035": 20789,
  "3036": 40103,
  "3039": 20790,
  "303940": 48375,
  "303948": 48377,
  "303957": 48376,
  "303978": 48378,
  "304": 7570,
  "3040938": 15371,
  "3041": 40111,
  "304121": 45825,
  "304144": 45823,
  "304155": 45826,
  "3042": 40108,
  "30422": 40117,
  "304269": 45824,
  "304287": 45827,
  "304294": 45822,
  "3043": 20791,
  "304315": 48379,
  "304323": 48380,
  "304337": 48381,
  "3044": 40104,
  "304468": 45821,
  "3045": 40107,
  "3046": 13476,
  "304637": 47237,
  "304643": 47238,
  "3046689": 47239,
  "3047": 40106,
  "305": 23479,
  "3054": 40113,
  "3057": 40102,
  "3059": 40110,
  "306": 18984,
  "306323033": 48106,
  "307": 23480,
  "3070": 40105,
  "3072": 40114,
  "30728": 40115,
  "3078": 40112,
  "3079": 27998,
  "308": 7885,
  "3080": 40101,
  "3083": 40116,
  "3084": 27999,
  "30885": 40118,
  "309": 4226,
  "3090": 31889,
  "3093": 44297,
  "30à§¦": 14100,
  "31": 1592,
  "310": 31886,
  "3100": 28412,
  "3103": 31894,
  "3104": 24915,
  "3109": 24914,
  "311": 13700,
  "311500": 47261,
  "311676": 47262,
  "312": 7108,
  "313": 15784,
  "3130": 31893,
  "31323": 31900,
  "3134": 31891,
  "314": 15786,
  "315": 24912,
  "3150": 24913,
  "316": 19605,
  "3168": 31896,
  "317": 15785,
  "3176": 31892,
  "31785": 47566,
  "31787": 47564,
  "31790": 47563,
  "31796": 47565,
  "318": 7109,
  "31817": 45712,
  "3193": 31897,
  "3195": 18161,
  "3195360671": 24635,
  "3196": 24916,
  "31984": 31905,
  "32": 1618,
  "320": 1878,
  "320200908": 28620,
  "3205": 41957,
  "32050": 7248,
  "3207": 28619,
  "3208": 41958,
  "321": 5706,
  "3212": 41479,
  "32177321": 45101,
  "321953": 45100,
  "322": 5843,
  "3220": 23671,
  "3220832": 41481,
  "3221032": 45177,
  "3221232211": 45179,
  "3221432213": 45180,
  "3222": 31895,
  "32227322": 29846,
  "322322": 24294,
  "322323": 45173,
  "322343": 45175,
  "32238322": 45178,
  "3224": 45172,
  "322433": 45176,
  "3226": 29845,
  "322923": 45174,
  "323": 14339,
  "323033": 41480,
  "323047": 41482,
  "32335323323233": 47423,
  "3235432340": 47422,
  "323644": 47421,
  "324": 18159,
  "3248": 24919,
  "325": 16731,
  "3250": 31890,
  "3251": 31899,
  "3254": 21775,
  "3259887": 47739,
  "326": 9341,
  "3265014": 46403,
  "3269": 31898,
  "327": 19606,
  "3270": 31902,
  "3270014": 48230,
  "3272210": 48229,
  "3273": 31901,
  "328": 6594,
  "328031": 29953,
  "32810": 45503,
  "32817": 45504,
  "328359": 45505,
  "3287784": 45506,
  "329": 7333,
  "3290": 15788,
  "33": 1515,
  "330": 14338,
  "331": 28322,
  "33100": 41106,
  "33107": 41107,
  "33134": 41108,
  "332": 16476,
  "33219": 28325,
  "3321963219": 49392,
  "332197": 41110,
  "332249": 41109,
  "333": 41097,
  "3331": 41101,
  "3333": 8279,
  "333333": 46060,
  "33333333": 21472,
  "333333333333": 30973,
  "3335": 41098,
  "3336708": 41111,
  "334": 7047,
  "3341156": 45704,
  "3342679": 45705,
  "3343536": 45706,
  "3345": 28323,
  "3346": 41099,
  "3348": 41100,
  "335": 18160,
  "336": 5303,
  "336135": 11205,
  "337": 15787,
  "3375": 21774,
  "33754": 47568,
  "337580318": 24712,
  "33758031891": 24820,
  "33761": 47567,
  "338": 19066,
  "3381": 28324,
  "3385": 41104,
  "3388": 41102,
  "339": 12484,
  "3397": 41103,
  "3398": 41105,
  "339887": 47019,
  "34": 1754,
  "340": 6595,
  "3401": 45507,
  "341": 19114,
  "3413": 41759,
  "342": 8990,
  "3421": 41758,
  "34231363": 19116,
  "3423136311593782": 19533,
  "342678": 41762,
  "343": 19608,
  "344": 14340,
  "3440": 41760,
  "3442542": 47425,
  "3443": 47424,
  "3445": 24917,
  "3445398": 31184,
  "3446": 19115,
  "3447": 30598,
  "344750": 30599,
  "345": 31888,
  "3453": 24920,
  "3456": 31904,
  "34571": 28535,
  "346": 21773,
  "3462607": 48577,
  "3463": 48576,
  "3467": 31903,
  "347": 31887,
  "347309": 49910,
  "348": 9342,
  "349": 19607,
  "3491": 24918,
  "34936": 48231,
  "34947": 48232,
  "34956": 48233,
  "34982023": 48234,
  "3499": 41761,
  "35": 1321,
  "350": 5906,
  "3500": 40565,
  "35013": 29862,
  "3503": 40573,
  "351": 19018,
  "3512406": 40581,
  "351674": 28143,
  "3519": 40566,
  "352": 20843,
  "352020": 40576,
  "3520200908": 40578,
  "35221": 28142,
  "35265": 40579,
  "35272": 19020,
  "353": 14114,
  "35323323233": 47353,
  "3536": 40567,
  "354": 17730,
  "3540": 3018,
  "3542": 40570,
  "354445": 40580,
  "3545": 40569,
  "355": 9559,
  "3553980": 30297,
  "35544": 40577,
  "3558": 28140,
  "3558538": 49372,
  "356": 4673,
  "356307": 44594,
  "35648": 44593,
  "3569": 40571,
  "357": 6057,
  "3570": 40568,
  "3573": 40575,
  "35732": 45282,
  "358": 4674,
  "3581": 40572,
  "3589": 19019,
  "359": 14115,
  "3591": 28141,
  "3592": 40574,
  "359573": 47354,
  "36": 1403,
  "360": 14970,
  "3603": 40760,
  "360671": 24570,
  "3608871": 47512,
  "3609251": 40768,
  "361": 14121,
  "3613": 40751,
  "3615": 40750,
  "36166": 23578,
  "3618": 28209,
  "362": 7234,
  "362359": 40769,
  "3626": 40752,
  "3629": 28210,
  "363": 20863,
  "3632227322": 40767,
  "3636": 6671,
  "364": 16459,
  "36404": 40765,
  "3642": 28211,
  "3644": 40754,
  "3646": 23577,
  "364656667": 48804,
  "3647": 12476,
  "3648": 40756,
  "3649": 40757,
  "365": 5753,
  "3650": 40753,
  "365123": 7075,
  "3653": 40761,
  "36532": 29830,
  "3656": 40758,
  "36598": 40766,
  "366": 13500,
  "3665": 40759,
  "366564": 47240,
  "367": 19039,
  "3670": 40755,
  "36708": 40763,
  "36772": 40764,
  "368": 14122,
  "3685": 40762,
  "368675": 19478,
  "369": 14123,
  "36981": 47356,
  "36987": 47357,
  "37": 1459,
  "370": 14979,
  "3701": 14129,
  "3701002": 24555,
  "370102": 30628,
  "3701102": 24556,
  "3701202": 24557,
  "3702": 14980,
  "3702002": 24571,
  "3702102": 24572,
  "3702202": 30629,
  "3706": 40938,
  "371": 9937,
  "371020": 40942,
  "37157": 28265,
  "371572138": 49385,
  "371740": 40945,
  "3719861": 40944,
  "372": 17750,
  "3721": 40932,
  "37247": 40941,
  "373": 5970,
  "3730": 16472,
  "373085": 18115,
  "3732": 20889,
  "37329": 29870,
  "3733": 40935,
  "37344": 45234,
  "3735": 40933,
  "37367": 40943,
  "3738": 40937,
  "374": 12947,
  "3742": 23600,
  "3742102": 24758,
  "3743": 23601,
  "3743102": 24759,
  "3744": 40934,
  "3748": 40936,
  "375": 6299,
  "37518750": 45383,
  "3753": 20890,
  "375302": 24321,
  "375312": 30921,
  "375322": 30920,
  "376": 14128,
  "3763": 40939,
  "377": 16470,
  "3771874": 47661,
  "378": 16471,
  "3782": 19051,
  "3785": 40940,
  "379": 23599,
  "379011": 23602,
  "38": 1581,
  "380": 6076,
  "381": 14139,
  "3825": 41353,
  "383": 28401,
  "38322": 41361,
  "38328": 41363,
  "3837": 41354,
  "3838": 41355,
  "38399": 41362,
  "384": 23652,
  "3842": 19089,
  "3843": 41357,
  "3849": 23653,
  "385": 17765,
  "38560": 41365,
  "386": 11097,
  "3860": 41356,
  "3862": 41360,
  "3865034": 46847,
  "3865832": 46848,
  "387": 4055,
  "38705": 28403,
  "3870545": 31367,
  "387054560636": 49863,
  "3870545903033": 49864,
  "38705600": 28404,
  "3870560089698495": 31368,
  "3872723": 15228,
  "387339": 44222,
  "3877": 41359,
  "3878": 41358,
  "388": 28402,
  "38824": 41364,
  "389": 12951,
  "38935": 47128,
  "38949": 47129,
  "39": 1596,
  "390": 14140,
  "39029": 41398,
  "391074": 41408,
  "391130": 41404,
  "39199": 41399,
  "392": 6923,
  "392400": 41401,
  "39258": 41402,
  "39278": 41397,
  "393": 23659,
  "39384": 41406,
  "394": 23660,
  "39404": 41400,
  "396": 14141,
  "3964": 41396,
  "39675": 41403,
  "3967563": 41409,
  "39686": 41405,
  "397": 28415,
  "398": 17768,
  "3980": 28416,
  "39883": 41407,
  "399": 6318,
  "399615": 45387,
  "399669": 45386,
  "4": 20,
  "40": 1255,
  "400": 3677,
  "4000": 10596,
  "4008018": 43961,
  "401": 13484,
  "40138": 28050,
  "4015": 40303,
  "4018": 40302,
  "4019384": 40318,
  "40198": 40315,
  "402": 8925,
  "4021": 40301,
  "4022": 40300,
  "40220": 40311,
  "40240": 20813,
  "403": 20811,
  "4033": 40306,
  "40340": 28051,
  "403403": 31343,
  "403540": 40310,
  "404": 9227,
  "404200": 40317,
  "4044": 40305,
  "405": 7574,
  "4050": 40304,
  "40500": 40309,
  "4051599": 45828,
  "4055": 40307,
  "40557": 40312,
  "406": 18995,
  "4060": 23509,
  "406269": 48111,
  "40650": 48110,
  "407": 20812,
  "40747": 40314,
  "4081": 40308,
  "40829": 40313,
  "40868": 40316,
  "4088": 23508,
  "409": 13098,
  "41": 1818,
  "410": 24921,
  "4100": 28573,
  "410090": 41843,
  "4103": 31917,
  "41030": 24926,
  "41030290": 49059,
  "41030296": 49060,
  "411": 7612,
  "412": 18162,
  "4127": 31918,
  "413": 18163,
  "414": 31908,
  "415": 16732,
  "4159047": 47740,
  "416": 31909,
  "4166": 31920,
  "417": 19610,
  "4176": 31916,
  "418": 21776,
  "419": 19609,
  "42": 1645,
  "420": 31907,
  "4200": 20940,
  "42002": 41523,
  "4207": 18166,
  "4208": 31923,
  "42087070": 49911,
  "421": 14341,
  "4213": 31922,
  "4218": 31921,
  "422": 5251,
  "4220": 12493,
  "4222": 44872,
  "4224": 44873,
  "422745": 29724,
  "423": 15789,
  "423270": 47569,
  "4246": 31926,
  "425": 19611,
  "4250": 31914,
  "4251002": 48235,
  "4256612": 48236,
  "426": 31911,
  "4267": 31919,
  "428": 31910,
  "429": 18164,
  "43": 1672,
  "430": 21777,
  "4300000": 41579,
  "43099": 41577,
  "431": 16734,
  "4312": 19101,
  "43198": 23686,
  "431985": 41581,
  "432": 10182,
  "43226": 41580,
  "43250": 41578,
  "433": 24924,
  "4339": 31924,
  "434": 17783,
  "43410": 47868,
  "4342": 41576,
  "434891": 41582,
  "435": 31912,
  "4358": 31915,
  "436": 18165,
  "43680": 47976,
  "437": 24923,
  "43722": 49058,
  "438": 31913,
  "4381": 31925,
  "4389": 24927,
  "438918": 31185,
  "439": 12606,
  "44": 1468,
  "440": 16733,
  "440317": 47741,
  "4405878": 47742,
  "441": 28281,
  "44120200908": 40989,
  "441938": 40991,
  "442": 20896,
  "44200": 9245,
  "442244": 40990,
  "44244": 40985,
  "44253": 40982,
  "443": 40976,
  "443015": 28285,
  "44325": 40986,
  "44336": 40981,
  "44348": 40984,
  "4435": 28282,
  "444": 9244,
  "4445": 28283,
  "44454647": 49388,
  "444656": 40988,
  "445": 7577,
  "4451": 20897,
  "446": 7961,
  "446180": 19406,
  "44757": 40983,
  "4478": 40978,
  "44806": 28284,
  "44806102": 31353,
  "4484": 40980,
  "44855": 40987,
  "449": 40977,
  "4490": 40979,
  "45": 1569,
  "450": 8754,
  "45050584": 46232,
  "451": 41304,
  "4513": 16484,
  "4514": 7431,
  "45142": 45780,
  "45197": 41315,
  "452": 9943,
  "4521": 41305,
  "453": 12950,
  "4531": 41309,
  "4533": 41308,
  "454": 15003,
  "4540": 41306,
  "455": 6920,
  "4550": 41307,
  "4551": 41312,
  "4552": 41310,
  "4552207300": 41317,
  "4556": 41311,
  "4558": 28394,
  "4558161596681": 31366,
  "456": 19085,
  "4568": 28395,
  "4571": 24928,
  "458": 9944,
  "4582": 41314,
  "45904": 41316,
  "4592": 41313,
  "46": 1413,
  "460": 14971,
  "4600": 28216,
  "4600670": 49378,
  "460394": 47513,
  "461": 13501,
  "46100": 40797,
  "46123": 40798,
  "46174": 40802,
  "462": 40787,
  "462021": 40789,
  "46215": 40799,
  "4623": 28217,
  "462550": 40800,
  "4627279": 28222,
  "463": 40788,
  "4634": 40793,
  "463647": 40801,
  "464": 5292,
  "4642": 40792,
  "4647": 40790,
  "46487": 40804,
  "465": 20866,
  "46500": 40796,
  "4651130": 48395,
  "4656": 28218,
  "466": 14124,
  "4660": 40791,
  "4666": 40794,
  "467": 12942,
  "467300": 28221,
  "46749": 21563,
  "4677": 28219,
  "4677201": 49379,
  "4677237": 49380,
  "46798": 40805,
  "468": 2592,
  "46803": 40803,
  "4682767": 43022,
  "4689": 40795,
  "469": 28215,
  "46901": 40806,
  "4697": 28220,
  "469758635": 49381,
  "47": 1558,
  "470": 19612,
  "4700": 41286,
  "47045": 48237,
  "47094": 41290,
  "471": 14138,
  "471158": 7578,
  "47115865": 7606,
  "471593": 28387,
  "472": 41284,
  "4720": 23645,
  "4724": 28383,
  "473": 23642,
  "4733": 41287,
  "47350": 41289,
  "474": 23643,
  "47412": 41291,
  "474464": 48812,
  "4745": 41288,
  "475": 6674,
  "47506": 28384,
  "4757677": 41292,
  "476": 41285,
  "47666": 23647,
  "477": 23644,
  "47700": 23646,
  "47738": 28385,
  "478": 20928,
  "4781424": 48412,
  "47934": 28386,
  "4795": 4974,
  "48": 1538,
  "480": 4155,
  "480240": 44276,
  "4804015": 44278,
  "480868": 44277,
  "481": 5243,
  "481125": 44871,
  "4815256": 41193,
  "481677": 41194,
  "48180": 41188,
  "4823": 41183,
  "48279": 41191,
  "483": 8082,
  "48358": 41189,
  "483647": 13507,
  "4839": 41185,
  "484": 23629,
  "48484": 41192,
  "4849": 41184,
  "484992": 31098,
  "485": 7738,
  "4858": 41186,
  "486": 23630,
  "4862541": 48810,
  "487": 17760,
  "48712": 47862,
  "48746": 47863,
  "488": 41182,
  "4888": 7897,
  "489": 20921,
  "4891": 41187,
  "48930": 41190,
  "49": 1550,
  "490": 6063,
  "49002": 41226,
  "49014": 45287,
  "4901522": 45289,
  "49029": 45288,
  "491": 7739,
  "491477": 41233,
  "4921": 14998,
  "4922": 41221,
  "49237": 41228,
  "49269": 41227,
  "4929": 28368,
  "4930": 41222,
  "4936": 28369,
  "49363512406": 49401,
  "493640557": 49400,
  "49367": 41231,
  "494": 19078,
  "4948": 41223,
  "4950776": 41234,
  "49526": 41230,
  "49557": 41225,
  "4958": 28370,
  "495882": 41232,
  "4959": 20924,
  "496": 23634,
  "49611": 41229,
  "4962817": 48811,
  "4968": 14999,
  "4969": 23635,
  "497": 20923,
  "498": 41220,
  "4986": 41224,
  "499": 24922,
  "4990": 24925,
  "4à§ª": 31906,
  "5": 21,
  "50": 1357,
  "500": 2976,
  "5000": 10183,
  "5001": 43335,
  "500600": 43337,
  "5009": 43336,
  "501": 12054,
  "5014": 40642,
  "5015": 9234,
  "502": 23556,
  "50200": 40650,
  "50230": 40652,
  "5029": 40643,
  "503": 20851,
  "5030": 40644,
  "50319016": 48392,
  "50320": 40649,
  "5034": 40646,
  "504": 20852,
  "5047": 20854,
  "505": 9931,
  "5051": 28174,
  "5051525": 46573,
  "5056": 40647,
  "50584": 28176,
  "5058426": 49373,
  "50597": 40656,
  "506": 12940,
  "5060": 40645,
  "50606": 40654,
  "5069": 40648,
  "507": 16453,
  "5070": 23557,
  "507272": 47656,
  "5076": 28175,
  "5076327": 47657,
  "50765": 40653,
  "50776": 40651,
  "508": 20853,
  "50879": 40655,
  "509": 12186,
  "5097": 31933,
  "5097704": 49912,
  "51": 1942,
  "510": 5467,
  "5101": 31934,
  "51066": 44981,
  "5112": 42110,
  "5114": 31940,
  "5114276": 49916,
  "512": 12185,
  "51248": 46957,
  "51253": 46958,
  "513": 19613,
  "513287": 30867,
  "5135": 31942,
  "5135349": 48238,
  "5135455": 49917,
  "5138": 24935,
  "514": 13702,
  "5140": 24934,
  "514061": 31186,
  "5142": 21783,
  "515": 18167,
  "515275": 47977,
  "5152760": 47978,
  "5153331": 47980,
  "5156021": 47981,
  "5159988": 47979,
  "516": 24929,
  "51620992": 49061,
  "5168012": 49062,
  "5169": 31941,
  "517": 18168,
  "5177": 31943,
  "518": 13701,
  "5186": 31935,
  "519": 8525,
  "5194": 46140,
  "5195764": 46141,
  "52": 1739,
  "520": 16735,
  "52006": 41718,
  "5205814": 47743,
  "521": 13099,
  "5210": 28520,
  "5212": 16502,
  "52143": 47151,
  "52149": 47150,
  "5217": 31945,
  "521796781": 47152,
  "5219": 31939,
  "522": 21778,
  "5220": 20957,
  "52207300": 24691,
  "522073007": 48418,
  "5224592": 48578,
  "523": 18169,
  "5232165": 47983,
  "52328": 47982,
  "5236608": 47984,
  "5237": 31944,
  "5239": 31946,
  "5239109": 49918,
  "524": 5994,
  "5246651": 45257,
  "52470211": 21396,
  "525": 15790,
  "525994": 47570,
  "526": 16736,
  "5267614": 47744,
  "527": 19614,
  "527693": 48239,
  "5277": 31932,
  "528": 21779,
  "529": 19615,
  "5293650": 48240,
  "53": 1962,
  "53079": 31951,
  "5307932": 49922,
  "531": 31930,
  "5312": 42137,
  "532": 7613,
  "53213": 42142,
  "532180": 42143,
  "5322": 42136,
  "5323": 42138,
  "5324280": 42144,
  "533": 18170,
  "53311339": 47986,
  "5332935": 47987,
  "5333043": 47985,
  "5335": 28678,
  "53356": 42140,
  "53373": 42141,
  "534": 24933,
  "5349": 42139,
  "535": 24930,
  "5357": 31937,
  "5357505": 49914,
  "5367": 24936,
  "5367196": 49064,
  "5367387": 49063,
  "537": 21781,
  "5370022": 48581,
  "5372628": 48582,
  "5373": 31936,
  "5373114": 49913,
  "5376": 31948,
  "5376109": 49919,
  "5379630": 48583,
  "538": 19617,
  "5385681": 48243,
  "539": 16737,
  "53900": 30715,
  "5393626": 47746,
  "5394224": 47747,
  "5396": 31949,
  "5396303": 49920,
  "5397685": 47745,
  "54": 1833,
  "540": 13100,
  "5400": 28584,
  "5400171": 49422,
  "540049": 49421,
  "5404055": 47153,
  "541": 31931,
  "5410": 41873,
  "542": 24932,
  "54240": 41875,
  "543": 7614,
  "5430422": 41878,
  "5432151": 45835,
  "5432340": 45834,
  "5435": 41874,
  "54364": 41877,
  "544": 6948,
  "5442": 45667,
  "544390": 45668,
  "5444823": 45669,
  "544829797": 45670,
  "545": 18171,
  "5450981": 47988,
  "5452121": 47990,
  "545945": 47989,
  "546": 31928,
  "547": 31929,
  "5474": 31950,
  "5474361": 49921,
  "548": 19616,
  "5485442": 48242,
  "5489623": 48241,
  "549": 21782,
  "5490": 31938,
  "5490477": 49915,
  "54990": 41876,
  "55": 1605,
  "550": 6077,
  "5501265": 45296,
  "55027751": 29887,
  "55070": 45295,
  "551": 28427,
  "5512209": 41424,
  "5513": 41416,
  "5516": 41417,
  "5525338": 41425,
  "553": 17770,
  "55328": 41421,
  "55344": 41422,
  "553446": 41423,
  "554": 19095,
  "5543": 41419,
  "5546123": 41426,
  "5547350": 41428,
  "5548279": 41427,
  "555": 19096,
  "5550": 13517,
  "5559": 28429,
  "55597712": 31371,
  "556": 4933,
  "5560": 41418,
  "556575859": 44717,
  "557": 4798,
  "557850": 44627,
  "558": 28428,
  "5590": 41420,
  "56": 1789,
  "560": 13101,
  "5600": 20966,
  "56004": 48420,
  "560174": 47155,
  "5602": 41794,
  "5606": 47154,
  "561": 17803,
  "56122": 41798,
  "562": 23724,
  "562048": 41801,
  "563": 6681,
  "563442": 29965,
  "564": 17804,
  "564304": 30761,
  "564435": 28556,
  "5645": 20967,
  "564583": 30927,
  "564586": 30926,
  "5646": 41795,
  "564724": 28557,
  "564921": 28554,
  "565": 6575,
  "565051": 28555,
  "565320": 29948,
  "566": 28551,
  "5666": 28553,
  "56667": 41800,
  "56680": 41799,
  "567": 24931,
  "5681": 41796,
  "5686": 28552,
  "5686298": 31380,
  "569": 13544,
  "5692828": 47244,
  "569298": 16682,
  "5696": 41797,
  "57": 1361,
  "570": 12055,
  "571": 17741,
  "571337": 40694,
  "5718300": 40693,
  "57209": 40684,
  "57231": 40683,
  "573": 23562,
  "57343": 40690,
  "573540": 3034,
  "574": 5688,
  "5740907": 45095,
  "57412487": 45094,
  "575": 7892,
  "5753": 40680,
  "575859": 40692,
  "5759": 40677,
  "576": 28182,
  "57607": 40688,
  "5762537": 49376,
  "5764": 40679,
  "576737": 40691,
  "57677": 40689,
  "577": 14960,
  "577278": 47511,
  "5778": 40678,
  "578": 7232,
  "5780": 40676,
  "57854": 30045,
  "579": 23563,
  "5793": 40681,
  "57930": 40685,
  "5796": 40682,
  "57966": 28184,
  "5796652207300": 31348,
  "57966522073005": 49860,
  "57969": 40687,
  "5797": 28183,
  "57990": 40686,
  "58": 1723,
  "580": 21780,
  "5800": 41656,
  "5802889": 48580,
  "58071161": 48579,
  "5814": 41657,
  "581577": 23708,
  "58157739": 24763,
  "5816": 41658,
  "58174312": 20955,
  "581914": 41664,
  "5832": 41659,
  "5837247": 41666,
  "584": 17791,
  "5840": 28500,
  "5844757": 41667,
  "5849237": 41668,
  "584991": 47870,
  "585": 28499,
  "5859": 28501,
  "586": 20953,
  "58635": 41663,
  "5868": 16499,
  "587": 41655,
  "5870": 23707,
  "587042": 31102,
  "58704220": 48821,
  "587042205": 49824,
  "587042209": 49823,
  "5873": 41662,
  "5878": 41660,
  "588": 18172,
  "5882": 31947,
  "589": 20954,
  "5896": 41661,
  "58992901": 41665,
  "59": 1793,
  "590": 17805,
  "591": 20968,
  "59146": 41809,
  "5919": 41802,
  "592": 8285,
  "5927": 41803,
  "593": 13545,
  "59300": 41808,
  "59367": 41810,
  "594": 15023,
  "5942": 41804,
  "595": 20969,
  "5951": 41806,
  "5954": 41805,
  "596": 20970,
  "597": 20971,
  "598": 15024,
  "5986": 41807,
  "5986059": 47522,
  "599": 8991,
  "59942": 46335,
  "5à§¨": 31927,
  "6": 22,
  "60": 1633,
  "600": 3405,
  "6000": 31958,
  "60002": 29325,
  "6007725": 43739,
  "6008": 19286,
  "601": 5395,
  "6010": 28454,
  "601075": 41502,
  "601076": 49408,
  "601077": 49407,
  "602": 7616,
  "6021": 41496,
  "6022": 41495,
  "6037": 41497,
  "604": 12954,
  "605": 28453,
  "6054": 41498,
  "6059": 28455,
  "606": 17777,
  "6061626": 47866,
  "60636": 41501,
  "607": 17778,
  "6074": 41500,
  "608": 16491,
  "6086": 41499,
  "61": 1814,
  "610": 31952,
  "611": 13703,
  "6110": 19124,
  "611371": 18092,
  "612": 24937,
  "613": 31953,
  "615": 19620,
  "616": 21786,
  "617": 21785,
  "6170": 31968,
  "6177": 31970,
  "6177641388": 49929,
  "618": 7615,
  "6180": 31963,
  "6180339887": 49926,
  "61877373": 45836,
  "619": 19619,
  "6190": 31967,
  "6190476": 49928,
  "619884": 21659,
  "62": 2175,
  "620": 14342,
  "6203": 31969,
  "62054": 18098,
  "621": 21784,
  "622": 19618,
  "622593": 48244,
  "623": 24939,
  "6238": 31975,
  "624": 16738,
  "624361": 18123,
  "6258": 31973,
  "626": 19621,
  "627": 18174,
  "6270": 24943,
  "6271": 31974,
  "6272": 31966,
  "6273": 31972,
  "628": 31954,
  "6281": 9640,
  "629": 31955,
  "63": 2014,
  "630": 24938,
  "631": 18175,
  "631523": 42252,
  "63219": 42251,
  "63220": 31979,
  "63220332197": 49931,
  "63221": 28706,
  "6327": 42250,
  "633": 21787,
  "633744": 42253,
  "634": 7334,
  "635": 8321,
  "636": 12187,
  "636033": 30417,
  "63629": 46959,
  "6365": 31965,
  "6367299": 46960,
  "637": 12608,
  "638": 31959,
  "638507": 49924,
  "6387": 31964,
  "63870920": 49927,
  "639": 24941,
  "64": 1891,
  "640": 3662,
  "64066": 17957,
  "6409": 41998,
  "6411": 41999,
  "64138": 42000,
  "641388": 42002,
  "642": 19623,
  "64299": 42001,
  "643": 16739,
  "6438560": 42004,
  "644": 5341,
  "645": 24940,
  "6452": 31971,
  "646": 12607,
  "64644": 18080,
  "647": 14343,
  "647031": 42003,
  "648": 31957,
  "6480011244828": 49923,
  "649": 7460,
  "6495": 30067,
  "65": 1917,
  "650": 31956,
  "6500": 23771,
  "6507": 31976,
  "650712": 49930,
  "651": 28660,
  "652": 13102,
  "6520": 42083,
  "652629": 28661,
  "6528": 42084,
  "654": 21789,
  "6545": 42085,
  "65466": 42086,
  "655": 7768,
  "6561": 31977,
  "657": 9639,
  "657400": 46501,
  "658": 24942,
  "659": 21788,
  "66": 2032,
  "660": 6493,
  "660757": 45469,
  "6608": 45468,
  "661": 31960,
  "6610": 42289,
  "6612": 42290,
  "662": 8491,
  "663": 16740,
  "6632": 42291,
  "66380": 47748,
  "664": 31961,
  "6651": 31980,
  "665797": 28727,
  "666": 12088,
  "6666": 28726,
  "667": 19622,
  "66709": 48245,
  "66713": 48246,
  "668": 31962,
  "66878": 49925,
  "669": 6714,
  "67": 1429,
  "670": 19043,
  "6704": 40845,
  "671": 17745,
  "672": 7576,
  "672761": 17746,
  "673": 19044,
  "6736": 19047,
  "6737": 23587,
  "674": 19045,
  "6749": 40842,
  "67499748": 48120,
  "675": 12944,
  "6755": 19048,
  "67563": 40847,
  "67573540": 3035,
  "6758": 40843,
  "676": 6790,
  "676184": 45590,
  "67686": 40848,
  "677": 19046,
  "6776": 40846,
  "67779": 28236,
  "678": 16464,
  "6781": 40844,
  "6787": 28235,
  "6789": 23588,
  "679": 6298,
  "679776": 45382,
  "68": 1895,
  "680": 18173,
  "681": 12085,
  "68116": 19145,
  "682": 20997,
  "6821": 42011,
  "6825": 42012,
  "682660": 42018,
  "683": 20998,
  "684": 23759,
  "6842": 42013,
  "6843": 42014,
  "685": 19144,
  "685465": 48133,
  "686": 17816,
  "6864": 42015,
  "686666": 42017,
  "6869": 28639,
  "686917689": 49430,
  "6869707172737": 49431,
  "687": 12503,
  "68788899": 47023,
  "688": 6399,
  "6883": 45425,
  "689": 14154,
  "68932": 42016,
  "69": 1872,
  "690": 17811,
  "691": 14153,
  "6915": 41946,
  "6919184": 41953,
  "692": 23748,
  "693": 16519,
  "6933": 20987,
  "695": 13552,
  "696": 17812,
  "6963": 41948,
  "69644": 41949,
  "69685": 41952,
  "6969": 41947,
  "69697": 41950,
  "697": 5448,
  "69798": 41951,
  "6998": 31978,
  "7": 23,
  "70": 1500,
  "700": 5304,
  "700097": 15288,
  "7006528": 44893,
  "701": 41042,
  "70102": 41051,
  "70108": 41050,
  "70122": 28300,
  "702": 7963,
  "70211": 20906,
  "703": 20905,
  "7031": 41045,
  "7035": 41043,
  "704": 23614,
  "705": 12482,
  "7050765": 41053,
  "705600": 28301,
  "706": 14988,
  "707": 2885,
  "7070": 41044,
  "707172737": 43268,
  "7078": 41047,
  "70799741": 43269,
  "708": 6673,
  "708033": 41052,
  "7084": 41049,
  "7088": 41046,
  "709": 6715,
  "7093": 45553,
  "70à§¦": 28299,
  "70à§¦à§¨": 41048,
  "71": 2063,
  "710": 8992,
  "7100320200908": 42327,
  "711": 19625,
  "7112": 42326,
  "71161": 31995,
  "713": 7461,
  "714": 21790,
  "715": 31982,
  "716": 7769,
  "717": 7617,
  "718": 31981,
  "72": 1949,
  "720": 19624,
  "720082": 42118,
  "720090": 19155,
  "722": 4936,
  "7221": 44718,
  "72217": 44719,
  "72301304": 28673,
  "723013041198601": 31394,
  "7233": 31994,
  "724": 14344,
  "725": 24945,
  "726": 7962,
  "727": 7770,
  "728": 2235,
  "7281": 42565,
  "72890": 28842,
  "7299": 31993,
  "73": 2252,
  "730": 4276,
  "7300": 19196,
  "73007": 42615,
  "730960": 28861,
  "731": 21792,
  "731679": 28862,
  "732": 18177,
  "7328594": 42616,
  "733": 31986,
  "734": 31989,
  "735": 14345,
  "736": 31984,
  "7363": 31999,
  "737": 18176,
  "738": 13704,
  "7389": 31996,
  "7396": 31997,
  "7399": 28860,
  "74": 2290,
  "740": 31983,
  "741": 19628,
  "74104": 42670,
  "74168": 42668,
  "74169": 42669,
  "742": 8322,
  "743": 31988,
  "744": 10184,
  "745": 12609,
  "74528": 47056,
  "7459": 16678,
  "745950": 18122,
  "746": 31985,
  "747": 5198,
  "747766776": 44857,
  "748": 21791,
  "748687": 48584,
  "749": 31987,
  "75": 2179,
  "750": 6319,
  "75008": 42492,
  "750101": 45388,
  "75159": 7256,
  "752": 21793,
  "753": 31991,
  "75322643226": 49932,
  "754": 19629,
  "75433": 48248,
  "7549611": 42494,
  "755": 24946,
  "756758": 42493,
  "757": 6716,
  "757868": 45554,
  "7579485": 24333,
  "76": 2268,
  "760": 19627,
  "76065": 30868,
  "7614": 42642,
  "762": 31992,
  "764": 24948,
  "765": 13705,
  "7656": 42643,
  "766776": 42644,
  "767": 4227,
  "7674795": 5036,
  "7685": 31998,
  "769": 21794,
  "7691333": 48587,
  "76958": 48585,
  "76959": 48586,
  "77": 1910,
  "770": 7110,
  "7700273715": 28654,
  "770497": 45713,
  "7712": 28653,
  "772": 7743,
  "7722": 42065,
  "7725": 42066,
  "773": 42064,
  "77321": 42067,
  "77373": 42068,
  "774": 28652,
  "776": 7582,
  "778": 31990,
  "7784": 32000,
  "779": 14346,
  "78": 1822,
  "780": 24944,
  "781": 20973,
  "78221": 23734,
  "782877": 41848,
  "7829": 28574,
  "783": 19125,
  "783446": 20976,
  "7834468065": 21688,
  "784": 20974,
  "785": 41844,
  "78569298": 20975,
  "786": 7434,
  "7866": 28575,
  "787": 41845,
  "78783": 41846,
  "78788": 41847,
  "787980": 41849,
  "788": 24947,
  "7880": 23733,
  "7887328594": 49065,
  "7894": 28576,
  "79": 1866,
  "790": 41931,
  "79000": 41935,
  "791": 41932,
  "7914": 28611,
  "7923": 41934,
  "7927380": 41941,
  "794": 19136,
  "7941": 41937,
  "795": 41933,
  "7951": 41938,
  "79557": 41939,
  "796": 28610,
  "796781": 41942,
  "797": 23747,
  "79709": 19138,
  "79720": 41940,
  "798": 19137,
  "7980": 28612,
  "7988": 41936,
  "799": 19626,
  "79943410": 48247,
  "7999": 18178,
  "8": 24,
  "80": 1174,
  "800": 4309,
  "8000": 15792,
  "800000": 14220,
  "800080": 30644,
  "80057990": 44334,
  "801": 39973,
  "8012": 39974,
  "801400": 39987,
  "801503": 39986,
  "80170": 20782,
  "80178": 39984,
  "8018": 39976,
  "8019": 39975,
  "802": 27959,
  "803": 14904,
  "803084": 39988,
  "8031": 39978,
  "80318": 23466,
  "8032": 39979,
  "80322": 39982,
  "8033": 39977,
  "803540": 39981,
  "804": 18972,
  "805": 16424,
  "8053": 27962,
  "80544": 39985,
  "806": 12925,
  "8065": 20781,
  "80688": 39983,
  "807": 27960,
  "80708": 27963,
  "8076": 39980,
  "808": 20780,
  "8081312805": 48374,
  "8088": 27961,
  "80885986": 49353,
  "809": 16741,
  "80913852": 47749,
  "81": 1921,
  "810": 24949,
  "8100": 42088,
  "81072": 49066,
  "8108": 32020,
  "811": 32003,
  "812": 24950,
  "813": 24951,
  "81329": 49067,
  "8139": 24961,
  "815": 32004,
  "8152": 19635,
  "8157153147147": 21800,
  "816": 24952,
  "81629": 49068,
  "817": 32005,
  "818": 4899,
  "8182838": 44688,
  "82": 2043,
  "820": 32002,
  "82023": 32022,
  "823": 32007,
  "82384": 49933,
  "824": 7462,
  "8254": 32023,
  "8257": 32026,
  "826": 32008,
  "8265": 32024,
  "827": 24954,
  "8278": 32021,
  "82780688": 49069,
  "82785112": 49936,
  "828": 24953,
  "829": 4900,
  "829556": 19335,
  "82975159": 7301,
  "829797": 44689,
  "83": 2351,
  "830": 32006,
  "8300": 42744,
  "8319": 42745,
  "83295": 28922,
  "834571": 32030,
  "837": 32009,
  "838": 18179,
  "839": 24958,
  "839686": 49072,
  "84": 2205,
  "840": 24955,
  "8415": 28810,
  "84190": 23869,
  "8419044": 24768,
  "8421": 42520,
  "8424": 42521,
  "843": 32014,
  "8442": 32029,
  "84464": 42522,
  "845": 32012,
  "845183": 49935,
  "846": 24957,
  "847": 32011,
  "84701": 42523,
  "848": 32010,
  "848188": 49934,
  "849": 10597,
  "8495": 30363,
  "8497": 46740,
  "85": 2236,
  "850": 15791,
  "850269": 47571,
  "851": 32019,
  "85168": 42567,
  "852": 19630,
  "852804": 42568,
  "853": 19632,
  "853185": 48249,
  "8539": 42566,
  "854": 21799,
  "855": 16742,
  "856": 21798,
  "857": 24956,
  "85756": 49070,
  "857705": 49071,
  "858": 21797,
  "859": 32015,
  "86": 2019,
  "860": 32013,
  "8600": 42260,
  "861": 7618,
  "861819": 28708,
  "8618191272258": 31398,
  "862626": 42262,
  "864": 32016,
  "8648": 16530,
  "86485": 23809,
  "864852": 18116,
  "8655": 42261,
  "86571337": 42263,
  "8673": 32028,
  "868": 13706,
  "869": 19631,
  "87": 2067,
  "870": 21796,
  "8710": 42330,
  "8716121": 21028,
  "872": 7463,
  "873": 21026,
  "875": 21027,
  "876": 28745,
  "877": 32018,
  "878": 24959,
  "879": 18180,
  "8796203": 47991,
  "88": 1609,
  "880": 2838,
  "8800": 15008,
  "88013": 19238,
  "8801309": 48140,
  "8801312": 23999,
  "8801312569298": 24775,
  "8801316900031": 21643,
  "8801611139401": 43229,
  "8801686": 43228,
  "88017": 4977,
  "88017109": 44731,
  "8801711": 8747,
  "88017110": 44732,
  "8801711116094": 9322,
  "8801711139401": 46219,
  "880171128": 17990,
  "8801711283732": 21622,
  "88017112837329": 30773,
  "8801711356307": 46220,
  "8801715944200": 9305,
  "8801716": 29693,
  "8801716169375": 49573,
  "8801728258": 44733,
  "88017366": 29694,
  "8801736667779": 31503,
  "8801789": 17989,
  "88018": 29114,
  "8801822737344": 49486,
  "880187": 43227,
  "88019": 12107,
  "8801913": 46943,
  "8801915547666": 24494,
  "880191598": 30408,
  "8801915989916": 31583,
  "8801925321521": 46944,
  "880192549": 30409,
  "8801925492441": 31584,
  "8801978569298": 21542,
  "8802": 19237,
  "88022222239": 43230,
  "88024109": 9275,
  "880241095015": 9331,
  "8802550": 5697,
  "8802550122": 5704,
  "880255012281": 8309,
  "880255012286": 8310,
  "88032": 43226,
  "88096": 41458,
  "881": 41450,
  "881314": 19099,
  "8814": 41455,
  "881780": 20936,
  "88178061": 21685,
  "8818": 28441,
  "8819": 41454,
  "882": 12492,
  "8820": 41453,
  "8822": 20935,
  "8824": 28440,
  "8825": 41456,
  "883": 23669,
  "8836": 28442,
  "884": 5294,
  "885": 28438,
  "88540": 41459,
  "886": 5690,
  "887": 41451,
  "8871": 41457,
  "888": 41452,
  "88889": 41461,
  "88899": 41460,
  "889": 28439,
  "89": 2340,
  "890": 32017,
  "891": 19634,
  "89231": 42734,
  "8932": 42733,
  "895": 19633,
  "896": 24960,
  "8969": 23913,
  "89690050": 48850,
  "89698495": 31116,
  "897": 16743,
  "8973": 47750,
  "8982": 28916,
  "898825": 42735,
  "899": 21795,
  "8993": 32027,
  "8999": 32025,
  "8à§¦": 32001,
  "9": 25,
  "90": 1907,
  "900": 8107,
  "9001": 45985,
  "9004": 24392,
  "901": 23764,
  "9011": 19148,
  "9012": 42046,
  "9012345": 42055,
  "901300": 42054,
  "90160": 42050,
  "902": 24963,
  "90202": 23766,
  "90242": 42049,
  "903033": 42057,
  "9034": 42048,
  "90340": 42051,
  "90384": 42056,
  "90392": 23767,
  "904": 23765,
  "904100": 42058,
  "9043520200908": 48829,
  "90445": 42052,
  "9047": 42047,
  "90505": 42053,
  "906": 24970,
  "907": 24971,
  "9077941": 49078,
  "908": 6797,
  "9081355": 45593,
  "91": 2209,
  "9118": 24974,
  "912": 16744,
  "9126": 32043,
  "9135": 32047,
  "9138": 32045,
  "914": 19637,
  "91515": 24976,
  "9158": 24975,
  "916": 18182,
  "91623219": 30786,
  "91623219394": 49761,
  "9167866": 47992,
  "9185": 32046,
  "919": 18181,
  "9190": 32044,
  "919019119": 49940,
  "91968116": 19515,
  "919681161923": 19560,
  "92": 2001,
  "920": 32031,
  "921": 32032,
  "9220": 42233,
  "923": 16745,
  "923475": 47753,
  "923600": 47752,
  "92394": 47751,
  "924": 19636,
  "924294": 48250,
  "9258": 32048,
  "925815": 49941,
  "9278": 32042,
  "929": 18183,
  "92924": 21632,
  "92959": 47993,
  "93": 2084,
  "930": 7111,
  "93084": 30030,
  "931": 32037,
  "932": 7112,
  "9320": 32039,
  "933": 32035,
  "933111": 49937,
  "934": 21803,
  "935": 21801,
  "9378": 32049,
  "94": 2105,
  "940": 32033,
  "94118": 42372,
  "942": 13103,
  "943": 24968,
  "944": 32034,
  "945": 24967,
  "9451782": 49076,
  "9457930": 42374,
  "946": 24964,
  "947": 32036,
  "94759300": 49938,
  "948": 24965,
  "9485": 21806,
  "949": 24966,
  "9493": 49074,
  "94982": 49075,
  "94990": 42373,
  "949996": 15066,
  "95": 1994,
  "951": 21804,
  "952": 8323,
  "953": 19642,
  "95313": 48252,
  "954": 16746,
  "9547": 42219,
  "955": 18185,
  "956": 24969,
  "9564795": 49077,
  "956755": 19167,
  "957": 24962,
  "9577035": 49073,
  "96": 2221,
  "960": 21802,
  "9609": 28834,
  "9609291919": 49452,
  "961": 12610,
  "962": 21805,
  "9623": 28835,
  "962356": 49453,
  "963": 14347,
  "9630": 42551,
  "964": 19639,
  "965": 18186,
  "966": 13707,
  "96681": 28836,
  "967": 18184,
  "968": 19640,
  "96827": 48251,
  "969": 16747,
  "97": 2130,
  "970": 4754,
  "970524": 24217,
  "971": 19643,
  "9712": 28773,
  "97126": 28774,
  "972": 19641,
  "972016": 42427,
  "973": 19182,
  "9730172467": 42428,
  "974": 13567,
  "9740": 42424,
  "9746": 42425,
  "975": 23851,
  "9759146": 42429,
  "976": 21041,
  "9769": 42426,
  "977": 16748,
  "9773": 47754,
  "978": 15793,
  "9780028": 47573,
  "9785": 47572,
  "979": 32038,
  "98": 2293,
  "981": 32040,
  "982": 8324,
  "983": 42672,
  "984": 14348,
  "985": 24973,
  "985070": 42674,
  "986": 32041,
  "98665": 49939,
  "987": 24972,
  "988": 19638,
  "9887": 30869,
  "989": 23904,
  "9891": 42673,
  "99": 1260,
  "990": 9922,
  "99030": 30319,
  "991": 28055,
  "99100": 40353,
  "991307": 40356,
  "9916": 28057,
  "992": 16439,
  "9926": 40349,
  "992901": 40357,
  "993": 17714,
  "994": 18996,
  "995": 28056,
  "9958": 40351,
  "996": 16440,
  "997": 40348,
  "99741": 40354,
  "99748": 40355,
  "998": 20816,
  "9981929": 48391,
  "9988": 40350,
  "998800": 28058,
  "999": 12048,
  "9990": 23511,
  "9992": 40352,
  "9996": 14931,
  "9999": 3343,
  "99999": 5585,
  "999999999": 5698,
  ":": 26,
  ":!": 4986,
  ":\"\")+": 5403,
  ":\"////-/\"++\"?=&-=\"+": 24979,
  ":\"////-/\"++\"?=&-=\"+;;:": 31187,
  ":${": 24977,
  ":').(": 16749,
  ":(": 2016,
  ":(\"\"": 15047,
  ":(\"\"==": 11123,
  ":((": 42258,
  ":().(\".-": 15048,
  ":(=": 7249,
  ":(=([],,),": 11236,
  ":)": 2378,
  ":)\"": 28935,
  ":)\").(": 4717,
  ":))": 42784,
  ":)^": 28936,
  ":+": 18187,
  ":,:": 9641,
  ":,:\"": 14349,
  ":,:===à¥¤à¥¤\"\"===à¥¤à¥¤": 10134,
  ":-": 10185,
  ":-)": 24461,
  ":-.": 32052,
  ":-/": 32053,
  ":.": 21807,
  ":.-.-.(,\"\",!": 10598,
  ":.@.": 18188,
  "://": 1470,
  "://--": 28286,
  "://-../": 40994,
  "://-./": 28288,
  "://-.///": 40993,
  "://-./_/?=": 31354,
  "://.": 6142,
  "://.-": 12479,
  "://.-..//)": 47018,
  "://.-./": 15521,
  "://.-./-.": 47560,
  "://.-.///": 40995,
  "://.-./?=": 18107,
  "://..": 1871,
  "://...": 11084,
  "://....": 19059,
  "://..../": 24650,
  "://....///": 30831,
  "://.../": 9569,
  "://.../-": 40992,
  "://.../.../----...": 46489,
  "://.../.../---...": 46488,
  "://...//": 13053,
  "://...//%": 30493,
  "://...//------": 47148,
  "://...////.": 46846,
  "://.../_//": 46487,
  "://../": 2718,
  "://../#!//": 43120,
  "://../-": 20985,
  "://../----": 29070,
  "://../------": 23981,
  "://../-------": 43118,
  "://../---------": 43116,
  "://../------//": 24771,
  "://../----//": 49482,
  "://../---/": 43119,
  "://../--/": 29071,
  "://../--//": 43117,
  "://../-/": 41944,
  "://../-/---": 41945,
  "://../-/--/": 48421,
  "://../-/-/---": 48422,
  "://../-//": 20986,
  "://../...": 43114,
  "://../..//.": 29072,
  "://.././": 43115,
  "://../.?=": 17917,
  "://..//": 2538,
  "://..//%": 8293,
  "://..//-": 29006,
  "://..//--------": 23956,
  "://..//---------": 42960,
  "://..//---------------": 42961,
  "://..//----__": 42963,
  "://..//-/": 42959,
  "://..//.%": 42962,
  "://..//./": 42958,
  "://..///": 8959,
  "://..///------_": 46318,
  "://..///.": 17903,
  "://..////": 21124,
  "://..////%": 48431,
  "://..////-----/": 48433,
  "://..////--//": 48432,
  "://..///?=": 21491,
  "://..///?=.._": 30978,
  "://..///?=.__.____": 30979,
  "://..//?=": 42957,
  "://..//_": 16567,
  "://..//_---_": 47685,
  "://..//____": 29007,
  "://..//____#": 49473,
  "://../?": 43113,
  "://../?=": 4407,
  "://../?=&=&=": 44403,
  "://../?=-": 12554,
  "://../?=-_-": 47047,
  "://../?=_": 24183,
  "://../_////.": 43121,
  "://../__": 21147,
  "://../__.?=": 48436,
  "://./": 4640,
  "://./---": 44573,
  "://./----": 44572,
  "://./-----/": 44575,
  "://./-/-": 44574,
  "://./-//": 29645,
  "://.//": 4406,
  "://.//%": 29588,
  "://.//',___": 44402,
  "://.//-///": 44400,
  "://.///": 21401,
  "://.////----------": 44401,
  "://./////": 29589,
  "://./_": 44571,
  "://\\';": 28287,
  "://\\';=.();=.();(!=-": 49389,
  "::": 1922,
  "::::": 42089,
  "::>": 2251,
  "::>--": 6066,
  "::_(": 28663,
  "::_(&$,": 31392,
  ":=%": 32055,
  ":[]": 7113,
  ":[];?.(": 11231,
  ":\\/\\/\\": 24978,
  ":_/": 32054,
  ":_:": 32051,
  ":_@.": 32056,
  ":__": 32050,
  ";": 27,
  ";\"": 19644,
  ";\"\":": 13105,
  ";\"))}),$(\".-": 24985,
  ";\"),": 32059,
  ";\"),.('": 49942,
  ";\").(": 24982,
  ";\").().(\":\").(": 31188,
  ";\").().(\":\").(\"\"),=.(\"/\")à¥¤à¥¤": 31657,
  ";\":": 13104,
  ";\";=(": 14353,
  ";\">": 32060,
  ";$(": 21811,
  ";'${": 24984,
  ";'+": 21812,
  ";'+[]+'';": 24713,
  ";(": 3368,
  ";(!''": 43714,
  ";(!=)(": 29319,
  ";(\"#\").(": 10025,
  ";(\"#\").(\"\")&&(=.-(+": 10152,
  ";(.(\"//": 29318,
  ";(.(''),": 43715,
  ";(..(/\\": 29317,
  ";)": 32057,
  ";*": 21808,
  ";+": 21809,
  ";++": 5199,
  ";++){": 14233,
  ";+=": 21814,
  ";+=.(": 48588,
  ";,": 32058,
  ";-": 24980,
  ";--": 14350,
  ";--){": 15566,
  ";-:": 21813,
  ";-:;-:": 48589,
  ";.(": 24981,
  ";.(\"\").(": 14355,
  ";.(\"\").('": 15568,
  ";..=(){": 32061,
  ";.[]=(){": 10600,
  ";.à¥¤à¥¤(": 14354,
  ";//..///.": 32063,
  ";:": 10186,
  ";:#": 46609,
  ";:+='": 30333,
  ";:.(\"--": 30334,
  ";;": 12188,
  ";;\"\":=\"": 30418,
  ";;:": 24983,
  ";<": 19645,
  ";=": 21810,
  ";=..": 14352,
  ";=..){}": 15567,
  ";>": 5404,
  ";>$;": 15293,
  ";>$;$++)(\"\"==[].[$]": 15672,
  ";>$;$++)(\"\"==[].[$].&&\"/\"==[].[$].){=[].[$]..(\"": 15761,
  ";>;++": 5989,
  ";>;++)(\"\"==": 7940,
  ";>;++)(\"\"==[].[].){": 15392,
  ";>;++)(\"\"==[].[].){=[].[].;}(": 15696,
  ";>;++){(": 10082,
  ";>=": 14351,
  ";?.(": 10599,
  ";\\';": 32062,
  ";}": 3351,
  ";}(": 9284,
  ";})();": 21210,
  ";};})();": 29305,
  ";};})();[": 31459,
  ";}{": 29304,
  "<": 28,
  "<!-": 15794,
  "<#": 3125,
  "<$(\"#-\").().-": 24987,
  "<%=": 10187,
  "<(+": 10601,
  "<(+).(\"\")?(=(=.()).": 11268,
  "<(+).(\"\")?(=(=.()).,=.):(=()à¥¤à¥¤": 11343,
  "<([^": 14356,
  "<([^>]+)>)": 15569,
  "</>": 3696,
  "</><": 14211,
  "</></>": 43976,
  "</><>": 43977,
  "</>]][": 43979,
  "</>à¥¤=": 43978,
  "<<": 3841,
  "<<<": 29438,
  "<=": 3203,
  "<=;++": 24047,
  "<=>": 15169,
  "<>": 6596,
  "<>',": 45509,
  "<><": 45508,
  "<><>": 16639,
  "<>>": 24986,
  "<>>(": 31189,
  "<>{{": 18018,
  "<\\": 9343,
  "<\\[^>]*": 9612,
  "<\\[^>]*>": 9615,
  "<|endoftext|>": 0,
  "=": 29,
  "=!": 19646,
  "=\"": 4473,
  "=\"\"": 3306,
  "=\"\"==(=(": 29288,
  "=\"\"===[": 9643,
  "=\"\"></>": 19283,
  "=\"\"]": 43656,
  "=\"\"}(": 15177,
  "=\"#_": 14360,
  "=\",": 9642,
  "=\",\"\").(/\"/,\"\").(/'/,\"\");": 10135,
  "=\",\"à¥¤\":": 13106,
  "=\"-\"": 32071,
  "=\".": 32064,
  "=\"//\"+": 29613,
  "=\"////-/\"++\"?=&-=\"+": 29615,
  "=\"////-/\"++\"?=&-=\"+}": 31491,
  "=\"///?=&-=\"+": 29614,
  "=\"://": 32067,
  "=\"://..//": 32069,
  "=$(": 10188,
  "=$().(": 24991,
  "=$(\\'#-": 46610,
  "=%": 24988,
  "='": 4799,
  "=');": 21816,
  "=',": 21817,
  "='_'": 21342,
  "='_']": 21710,
  "=(": 1867,
  "=('": 15030,
  "=((": 41943,
  "=(()=>{": 28613,
  "=().(": 3359,
  "=().(\"": 15185,
  "=().(\"\");=.(/": 15186,
  "=();": 13551,
  "=(){": 3917,
  "=(){'\\": 44119,
  "=()}": 24992,
  "=()}(){\"\":+=\"": 31190,
  "=(,\"\"),=(,\"\"),": 20984,
  "=(,){": 5691,
  "=(,,){": 6927,
  "=(,,){\"\"!=": 11227,
  "=(.+\"": 15032,
  "=(.[": 15031,
  "=(=.()).": 11117,
  "=(=.(/": 6682,
  "=(=..(\"\")": 11116,
  "=(?:\\\"à¥¤\\')?": 9960,
  "=))": 18191,
  "=),=": 10603,
  "=)}": 14358,
  "=)})),": 15570,
  "=+": 14357,
  "=+}": 47426,
  "=,=.(\"": 10604,
  "=.": 21815,
  "=.(": 1576,
  "=.(\"": 3645,
  "=.(\"\",": 15004,
  "=.(\".": 41334,
  "=.('.__": 41337,
  "=.()).": 11095,
  "=.(),=": 6922,
  "=.();": 8281,
  "=.();(": 41336,
  "=.();=.(": 18044,
  "=.();=.();(!=-": 47944,
  "=.();=.(\\'@\\'+": 47943,
  "=.()}}": 41335,
  "=.(,": 6921,
  "=.(,\"": 20931,
  "=.(,\"\"),": 41338,
  "=.(,\"\"),=(": 11096,
  "=.(,\"\",!": 7316,
  "=.(,\"///\"+)}": 30925,
  "=.(/": 4932,
  "=.(/<\\[^>]*>": 10057,
  "=.(/<\\[^>]*>/,": 10157,
  "=.([]);": 41339,
  "=.({:": 15005,
  "=.({}": 9576,
  "=.({},,": 9614,
  "=.({},,);": 46500,
  "=.-": 5200,
  "=..": 5468,
  "=..(\"\")": 10605,
  "=..;(": 10075,
  "=..à¥¤": 44982,
  "=/\\": 24990,
  "=://": 32065,
  "=://.../": 32070,
  "=://../": 32066,
  "=://.././-": 49943,
  "=://../.?=": 32072,
  "=://../?=": 19647,
  "=://../?=&=": 48253,
  "=;=": 24993,
  "=;=;(..(/\\": 31191,
  "==": 773,
  "==\"://": 14766,
  "==&&": 27227,
  "==&&$().({:\"#-": 31289,
  "==&&(": 16183,
  "==&&(\"": 47622,
  "==&&(=": 27228,
  "==&&(=\"": 18112,
  "==&&(=+'": 49251,
  "==&&(=+''++\"/\"+_+\"/\"++\"\"),": 49252,
  "==&&.>": 27229,
  "==''": 37965,
  "=='//..//.": 37968,
  "==(=(": 27230,
  "==)(": 37966,
  "==){(": 14765,
  "==){(,++);(": 15597,
  "==**": 17266,
  "==-": 37962,
  "==.(,": 14764,
  "==.(,.)&&(": 15596,
  "==.(,.)&&(.[..]=)})),": 15744,
  "==..": 9863,
  "==..).((\"\"===.?..+\"//\"+..:.)+\"": 15452,
  "==..).((\"\"===.?..+\"//\"+..:.)+\"///?-=\"+.+\"&=&=--\",,\"\");": 15708,
  "==..?(\"": 15453,
  "===": 1319,
  "===!": 5443,
  "===!!": 28139,
  "===\"\"": 14113,
  "===&&(=": 14955,
  "===)": 11071,
  "===.": 6295,
  "===.&&(": 11073,
  "===.&&((=().()).+=.(,\"\",!": 11297,
  "===.&&(=": 11077,
  "===.&&(=.),": 11300,
  "===.&&.(\".\").((){": 15329,
  "===.(\"\")": 11076,
  "===.(\"\")?[\"\"+]:..[\"\"+]:": 11299,
  "===.)&&\"\"===.(,\"\"))=.;": 11079,
  "===.)&&\"\"===.(,\"\"))=.;&&!==&&": 11302,
  "===..),.": 11078,
  "===..),.=(,,){\"\"!=": 11301,
  "===.?(=.,.(.[\"\"+],[\"\"+": 11217,
  "===.?(=.,.(.[\"\"+],[\"\"+],.[\"\"+],[\"\"+],[\"\"+])):": 11329,
  "===.?.(,": 11216,
  "===.?.(,\"**\"):": 11328,
  "===.?.(,\"**\"):.(,à¥¤à¥¤\"**\",)},:(,){": 11350,
  "===.à¥¤à¥¤": 11074,
  "====": 2423,
  "======": 28950,
  "=======": 15102,
  "========": 3692,
  "===========": 15204,
  "============": 43970,
  "================": 6308,
  "======================": 45384,
  "========================": 29912,
  "===============================": 49602,
  "================================": 21407,
  "================================================": 48504,
  "================================================================================": 48505,
  "===?": 9927,
  "===?!": 9928,
  "===?\"\":": 8268,
  "===?\"\":\"\");": 11250,
  "===?\"\":})}),(\".-": 15405,
  "===?'": 14954,
  "===?.(": 11075,
  "===?.(,,):.(,,,)},,?:": 11298,
  "===?:": 11072,
  "===?:.((){..(,,)});": 11296,
  "===[": 5968,
  "===à¥¤à¥¤": 5139,
  "===à¥¤à¥¤!": 11201,
  "===à¥¤à¥¤\"\"===à¥¤à¥¤": 6701,
  "==>": 37963,
  "==[": 9862,
  "==[[:": 37967,
  "==_": 37964,
  "=>": 6494,
  "=>'${": 29937,
  "=>{": 15335,
  "=>{(": 29936,
  "=[": 6597,
  "=[\"\\": 45512,
  "=[(){": 45511,
  "=[[": 32068,
  "=[]": 5588,
  "=[],": 14359,
  "=[]..$": 13636,
  "=[]..$.(": 10077,
  "=[]..$;(.(\"//": 30548,
  "=[].[$]": 15304,
  "=[].[].;}(": 15305,
  "=[];(": 29790,
  "=[_": 45510,
  "=\\": 18189,
  "=\\'": 15795,
  "=\\'#-": 47575,
  "=\\'<": 47574,
  "=\\'\\';(": 47576,
  "=_": 24989,
  "={:\"\",:": 9644,
  "={}": 16750,
  "={};": 21819,
  "={};(": 30716,
  "={};}": 21609,
  "=}": 7771,
  "=},,,.)}}": 11247,
  "=},,,.)}}),.([\"\",\"\"],(,){.[]=$(.,(,){()": 11338,
  "=à¥¤": 18190,
  "=à¥¤=": 21818,
  "=à¥¤=:": 48590,
  "=à¥¤à¥¤": 10602,
  ">": 30,
  ">\").((){": 32074,
  ">&&(=": 9645,
  ">)": 8993,
  ">-+": 24994,
  ">.": 6237,
  ">..$.$": 14362,
  ">.</>": 7313,
  ">._&&(=.(": 15324,
  ">;++){": 14363,
  "></>": 6078,
  "></><": 7310,
  ">=": 3221,
  ">=.(": 19649,
  ">=.().&&(": 21660,
  ">=..){": 15170,
  ">=..){(.+\"": 15643,
  ">>": 4012,
  ">>.": 44192,
  ">>>": 12136,
  ">>>>.": 44193,
  ">>>]": 21285,
  ">?\"\":": 14361,
  ">?\"\":\"\",": 15571,
  ">?(=": 4437,
  ">?.(": 19650,
  ">\\'+": 32075,
  ">\\'+[]+\\'\\';": 49944,
  ">]": 7114,
  ">]*": 6495,
  ">]+)": 7947,
  ">]+)>)": 15395,
  ">{": 19648,
  ">{{": 32073,
  "?": 31,
  "?!": 2379,
  "?!\"": 42785,
  "?\"": 2299,
  "?\"\"": 32080,
  "?\"\":": 2934,
  "?\"\":\"": 4472,
  "?\"\":\"/-/\"+": 6697,
  "?\"\":\"/-/\"+.)+\"?-=\"+.+\"&=&=--\",": 15346,
  "?\"\":\"/-/\"+.)+\"?-=\"+.+\"&=&=--\",(){": 15680,
  "?\"\":\"/-/\"+..)+\"": 7944,
  "?\"\":\"/-/\"+..)+\"?-=": 15394,
  "?\"\":\"/-/\"+..)+\"?-=\"+..+\"": 10119,
  "?\"\":\"/-/\"+..)+\"?-=\"+..+\"&=&-=\"+": 15493,
  "?\"\":\"/-/\"+..)+\"?-=\"+..+\"&=&-=\"++\"&=--\",,\"\")},\"\"):.(": 15718,
  "?\"\":\"/-/\"+..)+\"?-=\"+..+\"&=&-=\"++\"&=--\",,\"\")},\"\"):.((\"\"===..?..+\"//\"+..:..)+\"///\"+(..===!": 15767,
  "?\"\":\"/-/\"+..)+\"?-=\"+..+\"&=&=--\",,\"\")}": 15494,
  "?\"\":\"/-/\"+..)+\"?-=\"+..+\"&=&=--\",,\"\")},.()},..={:\"\",:": 15719,
  "?\"\":\"/-/\"+..)+\"?-=\"+..+\"&=&=--\",,\"\")},.()},..={:\"\",:.,:.,:.,:!": 15768,
  "?\"\":'": 15146,
  "?\")": 24996,
  "?\")[": 49079,
  "?\",": 21823,
  "?\"-": 21824,
  "?\"-\":\"-\"}": 31027,
  "?\".....": 42682,
  "?\"///?=&-=\"+": 28894,
  "?$().().(\"\").(": 25000,
  "?$().().(\"\").(\">": 31193,
  "?&]\"": 6949,
  "?'": 2617,
  "?''": 4614,
  "?''++\"\":\"\")+": 15259,
  "?''++\"\":\"\")+'": 15665,
  "?',": 19652,
  "?';": 19653,
  "?(": 2411,
  "?(\"": 15101,
  "?((": 3776,
  "?((),()):": 4059,
  "?((),()):\"\"==?((),()):": 15229,
  "?((),()):()": 4721,
  "?((),()):()&&": 5987,
  "?((),()):()?((),()):\"\"==?((),()):": 15265,
  "?((),()):()?((),()):\"\"==?((),()):\"\"==?((),()):((),()),.(),.(": 15668,
  "?((),()):()?((),()):()": 10056,
  "?((=(=..(\"\")": 11186,
  "?():": 24999,
  "?():\"://..//.\"}": 31192,
  "?(,\"\"": 28942,
  "?(,\"\"):\"": 31421,
  "?(=": 4090,
  "?(=(=.()).": 11146,
  "?(=.(),=": 11145,
  "?(=.,.(.[\"\"+],[\"\"+": 11190,
  "?(?:": 21100,
  "?(?:\\.)": 21694,
  "?(?:\\.)\\/(?:\\?=": 31011,
  "?([^": 9646,
  "?)": 8526,
  "?)'": 32085,
  "?))": 32082,
  "?*": 32076,
  "?+='": 14368,
  "?,": 21820,
  "?,'": 32083,
  "?-": 21821,
  "?-=": 14366,
  "?-=\"+": 6598,
  "?-=\"+.+\"&=&=--\",": 10092,
  "?-=\"+..+\"": 10091,
  "?.": 32077,
  "?.(": 5342,
  "?.(\"-": 29737,
  "?.(\"-\"": 29738,
  "?.(\"-\"):.(\"-\")}": 31512,
  "?.(\"-\"):.(\"-\")}),.(\"\",(){$(\",": 31685,
  "?.(+": 44909,
  "?.(,": 10606,
  "?.(.(/-": 29739,
  "?..": 32079,
  "?..+\"": 5405,
  "?..+\"//\"+..:": 5464,
  "?..+\"//\"+..:..)+\"": 6702,
  "?..+\"//\"+..:..)+\"///?=--&=": 15347,
  "?..+\"//\"+..:..)+\"///?=--&=\",(){": 15681,
  "?...": 14364,
  "?..:": 14367,
  "?.:": 10607,
  "?.:,?:.):[]": 11269,
  "?.[": 14365,
  "?/": 32078,
  "?:": 3361,
  "?:\"\")+": 10023,
  "?:\"\")+\"": 15187,
  "?:\"\")+'": 10150,
  "?::": 24995,
  "?:\\\"": 6692,
  "?:\\\"à¥¤\\')?": 6707,
  "?:\\$": 21212,
  "?:\\?=": 29310,
  "?:à¥¤à¥¤à¥¤)": 10024,
  "?:à¥¤à¥¤à¥¤))(?:\\\"à¥¤\\')?/)))=[": 10151,
  "?;(": 32084,
  "?=": 1731,
  "?=${": 28507,
  "?=${}": 41685,
  "?=%": 41681,
  "?=&-=\"+": 15018,
  "?='": 14148,
  "?=')": 7050,
  "?=',": 6678,
  "?=','/');": 24332,
  "?=():": 28508,
  "?=-": 41682,
  "?=--": 7579,
  "?=--&=": 13646,
  "?=.": 41683,
  "?=:": 11104,
  "?=?([^": 9953,
  "?=?([^#\\&\\?": 10141,
  "?=\\';": 41684,
  "?=])": 9951,
  "?=à¥¤(": 9952,
  "?=à¥¤(à¥¤)\\/))([^": 10140,
  "??": 2346,
  "??\"": 24997,
  "???": 7589,
  "????": 4862,
  "??????": 29675,
  "???????": 44666,
  "????????": 9603,
  "????????????????": 18062,
  "????????????????????": 30777,
  "????????????????????????????????????": 30778,
  "?[": 7619,
  "?[\"\"+]:": 10608,
  "?[\"\"+]:..[\"\"+]:": 11270,
  "?[/]": 45837,
  "?[]": 8994,
  "?]": 19651,
  "?_": 21822,
  "?_=": 24998,
  "?_=_": 49080,
  "?Â¦": 32086,
  "?à¥¤à¥¤": 32081,
  "@": 32,
  "@\",\"": 13108,
  "@\",\"\");": 13109,
  "@\":": 13107,
  "@,": 19654,
  "@-)'": 32089,
  "@-.": 16751,
  "@.": 1147,
  "@.!": 39897,
  "@.)": 14369,
  "@.,": 7884,
  "@.,-": 45924,
  "@.,.": 19405,
  "@.,:": 27938,
  "@..": 5252,
  "@.:": 27937,
  "@.;": 39898,
  "@:": 25001,
  "@\\'+": 32088,
  "@_": 32087,
  "A": 33,
  "B": 34,
  "C": 35,
  "D": 36,
  "E": 37,
  "F": 38,
  "G": 39,
  "H": 40,
  "I": 41,
  "J": 42,
  "K": 43,
  "L": 44,
  "M": 45,
  "N": 46,
  "O": 47,
  "P": 48,
  "Q": 49,
  "R": 50,
  "S": 51,
  "T": 52,
  "U": 53,
  "V": 54,
  "W": 55,
  "X": 56,
  "Y": 57,
  "Z": 58,
  "[": 59,
  "[\"\"+": 4497,
  "[\"\"+]:": 7299,
  "[\":": 13110,
  "['": 25002,
  "[''": 25004,
  "[(,": 14371,
  "[+": 18192,
  "[,": 21825,
  "[,]}": 31028,
  "[-": 32090,
  "[--": 25003,
  "[---": 32092,
  "[---]": 49945,
  "[--]": 31194,
  "[.,,": 10609,
  "[...]": 8527,
  "[/]": 8528,
  "[/_": 32094,
  "[/_][/_][/_]": 49946,
  "[/__][/_": 32096,
  "[/__][/_][/_][_][_": 49947,
  "[=\"": 18193,
  "[=\"\"": 14370,
  "[='_']": 21826,
  "[=://../.?=": 32097,
  "[=://../?=": 32095,
  "[?&]\"": 6950,
  "[[": 5844,
  "[[:": 18010,
  "[[:--": 24632,
  "[[:_à¥¤<": 47927,
  "[\\": 4381,
  "[\\]]": 5638,
  "[\\]]/,": 7074,
  "[]": 1566,
  "[]);": 28389,
  "[]);(": 23648,
  "[]);}": 28391,
  "[]);};})();": 31365,
  "[])=.(": 41302,
  "[]+": 6793,
  "[]+'';": 12570,
  "[]+'';(": 21421,
  "[]+\\'\\';": 45591,
  "[],": 4125,
  "[],(=.(": 11191,
  "[],.)));": 11192,
  "[],=": 5983,
  "[],=().(\"\");=.(/": 15234,
  "[],=[],=": 7939,
  "[],=[],=[],=": 15391,
  "[].$": 15001,
  "[].$.;": 15621,
  "[].[": 28390,
  "[].[$]": 9942,
  "[].[$].){=[].[$]": 15459,
  "[].[].){": 15002,
  "[]:": 28388,
  "[]://": 15000,
  "[]://---../--": 24573,
  "[]://--../--": 47519,
  "[]://.-": 41300,
  "[]://../-//": 41301,
  "[]://..//": 41299,
  "[]://..///": 28392,
  "[];": 19084,
  "[];});": 30833,
  "[][''": 28393,
  "[][]": 17762,
  "[][][]": 24617,
  "[^": 5343,
  "[^>]*": 9605,
  "[^[\\]]": 10065,
  "[^[\\]]+(?=])": 10159,
  "[^[\\]]+(?=])/": 10172,
  "[^[\\]]+(?=])/),/[^[\\]]+(?=])/": 15502,
  "[^[\\]]+(?=])/),/[^[\\]]+(?=])/.()&&(=().(\".-": 15722,
  "[^\\/].(": 10066,
  "[_": 15796,
  "[_][_": 47577,
  "[__": 32091,
  "[__]": 25005,
  "[âĨĳ]": 32093,
  "[âĺħâĺħ": 25006,
  "[âĺħâĺħ]": 31195,
  "\\": 60,
  "\\\"": 4179,
  "\\$": 6496,
  "\\'": 1809,
  "\\'\"": 28568,
  "\\'#-": 41834,
  "\\'#\\'++\\':": 41836,
  "\\''": 2774,
  "\\').": 41833,
  "\\').(": 21827,
  "\\').((,": 48591,
  "\\').();=\\'": 41838,
  "\\').(\\'\\": 31029,
  "\\').(\\'\\');": 49803,
  "\\').(\\'\\',": 49804,
  "\\'+": 14151,
  "\\'++": 19123,
  "\\'++\\'": 21639,
  "\\'+;$(": 47360,
  "\\'.": 19655,
  "\\';": 10189,
  "\\';$().(": 46611,
  "\\';(": 24462,
  "\\'<": 41832,
  "\\'>]+)": 9956,
  "\\'>]+)/))){": 10142,
  "\\'@\\'+": 41837,
  "\\'\\": 28569,
  "\\'\\'": 28570,
  "\\'\\';": 41835,
  "\\(\\": 32100,
  "\\(\\'": 2775,
  "\\+": 1988,
  "\\+'};": 42208,
  "\\-": 9344,
  "\\-/,\"/\"+": 15427,
  "\\.)": 16752,
  "\\.))/,'": 30717,
  "\\.à¥¤": 16753,
  "\\.à¥¤\\.))/,'": 30718,
  "\\.à¥¤\\.à¥¤": 21610,
  "\\/": 3319,
  "\\/(": 9281,
  "\\/(?:\\?=": 30273,
  "\\/(\\?(": 10127,
  "\\/))([^": 10020,
  "\\/)à¥¤": 4718,
  "\\/)à¥¤(": 4725,
  "\\/)à¥¤(\\/)à¥¤(": 6698,
  "\\/)à¥¤(\\/)à¥¤(\\/\\/\\": 10100,
  "\\/)à¥¤(\\/)à¥¤(\\?))\\??": 10101,
  "\\/)à¥¤(\\/)à¥¤(\\?))\\???=?([^#\\&\\?": 10168,
  "\\//": 32098,
  "\\/\\": 8529,
  "\\/\\/)?(?:\\.)": 30198,
  "\\/\\/)?(?:\\.)?(?:\\.)\\/(?:\\?=": 31555,
  "\\/\\/\\": 9321,
  "\\/].(": 10019,
  "\\:)": 2776,
  "\\=\\": 19657,
  "\\=\\{": 21662,
  "\\?": 5406,
  "\\?&\\\"": 10068,
  "\\?&\\\"\\'>]+)/))){": 10160,
  "\\?(": 9648,
  "\\?))\\??": 10069,
  "\\?=": 25007,
  "\\??": 9647,
  "\\\\": 4837,
  "\\\\'+": 32099,
  "\\\\',''),": 44656,
  "\\\\\\\\": 24224,
  "\\})": 19656,
  "\\})/)&&.('": 21661,
  "]": 61,
  "]\"": 5469,
  "]\":": 13112,
  "]&&.(": 25013,
  "]&&.(\".-": 31200,
  "]'": 32101,
  "])": 4195,
  "])):": 11193,
  "]),": 21829,
  "]),().(\".-\").(": 14375,
  "]),().(\".-\").('": 15574,
  "]),=.(": 25010,
  "]),=.(\".-\").(\"\"),.(": 31197,
  "]),=.(\".-\").(\"\"),.(\"\",": 31658,
  "]),_": 24714,
  "]).'": 2474,
  "]).(": 25009,
  "]).();'": 4126,
  "]).()}": 31196,
  "]);": 15797,
  "]);==_": 47579,
  "]);[_": 47578,
  "])?[": 15235,
  "])]": 10611,
  "])]:(=([],,),": 11271,
  "])]:(=([],,),&&.&&().(),.([],.)));": 11344,
  "]){": 10610,
  "])})}),": 10612,
  "])})}),},...=(){": 11272,
  "]*": 4277,
  "]*).*/": 10048,
  "]*).*/);&&": 10155,
  "]*)à¥¤&à¥¤": 7068,
  "]*)à¥¤&à¥¤#à¥¤$)": 7093,
  "]+": 9345,
  "]+\"": 7772,
  "]+\"/": 10111,
  "]+'';": 30282,
  "]+(": 13709,
  "]+(\\-": 14274,
  "]+(\\-)?\\//": 47414,
  "]+(\\-à¥¤\\/": 15547,
  "]+(\\-à¥¤\\/)/,\"/\"+..+\"$": 15729,
  "]+/)à¥¤à¥¤": 21500,
  "]+/)à¥¤à¥¤\"/\"==)&&(=\"": 30982,
  "]+/)à¥¤à¥¤\"/\"==)&&(=\"/": 31634,
  "]+/)à¥¤à¥¤.(/\\/[": 30981,
  "]+\\'\"": 30283,
  "]+\\-/,\"/\"+": 15428,
  "]+\\-/,\"/\"+._+\"-\");": 15701,
  "],": 1167,
  "],\"": 39963,
  "],(,){": 7225,
  "],,),": 11051,
  "],.[\"\"+],[\"\"+": 11052,
  "],.[\"\"+],[\"\"+],[\"\"+])):": 11292,
  "],:": 9913,
  "],:,:,:,:,:,:,:": 15455,
  "],:,:,:,:,:,:,:.,:\"": 15709,
  "],:[": 15454,
  "],=": 6910,
  "],=..$.(": 15359,
  "],=.[": 15358,
  "],=[]..$.(": 14903,
  "],={:": 11226,
  "],[": 39964,
  "],[\"\"+": 5823,
  "],[\"\"+])):": 11211,
  "],_": 27953,
  "]-": 13111,
  "].": 6951,
  "].$": 25011,
  "].$..(\"/": 31198,
  "].&&(=": 9652,
  "].&&(=\"://..//\"+[": 10137,
  "].(": 6497,
  "].(\"": 9650,
  "].(\"=\",\"\").(/\"/,\"\").(/'/,\"\");": 10136,
  "].('')}": 45470,
  "].(/\\": 6952,
  "].(/\\+/,": 7083,
  "].(/^": 10088,
  "].(/^.*((.\\/)à¥¤(\\/)à¥¤(\\/\\/\\": 10165,
  "].(/^.*((.\\/)à¥¤(\\/)à¥¤(\\/\\/\\\\/)à¥¤(\\/)à¥¤(\\?))\\???=?([^#\\&\\?": 10174,
  "].(/^.*((.\\/)à¥¤(\\/)à¥¤(\\/\\/\\\\/)à¥¤(\\/)à¥¤(\\?))\\???=?([^#\\&\\?]*).*/);&&": 10177,
  "].)": 14373,
  "].)?.[": 15572,
  "].)}}": 32104,
  "].)}}.": 49948,
  "]..": 13708,
  "]..$": 13113,
  "]..$,..()!=.(": 15530,
  "]..$,..()!=.()&&(,,,,,,,,)}(>=..){(.+\"": 15726,
  "]..$,=[].[": 30496,
  "]..$:": 14374,
  "]..$:\"#\";": 15573,
  "]..$:\"#\";+=(..===?'": 15737,
  "]..(\"\");": 21830,
  "]...": 25008,
  "]:": 5921,
  "]:(": 9649,
  "]:('+.+\"": 15436,
  "]:().(\".-": 15435,
  "];": 2329,
  "];}(": 9986,
  "];}(=\"\"": 10147,
  "];}}[": 28905,
  "]=": 14372,
  "]=(){": 25012,
  "]=(){([": 31199,
  "]=[]": 32103,
  "]?!": 7773,
  "]?\"": 4438,
  "]?\"\":": 5922,
  "]?\"\":\"": 9651,
  "]?\"\":\"\",=\"\"===[": 15317,
  "]?\"\":\"\"===[": 7937,
  "]?\"\":[": 15316,
  "]?[": 25014,
  "][": 2341,
  "][/]": 42736,
  "][/_": 16556,
  "][/_]": 30682,
  "][/_][/_]": 47684,
  "][/_][_][_": 47683,
  "][_": 16555,
  "][_][_": 30681,
  "][__": 21088,
  "][__]": 28917,
  "]]": 2706,
  "]]\"": 21143,
  "]]&&([_": 43103,
  "]]''": 29062,
  "]]'''": 43102,
  "]](_": 21144,
  "]])": 29060,
  "]]).();'": 7266,
  "]],": 3606,
  "]]-": 29061,
  "]];": 5305,
  "]]<": 19232,
  "]]=(){": 43101,
  "]]=_": 29063,
  "]]>": 8728,
  "]][": 32102,
  "]][_": 32105,
  "]]à§ĩ": 23980,
  "]}": 21828,
  "]})": 32106,
  "]à¥¤à¥¤": 4382,
  "]à¥¤à¥¤\"\"!==[": 15250,
  "]à¥¤à¥¤\"\"===..": 5985,
  "]à¥¤à¥¤\"\"===..?\"": 15319,
  "]à¥¤à¥¤\"\"===..?'": 15320,
  "]à¥¤à¥¤\"\"===..?:\"\")+'": 15321,
  "]à¥¤à¥¤\"\"===..à¥¤à¥¤.": 10081,
  "]à¥¤à¥¤\"\"===..à¥¤à¥¤.?\"\":\"": 15482,
  "]à¥¤à¥¤\"\"===..à¥¤à¥¤.?\"\":'": 15483,
  "]à¥¤à¥¤\"\"===[": 15249,
  "]à¥¤à¥¤.(\"\")[": 29583,
  "^": 62,
  "^\",\"": 13115,
  "^\":": 13114,
  "^\\+": 2777,
  "^\\+à¥¤\\+": 2797,
  "^}}": 19658,
  "^à¦¾": 8325,
  "_": 63,
  "_\"": 12611,
  "_\":": 13116,
  "_\">": 18194,
  "_\"]": 25017,
  "_%": 13710,
  "_&&(=.(": 14378,
  "_&=": 21831,
  "_&=&=": 32110,
  "_'": 12612,
  "_');": 5589,
  "_',": 32107,
  "_(": 19659,
  "_)": 9346,
  "_));": 21832,
  "_),.(": 25016,
  "_);": 2646,
  "_)}": 32108,
  "_+\"/\"+": 25018,
  "_,": 13711,
  "_,:": 14377,
  "_,_,": 30553,
  "_-": 13712,
  "_-%": 32109,
  "_-.": 32111,
  "_-_": 24541,
  "_.": 12613,
  "_.\",(.(\"\")[": 30459,
  "_.[/]": 19662,
  "_.___": 47057,
  "_/": 12614,
  "_/${}": 47058,
  "_//": 14376,
  "_//..';": 30600,
  "_////.": 32112,
  "_/?=": 30460,
  "_/_": 19661,
  "_/_/": 30870,
  "_/_//": 30871,
  "_:": 4030,
  "_=": 5407,
  "_=),(_),.(": 29753,
  "_@.": 25015,
  "__": 677,
  "__\"": 16143,
  "__');": 2628,
  "__()": 17223,
  "__);": 4141,
  "__*/": 7185,
  "__.": 13374,
  "__:": 18772,
  "__]": 16144,
  "___": 1472,
  "___&=": 28290,
  "___'": 20900,
  "___'),=": 48398,
  "___(.": 41000,
  "___)": 40996,
  "___);": 7235,
  "___*/": 7236,
  "___,": 19060,
  "___.": 40997,
  "___.)": 40998,
  "___:(": 2479,
  "____": 2925,
  "____,": 43298,
  "_____": 20446,
  "______": 21170,
  "_______": 24016,
  "________": 5765,
  "________________": 12150,
  "__________________": 30413,
  "___________________": 30414,
  "____________________": 46953,
  "________________________________": 24495,
  "___Â®": 40999,
  "__à¥¤": 12840,
  "__à¥¤__à¥¤": 30477,
  "__à¥¤à¥¤": 37450,
  "__à¥¤à¥¤_à¥¤à¥¤": 27040,
  "__à¥¤à¥¤_à¥¤à¥¤_à¥¤à¥¤à¥¤à¥¤_à¥¤_à¥¤à¥¤": 49242,
  "_}": 16754,
  "_}?=${}": 47755,
  "_}}": 19660,
  "_à¥¤": 9653,
  "_à¥¤<": 46502,
  "_à¥¤__à¥¤": 46503,
  "_à¥¤_à¥¤_à¥¤_à¥¤à¥¤": 46504,
  "_à¥¤_à¥¤_à¥¤à¥¤": 21512,
  "_à¥¤_à¥¤_à¥¤à¥¤à¥¤__à¥¤_à¥¤à¥¤à¥¤_à¥¤_à¥¤à¥¤": 48533,
  "_à¥¤_à¥¤à¥¤": 15437,
  "_à¥¤à¥¤": 7964,
  "_à¥¤à¥¤_à¥¤_à¥¤_à¥¤à¥¤": 45931,
  "_à¥¤à¥¤_à¥¤à¥¤": 24381,
  "_à¥¤à¥¤_à¥¤à¥¤_à¥¤à¥¤_à¥¤à¥¤": 48941,
  "_à¥¤à¥¤à¥¤_à¥¤_à¥¤à¥¤": 45932,
  "_à¥¤à¥¤à¥¤à¥¤_à¥¤_à¥¤à¥¤": 45933,
  "_à¥¤à¥¤à¥¤à¥¤à¥¤à¥¤": 45930,
  "`": 64,
  "a": 65,
  "aa": 6599,
  "aacsc": 13032,
  "aacsce": 13072,
  "aae": 45513,
  "aas": 21418,
  "aaÑĢÑĥÑģÑģÐºÐ¸Ð¹": 12569,
  "aaÑĢÑĥÑģÑģÐºÐ¸Ð¹aÑģÑĢÐ¿ÑģÐºÐ¸": 13060,
  "ai": 21833,
  "an": 32113,
  "are": 25019,
  "as": 32114,
  "aÉ°": 32118,
  "aËĲ": 32116,
  "aËĲai": 49949,
  "aÑģÑĢÐ¿ÑģÐºÐ¸": 12615,
  "aàªĹ": 32115,
  "aç®Ģä½ĵä¸Ńæĸĩç¹ģé«Ķä¸Ńæĸĩ": 12616,
  "aç²": 32117,
  "aç²¤è¯": 49950,
  "b": 66,
  "ben": 25020,
  "bsc": 32119,
  "c": 67,
  "ce": 19663,
  "co": 32120,
  "comm": 49951,
  "cs": 4865,
  "csc": 8097,
  "csnà¤¹": 44667,
  "cÐ±ÑĬÐ»Ð³Ð°ÑĢÑģÐºÐ¸": 32122,
  "c×¢": 21834,
  "cæĹ¥æľ¬èªŀ": 32121,
  "cæĹ¥æľ¬èªŀà¤¹": 49952,
  "d": 68,
  "dy": 32123,
  "dà¦¸à¦®": 32124,
  "e": 69,
  "eaaÑĢÑĥÑģÑģÐºÐ¸Ð¹": 32127,
  "eaaÑĢÑĥÑģÑģÐºÐ¸Ð¹Ø³ÙĨÚĮÙĬà·ĥ": 49953,
  "ee": 21835,
  "ef": 25021,
  "efit": 31201,
  "en": 18195,
  "endy": 47995,
  "ent": 47994,
  "enÑĢÑĥÑģÑģÐºÐ¸Ð¹Ø§ÙĦØ¹Ø±Ø¨ÙĬØ©": 47996,
  "er": 21836,
  "eà¦¤": 32125,
  "eà¨ª": 10613,
  "eàºŀàº²àºªàº²àº¥àº²àº§": 32126,
  "f": 70,
  "fo": 32128,
  "forman": 49954,
  "ft": 25022,
  "g": 71,
  "h": 72,
  "ha": 16755,
  "he": 25023,
  "hi": 32129,
  "i": 73,
  "ib": 32130,
  "ice": 25026,
  "ieàºŀàº²àºªàº²àº¥àº²àº§": 32139,
  "ieàºŀàº²àºªàº²àº¥àº²àº§u": 49956,
  "ik": 32131,
  "in": 25024,
  "io": 8995,
  "it": 25025,
  "iËĪÉ": 32137,
  "iËĪÉĶÉ¾": 49955,
  "iÐºÑĭÑĢÐ³ÑĭÐ·": 32138,
  "ià¦§à¦¯": 32136,
  "ià¦¬": 32134,
  "ià¦°": 32132,
  "ià¦°à¦¸à¦¹": 32135,
  "ià¦ķ": 32133,
  "j": 74,
  "jËĲ": 32140,
  "k": 75,
  "l": 76,
  "m": 77,
  "man": 32142,
  "mm": 32141,
  "n": 78,
  "ncs": 12189,
  "ncsu": 12590,
  "nd": 19664,
  "nà¤¹": 32146,
  "nà¦¬": 32143,
  "nà¦¯": 25027,
  "nà¦¸": 32144,
  "nà¦Ĩà¦°": 32145,
  "nà¦ķ": 25028,
  "nà¦ķà¦°": 25029,
  "nà®¤à®®": 21837,
  "o": 79,
  "oft": 25032,
  "oo": 32147,
  "oÊĥ": 32155,
  "oÊĥÉ²ËĲ": 49957,
  "oà¦¯": 32148,
  "oà¦¶": 25030,
  "oà¦¸à¦ķ": 32151,
  "oà¦¹à¦°à¦®": 32156,
  "oà¦ħà¦¨": 32152,
  "oà¦Ĩà¦ªà¦¨": 32153,
  "oà¦ī": 32150,
  "oà¦īà¦¸": 32154,
  "oà¦īà¦Ł": 25031,
  "oà¦ķ": 16756,
  "oà¦ĸ": 32149,
  "p": 80,
  "per": 32157,
  "q": 81,
  "r": 82,
  "re": 18196,
  "rib": 32158,
  "rman": 32159,
  "s": 83,
  "saas": 25033,
  "sc": 21838,
  "sha": 32163,
  "share": 49959,
  "shi": 32164,
  "shih": 49960,
  "sÑģÑĢÐ¿ÑģÐºÐ¸": 32162,
  "sÑģÑĢÐ¿ÑģÐºÐ¸ÉĻÙģØ§Ø±Ø³ÛĮ": 49958,
  "sà¦¤": 32160,
  "sà¦¦à¦°": 32161,
  "t": 84,
  "tm": 19665,
  "u": 85,
  "ua": 12617,
  "ubsc": 32166,
  "uc": 5773,
  "ucaa": 45142,
  "ucÑĥÐºÑĢÐ°ÑĹÐ½ÑģÑĮÐºÐ°Ø§Ø±Ø¯ÙĪ": 13020,
  "uo": 32165,
  "v": 86,
  "vice": 25034,
  "w": 87,
  "ware": 25035,
  "we": 32167,
  "wha": 18197,
  "what": 19516,
  "x": 88,
  "y": 89,
  "yà¦ķ": 32168,
  "yà¦ľ": 32169,
  "z": 90,
  "{": 91,
  "{\"\":": 19666,
  "{\"\":\"\",\"\":\"\",\"\":": 48255,
  "{\"\":\"-\"}": 48254,
  "{\"-": 32170,
  "{(": 10614,
  "{(\"#\").()}": 14382,
  "{(\"#\").()}});((){(\"#": 15576,
  "{(.": 25038,
  "{-:": 14380,
  "{-:;": 18099,
  "{.$": 14379,
  "{:": 2287,
  "{:\"\",:": 3964,
  "{:\"\",:\".": 6694,
  "{:\"#-": 28889,
  "{:(": 7115,
  "{:(){(": 11136,
  "{:(,,){": 7318,
  "{:,:})}": 9982,
  "{:.+": 11134,
  "{:.-.-.(,\"\",!": 11135,
  "{:..,:": 15093,
  "{:===[": 15092,
  "{:===à¥¤à¥¤\"\"===à¥¤à¥¤": 9981,
  "{:{{{": 42666,
  "{=.(),=": 10615,
  "{=.(),=.,=.à¥¤à¥¤.;(": 11273,
  "{=}": 14381,
  "{=}+=(..>": 15575,
  "{[": 25036,
  "{_}": 18198,
  "{_}/{_}": 30787,
  "{{": 3369,
  "{{#": 12998,
  "{{#(": 24525,
  "{{#()}}": 24526,
  "{{#}}": 19460,
  "{{#}}{{{}}}": 21652,
  "{{#}}{{{}}}{{/}}{{^}}": 21733,
  "{{(": 43716,
  "{{(.,": 17947,
  "{{/}}": 13596,
  "{{/}}{{^}}": 21578,
  "{{:": 25037,
  "{{:--à¥¤": 49082,
  "{{:-à¥¤": 49081,
  "{{^}}": 21214,
  "{{{": 12542,
  "{{{}}}": 21553,
  "{{}}": 12543,
  "{}": 4383,
  "{}\")": 13618,
  "{}\",\"\");": 13619,
  "{});": 19667,
  "{},": 13117,
  "{},=,=": 15251,
  "{};": 9347,
  "|": 92,
  "}": 93,
  "}${": 25039,
  "}%;": 19670,
  "}%;',':${": 21663,
  "}';}": 25040,
  "}(": 5470,
  "}(\"_": 15297,
  "}(\"_\",);$(\".-\").(\"-\",+\"\");": 15673,
  "}(,": 29770,
  "}(=.('.__": 44983,
  "}(>": 15296,
  "})": 16757,
  "}));": 32173,
  "}))}": 32174,
  "}),(\"#": 14386,
  "}),(\"#-,": 15578,
  "}),().(": 14384,
  "}).(": 19669,
  "}).().(": 9655,
  "});": 2720,
  "});$(\\'.": 43123,
  "});'": 3038,
  "});((){(\"#": 15133,
  "});.()}": 43122,
  "})}": 4615,
  "})})),.(\"{}\")": 29643,
  "})})),.(\"{}\")&&(.('": 31495,
  "})}),$(": 25041,
  "})}),(\".-": 15262,
  "})})}": 29642,
  "})})})}": 15260,
  "})}{.$": 15261,
  "})}{.$.(\"": 15666,
  "})}}": 5535,
  "})}},=(": 15299,
  "})}},=(,,,,,,,,){(": 15675,
  "})}}{": 7934,
  "}+='": 14385,
  "},": 3222,
  "},!!": 21204,
  "},\"\");": 15171,
  "},(,){": 5834,
  "},))),!=.&&(.=.-.+": 11173,
  "},...=(){": 11172,
  "},..=(){": 15173,
  "},..=(,,){": 11171,
  "},:(){": 6824,
  "},:(){([": 11223,
  "},:(){},:(){": 15352,
  "},=(,){": 15172,
  "},=(,){.(\"\",),.&&.(\"\",..(\"\",": 15644,
  "},=(,){.(\"\",),.&&.(\"\",..(\"\",)),.&&.(\"\",.+)},=(){(\"#_\"!=.){": 15754,
  "}.": 32171,
  "}..(": 14383,
  "}..();": 15577,
  "}:": 10616,
  "};": 3763,
  "};','-": 29418,
  "};','-:${": 31469,
  "};',':${": 17959,
  "};'];": 29417,
  "};'];[": 31468,
  "};(": 10190,
  "};(\"\"===.(,\"\"))=.();": 11262,
  "};(\"\"===.(,\"\"))=.();{=.(),=.,=.à¥¤à¥¤.;(": 11341,
  "};(\"\"===.(,\"\"))=.();{=.(),=.,=.à¥¤à¥¤.;(&&(===.à¥¤à¥¤===.)&&\"\"===.(,\"\"))=.;&&!==&&": 11354,
  "};(--)(": 46612,
  "};=.({},,": 10033,
  "};=.({},,),.((\"\"===.?..+\"//\"+..:.)+\"": 15473,
  "};=.({},,),.((\"\"===.?..+\"//\"+..:.)+\"///\"+(.===!": 15712,
  "};=.({},,);": 15472,
  "}=+": 32175,
  "}=+;+=.(": 49961,
  "}[": 19668,
  "}]": 18199,
  "}];": 32172,
  "}{": 9654,
  "}{-=": 15438,
  "}{=\"\"}(": 15439,
  "}}": 2275,
  "}})": 28881,
  "}});": 23899,
  "}});$(\\'.": 48843,
  "}},": 12981,
  "}},);": 15527,
  "}}-": 42659,
  "}}.": 42660,
  "}};": 28882,
  "}}</>": 12982,
  "}}[": 28883,
  "}}}": 14169,
  "}}}]]\"": 47368,
  "}}}}": 28884,
  "}}}}},": 49461,
  "}}}à¥¤=}}": 47369,
  "}}}à¥¤{{{": 47370,
  "~": 94,
  "~'": 32176,
  "~-": 32177,
  "~:=%": 32178,
  "~}": 21839,
  "~~": 5845,
  "~~~": 15313,
  "~~~~": 21390,
  "~~~~~": 21391,
  "¡": 95,
  "¡¶": 32179,
  "¡¶åĨħå£": 49962,
  "¡Ð¾ÑĢ": 19671,
  "¡Õ": 9348,
  "¡Ù": 10191,
  "¡à¸«": 32182,
  "¡áĢĻ": 32180,
  "¡ä¸Ĭ": 32181,
  "¡éªĤ": 32183,
  "¡Ĭ": 21840,
  "¢": 96,
  "¢¦": 32184,
  "¢«": 32185,
  "¢Ù": 16758,
  "¢à¸ģà¸£": 32192,
  "¢à¸ĩ": 32188,
  "¢å¿": 32189,
  "¢åįİ": 32195,
  "¢åıĸ": 25042,
  "¢åŃĹ": 32191,
  "¢æľīå«ĸçļĦ": 32196,
  "¢æĿ±": 25043,
  "¢çĪ¸": 32190,
  "¢éł": 32193,
  "¢ðŁĺ¢": 32194,
  "¢ĥ": 32186,
  "¢Ĭ": 32187,
  "¢ĵ": 9349,
  "£": 97,
  "£_": 21841,
  "£Ù": 21842,
  "£à¦¾": 32197,
  "£à°µ": 32200,
  "£áĥ": 8996,
  "£áĥļáĥ": 9324,
  "£áł": 16759,
  "£ãģĹãģ": 32199,
  "£ãĥª": 32201,
  "£æķ": 32198,
  "¤": 98,
  "¤×": 32202,
  "¤×Ļ×": 32205,
  "¤Ù": 19672,
  "¤à®®": 3084,
  "¤ãģĦãģ": 32208,
  "¤æ": 32203,
  "¤æĸŃ": 32207,
  "¤æĸŃãģĹãģ¾ãģĹãģ¦": 49964,
  "¤æļ´å®": 49963,
  "¤è¯": 32206,
  "¤ï¸ı": 10192,
  "¤į": 32204,
  "¥": 99,
  "¥±æ": 32214,
  "¥½": 32209,
  "¥¿": 18200,
  "¥Ù": 25044,
  "¥à§Ģ": 32210,
  "¥àº²àº": 9350,
  "¥àº²àº§": 9613,
  "¥áĥĲ": 8997,
  "¥ä¸»ä¹ī": 32215,
  "¥ä¹ħ": 32213,
  "¥æĪĲ": 32212,
  "¥æį¢åıĸ": 32216,
  "¥æį¢åıĸéĩĳéĴ±": 49965,
  "¥çļĦ": 32211,
  "¥Ń": 25045,
  "¥ŃèĤ¡ä»½æľī": 49083,
  "¦": 100,
  "¦Ù": 32217,
  "¦à´Ļ": 25048,
  "¦ãģ": 21843,
  "¦ãģĦãģŁçļ": 48592,
  "¦ãģĬ": 31030,
  "¦ãģĬãĤĬãģ¾ãģĽãĤĵ": 49806,
  "¦ãģĬçŁ¥ãĤī": 49805,
  "¦å±": 25047,
  "¦åĩº": 32219,
  "¦æ": 25046,
  "¦æ¥ŃèĤ¡ä»½æľī": 49084,
  "¦æĸ¹": 25049,
  "¦ç¢": 32222,
  "¦çļĦ": 32218,
  "¦çļĦåĬ³åĬ¨": 49966,
  "¦è§£": 32220,
  "¦è§£åĽ½æĹı": 49967,
  "¦éªĤ": 32221,
  "¦éªĤéªĤåįĹ": 49968,
  "¦ģ": 14387,
  "§": 101,
  "§×Ļ×": 32226,
  "§×Ļ×ł×¡": 49969,
  "§Ù": 21844,
  "§à¥": 32225,
  "§àª¨": 32228,
  "§ä¸ļ": 32230,
  "§å®¹": 32231,
  "§åĽ½": 32227,
  "§ç»": 32229,
  "§ê¦": 21845,
  "§ê¦±ê¦": 24715,
  "§ïĢł": 21846,
  "§ðŁĩ": 16760,
  "§ðŁĩ©": 18124,
  "§ðŁĩ©ðŁĩ§ðŁĩ©ðŁĩ§ðŁĩ©": 47973,
  "§ĺ": 32223,
  "§Ļ": 32224,
  "¨": 102,
  "¨:": 32232,
  "¨¡": 25050,
  "¨×¡": 32242,
  "¨Ù": 18201,
  "¨Ù¦": 47997,
  "¨ãģ": 25051,
  "¨ä¸Ģ": 32236,
  "¨ä¸Ģä¸ĭçļĦ": 49972,
  "¨å¤": 32235,
  "¨å¤§": 32237,
  "¨å¤§åģĩè±¡": 49973,
  "¨å¤©": 32241,
  "¨å¤´çł": 49971,
  "¨å¹£": 25054,
  "¨åº": 25052,
  "¨åºĬ": 31202,
  "¨åĪ": 32238,
  "¨åĭ": 32239,
  "¨æľ": 32234,
  "¨æľ«": 49970,
  "¨ç«": 32240,
  "¨çĪ¸å¦Ī": 25053,
  "¨çļĦ": 32233,
  "©": 103,
  "©¶": 32243,
  "©Ù": 16761,
  "©à¸²": 18202,
  "©áł": 21847,
  "©áłŃáł£áł": 24716,
  "©ãĤ¤": 32246,
  "©å·": 32244,
  "©çľĭ": 32245,
  "©ðŁĳıðŁĳıðŁĳıðŁĳı": 32247,
  "ª": 104,
  "ª«": 32248,
  "ªà¸§": 32251,
  "ªà¸²à¸£": 32256,
  "ªàº²àº": 10617,
  "ªàº²àº¥àº²àº§": 11274,
  "ªãģ": 21848,
  "ªãģĮãĤī": 31031,
  "ªãĤĬãģ¾": 32259,
  "ªä¸į": 32250,
  "ªå§": 32255,
  "ªå§¦": 49975,
  "ªç§°": 32257,
  "ªç§°åİķçº¸çİĭ": 49976,
  "ªç»Ļ": 32258,
  "ªç»Ļä½łæī¾": 49977,
  "ªçĿ": 32253,
  "ªçĿĢçļĦæ°ĳæĹı": 49974,
  "ªè´¹": 32254,
  "ªèĢ": 32252,
  "ªģ": 32249,
  "ªĴ": 25055,
  "«": 105,
  "«à¸¡": 32261,
  "«à¸¡à¹ģà¸ŀ": 49979,
  "«à¸ķ": 25056,
  "«å¤§": 32260,
  "«å¤§çĦīçļĦ": 49978,
  "«æĺŁ": 32262,
  "«æĺŁåĴĮéĹªèĢ": 49980,
  "«çĶŁ": 32263,
  "«éľ²": 25057,
  "«ĸ": 18203,
  "¬": 106,
  "¬¼": 32264,
  "¬à¦¾à¦Ĥ": 32266,
  "¬à¸ª": 25058,
  "¬áł¡": 21849,
  "¬äº": 32267,
  "¬å¯": 32268,
  "¬åŃ¦": 32269,
  "¬æ": 32265,
  "¬æ¡¶åĨħå£": 49981,
  "¬æķ´": 32270,
  "¬æķ´é¡¿é«ĺçº§": 49982,
  "®": 107,
  "®ÏĤ": 32271,
  "®à´²": 3435,
  "®à´²à´¯": 3450,
  "®áĢ¸": 32274,
  "®áł£áł": 21850,
  "®ãĥª": 32278,
  "®ä¸ŃåĽ½äºº": 32276,
  "®ä»·": 32275,
  "®ä»·å¤ªé«ĺ": 49984,
  "®å¹´": 32273,
  "®çĽĺ": 32279,
  "®éĢļ": 32277,
  "®éĢļè¯Ŀà¦¬": 49985,
  "®éĴ±": 32272,
  "®éĴ±çļĦæĺİæĺŁ": 49983,
  "®ðŁĩ": 25060,
  "®ĭ": 25059,
  "®ĭå¿µãģ": 31203,
  "®ĭå¿µãģªãģĮãĤī": 31659,
  "¯": 108,
  "¯Î±": 25061,
  "¯ÙĨØ§": 32281,
  "¯áł¡": 21851,
  "¯å": 32280,
  "¯å¥": 32283,
  "¯å¥½èº«": 49986,
  "¯å®": 32282,
  "¯æĮģ": 32285,
  "¯æĮģçļĦåįĢå¡ĬéįĬç¶²": 49987,
  "¯æķ": 32284,
  "¯çĦ¶": 32286,
  "¯çĦ¶è´¨æĥħ": 49988,
  "°": 109,
  "°Õ¡Õ": 10194,
  "°Û°": 32288,
  "°å¤ª": 32292,
  "°å¤ªå°ĳ": 49991,
  "°å¨": 32291,
  "°å¨ģèĥ": 49990,
  "°åĪ": 25062,
  "°åĪ°é©": 49085,
  "°æĪ": 32287,
  "°ç": 10193,
  "°ç²ī": 30335,
  "°çļĦä¸»è¦ģ": 32294,
  "°é©": 32293,
  "°ðŁĳı": 32290,
  "°ðŁĳı#": 49989,
  "°ðŁĴ": 32289,
  "±": 110,
  "±¡": 32295,
  "±»": 25063,
  "±Õ": 32296,
  "±ÙĦ": 2099,
  "±Û": 5344,
  "±á´Ľ": 32308,
  "±á´Ľá´ĢÊĢ": 49995,
  "±ä¸Ĭ": 32300,
  "±ä¸ļ": 32303,
  "±ä¹": 25065,
  "±ä¼": 32299,
  "±åħ¥": 32307,
  "±åĨ°ç²ī": 32309,
  "±æ": 25064,
  "±æĺŁ": 32304,
  "±æŃ": 32306,
  "±çľ": 32301,
  "±è®": 32302,
  "±è®ĢèĪ": 49993,
  "±è´": 25066,
  "±è´Łè¿ľ": 49086,
  "±èĩª": 32305,
  "±èĩªä¸»åľ°ç": 49994,
  "±ê¦": 21852,
  "±ī": 32297,
  "±ł": 32298,
  "±łéĩįæĸ°æ¿Ģæ´»": 49992,
  "²": 111,
  "²¨å¹£": 25069,
  "²ËĲ": 32314,
  "²Û°": 32312,
  "²à¨": 25068,
  "²àº": 5590,
  "²âĢ²": 32311,
  "²ä¸ª": 32313,
  "²å¿ĥ": 32315,
  "²åīį": 32316,
  "²é": 32310,
  "²éº»": 49996,
  "²ī": 25067,
  "³": 112,
  "³»": 32317,
  "³Û´": 32319,
  "³Û¹": 8530,
  "³Û¹Û": 8752,
  "³à¤®": 32318,
  "³ãĤº": 32323,
  "³ä½¿": 25071,
  "³åĬ": 25070,
  "³åĬ¨": 31204,
  "³åĬ¨æĳ": 49849,
  "³åĬłå¯Ĩ": 32322,
  "³åĬłå¯Ĩäº¤æĺĵå¹³åı°": 49998,
  "³æĪĳä»¬": 32320,
  "³æĪĳä»¬åĽ½å®¶çļĦ": 49997,
  "³è£Ĥ": 32324,
  "³èĻ": 32321,
  "´": 113,
  "´¾": 12618,
  "´¿": 12619,
  "´Ûµ": 32331,
  "´à¼ĭ": 32333,
  "´ãĤ": 32330,
  "´ãĤĴæĬ": 50000,
  "´ä¸į": 32328,
  "´ä¸Ń": 32327,
  "´ä¸Ńå¿ĥ": 49999,
  "´å®": 32329,
  "´æµģ": 32337,
  "´æľīå«ĸçļĦ": 32339,
  "´æľīå«ĸçļĦéĹ²å¿ĥ": 50002,
  "´çĬ": 32334,
  "´çļĦéĹ®é¢ĺ": 32336,
  "´çł": 32335,
  "´è¿ĺ": 32332,
  "´è¿ĺæĺ¯éĤ£": 50001,
  "´ìĬ¤": 32338,
  "´Ģ": 32325,
  "´Ľ": 32326,
  "µ": 114,
  "µ¡ä¸Ĭ": 32348,
  "µÕ¡Õ": 32340,
  "µÕ¡Õ¶": 50003,
  "µÕ¥": 10195,
  "µÕ¥ÖĢ": 10577,
  "µÙĢ": 25072,
  "µãģ": 25073,
  "µä½ľ": 32343,
  "µæķ": 32342,
  "µçĬ": 32344,
  "µè¶Ĭ": 32346,
  "µèĲ": 32345,
  "µèĲ¥çļĦ": 50004,
  "µéĺ": 32347,
  "µéĺŁ": 50005,
  "µðŁĩ": 32341,
  "µŃ": 5995,
  "¶": 115,
  "¶²": 25074,
  "¶ä¹ł": 32355,
  "¶å·¥": 32352,
  "¶åħ¥": 32353,
  "¶åľ°": 32354,
  "¶æ": 32349,
  "¶æĪĳ": 32350,
  "¶ç²": 32351,
  "¶èĥ": 25075,
  "¶èĥĮèĵ": 49087,
  "¶èĥľä¹ĭ": 49088,
  "·": 116,
  "·.": 32356,
  "·Ð¸Ðº": 10618,
  "·Õ": 32357,
  "·Õ«": 50006,
  "·àª¨": 32360,
  "·à®": 25076,
  "·à®·": 49089,
  "·à²£": 14388,
  "·à´": 25077,
  "·áĢº": 32361,
  "·ä½ĵ": 32359,
  "·æĺ¯": 32358,
  "·çĬ¶": 32363,
  "·çļĦåŃĹ": 32362,
  "·çļĦåŃĹè¿¹": 50007,
  "¸": 117,
  "¸¡": 32364,
  "¸Õ": 32365,
  "¸å": 25078,
  "¸å¿ĥ": 25079,
  "¸å¿ĥä»·åĢ": 49091,
  "¸å¿ĥåĪ©": 49090,
  "¸åħ´": 32371,
  "¸åĩº": 32368,
  "¸åŃĹ": 32369,
  "¸åŃĹåªĴé«Ķåħ§å®¹": 50008,
  "¸æ¯": 32366,
  "¸æ°": 32367,
  "¸ç¢": 32372,
  "¸ç¢İåį": 50009,
  "¸èĽ": 32370,
  "¸ìļ°": 32373,
  "¸ı": 4616,
  "¹": 118,
  "¹¦åĩº": 32380,
  "¹¾": 32374,
  "¹¿": 32375,
  "¹Û³": 32378,
  "¹ä¹ĭ": 32379,
  "¹ä»¬": 18204,
  "¹å": 32376,
  "¹åĪĴçļĦæľª": 50010,
  "¹æľ¬": 32377,
  "¹æł": 21853,
  "¹æł¼": 31032,
  "¹ðŁĮ": 25080,
  "¹ģ": 5536,
  "º": 119,
  "º«": 25081,
  "º»": 32381,
  "ºà¼ĭ": 32385,
  "ºä¼ļ": 21854,
  "ºä¼ļä¸»ä¹ī": 48593,
  "ºå¸": 32384,
  "ºçĹ": 25082,
  "ºèħ": 32386,
  "ºèħĶ": 50011,
  "ºï¸ı": 8326,
  "ºĲ": 32382,
  "ºĸ": 32383,
  "»": 120,
  "»à¶§à¶ļ": 32396,
  "»ä¼ļ": 25083,
  "»å¯": 32388,
  "»å¯¦æ¥ŃèĤ¡ä»½æľī": 50012,
  "»åħ¥": 32390,
  "»åħ¥ç¶²ç«Ļæīį": 50014,
  "»åıĬ": 32394,
  "»åıĬç»ıæµİçİ°": 50016,
  "»æ´»": 32395,
  "»ç£": 32392,
  "»çľ¼": 32391,
  "»çľ¼äºĨ": 50015,
  "»çŃ": 32393,
  "»ðŁĮ": 32389,
  "»ðŁĮ·.": 50013,
  "»į": 32387,
  "¼": 121,
  "¼-â§": 32405,
  "¼Ö": 32397,
  "¼ÖģÕ¥": 50017,
  "¼à¬¿": 4331,
  "¼à´¤": 21855,
  "¼à¼ĭ": 32403,
  "¼ãģ": 32400,
  "¼ãģķãģ": 50018,
  "¼åı": 32401,
  "¼åıĹåĪ": 50019,
  "¼åł": 32402,
  "¼èĢħ": 32404,
  "¼èĢħçļĦè§": 50020,
  "¼ģ": 32398,
  "¼ĭ": 19673,
  "¼ł": 32399,
  "½": 122,
  "½Õ¡Õ": 32407,
  "½äºº": 32409,
  "½äººæĦı": 50021,
  "½æĤ": 32410,
  "½æľī": 32408,
  "½èº«": 32411,
  "½Ĳ": 25084,
  "½Ĳä¹ĭç±»": 49092,
  "½ĳ": 32406,
  "¾": 123,
  "¾Ø±": 32413,
  "¾Ú": 8998,
  "¾ÚļØª": 10125,
  "¾à¦¾": 32412,
  "¾ãģĹãģ¦": 32417,
  "¾ä¼ļ": 21856,
  "¾å®¢": 32416,
  "¾è½": 32415,
  "¾è½¦": 50022,
  "¾é¦": 32414,
  "¿": 124,
  "¿ãģ«": 32421,
  "¿æ²": 32420,
  "¿çļĦ": 32419,
  "¿çļĦæĮºæ¼Ĥäº®": 50023,
  "¿çĿĢ": 32422,
  "¿çĿĢä¸įåĲĪæ³ķçļĦéĴ±æĿ¥": 50024,
  "¿Ģ": 25085,
  "¿ĸ": 32418,
  "¿Ŀ": 25086,
  "À": 125,
  "Á": 126,
  "Â": 127,
  "Â¡": 7464,
  "Â¡à¦¾": 30068,
  "Â£à¦¾": 32424,
  "Â¤": 5096,
  "Â¤Â¦": 44797,
  "Â¤à§į": 21361,
  "Â¥à§Ģ": 32425,
  "Â¦": 5471,
  "Â¦à¦¾": 18005,
  "Â¦à¦Ĥ": 44985,
  "Â¦à§Ģ": 44984,
  "Â§": 18205,
  "Â©": 1242,
  "Â¬": 6320,
  "Â¬Â¬à¦¾": 24323,
  "Â¬à¦¾": 10573,
  "Â¬à¦¾,": 19382,
  "Â¬à¦¾à¦Ĥ": 45389,
  "Â®": 2909,
  "Â°": 3136,
  "Â°)": 43481,
  "Â·": 6079,
  "Â·))": 45297,
  "Â¿": 19674,
  "Â¿)": 48256,
  "Â¿),": 48257,
  "Âģ": 15798,
  "ÂĲ": 32423,
  "Ã": 128,
  "Ã¦": 5306,
  "Ã¦Éª": 29734,
  "Ã·": 9656,
  "Ã¾": 25087,
  "ÃĹ": 4727,
  "ÃĹÃĹ": 14228,
  "ÃĹÃĹÃĹÃĹ": 24560,
  "ÃĹÃĹÃĹÃĹ'": 31157,
  "ÃŁ": 10196,
  "Ä": 129,
  "Å": 130,
  "Åĭ": 25088,
  "ÅĭËĪÉª": 49093,
  "Åĵ": 3814,
  "Åĵà¦¤": 11187,
  "Åĵà¦¤à¦ķ": 44065,
  "Åĵà¦¬": 29434,
  "Åĵà¦®": 44064,
  "Åĵà¦°": 29432,
  "Åĵà¦¹": 16601,
  "Åĵà¦¹à¦§": 47691,
  "Åĵà¦¹à¦§à¦¨": 47692,
  "Åĵà¦ķ": 29433,
  "Åĵà¦ķà¦ķ": 44066,
  "Åĵà¦Ĺ": 29435,
  "Æ": 131,
  "ÆĴ": 21857,
  "Ç": 132,
  "È": 133,
  "É": 134,
  "Éª": 19675,
  "É°": 25089,
  "É²ËĲ": 32430,
  "É¾": 32426,
  "ÉĲ": 32427,
  "ÉĴ": 32428,
  "ÉĴÅĭËĪÉª": 50025,
  "ÉĶ": 32429,
  "ÉĻ": 6717,
  "ÉĻe": 45555,
  "ÉĻÙģØ§Ø±Ø³ÛĮ": 45556,
  "Ê": 135,
  "Ê»": 25090,
  "ÊĢ": 32431,
  "Êĥ": 25091,
  "ÊĥËĲ": 49094,
  "Êľá´": 32433,
  "ÊŁ": 32432,
  "ÊŁá´ıá´": 50026,
  "Ë": 136,
  "ËĪ": 12620,
  "ËĪÃ¦Éª": 30462,
  "ËĪÉ": 16679,
  "ËĪÉª": 30702,
  "ËĪÉªËĲ": 49739,
  "ËĪÉĲ": 30703,
  "ËĪÉĳ": 30704,
  "ËĪÉĳjËĲ": 49740,
  "ËĪÉĳËĲÉª": 49741,
  "ËĪËĲ": 30461,
  "ËĪËĲÉª": 49695,
  "ËĲ": 13118,
  "ËĲÉª": 47156,
  "Ì": 137,
  "Ì°": 32434,
  "ÌĢ": 32435,
  "Ìģ": 21858,
  "Ìģ-": 48594,
  "ÌĤ": 32436,
  "Ìĥ": 21859,
  "ÌĦ": 10197,
  "ÌĪ": 8327,
  "ÌĪà¦¾": 13041,
  "ÌĬ": 21860,
  "ÌĮ": 21861,
  "Í": 138,
  "Î": 139,
  "Î¬": 5707,
  "Î¬Î³": 45102,
  "Î¬Î´": 45103,
  "Î®ÏĤ": 32438,
  "Î¯Î±": 25096,
  "Î±": 11363,
  "Î²": 25092,
  "Î³": 25093,
  "Î³Î¯Î±": 49095,
  "Î´": 25094,
  "Îµ": 5345,
  "ÎµÎ¹Î": 44910,
  "ÎµÎ»Î»": 6071,
  "ÎµÎ»Î»Î·Î½Î¹ÎºÎ¬": 6154,
  "ÎµÎ»Î»Î·Î½Î¹ÎºÎ¬n": 45325,
  "ÎµÎ»Î»Î·Î½Î¹ÎºÎ¬Ð±ÑĬÐ»Ð³Ð°ÑĢÑģÐºÐ¸": 12566,
  "ÎµÎ»Î»Î·Î½Î¹ÎºÎ¬×¢": 45326,
  "ÎµÎ»Î»Î·Î½Î¹ÎºÎ¬àªĹ": 13025,
  "ÎµÏĤ": 21369,
  "ÎµÏĦ": 21368,
  "ÎµÏĦÎ¹ÎºÎŃ": 21712,
  "ÎµÏĦÎ¹ÎºÎŃÏĦÎµÏĤ": 21735,
  "Î·": 5996,
  "Î·Î½Î¹ÎºÎ¬": 6153,
  "Î¸": 32437,
  "Î¹": 5307,
  "Î¹Î": 5639,
  "Î¹Îº": 5839,
  "Î¹ÎºÎ¬": 6150,
  "Î¹ÎºÎŃ": 21389,
  "Î¹Î¿": 29806,
  "Î¹Ïĥ": 44894,
  "Î¹ÏĦ": 21366,
  "Î¹ÏĦÎ¹Ïĥ": 48489,
  "Îº": 25095,
  "Î»": 4156,
  "Î»Î»": 5917,
  "Î¼": 13713,
  "Î¼ÏĮ": 47263,
  "Î¼à¦®": 19474,
  "Î½": 5923,
  "Î½Î·": 45217,
  "Î½Î¹ÎºÎ¬": 6151,
  "Î½Î¹Î¿": 45218,
  "Î¿": 16762,
  "Î¿Îº": 47756,
  "Î¿Ï": 30719,
  "Î¿ÏĤ": 24601,
  "Î¿Ïħ": 49744,
  "ÎŃ": 18206,
  "ÎŃÎ²": 47998,
  "Ï": 140,
  "ÏĢ": 21862,
  "ÏĢÎ¿Îº": 48595,
  "Ïģ": 19676,
  "ÏģÎ¬": 24667,
  "ÏģÎ¹ÏĦ": 48258,
  "ÏĤ": 13714,
  "Ïĥ": 19677,
  "ÏĥÎ¹ÏĦ": 30872,
  "ÏĥÎŃÎ²": 48259,
  "ÏĦ": 11364,
  "ÏĦÎµÏĤ": 21537,
  "ÏĦÎ¿ÏĤ": 46876,
  "ÏĮ": 25097,
  "ÏĮÎ½Î·": 49096,
  "Ïį": 32439,
  "Ð": 141,
  "Ð°": 2036,
  "Ð°Ð´": 42298,
  "Ð°ÐµÑĤ": 42300,
  "Ð°Ð·": 5758,
  "Ð°Ð·Ð°": 7453,
  "Ð°Ð·Ð°Ð´": 45787,
  "Ð°Ð·Ð¸Ðº": 10571,
  "Ð°Ð»": 16532,
  "Ð°Ð¼": 42297,
  "Ð°Ð½": 17836,
  "Ð°Ð½Ð¸Ñı": 47878,
  "Ð°Ð½ÑĮ": 47877,
  "Ð°Ñ": 4470,
  "Ð°ÑĢ": 5829,
  "Ð°ÑĢÐ°Ñ": 42299,
  "Ð°ÑĢÐ¸": 29843,
  "Ð°ÑĩÐºÐ¸": 44461,
  "Ð°ÑĪÒ¡Ð¾ÑĢ": 21317,
  "Ð°Ñı": 8744,
  "Ð±": 4310,
  "Ð±ÐµÐ»Ð°": 29556,
  "Ð±ÐµÐ»Ð°ÑĢÑĥÑģÐºÐ°Ñı": 29557,
  "Ð±ÐµÐ»Ð°ÑĢÑĥÑģÑĮ": 31484,
  "Ð±Ð¸Ñĺ": 44338,
  "Ð±Ð¾ÑģÐ°Ð½": 44336,
  "Ð±Ð¾ÑĪ": 44337,
  "Ð±Ñ": 5984,
  "Ð±ÑĥÐº": 44335,
  "Ð±ÑħÐ¸": 29872,
  "Ð±ÑĨÑĭ": 45235,
  "Ð±ÑĬÐ»": 6231,
  "Ð±ÑĬÐ»Ð³Ð°ÑĢÑģÐºÐ¸": 6234,
  "Ð±ÑĬÐ»Ð³Ð°ÑĢÑģÐºÐ¸aç®Ģä½ĵä¸Ńæĸĩç¹ģé«Ķä¸Ńæĸĩ": 13026,
  "Ð±ÑĬÐ»Ð³Ð°ÑĢÑģÐºÐ¸aç®Ģä½ĵä¸Ńæĸĩç¹ģé«Ķä¸Ńæĸĩcs": 13071,
  "Ð±ÑĬÐ»Ð³Ð°ÑĢÑģÐºÐ¸à¦¬": 45358,
  "Ð²": 5846,
  "Ð²Ð°ÑĢ": 45181,
  "Ð²ÐµÑĤ": 29847,
  "Ð²Ð¸ÑĢÑĤ": 45182,
  "Ð²ÑĤÐ¾Ð¼": 45184,
  "Ð²ÑĥÑħ": 45183,
  "Ð³": 4384,
  "Ð³Ð°ÑĢ": 6228,
  "Ð³Ð°ÑĢÑģÐºÐ¸": 6233,
  "Ð³Ð¾Ð»": 10563,
  "Ð³ÑĢÐ°": 29584,
  "Ð³Ñĥ": 24181,
  "Ð³ÑĥÐ±ÑĨÑĭ": 48898,
  "Ð´": 4474,
  "Ð´Ð°": 24191,
  "Ð´Ð¸": 21318,
  "Ð´Ð¸Ð¿": 30961,
  "Ðµ": 3496,
  "ÐµÐ±ÐµÐ»Ð°ÑĢÑĥÑģÐºÐ°Ñı": 43820,
  "ÐµÐ²": 29359,
  "ÐµÐ³": 43818,
  "ÐµÐ´": 5194,
  "ÐµÐ·": 12133,
  "ÐµÐº": 21223,
  "ÐµÐºÑģ": 24695,
  "ÐµÐ»": 8298,
  "ÐµÐ»Ð°": 8751,
  "ÐµÐ»Ð°ÑĢÑĥÑģÐº": 9323,
  "ÐµÐ»Ð°ÑĢÑĥÑģÐºÐ°Ñı": 9333,
  "ÐµÐ»ÑĮ": 46066,
  "ÐµÐ½": 24086,
  "ÐµÑĢ": 21224,
  "ÐµÑĢÐ°": 43819,
  "ÐµÑĢÐ½ÐµÑĤ": 48443,
  "ÐµÑĢÐ¾Ð²": 24696,
  "ÐµÑģÑĤ": 24087,
  "ÐµÑĤ": 21225,
  "Ð¶": 18207,
  "Ð¶ÐµÐº": 47999,
  "Ð·": 4359,
  "Ð·Ð¾ÑĢÑĭ": 24177,
  "Ð·Ñı": 44368,
  "Ð¸": 2501,
  "Ð¸Ð²": 28984,
  "Ð¸Ð²Ð°Ñı": 31426,
  "Ð¸Ð¹": 28983,
  "Ð¸Ðº": 5832,
  "Ð¸Ð»": 28982,
  "Ð¸Ð»Ð¸": 42888,
  "Ð¸Ð¼": 42887,
  "Ð¸Ð½Ð°": 42890,
  "Ð¸Ð½ÑĤ": 42892,
  "Ð¸ÑĢÑĤ": 42891,
  "Ð¸ÑģÑĤ": 42889,
  "Ð¸Ñı": 28985,
  "Ð¸Ñĺ": 42893,
  "Ð¹": 4901,
  "Ð¹à°¤": 44690,
  "Ðº": 1989,
  "ÐºÐ°": 5579,
  "ÐºÐ°Ð½Ð°Ð»": 45034,
  "ÐºÐµÐ´": 5828,
  "ÐºÐ¸": 23799,
  "ÐºÐ¾Ð»": 42211,
  "ÐºÑĢÐ°ÑĹÐ½": 42210,
  "ÐºÑĤ": 42209,
  "ÐºÑĭÑĢÐ³ÑĭÐ·": 28697,
  "Ð»": 3370,
  "Ð»Ðµ": 43717,
  "Ð»ÐµÑģÑĤ": 43721,
  "Ð»Ð¸": 14205,
  "Ð»Ð¸ÑĦ": 47379,
  "Ð»Ð¼": 29320,
  "Ð»Ð¾ÑģÐºÐ¾": 43723,
  "Ð»ÑĥÐºÑĢÐ°ÑĹÐ½ÑģÑĮÐºÐ°Ø§Ø±Ø¯ÙĪ": 43719,
  "Ð»ÑĮ": 43718,
  "Ð»Ñİ": 43722,
  "Ð»Ñı": 43720,
  "Ð»Ñĸ": 8095,
  "Ð¼": 3901,
  "Ð¼Ð°": 5532,
  "Ð¼Ð°ÐºÐµÐ´": 5838,
  "Ð¼Ð°ÐºÐµÐ´Ð¾Ð½ÑģÐºÐ¸": 5841,
  "Ð¼Ð°ÐºÐµÐ´Ð¾Ð½ÑģÐºÐ¸ÑĢÑĥÑģÑģÐºÐ¸Ð¹ÑģÑĢÐ¿ÑģÐºÐ¸": 13021,
  "Ð¼Ð°ÑĢ": 29774,
  "Ð¼Ð°ÑĢÑĭ": 49582,
  "Ð¼Ð°ÑĤ": 29775,
  "Ð¼Ð°ÑĤÑĮ": 45007,
  "Ð¼ÐµÑĢÐ°": 44104,
  "Ð¼Ð¾Ð½Ð³Ð¾Ð»": 12135,
  "Ð¼Ð¾Ð½Ð³Ð¾Ð»ÑĢÑĥÑģÑģÐºÐ¸Ð¹ÑģÑĢÐ¿ÑģÐºÐ¸": 46950,
  "Ð¼Ð¾Ð½Ð³Ð¾Ð»à¤®à¤°": 46949,
  "Ð¼Ð¾Ð½Ð³Ð¾Ð»áĢĹáĢĻ": 13055,
  "Ð¼Ð¾ÑĤ": 44102,
  "Ð¼ÑĥÑĢÑĤ": 44103,
  "Ð½": 3244,
  "Ð½Ð°": 17943,
  "Ð½Ð°Ð»": 43607,
  "Ð½Ðµ": 17944,
  "Ð½ÐµÑĤ": 47896,
  "Ð½Ð¸Ð¹": 43608,
  "Ð½Ð¾Ð²": 43606,
  "Ð½Ð¾Ð³Ð¾": 43609,
  "Ð½ÑĤ": 29278,
  "Ð½Ñĭ": 19279,
  "Ð½ÑĭÐµ": 48150,
  "Ð¾": 2990,
  "Ð¾Ð±": 21181,
  "Ð¾Ð±Ð¸Ð»": 48437,
  "Ð¾Ð²": 7591,
  "Ð¾Ð²Ð°": 8750,
  "Ð¾Ð²Ð°Ð»ÑĮ": 46231,
  "Ð¾Ð²Ñĭ": 30082,
  "Ð¾Ð²ÑĭÐ¹": 49622,
  "Ð¾Ð³": 29176,
  "Ð¾Ð³Ð¾": 31443,
  "Ð¾Ð¹": 29177,
  "Ð¾Ðº": 19260,
  "Ð¾ÐºÐ°": 43352,
  "Ð¾Ð»": 8731,
  "Ð¾Ð¼": 43351,
  "Ð¾Ð½": 4896,
  "Ð¾Ð½Ð³Ð¾Ð»": 10568,
  "Ð¾Ð½Ð½Ð¸Ð¹": 44687,
  "Ð¾Ð½ÑģÐºÐ¸": 5836,
  "Ð¾Ð½ÑĤÐ°": 44686,
  "Ð¾Ñ": 24022,
  "Ð¾ÑĢ": 10007,
  "Ð¾ÑĢÐ¾Ð½Ð½Ð¸Ð¹": 46586,
  "Ð¾ÑĢÐ¾ÑĪ": 46585,
  "Ð¾ÑĢÑĭ": 19431,
  "Ð¾ÑĢÑĭÐ¹": 48170,
  "Ð¾Ñģ": 19261,
  "Ð¾ÑģÐ°Ð½": 24657,
  "Ð¾ÑģÐºÐ¾": 43354,
  "Ð¾ÑģÑĤ": 43353,
  "Ð¾ÑĤ": 29175,
  "Ð¾ÑĪ": 29178,
  "Ð¾Ñį": 48866,
  "Ð¾ÑıÐ½": 43355,
  "Ð¾ÑŀÐ½Ñĭ": 48867,
  "Ð¾Ò·Ð¸Ðº": 11166,
  "Ð¾Ò·Ð¸ÐºÓ£": 11317,
  "Ð¿": 5042,
  "Ð¿Ð°ÑĢ": 44759,
  "Ð¿Ð¾Ð³Ð¾": 44760,
  "Ð¿ÑĢÐ¾Ð»": 29698,
  "Ð¿ÑĢÐ¾Ð»Ð¸Ð²Ð°Ñı": 31504,
  "Ð¿ÑģÐºÐ¸": 6230,
  "Ð¿ÑĤÐ°": 29697,
  "Ñ": 142,
  "ÑĢ": 2425,
  "ÑĢÐ°": 17890,
  "ÑĢÐ°Ð·": 42822,
  "ÑĢÐ°Ð¸Ð½Ð°": 47886,
  "ÑĢÐ°Ñ": 5530,
  "ÑĢÐ°ÑĤÐ¾ÑĢ": 47885,
  "ÑĢÐ°Ñħ": 45006,
  "ÑĢÐ°ÑĹÐ½": 5642,
  "ÑĢÐ³": 11149,
  "ÑĢÐµÑĤ": 42824,
  "ÑĢÐ¾": 42821,
  "ÑĢÐ¾Ðº": 23933,
  "ÑĢÐ¾Ð»": 28952,
  "ÑĢÐ¿ÑģÐºÐ¸": 42823,
  "ÑĢÑĤ": 28951,
  "ÑĢÑĥ": 4573,
  "ÑĢÑĥÑģ": 5399,
  "ÑĢÑĥÑģÐº": 8967,
  "ÑĢÑĥÑģÑģÐºÐ¸Ð¹": 5640,
  "ÑĢÑĥÑģÑģÐºÐ¸Ð¹nà®¤à®®": 24278,
  "ÑĢÑĥÑģÑģÐºÐ¸Ð¹ÑģÑĢÐ¿ÑģÐºÐ¸": 12563,
  "ÑĢÑĥÑģÑģÐºÐ¸Ð¹Ø§ÙĦØ¹Ø±Ø¨ÙĬØ©": 45063,
  "ÑĢÑĥÑģÑĮ": 29750,
  "Ñģ": 2110,
  "ÑģÐ°": 23842,
  "ÑģÐ¸Ñı": 42381,
  "ÑģÐº": 2879,
  "ÑģÐºÐ¸": 3062,
  "ÑģÐºÐ¸Ð¹": 5453,
  "ÑģÐºÐ¸æĻ": 43414,
  "ÑģÐºÐ¾": 21166,
  "ÑģÐºÐ¾Ð¼": 24694,
  "ÑģÑĢ": 6223,
  "ÑģÑĢÐ¿ÑģÐºÐ¸": 6315,
  "ÑģÑģÐºÐ¸Ð¹": 23843,
  "ÑģÑģÐºÐ¸Ð¹ce": 48840,
  "ÑģÑĤ": 17846,
  "ÑģÑĤÐ¾ÑĢÐ¾Ð½Ð½Ð¸Ð¹": 47882,
  "ÑģÑĮ": 5695,
  "ÑģÑĮÐºÐ°": 5771,
  "ÑģÑĮÐºÐ¸": 45099,
  "ÑĤ": 4093,
  "ÑĤÐ°": 21290,
  "ÑĤÐ°Ð½": 44237,
  "ÑĤÐ°ÑĢ": 44235,
  "ÑĤÐ¾Ð²Ñĭ": 44238,
  "ÑĤÐ¾Ð¼": 44239,
  "ÑĤÐ¾ÑĢ": 29521,
  "ÑĤÐ¾Ò·Ð¸ÐºÓ£": 44236,
  "ÑĤÑĮ": 24154,
  "ÑĤÑĮÑı": 31126,
  "Ñĥ": 3436,
  "ÑĥÐ´": 24078,
  "ÑĥÐ´Ð¼ÑĥÑĢÑĤ": 48878,
  "ÑĥÐ´ÑħÐ°ÑĢÐ¸": 31122,
  "ÑĥÐº": 5586,
  "ÑĥÐºÑĢÐ°ÑĹÐ½": 5702,
  "ÑĥÐºÑĢÐ°ÑĹÐ½ÑģÑĮÐºÐ°": 5772,
  "ÑĥÐºÑĢÐ°ÑĹÐ½ÑģÑĮÐºÐ°×¢×ĳ×¨×Ļ×ª": 13019,
  "ÑĥÐºÑĢÐ°ÑĹÐ½ÑģÑĮÐºÐ°×¢×ĳ×¨×Ļ×ªØ§ÙĦØ¹Ø±Ø¨ÙĬØ©ÙģØ§Ø±Ø³ÛĮ": 13070,
  "ÑĥÐºÑĢÐ°ÑĹÐ½ÑģÑĮÐºÐ°Ø§Ø±Ø¯ÙĪ": 12565,
  "ÑĥÑĢÑĤ": 43766,
  "ÑĥÑħ": 43764,
  "ÑĥÑİ": 43765,
  "ÑĦ": 32440,
  "Ñħ": 19678,
  "ÑħÐ°ÑĢÐ¸": 30873,
  "ÑħÐ¾Ð»": 48260,
  "Ñĩ": 25098,
  "ÑĩÐ°": 11365,
  "ÑĩÐµÐ²": 49097,
  "ÑĪ": 18208,
  "ÑĪÐ°": 24636,
  "Ñī": 32441,
  "ÑīÐ¸Ð¼": 50027,
  "Ñĭ": 5537,
  "ÑĭÐ²": 45010,
  "ÑĭÐµ": 45009,
  "ÑĭÐ·": 11209,
  "ÑĭÐ»Ð¼": 45011,
  "ÑĭÐ»ÑĥÐºÑĢÐ°ÑĹÐ½ÑģÑĮÐºÐ°Ø§Ø±Ø¯ÙĪ": 45012,
  "ÑĭÑĢÐ³": 11210,
  "ÑĭÑĢÐ³ÑĭÐ·": 11327,
  "ÑĮ": 5153,
  "Ñį": 32442,
  "Ñİ": 25099,
  "Ñı": 13119,
  "ÑıÐ½": 30497,
  "Ñĸ": 5538,
  "Ñĺ": 32443,
  "Ñļ": 32444,
  "ÑļÐ°ÑĩÐºÐ¸": 50028,
  "Ò": 143,
  "Ò¡Ð¾ÑĢ": 19679,
  "Ò·Ð¸Ðº": 10619,
  "ÒĽ": 5201,
  "ÒĽÐ°Ð·Ð°": 7600,
  "ÒĽÐ°Ð·Ð°ÒĽ": 7608,
  "Ó": 144,
  "Ó£": 10620,
  "Ó¹": 25100,
  "Ó¹Ð»Ð¼": 49098,
  "Ô": 145,
  "Õ": 146,
  "Õ¡Õ": 9351,
  "Õ¥": 6718,
  "Õ¥Õ¶": 10574,
  "Õ°Õ¡Õ": 10199,
  "Õ°Õ¡ÕµÕ¥ÖĢ": 10578,
  "Õ°Õ¡ÕµÕ¥ÖĢÕ¥Õ¶": 10582,
  "Õ°Õ¡ÕµÕ¥ÖĢÕ¥Õ¶ÉĻ": 13050,
  "Õ¶": 10198,
  "Õ¸Õ": 32445,
  "Õ¸Õ·Õ«": 50029,
  "Ö": 147,
  "Ö°": 7965,
  "Ö´": 5043,
  "ÖĢ": 10200,
  "Öĥ": 32446,
  "×": 148,
  "×¡": 25101,
  "×¢": 6238,
  "×¢×ĳ": 12152,
  "×¢×ĳ×¨×Ļ×ª": 12170,
  "×¤×": 32450,
  "×¤×§×Ļ×ł×¡": 50031,
  "×¨": 6157,
  "×¨×Ĳ×": 45327,
  "×¨×Ļ×ª": 12151,
  "×Ĳ×": 32449,
  "×ĳ": 6239,
  "×ĵ×Ļ×©": 32448,
  "×ĵ×Ļ×©ee": 50030,
  "×ķ": 32447,
  "×Ļ": 4311,
  "×Ļ×": 4722,
  "×Ļ×©": 12140,
  "×Ļ×ª": 6310,
  "×Ļ×ªi": 13639,
  "×Ļ×ªà¤¹": 21408,
  "×Ļ×ĵ×Ļ×©": 13013,
  "Ø": 149,
  "Ø¡": 3235,
  "Ø¢": 2532,
  "Ø¢Ø¡": 6226,
  "Ø¢Ø¤": 23953,
  "Ø¢Ø¦": 16566,
  "Ø¢Ø¨": 23952,
  "Ø¢Øª": 19223,
  "Ø¢Ø®": 9999,
  "Ø¢Ø¯": 42944,
  "Ø¢Ø±": 42943,
  "Ø¢Ø²ÙĤ": 42947,
  "Ø¢Øµ": 42945,
  "Ø¢Ùħ": 23951,
  "Ø¢ÙĨ": 4091,
  "Ø¢Ùĩ": 42942,
  "Ø¢ÙĬ": 15110,
  "Ø¢ÙĬØ©": 42946,
  "Ø£": 1215,
  "Ø£Ø©": 28012,
  "Ø£ØªÙĬ": 40167,
  "Ø£Ø®Ø±": 40163,
  "Ø£Ø®Ø±Ø¬": 40168,
  "Ø£Ø±Ø³ÙĦ": 23485,
  "Ø£Ø³": 28011,
  "Ø£Ø´": 40162,
  "Ø£ØµÙĪØ§": 40169,
  "Ø£ÙĦ": 40161,
  "Ø£Ùħ": 28010,
  "Ø£ÙħØ±": 28013,
  "Ø£ÙħØ±ÙĬÙĥØ§": 31336,
  "Ø£ÙĨ": 20793,
  "Ø£ÙĨÙĬ": 40165,
  "Ø£ÙĩØ¯": 40166,
  "Ø£ÙĪÙĤ": 40164,
  "Ø¤": 3663,
  "Ø¤Ø§ÙĦ": 43955,
  "Ø¤ÙĪÙĨ": 29404,
  "Ø¥": 2120,
  "Ø¥Ø¯Ø®Ø§ÙĦ": 42395,
  "Ø¥Ø³ÙĨ": 21037,
  "Ø¥Ø³ÙĨØ§Ø¯Ùĩ": 24692,
  "Ø¥ÙĤØ§ÙħØ©": 42394,
  "Ø¥ÙĨ": 9587,
  "Ø¥ÙĬØ¬": 42393,
  "Ø¥ÙĬÙħØ§ÙĨ": 23847,
  "Ø¦": 3563,
  "Ø¦Ø§": 43888,
  "Ø¦Ø°Ø§ÙĨ": 43889,
  "Ø¦ÙĦ": 43887,
  "Ø¦ÙħØ©": 29381,
  "Ø§": 484,
  "Ø§Ø": 1741,
  "Ø§Ø¡": 2315,
  "Ø§Ø¡Ø©": 28900,
  "Ø§Ø¡Øª": 42687,
  "Ø§Ø¡Ùĥ": 42688,
  "Ø§Ø¡Ùĩ": 28899,
  "Ø§Ø¡ÙĩØ§": 42690,
  "Ø§Ø¡ÙĪÙĨ": 42689,
  "Ø§Ø¤": 12958,
  "Ø§Ø¤ÙĪ": 30484,
  "Ø§Ø¦": 3494,
  "Ø§Ø¦Ø¬": 43815,
  "Ø§Ø¦Ø±": 43813,
  "Ø§Ø¦Ø¶": 29356,
  "Ø§Ø¦Ø¹": 43814,
  "Ø§Ø¦Ø¹Ø©": 43816,
  "Ø§Ø¦ÙĤ": 29355,
  "Ø§Ø¦ÙĥØ©": 24085,
  "Ø§Ø¦ÙĦ": 19291,
  "Ø§Ø¦Ùħ": 29353,
  "Ø§Ø¦ÙħØ©": 43817,
  "Ø§Ø¦Ùĩ": 29354,
  "Ø§Ø¦ÙĬ": 29352,
  "Ø§Ø¦ÙĬÙĦ": 29358,
  "Ø§Ø¦ÛĮ": 29357,
  "Ø§Ø¨": 1613,
  "Ø§Ø¨Ø§": 41466,
  "Ø§Ø¨Ø§ÙĨÙĬØ©": 20937,
  "Ø§Ø¨Ø©": 41470,
  "Ø§Ø¨Øª": 28444,
  "Ø§Ø¨ØªÙĦ": 41473,
  "Ø§Ø¨Ø±": 41468,
  "Ø§Ø¨Ø¹": 41469,
  "Ø§Ø¨Ø¹ÙĬÙĨ": 41475,
  "Ø§Ø¨ÙĤØ§Øª": 41474,
  "Ø§Ø¨ÙĦØ©": 41472,
  "Ø§Ø¨ÙĨ": 41467,
  "Ø§Ø¨ÙĪØ¯": 41471,
  "Ø§Ø©": 5064,
  "Ø§Øª": 2334,
  "Ø§ØªØ§ÙĨ": 42718,
  "Ø§ØªØŃØ©": 42720,
  "Ø§ØªÙģØ§ÙĤ": 42722,
  "Ø§ØªÙħ": 42717,
  "Ø§ØªÙħÙĩ": 42721,
  "Ø§ØªÙĩ": 28912,
  "Ø§ØªÙĩÙħ": 42719,
  "Ø§ØªÙĬØ©": 21086,
  "Ø§Ø«": 8186,
  "Ø§Ø«Ø±": 46010,
  "Ø§Ø¬": 4140,
  "Ø§Ø¬Ø©": 21295,
  "Ø§Ø¬Ø¯": 21294,
  "Ø§Ø¬Ø±ÙĪØ§": 44254,
  "Ø§Ø¬Ø¹": 44252,
  "Ø§Ø¬Ø¹Ø©": 29528,
  "Ø§Ø¬ÙĦØª": 44253,
  "Ø§Ø¬ÙħØ§Ø¹": 36383,
  "Ø§Ø¬ÙĬÙĥ": 21296,
  "Ø§Ø®": 10294,
  "Ø§Ø®Øª": 22721,
  "Ø§Ø®ØªÙĬØ§Ø±ÙĬ": 31061,
  "Ø§Ø®ÙĬØ©": 21527,
  "Ø§Ø¯": 2571,
  "Ø§Ø¯Ø§Øª": 42986,
  "Ø§Ø¯Ø©": 12525,
  "Ø§Ø¯ØªÙĥ": 42992,
  "Ø§Ø¯Ø±": 19225,
  "Ø§Ø¯Ø±Ø©": 42991,
  "Ø§Ø¯ÙĥÙħ": 42990,
  "Ø§Ø¯Ùĩ": 15113,
  "Ø§Ø¯ÙĩÙħ": 42987,
  "Ø§Ø¯ÙĬ": 23964,
  "Ø§Ø¯ÙĬØ§Øª": 42989,
  "Ø§Ø¯ÙĬØ©": 42985,
  "Ø§Ø¯ÙĬØ«": 42988,
  "Ø§Ø°": 7831,
  "Ø§Ø±": 2153,
  "Ø§Ø±Ø§ØªÙĬØ©": 28787,
  "Ø§Ø±Ø¨": 42465,
  "Ø§Ø±Ø©": 12093,
  "Ø§Ø±Ø¬": 42467,
  "Ø§Ø±Ø¯ÙĪ": 7586,
  "Ø§Ø±Ø¯ÙĪà¦¬": 13036,
  "Ø§Ø±Ø³": 13570,
  "Ø§Ø±Ø³ÛĮ": 5760,
  "Ø§Ø±Ø¹Ø©": 42469,
  "Ø§Ø±Ùģ": 42468,
  "Ø§Ø±ÙĤ": 42466,
  "Ø§Ø±ÙħÙĬ": 42473,
  "Ø§Ø±ÙħÛĮ": 42472,
  "Ø§Ø±ÙĬØ§Øª": 42470,
  "Ø§Ø±ÙĬØ©": 17855,
  "Ø§Ø±Ûĥ": 42471,
  "Ø§Ø²": 6925,
  "Ø§Ø³": 2266,
  "Ø§Ø³Ø§Øª": 42626,
  "Ø§Ø³Ø¨": 42624,
  "Ø§Ø³Øª": 12517,
  "Ø§Ø³ØªØ¹ÙĬØ°": 47026,
  "Ø§Ø³Ø®": 42625,
  "Ø§Ø³ÙĦØª": 23892,
  "Ø§Ø³Ùħ": 28867,
  "Ø§Ø´": 8084,
  "Ø§Ø´ÙĬØ©": 45984,
  "Ø§Øµ": 6751,
  "Ø§ØµØ©": 45564,
  "Ø§ØµØ¯": 45563,
  "Ø§ØµØ±Ø©": 22722,
  "Ø§ØµÙĬ": 24336,
  "Ø§ØµÙĬÙĩ": 45565,
  "Ø§Ø¶": 7832,
  "Ø§Ø¶Ø±": 45896,
  "Ø§Ø·": 6390,
  "Ø§Ø¸": 17794,
  "Ø§Ø¹": 3622,
  "Ø§Ø¹Ø§Ø©": 43939,
  "Ø§Ø¹Ø©": 16598,
  "Ø§Ø¹Øª": 43938,
  "Ø§Ø¹Ø±": 22720,
  "Ø§Ø¹ÙĬ": 29394,
  "Ø§Ø¹ÙĬÙĦ": 29395,
  "Ø§Ø¹ÙĬÙĩØ§": 43940,
  "Ø§Øº": 8942,
  "Ø§ØºØ©": 46300,
  "Ø§ØŃ": 4214,
  "Ø§ØŃÙĦ": 29535,
  "Ø§Ùģ": 3417,
  "Ø§ÙģØ©": 24073,
  "Ø§ÙģØ±": 12546,
  "Ø§ÙģØ±ÙĪÙĨ": 43755,
  "Ø§ÙģØ¹": 15189,
  "Ø§ÙģÙĤÙĪÙĨ": 43756,
  "Ø§ÙģÙĬ": 29327,
  "Ø§ÙĤ": 3981,
  "Ø§ÙĤØ§Ø©": 44151,
  "Ø§ÙĤØ¨": 21279,
  "Ø§ÙĤØ©": 44150,
  "Ø§ÙĤÙĦ": 44149,
  "Ø§Ùĥ": 5425,
  "Ø§ÙĥØ±Ø©": 44952,
  "Ø§ÙĦ": 970,
  "Ø§ÙĦØ¢Ø®": 38908,
  "Ø§ÙĦØ¢ÙĨ": 38906,
  "Ø§ÙĦØ£": 14050,
  "Ø§ÙĦØ£Ø³ÙħØ§Ùĥ": 47341,
  "Ø§ÙĦØ£ÙĨØ¨ÙĬØ§Ø¡": 24552,
  "Ø§ÙĦØ¥": 38905,
  "Ø§ÙĦØ§": 13435,
  "Ø§ÙĦØ§Øª": 27597,
  "Ø§ÙĦØ§ØªÙĤØ§ÙĨ": 49286,
  "Ø§ÙĦØ¨": 17340,
  "Ø§ÙĦØ¨Ø±": 20667,
  "Ø§ÙĦØ¨Ø±ÙĬØ¯": 21675,
  "Ø§ÙĦØ¨ÙĤØ±Ø©": 21616,
  "Ø§ÙĦØ©": 16256,
  "Ø§ÙĦØª": 3104,
  "Ø§ÙĦØªØ°Ùĥ": 43453,
  "Ø§ÙĦØªØ±Ø¬ÙħØ©": 29214,
  "Ø§ÙĦØªØ±ÙħØ°ÙĬ": 43454,
  "Ø§ÙĦØªØ³Ø¬ÙĬÙĦ": 43452,
  "Ø§ÙĦØªØ·ÙĪÙĬØ±": 43451,
  "Ø§ÙĦØªÙģØ§Ø³ÙĬØ±": 3449,
  "Ø§ÙĦØªÙĤÙĬÙĬÙħ": 29213,
  "Ø§ÙĦØ¬": 38904,
  "Ø§ÙĦØ¯": 23267,
  "Ø§ÙĦØ¯Ø¹": 38913,
  "Ø§ÙĦØ±": 16255,
  "Ø§ÙĦØ±Ø³ÙĦ": 38914,
  "Ø§ÙĦØ²": 14819,
  "Ø§ÙĦØ³": 9202,
  "Ø§ÙĦØ³Ø¹ÙĪØ¯": 46371,
  "Ø§ÙĦØ³ÙĦØ§Ùħ": 46370,
  "Ø§ÙĦØ³ÙĨØ©": 38911,
  "Ø§ÙĦØ´": 14818,
  "Ø§ÙĦØ´Ø±ÙĪØ·": 38915,
  "Ø§ÙĦØµ": 9535,
  "Ø§ÙĦØ¶": 27596,
  "Ø§ÙĦØ·": 11027,
  "Ø§ÙĦØ·ÛģØ§Ø±Ø©": 46837,
  "Ø§ÙĦØ¹": 18906,
  "Ø§ÙĦØ¹Ø±Ø¨ÙĬØ©": 6561,
  "Ø§ÙĦØ¹Ø±Ø¨ÙĬØ©ÙģØ§Ø±Ø³ÛĮ": 13031,
  "Ø§ÙĦØ¹ÙĤÙĬÙĤØ©": 24648,
  "Ø§ÙĦØ¹ÙĦÙħ": 38909,
  "Ø§ÙĦØ¹ÙħÙĦ": 48096,
  "Ø§ÙĦØ¹ÙĨÙĥØ¨ÙĪØª": 48097,
  "Ø§ÙĦØºØ©": 38910,
  "Ø§ÙĦØŃ": 17341,
  "Ø§ÙĦÙĤØµ": 38912,
  "Ø§ÙĦÙĥ": 14817,
  "Ø§ÙĦÙĦ": 4052,
  "Ø§ÙĦÙĦØºØ©": 44221,
  "Ø§ÙĦÙĦÙĩ": 12138,
  "Ø§ÙĦÙĦÙĩÙħ": 44220,
  "Ø§ÙĦÙħ": 12027,
  "Ø§ÙĦÙħØ¬Ø§Ø¯ÙĦØ©": 46918,
  "Ø§ÙĦÙħØ®Ø±Ø¬": 46917,
  "Ø§ÙĦÙħØ¯ÙĪÙĨ": 46915,
  "Ø§ÙĦÙħØ²": 46913,
  "Ø§ÙĦÙħÙĤØ¯": 46916,
  "Ø§ÙĦÙħÙĤØ¯Ùħ": 46919,
  "Ø§ÙĦÙħÙĤØµ": 46914,
  "Ø§ÙĦÙĨ": 8452,
  "Ø§ÙĦÙĨØ³": 38907,
  "Ø§ÙĦÙĨØµ": 24410,
  "Ø§ÙĦÙĨØŃÙĦ": 46097,
  "Ø§ÙĦÙĩ": 27595,
  "Ø§ÙĦÙĪØ¬": 20668,
  "Ø§ÙĦÙĬ": 20666,
  "Ø§ÙĦÙĬØ¨Ø§Ø±ÙĬØ©": 27598,
  "Ø§ÙĦÙĬØ©": 8681,
  "Ø§Ùħ": 2522,
  "Ø§ÙħØ©": 15106,
  "Ø§ÙħØ¹": 23949,
  "Ø§ÙħÙĬØ©": 13579,
  "Ø§ÙĨ": 1615,
  "Ø§ÙĨØ§": 17772,
  "Ø§ÙĨØª": 14143,
  "Ø§ÙĨØªÙģØ§Ø¹": 30582,
  "Ø§ÙĨØªÙĬØ©": 30581,
  "Ø§ÙĨØ¯ÙĬØ©": 28445,
  "Ø§ÙĨØ¯ÙĬÙĨ": 41478,
  "Ø§ÙĨÙĦÙĪØ¯": 41477,
  "Ø§ÙĨÙĩ": 17773,
  "Ø§ÙĨÙĪÙģÙĬØªØ´": 28446,
  "Ø§ÙĨÙĬ": 8721,
  "Ø§ÙĨÙĬØ©": 6924,
  "Ø§ÙĨÛĴ": 41476,
  "Ø§Ùĩ": 3356,
  "Ø§ÙĩØ¯Ø©": 43695,
  "Ø§ÙĩØ±": 29306,
  "Ø§ÙĩÙĬÙħ": 16591,
  "Ø§ÙĪ": 5177,
  "Ø§ÙĪØ§": 36377,
  "Ø§ÙĪØ¯": 20263,
  "Ø§ÙĪØ³": 36380,
  "Ø§ÙĪÙĦ": 36378,
  "Ø§ÙĪÙĬ": 44836,
  "Ø§ÙĪÙĬØ©": 21362,
  "Ø§ÙĪÛĮÛĥ": 29718,
  "Ø§ÙĬ": 8023,
  "Ø§ÙĬØ©": 16060,
  "Ø§ÙĬØªÙĩ": 26625,
  "Ø§ÙĬØ´": 45952,
  "Ø§ÙĬÙĦ": 26623,
  "Ø§ÙĬÙĨ": 36376,
  "Ø§ÙĬÙĬÙģ": 30126,
  "Ø§Ú©Ø±": 36382,
  "Ø§Ú©ÛĮ": 36381,
  "Ø§Úº": 26624,
  "Ø§Ûģ": 36379,
  "Ø§ÛĮ": 20262,
  "Ø§ÛĮÙħÛĮÙĦ": 48315,
  "Ø§ÛĮÚ¾Ø§": 48314,
  "Ø¨": 700,
  "Ø¨Ø§": 18783,
  "Ø¨Ø§Ø¦": 27080,
  "Ø¨Ø§Ø¨": 5676,
  "Ø¨Ø§Ø¯": 17235,
  "Ø¨Ø§Ø±": 20469,
  "Ø¨Ø§Ø³": 20470,
  "Ø¨Ø§Ø³ÙħÙĩ": 48334,
  "Ø¨Ø§Ø·": 37564,
  "Ø¨Ø§ØŃ": 37563,
  "Ø¨Ø§ÙĦ": 37561,
  "Ø¨Ø§ÙĨÙĬØ©": 27081,
  "Ø¨Ø§ÙĪÙĬØ©": 27084,
  "Ø¨Ø¨": 37558,
  "Ø¨Ø©": 20468,
  "Ø¨Øª": 37559,
  "Ø¨Ø®ÙĦØ§Ùģ": 37571,
  "Ø¨Ø¯": 37560,
  "Ø¨Ø¯ÙĦ": 37569,
  "Ø¨Ø¯ÙĪÙĨ": 37568,
  "Ø¨Ø±": 6647,
  "Ø¨Ø±ÙĪØ§": 29956,
  "Ø¨Ø±à¦īà¦ļ": 45523,
  "Ø¨Ø³Ùħ": 20472,
  "Ø¨ØµØ§Ø±": 27083,
  "Ø¨Ø¹": 18784,
  "Ø¨Ø¹Ø§Ùħ": 48081,
  "Ø¨ØºÙĬ": 37567,
  "Ø¨ÙĢ": 20471,
  "Ø¨ÙĥØ§Øª": 37572,
  "Ø¨ÙĥÙĬØ©": 20473,
  "Ø¨ÙĦ": 18782,
  "Ø¨ÙĦØ©": 37565,
  "Ø¨ÙĨØ§ÙĨ": 37570,
  "Ø¨Ùĩ": 17234,
  "Ø¨ÙĩØ©": 47815,
  "Ø¨ÙĩØªÙĩ": 21614,
  "Ø¨ÙĪ": 9156,
  "Ø¨ÙĪØ§": 22993,
  "Ø¨ÙĪØ§Ø¨Ø©": 46362,
  "Ø¨ÙĪØª": 22994,
  "Ø¨ÙĬ": 4456,
  "Ø¨ÙĬØ§Ø¡": 16614,
  "Ø¨ÙĬØ§ÙĨ": 29604,
  "Ø¨ÙĬØ±": 37562,
  "Ø¨ÙĬØ±Ø©": 27082,
  "Ø¨ÙĬØ³": 44438,
  "Ø¨ÙĬØ¹Ø©": 21313,
  "Ø¨Ú©ÛĮ": 37566,
  "Ø©": 875,
[...]
