#version: 0.2 - Trained by `huggingface/tokenizers`
à ¦
à §
Ġ à¦
à¦ ¾
à¦ °
à§ ĩ
à§ į
à¦ ¿
à¦ ¨
à¦ ¯
à¦ ¤
à¦ ķ
à¦ ²
à¦ ¬
à¦ ¼
à¦ ®
à§ ģ
à¦ ¸
Ġà¦ ķ
Ġà¦ ¸
à¦ ¦
Ġà¦ ¬
à§ ĭ
Ġà¦ ª
à¦ Ł
à¦ ª
à§ Ģ
Ġà¦ Ĩ
Ġà¦ ®
à¦ ľ
à¦ ¶
à¦ ĩ
à¦ Ĺ
Ġà¦ ¨
Ġà¦ ı
à¦ ¹
Ġà¦ ¹
à¦ ·
Ġà¦ ¦
à¦ Ľ
à¦ ¡
à¦¼ à§ĩ
Ġà¦ķ à¦°
à¦¼ à¦¾
Ġà¦ ħ
Ġà¦ ¤
à¦ §
Ġà¦ ľ
à¦ Ĥ
à¦ ļ
Ġ à§
à¦ ¥
à¦ ĸ
Ġà¦ °
à¦ Ń
à¦ £
Ġà¦ ¶
à¦ ĵ
Ġà¦ ¯
Ġ (
Ġà¦ Ĺ
Ġà¦ ļ
Ġà¦ Ń
Ġà¦ ĵ
Ġà¦ ī
à ¥
à§ ¦
à¥ ¤
Ġà¦ ĩ
Ġà¦ª à¦°
à¦ «
Ġà¦ ²
à§ Ĥ
à¦ ĥ
Ġà¦ ¥
à§ ĥ
Ġà¦¹ à¦¯
Ġà¦ı à¦ķ
Ġà¦¸ à¦®
à¦ ī
Ġà¦ ĸ
Ġà¦ «
à¦° à¦¤
à¦¬ à¦°
à§ §
à¦ ł
Ġà¦Ĩ à¦®
à¦ Ļ
à¦ ģ
à¦° à¦ķ
Ġà¦ħ à¦¨
Ġà¦ Ľ
à¦ ı
Ġà§ ¨
Ġà¦ľ à¦¨
à§ ¨
Ġà¦ Ł
à¦¾ à¦Ĥ
à¦ Ĩ
Ġà¦¬ à¦²
à¦ĵ à¦¯
à¦¬ à¦¨
à¦ ŀ
Ġ 2
Ġà§ §
. .
Ġ à¥¤
Ġà¦ ¡
à¦® à¦¨
à¦° à¦£
à¦ª à¦¨
Ġà¦ı à¦¬
Ù İ
Ġà¦Ĩ à¦°
à¦ª à¦°
Ġà¦ §
à¦ľ à¦¨
à¦¾ à¦ģ
Ġà¦ ĺ
Ġà¥¤ à¥¤
Ġà¦ı à¦ĩ
Ġ2 0
à¦¼ à¦¿
Ġ '
à¦¤ à¦°
Ġ 1
Ġà¦Ĩ à¦²
à¦¬ à¦¸
à§ Į
à¦° à¦¹
à§ĩ ,
Ġà§¨ à§¦
Ġà¦ıà¦ķ à¦Ł
Ġà¦Ĩ à¦¬
Ġ :
à¦° à¦®
à¦ķ à¦°
à¦ĩ à¦¨
à§ ¯
à§ Ī
Ġ -
à¦¿ à¦Ĥ
à¦¶ à¦¨
à§ ª
Ġà¦ī à¦ª
Ġà¦¹ à¦¬
à§ İ
à§ «
Ġà¦® à¦¨
à¦ĸ à¦¨
Ġà¦ķà¦° à¦¤
à¦ĥ )
Ù Ħ
Ġ Ø
Ġà¦Ĩ à¦¸
à§ ®
à§ ©
Ġà¦Ĩ à¦ªà¦¨
à¦¾ ,
à¦° à¦¬
à¦° à¦¸
à§ Ń
Ġà¦ı à¦°
Ġ .
à§ ¬
Ġà¦Ĩ à¦Ĺ
Ġà¦¹ à¦²
à¦ ĺ
Ġà¦ħ à¦Ń
Ġà¦§ à¦°
Ġà¦ī à¦¦
à¦ī à¦¨
Ġ20 1
à¦ĩ à¦²
Ġà¦¸ à¦¬
Ġà¦¸à¦® à¦¯
à¦ª à¦¤
à¦¸ à¦²
à¦² à¦ķ
Ġà¦ĩ à¦¬à¦¨
Ġ ,
Ġà¦® à¦§
à¦¦ à¦°
Ġà¦ķ à¦®
à¦ļ à¦¨
à¦¦ à¦¨
à¦² à¦¨
à¦¦ à¦ķ
à¦· à¦£
à¦ ħ
à¦¸ à¦®
Ġà¦ª à¦¡
à¦ķ à¦²
à¦¹ à¦®
Ġà¦¹ à¦¤
à¦¼ à§ĭ
Ġ "
Ġà¦Ĩ à¦¨
à¦¤ à¦¨
à¦Ł à¦¨
Ġà§ ©
à ¤
à¦° à¦¦
à¦¿ ,
.. .
Ġà¦¸ à¦¹
à¦¯ à¦¬
à¦¸ à¦¬
Ġà¦ķ à¦¥
Ġà¦ļ à¦²
à¦Ľ à¦°
Ù Ĳ
Ġà¦® à¦¹
Ġà¦¬ à¦°
Ġ20 2
Ġà¦¬ à¦¨
à¦® à¦¤
à¦¤ à¦¬
à¦· à¦¯
Ġà¦¸ à¦°à¦ķ
à¦¨ à¦¤
à¦° à¦¯
à¦ Ŀ
à¦¬ à¦²
Ġà§¨à§¦ à§¨
à¦° à¦¨
à¦° à¦§
Ø §
Ġà¦ħ à¦¬
Ġà¦¬ à¦Ľà¦°
Ġ Ù
Ġà¦ħ à¦°
Ġà¦¸ à¦Ļ
à¦¯ à¦ķ
à¦° à¦¶
à¦® à¦²
à¦² à¦¯
Ù Ĵ
Ġà¦Ĩ à¦Ľ
à¦ĩ à¦Ł
à¦¼ ,
à¦¥ à¦®
. (
à¦² à¦¤
Ġà¦¸ à¦°
Ġà§ «
Ġà¦ĵ à¦¯
à¦Ĺ à¦°
à¦¯ à¦®
Ġà¦Ĩ à¦ľ
Ġà¦® à¦¤
à¦Ĺ à¦ŀ
à¦ķ à¦Ł
à¦¼ à§Ģ
) ;
Ġà¦Ĩà¦® à¦°
Ġà¦ı à¦Ł
Ġà¦¹ à¦ļ
Ù ı
Ġà§ ª
à¦¯ à¦¬à¦¸
à¦¸ à¦¹
à¦ĩ à¦ķ
Ġà¦ ¢
à¦¹ à¦¤
Ġà¦Ĩ à¦ķ
Ġà¦ı à¦¸
Ġà¦ĩ à¦¸à¦²
à¦¤ à¦®
à¦° à¦¥à¦®
Ġà¦ħ à¦§
Ù Ĩ
Ġà§¨à§¦à§¨ à§§
à¦Ĺ à¦¤
Ġà¦ı à¦²
Ġà¦ı à¦ĸà¦¨
Ġà¦¨ à¦¤
Ġ202 1
à¦¸ à¦¨
à¦¾ à¦ĥ)
à¦¨ à¦¬
à¦® à¦°
Ġà¦ĸ à¦¬à¦°
- -
à¦Ł à¦ķ
Ġà¦¤ à¦¬
Ġà¦ĩ à¦¨
Ġà¦ķà¦° à¦Ľ
Ġà¦¨ à¦¯
à¦ĩ à¦°
à¦¯ à¦¨
Ù Ĭ
à¦² à¦¬
Ġà¦° à¦¯
à¦ª à¦ķ
Ġà¦ķ à¦²
à¦· à¦ķ
à¦¯à¦¬ à¦¹
Ġà¦¸ à¦¨
à¦¸ à¦°
Ġà§¨à§¦ à§§
Ġà¦ī à¦¨
à§¦ à§¦
à¦¾ -
à¦¤ à¦ķ
Ġà¦ķà¦° à¦²
Ġà¦ķà¦° à¦¬
à¦® à¦¦
Ġà¦¦ à¦²
Ù ħ
à¦ĩ à¦¯
à¦¨ à¦¯
Ġ +
Ġà¦¸ à¦Ń
à¦¹ à¦°
à¦§ à¦¨
à¦¬ à¦¬
Ġà¦ī à¦¤
Ġà¦ħ à¦¸
à¦ı à¦¸
Ġà¦Ĩà¦° à¦ĵ
à¦¬ à¦ķ
à¦ķ à¦¤
Ġ( )
Ġà¦Ĩ à¦¦
ĠØ §
Ġà§ ¬
Ġà¦ĩ à¦īà¦¨
Ġà¦° à¦¹à¦®
Ġà¦ ł
à¦ī à¦ľ
Ġà¦² à¦ķ
Ġà¦¬ à¦¡
Ġà¦Ĩ à¦ĩà¦¨
à§¨ à§¦
Ġà¦ı à¦®à¦¨
Ġà¦īà¦ª à¦ľ
Ġà¦¤ à¦¥
Ġ /
Ġà¦ħ à¦¤
Ġà¦¯ à¦¦
Ġà¦ħ à¦¬à¦¸
Ġ =
à¦° à¦ļ
Ġà¦ħ à¦«
à¦° à¦ª
Ù ĩ
Ġà§ Ń
Ġà¦ĺ à¦Łà¦¨
à§İ à¦¸
à¦Ĩ à¦®
Ġà¦Ĩ à¦¯
à¦¨ à¦®à¦¨
Ġà¦ª à¦¦
ĠØ§ ÙĦ
à¦ĸ à¦¤
Ġà¦Ĩ à¦¶
à¦¦ à¦¸
Ġ }
à¦¶ à¦ķ
) ,
à¦¸ à¦ª
Ġ 3
Ġà¦¹ à¦ĵà¦¯
à¦¨ à¦¨
à¦ķ à¦¬
à¦ľ à¦¶
Ù ĳ
à§ģ à¦ģ
Ġà¦ĩ à¦¤
) .(
à¦ı à¦¨
Ġà¦ Ŀ
Ġ 0
à¦° à¦²
Ø ±
Ġà¦ħ à¦ķ
Ġà§ ®
0 0
à¦® à¦ķ
à¦¾ '
à¦ļ à¦²
à¦® à¦¸
Ġà¦¬ à¦¸
Ġà¦ħ à¦ªà¦°
Ġà¦¸ à¦¦à¦¸
Ġà§ ¯
Ġà¦ī à¦ł
Ġà¦ĩ à¦ī
Ġà§§ à§¦
Ġà¦¶ à¦°
Ġà¦ħ à¦ª
Ġà§§ à§¯
Ġà¦« à¦²
à¦¨ à¦ķ
Ġà¦¨ à¦Ń
à¦° à¦Ń
Ġà§ ¦
à¦¿ -
à¦ķ à¦¦
à¦Ĺ à¦²
Ġà¦Ĩ à¦¤
Ġà¦¬à¦² à¦²
Ġà¦Ĺ à¦¤
à¦° à¦ĵ
à¦¬ à¦ª
à¦¹ à¦²
Ġà¦° à¦ķ
à¦¸ à¦ķ
Ġà¦Ĺ à¦²
2 0
à§Ģ ,
à¦¨ à¦Ł
Ġà¦Ľ à¦¬
Ġà¦ķ à¦¬
à¦® à¦ª
Ġà¦¸ à¦ķ
Ġà¦ıà¦ķ à¦ľà¦¨
Ġà¦ı à¦¤
à¦® à¦¬
_ _
Ġà¦ī à¦ļ
à¦ĩ à¦¸
à¦Ĩ à¦¨
Ġ {
à¦ı à¦°
Ġà¦¸à¦® à¦¸
à¦¬ à¦¤
Ġ ...
à¦ı à¦ĩ
à¦°à¦¹ à¦£
Ġ 5
Ġà¦¤ à¦ĸà¦¨
Ġà¦Ĩ à¦ĵà¦¯
à¦« à¦¤
Ġà¦ķ à¦¯
Ùİ Ùĳ
Ġà¦ī à¦ªà¦°
Ġ 4
à¦¼ à§ģ
Ġà¦¶ à¦¤
Ġ [
Ġà¦ı à¦¨
Ø ¨
à¦ª à¦¦
Ù Ī
Ġà¦¶ à¦¨
Ġà¦Ĺ à¦£
" "
à¦· à¦¤
à¦¿ à¦ĥ
à¦ĸ à¦²
à¦¹ à¦¸
à¦ł à¦¨
à¦® à¦¯
à¦Ľ à¦¨
à¦Ĩ à¦°
Ġà¦ľ à¦®
Ġà¦Ĩà¦¬ à¦¦
Ġà¦¸ à¦ķà¦²
Ġà¦ĵ à¦ĩ
Ġà¦ĩ à¦¯
Ġà¦ĺ à¦°
Ġà¦¬ à¦ķ
Ġà¦ī à¦²
Ġà¦Ĩ à¦Łà¦ķ
à§§ à§¯
à¦¨ à¦¸
à¦Ł à¦Ĺ
à¦« à¦²
à¦¨ à¦¦
Ġ )
à¦Ł à¦°
à¦¹ à¦¨
Ġà¦Ĩ à¦¹à¦®
Ġà§¨ à§ª
à¦ĩ à¦¡
à¦ĩ à¦ľ
Ġà¦ī à§İ
Ġà¦ľ à¦¯
Ġà¦¸ à¦¤
à¦¯ à¦¤
Ġà¦Ń à¦°
à¦¥ à¦¨
à¦® à¦ķà¦°
à¦ħ à¦¨
à¦· à¦¦
Ġà¦ĺ à¦Ł
Ø ª
à¦ķ à¦¨
Ġà¦ Ĳ
Ġà¦ª à¦¥
à¦ĩ à¦®
à¦° à¦Ĺ
à¦°à¦® à¦£
Ġ 8
Ġ à¤
à¦ĩ à¦¬
à¦¿ '
.. ..
Ġ202 0
Ġ 6
Ø ³
à¦ī à¦Ł
à¦¬ à¦¦
à¦° à¦ľ
à¦¶ à¦®
Ġà¦ļ à¦Ł
Ġà§§ à§¨
Ġ 9
à¦² à¦Ĺ
2 2
à¦Ĺ à¦¨
à¦ıà¦¨ à¦ª
à¦¾ à¦ĥ
à¦ĩ à¦«
= =
Ġà¦¦ à¦ķ
Ġà¦ı à¦Ĺ
Ġà¦ı à¦ĸ
à¦ı à¦®
Ġà¦¬ à¦Ļ
Ġà§§ à§«
Ġà¦Ĩ à¦ª
à¦¬ à¦¶
ĠÙ Ī
Ġà¦¨ à¦¬
à§ĩ ?
Ġà¦ Ī
à¦Ĩ à¦ªà¦¨
Ġà¦¯ à¦ĸà¦¨
Ġ1 0
à§ĭ ,
Ġà¦¬ à¦¯
à¦¨ à¦ĵ
Ġà§§ à§§
Ġà¦ª à¦ķ
Ø ¯
Ġà¦ľ à¦°
/ /
à¦ķ à¦¸
à¦ľ à¦¯
ĠØ ¹
Ġ 7
à¦Ĺ à¦¬à¦¨
à¦¦ à¦ª
Ġ1 1
à§ĩ à¦ģ
à¦ľ à¦°
Ġà¦¬ à¦¹
à¦¨ à¦°
Ġà¦§à¦° à¦¨
à¦Ĩ à¦²
à¦Ń à¦¬
Ġà¦¸ à¦¦à¦°
à¦® à¦Ĺ
à§ĭ à¦ģ
à¦° à¦ĩ
à¦« à¦°
% %
à¦¯ à¦¦
à¦¤ à¦°à¦£
Ġà¦ĵ à¦ªà¦°
à§ģ '
à¦ĩ à¦Ń
Ġà§§ à§ª
à¦Ĺ à¦£
Ġà¦īà¦ª à¦¸
à¦· à¦®à¦¤
à¦¾ .
à§ĭ à¦ĥ
Ø ¹
à¦¦ à¦²
Ġ. (
Ġà¦Ĺ à¦¡
à¦§ à¦¬
à¦ı à¦ķ
à¦° à¦Ł
Ġà¦Ĩ à¦¹
1 0
à¦ ¢
Ġà¦¨ à¦®
Ġà¦¹ à¦ķ
Ġà§¨à§¦ à§¦
à¦ī à¦²
Ġ201 9
Ġ1 2
Ġà¦¸ à¦¡
Ġà¦ı à¦®
Ġà¦ĩ à¦®
$ (
Ġà¦ľ à¦²
Ġà¦° à¦¬
Ġà¦ª à¦¤
Ġà¦ķ à¦¨
à¦Ĺ à¦®
Ġà¦Ĩ à¦«
Ġà¦ı à¦¸à¦¬
Ġà¦ħà¦¬ à¦¶
à¦ľ à¦²
Ġà¦Ĩà¦Ĺ à¦¸
à¦° à¦«
à§ģ ,
à¦ļ à¦¯
à¦Ĩ à¦ĩ
à¦ī à¦¦
à¦¥ à¦¬
Ġà¦¶ à¦ķ
Ġà¦ħà¦¨ à¦²
à§¨ à§§
Ġà¦ķ à¦¤
Ġ201 8
à¦¸ à¦¦
à¦ĩ à¦¤
1 2
à¦ĺ à¦°
à¦ Ī
à§ĭ .
Ø ©
à¦ª à¦Ł
à¦¼à¦¾ ,
0 9
à§İ à¦ķ
à¦¤ à¦²
à¦ł à¦ķ
Ġ à§į
Ġà¦¬à¦² à¦¤
à§ĩ -
à¦ľ à¦¸
( )
Ġ i
Ġà¦ħ à¦Ĺ
Ġà¦ķ à¦ĸà¦¨
Ġà¦¶ à¦¹à¦°
à¦¿ )
Ġ1 3
Ġà§§ à§¬
à¦¨ à¦Ĺà¦°
Ġà§§ à§®
à¦° à¦ªà¦°
Ġà¦Ĩà¦¸ à¦²
Ġà¦Ĺ à¦°
à¦ķ à¦Ń
à¦°à¦ķ à¦²
2 1
Ġà§§ à§Ń
à¦¯ à¦ĩ
à¦° à¦ĸ
1 1
Ġà§¨à§¦à§¨ à§¦
Ġà¦® à¦°
à¦¨ à¦Ń
Ġà¦ıà¦ķ à¦ĩ
Ġ+ '
Ġà¦¨ à¦¦
Ġà¦ľ à¦¬
à¦¹ à¦¬
à¦ª à¦¸
à¦¯ à¦¸
Ġà¦ĺ à¦£
Ù ī
Ġ201 7
Ġà¦¸à¦¬ à¦ļ
Ġà¦¦ à¦°
Ġà¦Ń à¦¯
à¦ŀ à¦ª
Ġà¦¸ à¦ļ
Ġà¦ª à¦¶
Ġà§§ à§©
à¦§ à¦¤
à¦¸ à¦°à¦ķ
à¦ķ à¦®
à¦Ĺ à¦łà¦¨
Ġ ..
Ġà¦¸à¦¹ à¦ľ
Ġà¦¸ à¦ª
Ġà¦ļà¦² à¦Ľ
à¦ľ à¦®
à¦ļ à¦ķ
à¦² à¦®
Ġ _
à¦¯ à¦°
Ġà§© à§¦
Ġà¦Ĺ à¦¬
à ®
Ġ1 9
Ġà¦ħ à¦²
à¦ĵ à¦²
Ġà¦ĩà¦ī à¦ª
Ġ $(
à¦² à¦ª
Ġà¦Ĩà¦¸ à¦Ľ
Ġà¦ļ à¦°
Ġà¦¹ à¦¨
à¦ľà¦¨ à¦ķ
2 4
Ġà¦¯ à¦¤
à¦· à¦®
Ù ĥ
Ġà¦« à¦°
Ġà¦Ĩà¦² à¦®
Ġ ?
Ġà¦ı à¦ª
Ġà¦ıà¦ķ à¦¦
Ġà¦¬à¦² à¦Ľ
Ġà¦ı à¦¡
à¦ķ à¦ķ
à¦¨ à¦®
à¦² à¦¸
Ġà¦¬ à¦ĩ
à¦Ĩ à¦ľ
à¦² à¦Ń
" ,
Ø§ ÙĦ
Ġ201 6
Ġà¦¶ à¦¬
à¦¤ à¦¤
Ġà¦Ľ à¦¡
Ġà§¨ à§§
Ġ s
1 9
ĠØ £
Ġà§¨ à§«
Ġà¦ķ à¦ł
Ġà¦® à¦¸
Ġà¦ı à¦¦
1 8
à¦¯ à¦¯
à¦¼ à§į
Ġà¦ª à¦²
Ġ !
ĠÙ ħ
à§ĩ '
Ġà¦ª à¦£
Ġ1 8
Ġ â
Ġà¦¯ à¦¥
à¦§ à¦°
à¦ª à¦¡
1 5
à¦¯ à¦®à¦¨
à¦ĸ à¦ķ
Ġ1 4
ĠØ§ÙĦ ÙĦ
à§§ à§Ń
à¦¬ à¦¹
' );
à¥ Ģ
Ġà¦® à¦ľ
à¦ª à¦£
Ġà¦ī à¦ĩà¦ķ
Ġà¦ĺ à¦¨
Ġà¦Ĩ à¦¹à¦¤
Ġà¦ļ à¦ķ
à¦° à¦°
à¦ĺ à¦Łà¦¨
à¦¬ à¦ĩ
Ġà¦¤ à¦°
à¦® à¦¹
Ġ *
à§Į à¦ģ
à¦ľ à¦§
Ġà¦ĩ à¦¸
-- --
Ġà¦īà¦ª à¦ķ
Ġà¦Ĩ à¦ĩ
à¦ıà¦¸ à¦¸
à¦° à¦Ľ
Ġà¦īà§İ à¦ª
Ġ1 5
Ġà¦ª à¦Ľà¦¨
Ġà¦Ĩà¦ľ à¦ķ
à¦¶ à¦Ĺ
à¦¸ à¦¤
Ø Ń
Ġà¦ľ à¦¡
Ġ #
à¦Ł à¦¸
à§ĩ à¦ĥ
à¦¬ à¦Ĺà¦ŀ
Ġà¦ħ à¦¶
à¦ļ à¦°
Ġà¦¡ à¦²
Ġ/ /
Ġà¦ıà¦° à¦ªà¦°
Ù Ĥ
à¦ĩ à¦¦
à¦¸ à¦Ł
à¦¯ à¦ķà¦°
Ġ &
Ġà¦¸à¦¹ à¦¯
à§¨ à§ª
Ġà¦¤ à¦¦à¦¨
Ġà¦ħ à¦ŀ
Ġà¦¶ à¦¹
Ġà¦ħ à¦¥à¦¬
1 3
à¦¬ à¦¯
Ġà¦ĩ à¦²
ĠÙ ģ
1 7
Ġà¦Ĺ à¦łà¦¨
à§§ à§®
ĠØ ¨
1 4
à¦ı à¦«
Ġà¦ı à¦Ľ
à¦° à¦Ĩà¦¨
1 6
Ġ1 6
à¦¶ à¦²
Ġà¦ľà¦¨ à¦ª
Ġ1 7
à¦¦ à¦¶
Ġà¦Ĩ à¦§
à¦ĩ à¦ī
à¦¸à¦® à¦¯
à¦¯ à¦ª
à¦ĸ à¦¬
Ġà¦ī à¦®
à¦¿ ?
à¦Ĺ à¦²à¦¬
à¦¨ à¦Ĺ
. )
à¦® à¦§
Ġ2 4
à¦¾ !
à§§ à§¦
Ġà¦® à¦Ļ
à¦ļ à¦Ł
Ġ201 5
Ġà¦ĵ à¦°
à§® à§¦
Ġà¦§ à¦¨
Ġ c
Ġà§¨ à§©
à¦¤ à¦¦
à¦ľ à¦¤
Ġ} );
à§ģ à¦ĥ
Ġà¦ĵ à¦ł
Ø ¬
à¦¶ à¦¬
à¦ī à¦¡
2 8
Ġà¦ı à¦®à¦ª
à¦ı à¦²
à¦² à¦¦
à¦® à¦£
à¦ĸ à¦Ľ
Ġà¦Ī à¦¦
à¦¸ à¦Ń
Ù ģ
Ġà¦® à¦¡
à¦ķ à¦°à¦£
Ġà¦īà¦ª à¦²à¦ķ
à¦ľ à¦ª
à¦¬ à¦¹à¦¨
Ġà¦ħ à¦®
à¦ŀ à¦¤
à ª
Ġà¦® à¦¯
Ġà§« à§¦
Ġà¦ ĭ
à¦¥ à¦²
).( );
Ġà§¨ à§Ń
à¦¶ à¦°
Ġà¦¸à¦® à¦°
Ġ' '
Ġà¦ķ à¦ķ
Ġà¦¨ à¦ľà¦°
Ġà¦²à¦ķ à¦¡
à¦° à¦ªà¦¤
à¦Ĺ à¦¡
Ġà§¨ à§¨
à¦ľ à¦¬
à¦ĵ à¦¤
à¦Ĺ à¦¬
Ġà¦ªà¦° à¦¬à¦°
Ġà§¨ à§¬
à¦Ł à¦®
à¦¾ )
à¦² à¦Ł
à¦¡ à¦¨
à¦¾ ?
à¦« à¦Ł
â Ĩ
à¦¯ à¦¤à¦®
à¦ħ à¦°
@ .
à¦¶ à¦Ł
à¦£ à¦¤
à¦°à¦¸ à¦Ń
à¦°à¦ķ à¦®
Ġà¦Ĩà¦¨ à¦¨
à¦ª à¦²
Ġà§¨ à§®
ĠØ§ÙĦÙĦ Ùĩ
à¦° à¦®à¦¨
à¦¡ à¦²
à§§ à§¨
Ġà¦¬ à¦¦à¦²
à¦¹ à¦ķ
Ġà¦ª à¦¯
Ġà¦®à¦¸ à¦ľ
à¦¯ à¦¥
Ġà¦¨ à¦Ĺà¦°
Ø µ
Ġà¦¸ à¦ł
] ,
à¥ ¥
à¦® à¦ļ
Û ¡
Ġà¦ķ à¦²à¦ķ
à¦ľ à¦ķ
à¦¨ à¦²
8 0
à¦ī à¦¤
Ġà¦Ń à¦¬à¦¨
à§Ģ -
Ġ u
2 7
Ġà¦¸ à¦¤à¦°
à¦Ĺ à¦¦
Ġà¦ĩ à¦ļ
Ġà¦ıà¦ĸà¦¨ à¦ĵ
à¦Ĩ à¦¬
Ġà¦ª à¦¦à¦ķ
à¥ į
Ġà¦ıà¦ĩ à¦ļ
Ġà¦ ·
Ġà¦ķ à¦ª
à¦ª à¦¥
à¦ı à¦¬
à¦² à¦²
' ,
à¦ĸ à¦°
Ġ" \
Ġà¦¦ à¦°à¦ķ
à¦¥ à¦ķ
Ġ ;
â ĸ
à¦ķ à¦ľà¦¨
à¦ĩ à¦Ĺ
à¦£ à¦®
%% %%
à¦¤ à¦¥
2 9
3 0
Ġà¦Ĩà¦¸ à¦¨
Ġà¦Ĩà¦¸ à¦¤
âĨ ĳ
Ġà¦ħ à¦ľ
Ġà¦ĵ à¦®
à¦ī à¦°
à§§ à§«
Ġà¦Ĩà¦¸ à¦¬
Ø £
à§ģ -
Ġ à¥¥
Ġà¦° à¦¸
à§ĩ !
à¦Ŀ à¦¤
, ,
à¦¿ .
à¦· à¦°
Ġà¦Ĩà¦° à¦¬
ÙĬ Ùĩ
à¦· à¦¨
à§§ à§§
Ġà¦ª à¦ŀ
Ġ ÙĦ
à¦² à¦«
Ġà§¨ à§¯
à¦Ń à¦°
à¦ķ à¦¶
Ġà¦Ĩ à¦ļ
à¦£ à¦¨
Ġà¦ı à¦Ń
, :
à ²
* *
à¦¸ à¦ļ
Ġà¦Ĩà¦ª à¦¡
Â ©
à¦Ł à¦²
à¦¬ à¦Ļ
Ġà¦ļà¦² à¦¤
ĠÙ Ĭ
à¦ĵ à¦°
à¦§ à¦ķ
à¦¼ à¦ĥ
Ġà¦ľà¦¨ à¦Ĺà¦£
" :
Ġà¦Ĳ à¦¤
à¦ıà¦ĩ à¦ļ
Ġà¦Ĩà¦¹à¦® à¦¦
4 0
à¦Ī à¦¦
2 5
Ġà¦°à¦ķ à¦®
Ġ201 4
9 9
Ġà¦ķ à¦·
à¤ ¿
à§§ à§¬
Ġà§¨à§¦à§§ à§¯
à§§ à§©
ĠØ¹ ÙĦ
Ġ201 2
à§§ à§ª
Ġà¦Ń à¦¬
à¦ĩ à¦ª
Ġ201 3
à¦° à¦¬à¦°
à¦¸à¦² à¦®
ÙĦ Ùħ
à¦Ł à¦¬
Ġà¦¦ à¦«
à¦¼ -
Ġà¦ħ à¦Ļ
à§¨ à§®
' .
à¦Ĩ à¦Ĺ
à¦°à¦¸ à¦Ļ
à§¨à§¦ à§¨à§§
Ġà¦Ĩ à¦¡
à§¨ à§¨
Ġà¦¦ à¦ĸà¦²
.... ....
Ġà¦² à¦¡
à¦ı à¦ķà¦Ł
à§© à§¦
à§¦à§¦ à§¦
Ġà¦ļà¦² à¦ļ
à ´
Ġà¦Ĩ à¦ĵà¦¤
Ġà¦° à¦¹
à¦ĩà¦« à¦¸
à¦² à¦ľ
Ġà¦Ĩà¦« à¦Ĺ
Ø Į
Ġà¦ĸ à¦°à¦ļ
à¦¨ à¦ľ
Ġà¦ļ à¦¤
à¦ī à¦ķ
à¦ª à¦¶
2 3
à¦¶ à¦¤
2 6
âĸ º
à¦ķ à¦¶à¦¨
Ġà¦¨ à¦¨
Ġ: :
Ġà¦ıà¦ķ à¦¬
Ġà§ª à§¦
"" :
Ġà¦¤ à¦²
Ġà¦ļ à¦¨
) }
Ù į
== =
à¦² à¦Ľ
3 5
Ġà¦ī à§İà¦¸
à¦ĩ à¦¹
à¦¥ à¦°
Ġà¦ĩà¦ī à¦°
à¦ī à¦¬
Ġà¦Ľ à¦¯
ĠØ¹ÙĦ ÙĬÙĩ
Ġà¦ı à¦¶
Ġ ]
à§ĩ ...
à¦Ĩ à¦®à¦°
Ġà¦īà¦¦ à¦¯
Ġà¦īà¦ª à¦¹
à ¸
ÙĦ Ùī
à¦Ĩ à¦ĩà¦¨
Ġà¦ĭ à¦£
à¦° à¦¦à¦°
Ġà¦¸ à¦«à¦²
à¦ĩà¦¨ à¦¬
Ġà¦¸à¦¹ à¦ķ
Ġà¦° à¦Ļ
à¦ī à¦¸
Ġà¦¤ à¦¤
Ġà¦īà§İ à¦¸à¦¬
à§İà¦¸ à¦ķ
Ġ <
à¦® à¦ľ
Ø³ ÙĦÙħ
à¥ ĩ
Ġà¦ĩ à¦°
Ġà¦īà¦ł à¦²
à¦° à¦ľà¦¨
Ġà¦® à¦ŀ
Ġà¦ıà¦ķ à¦®
5 0
à§ĭ -
à¦² à¦°
ĠÙ Ĥ
5 7
à¦ĵ à¦®
ĠÙĪ Ø³ÙĦÙħ
à¦¦ à¦®
à¦¹ à¦ľ
à¦¬ à¦ľ
à¦Ń à¦¯
à¦· à¦ľ
Ġà¦ĵ à¦¬
Ġà¦ıà¦®à¦¨ à¦ķ
à¦¨ à¦ª
0 2
à¦®à¦¨ à¦¸
Ġ g
à¦¦ à¦¯
à¦ĸ à¦¬à¦°
Ġà¦ľ à¦Ļ
Ġà¦¸à¦° à¦¬à¦°
Ġà¦Ĺ à¦Ń
à¦ħ à¦Ń
à¦¤ à¦ª
" ).(
Ġà§¨à§¦à§§ à§®
Ġà¦ī à¦¡
à¦¸ à¦¡
à¦ĩ à¦¸à¦²
Ġ >
Ġà¦Ī à¦¶
à¦¤ à¦Ń
à °
à§ĩ à¥¤
à¦Ĩ à¦°à¦ĵ
à¦¬ à¦§
à¦Ĺ à¦ķ
à¦¶ à¦¸
à§¨ à§«
à¦īà¦¨ à¦²
à¦¸ à¦Ļ
() {
à§¯ à§¯
à ¯
Ġà¦° à¦ļà¦¨
3 6
à¦ķ à¦ª
à¦Ł à¦¬à¦²
Ġà¦Ĩ à¦ĺ
à¦¼à§ĩ ,
à¦Ł à¦¤
à¦Ł à¦Ł
Ġà¦ĩà¦¨ à¦¸
Ġ3 0
à¦¦ à¦£
4 6
à§ĩ .
à§Ģ à¦ĥ
à¦¿ !
Ġà¦¨ à¦ĵ
à¦ı à¦Ł
à§® à§®à§¦
à¦¨ à¦¹
' '
à¦¬ à¦¤à¦¨
Ġà¦¬à¦² à¦¬
Ġ o
à¦ĩ à¦Ľ
à¦ĵ à¦¨
Ġà§§à§¯ à§Ń
à¦¨ à¦¬à¦¨
6 7
" .
à§ĩ )
Ġà¦ľà¦¨ à¦ķ
à¦ļ à¦®
Ø ®
Ġà¦ĵ à¦·
Ġ2 7
à¦ķ à¦ļ
Ġà¦ĵ à¦Ń
à¦¨à¦¬ à¦¬à¦¨
à¦® à¦¡
Ø «
Ġà¦° à¦ĩà¦²
Ġà§§ à§¦à§¦
à¦¼ ?
Ġà¦¸ à¦ŀ
Ġà¦¹ à¦°
à¥¤ à¥¤
à¦® à¦¶
à¦®à¦¬ à¦Ļ
à¦Ł à¦ª
à¦¡ à¦¸
Ġà§¨à§¦à§§ à§Ń
Ġà¦¹ à¦¸
Ġ2 5
Ġà¦¹ à¦ł
à¤ ¾
à¦¨ à¦¶
Ġà§¨à§¦à§§ à§¬
3 7
Ġà¦ª à¦¬
à¦¥ à¦ļ
à§« à§¦
Ġ2 9
Ġ- :
à¦® à¦°à¦£
Ġà¦Ĩ à¦¦à¦°
Ġà¦Ĩà¦® à¦²
4 4
Ġà¦¸ à¦«à¦°
: //
à¦® à¦Ł
__ _
à¦ķ à¦Ĺ
à§¨ à§¬
à¦°à¦¸ à¦¹
Ġà¦® à¦£
Ġ2 8
à¦® à¦¹à¦¤
Ġà¦Ĩ à¦ĩà¦¸
à¦¥ à¦¤
' ).(
Ġà¦¬ à¦Ĺ
à¦ľ à¦Ł
Ġà¦ĩ à¦ŀ
à¦·à¦ķ à¦¦
à¦ķ à¦¡
ÙĲ Ùĳ
/ ,
Ġà¦ī à¦ķ
Ġà¦Ĩ à¦ŀ
à¦¹ à¦°à¦£
Ġà¦Ĺ à¦¤à¦ķ
Ġà¦ªà¦° à¦°
à¦ª à¦·
Ġ( +
Ģ ¢
à¦¾ à§ĩ
Ġà¦ĩ à¦¬
Ġà¦ķ à¦£
7 0
Ø °
Ġ @
Ġà¦¸à¦® à¦¨
Ġ2 6
Ġ$( '.
Ġà¦¯ à¦¨
à¦ı à¦¦
à¦« à¦¸
à§Ģ '
Ġà¦ľà¦¨ à¦¸
à¦° à¦Ĺà¦ŀ
à§¨ à§¯
) {
à¦¨ à¦¡
3 3
à¦¨ à¦ĩ
à¦ª à¦®
ĠØ Ń
à¦Ł à¦°à¦¸
Ġà¦§ à¦°à¦£
à§ª à§©
à¦ĺ à¦¨
Ġà§© à§§
Ġà¦ī à¦¬
Ġà¦ħ à¦¥à¦ļ
à¦Ľ à¦¡
20 21
' ;
Ġà¦ī à¦ªà¦¨
Ġà¦ı à¦ľ
Ġà¦ļ à¦°à¦®
Ġà¦¨ à¦¡
Ġà¦ª à¦ł
ĠØ ¥
à¦° à¦¬à¦¨
à§¦ à§Ń
Ġà¦ª à¦Ł
4 8
Ġà§¨à§¦à§§ à§«
Ġà¦ħ à¦¦
Ġ __
00 0
& &
à¦¬ à¦ľà¦¨
Ġà¦¦ à¦¶à¦®
Ġà¦® à¦®à¦¤
Ġà¦° à¦¶
à§¦ à§¬
Ġà¦ĸ à¦¨
4 9
Ġà¦ħ à¦¡
Ġà¦ļà¦² à¦¬
Ġà¦ħ à¦¸à¦¹
Ġà¦Ĺ à¦¨
Ġà¦ī à¦°
à§¨ à§©
ĠØ ª
4 7
Ġà¦ħ à¦Ł
à¦® à¦Ĺà¦ŀ
à ±
", "":
à¦¡ à¦®
Ġà¦¨à¦ĵ à¦Ĺ
à¦¬ à¦®
[ ]
à «
à¦Ł à¦«
4 5
à¦Ĺ à¦ľ
à¦ī à¦ª
à¦ħ à¦ķ
à¦¹ à¦«
Ġà¦¹à¦¯ à¦°à¦¤
Ġà¦Ĺ à¦°à¦®
= .(
Ġà¦¨ à¦°
à¦¬à¦° à¦£
à¦Ń à¦ķ
Ġà¦Ĩ à¦ķà¦°
3 8
à¦¯ à¦Łà¦¨
à¦ķ à¦Ľ
Ġà¦ķà¦® à¦²
à¤ ķ
à¦¬ à¦¡
à¦® à¦Ļ
Ġà¦ī à¦Ńà¦¯
Ġà¦¬ à¦ľ
à¦¸ à¦°à¦£
à¦Ĩ à¦ª
3 1
Ġ+' '
Ø ¶
! !
3 9
ð Ł
Ġà¦ī à¦ľ
Ġà¦īà¦ª à¦¦
à¦ķ à¦¯
Ġà¦« à¦°à¦®
-- -
à¦¼à¦¾ -
Ġà¦¯ à¦¶
5 5
à¦¸ à¦¸
ĠØ ±
à§¨ à§Ń
8 8
à¦¨ à¦ļ
Ġà¦ħà¦¬ à¦¦
Ġà§¨à§¦à§§ à§ª
Ø§ Ø¨
Ġà¦¬ à¦¸à¦¬
Ø§ ÙĨ
Ġà¦° à¦«
Ġà¦Ń à¦Ł
3 2
à¦¦ à¦¦
Ġà¦¦ à¦¶à¦ķ
) .
à¦¬ à¦¬à¦°
à¦Ĩ à¦¯
Ġ201 1
Ġà¦Ĳ à¦ķ
Ġà¦Ĩ à¦ĸ
Ġà¦īà¦ª à¦¯
à¦§ à¦®
à¦ļ à¦¤
Ġà¦¸à¦¬ à¦ķ
à¦¡ à¦ķ
Ġ: //
6 0
à¦ľ à¦¦
Ġà¦ħ à¦¸à¦®
à¦ĩà¦¨ à¦®
à¦¤ à¦ľ
à¦¬ à¦Ľà¦°
à¦« à¦¨
Ġ/ *
à¦£ à¦ķ
à¦¬à¦² à¦®
à¦¦ à¦Ł
& =
4 2
Ġà¦® à¦°à¦¦
à¦¿ à¦ģ
à¦£ à¦¬
à¦ĵ à¦¸
à¦°à¦£ à¦¤
à¦² à¦ĵà¦¯
Ġà¦ľ à¦Ł
à¦¼ à¦Ĥ
à¦¥ à¦Ĺ
Ġà§¬ à§¦
à¦¼ à§Ĥ
Ġà¦Ĩ à¦Ł
à¦Ĩ à¦¦
Ġà§© à§©
à§ĭ ?
Ġà¦ı à¦¯
Ġ.. ,
à¦ľ à¦Ĺ
à¦¶ à¦¯
Ġà¦Ĩà¦ĩà¦¨ à¦ľ
à¦¤ à¦«
Ġà¦ķà¦ĸà¦¨ à¦ĵ
à¦Ĩà¦ľ à¦ķ
à§¯ à§¬
Ġà¦ĵ à¦¦
Ġà¦Ĩ à¦Ļ
4 3
Ġà¦ĩ à¦Ń
Ġà¦ĵ à¦ª
à¦¡ à¦¬
---- ----
Ġà¤ ¸
à¦Ĩ à¦¤
", "
à¦ħà¦¨ à¦²
Øµ ÙĦÙī
à§İ à¦ª
Ġà¦ħà¦¨ à¦¨
Ġà¦¸ à¦«
Ġà¦Ĩ à¦ĩà¦¡
à¤ ¸
à¦¤ à¦®à¦¨
à¦¸ à¦«
à§¨ à§¦à§¦
à§© à§«
à¦¯ à¦Ĺ
à¦ª à¦ª
ĠØ ³
à¦ķ à¦¥
Ġà¦¦ à¦¶
Ġà¦« à¦ĸà¦°
Ġà¦Ĩà¦¶ à¦Ļ
Ġ2 1
Ġà¦ķà¦¤ à¦Ł
à¦Ł à¦ĵà¦¯
Ġâ Ģ¢
Ġ// --
à¦®à¦£ à¦¬
Ġà¦Ĩ à¦īà¦Ł
Ġà¦ĵ à¦¸
à¦¶ à¦ª
Ġà¦ľà¦¨ à¦ķà¦¨
à¦¬ à¦Ĺ
à¦¤à¦ķ à¦°à¦£
à¦ĺ à¦¦
à¦£ à¦Ĺà¦ŀ
Ġà¦ķ à¦¨à¦¸
Ġà¦Ĺà¦£ à¦®
Ġà¦° à¦ª
Ġà¦« à¦ľà¦²
Ġà¦īà¦ª à¦¸à¦°
ÙĬ Ø©
%%%% %%%%
à¦² à¦¸à¦¹
à¦¡ à¦Ń
Ġà¦ĩ à¦ķà¦¬
Ġà¦² à¦Ĺ
5 8
à¦¬ à¦£
à¯ į
à§¨à§¦ à§§à§¯
à¦¯ à¦Ł
Ġà¦Ĩà¦® à¦¦
Ġà¦® à¦¦
à¦¬à¦¸ à¦®à¦¯
? =
Ġà¦¨ à¦·
Ġà¦ Ĭ
Ġà¦ı à¦«
Ġà¦¦ à¦°à¦ľ
à¦ħ à¦ªà¦°
à¦ı à¦Ľ
' -
5 2
Ġà¦ Ķ
Ø§ Ø
à¤ °
à¦¹ à¦¹
Ġà¦¦ à¦¤
Ġ1 00
à§« à§«
ĠØ µ
à¦°à¦¸ à¦¨
à¤ Ĥ
à§ĩ ;
à¦Ń à¦¬à¦¤
Ġà¦Ĩà¦¤ à¦Ļ
Ġà¦ıà¦ĩà¦ļ à¦ıà¦¸à¦¸
3 4
Ġà¦® à¦¤à¦¬
Ġà¦Ĩà¦® à¦¨
à¦°à¦¥à¦® à¦¬
Ġà¦īà¦ł à¦¤
Ġ+ "
à ¨
Ġà¦« à¦Ł
à¦Ŀ à¦¡
à§¨à§¦ à§¨à§¦
Ġ+' .(
à¦¼à§Ģ ,
( [
à¦Ĺ à¦Ľ
Ġà¦¶ à¦«
Ġà¦« à¦¸à¦²
.. (
Ġà§¨à§¦à§§ à§©
à¦ı à¦ĸà¦¨
Ġ" "
Ġà¦Ĺà¦£ à¦¤à¦¨
Ġà¦ª à¦¨
Ġà¦ı à¦°à¦ķà¦®
à¦¹ à¦¯
à¦ħ à¦¸
Ġ5 0
Ġà¦Ĩà¦ļ à¦°à¦£
à¦° à¦Ĺà¦¤
Ġ2 2
Ġà¦¸ à¦¦
Ġà¦¸ à¦¬à¦¸à¦®à¦¯
Ġà¦ĩ à¦¸à¦°
à¦° à¦¥
Ġà¦¦ à¦ª
Ġ @.
5 6
Ġà¦ı à¦ľà¦¨
Ġ201 0
à¦¾. )
5 9
Ø ´
à¦ªà¦° à¦¬à¦°
Ġà¤ ®
à¦ī à¦®
Ġà§¨à§¦à§¦ à§¯
à¦¶ à¦«
Ġà¦Ĩà¦¬ à¦¹
Ġà¦Ŀ à¦¡
à¦ĵ à¦ª
Ġà¦ĵ à¦ľà¦¨
Ġà¦ľ à¦Ĺà¦¤
Ġ( ,
Ġà¦¹ à¦ľ
à§¦ à§§
Ġà¦Ĩà¦¨ à¦¤
\ '
Ġà¦¨ à¦°à¦¸
Ġà¦¸à¦® à¦ķ
à¦¸ à¦¸à¦®
Ġ.( "
6 1
à¦² à¦Ļ
Ùı Ùĳ
/ \
4 1
à¦ķ à¦Ĺà¦ŀ
Ġà¦Ĩà¦¨ à¦¸
Ġà¦ĩà¦ī à¦Ł
7 8
à¦¼ '
Ġ2 3
à¤ ²
à¦¾ ...
à¦Ĺ à¦Ĺ
Ġà¦ļà¦² à¦®
à¦· à¦ķà¦°
Ġà¦¦ à¦£
Ġà¦ļ à¦¡
à§ª à§¦
5 4
Ġà¦ħ à¦¬à¦°
Ġà§¨à§¦à§§ à§¦
0 6
Ġà§§à§¯ à§¯
à¦¦ à¦¬
Ġà¦¦ à¦¯
à¦Ľ à¦¬
Ù Į
à§Ģ ?
Ġ.( );
Ġà¦Ĩà¦² à¦®à¦Ĺ
Ġà§¯ à§®
ĠÙ ĥ
Ġà§ª à§«
Ġ Â
" #
à¦ľ à¦Ĺà¦ŀ
à¦¶à¦¨ à¦¸à¦®
à¦¾ ]
à¦Ł à¦¦
à¦ī à¦¯
Ġà§© à§«
Ġà¦Ĩà¦ĩ à¦ª
à¦ĩà¦¦ à¦¹
Ġà¦ªà¦¦ à¦¤
Ġà¦¤ à¦®
).(); '
) :
Ġà¦· à¦¡
à¦¡ à¦ª
à¦¬ à¦Ń
Ġà¦¦ à¦®à¦¨
7 9
= (
à¦£ à¦Ń
Ġà¦Ĩà¦¹ à¦¬
Ġà¦ĩ à¦®à¦°
:// ..
6 9
Ù ĭ
à¦¤ à¦Ł
Ġà¦Ń à¦ķ
Ġà¦ķà¦® à¦ª
+ "
3 20
Ġà§© à§¬
à§¦ à§¨
Ġà¦ħà¦¬ à¦¹
Ø ²
Ġà¦ķ à¦ļ
Ġà¦° à¦¹à¦¸
à¦Ĩ à¦¸
à¦² à¦Ĺà¦ŀ
ĠØ§ÙĦ Øª
0 7
à¦¤à¦¨ à¦¤
Ġà¦Ĭ à¦°
6 4
à§® à§®
Ġà§¨à§¦à§§ à§¨
Ġ# >
6 8
Ġà¦¶ à¦Ļ
à¦Ł à¦Ľ
à§¦ à§«
ÙĪ ÙĨ
Ġà¦®à¦¹ à¦²
à¦ª à¦Ĺ
à¦ī à¦¶à¦¨
à¦ı à¦®à¦ª
à¦¦ à¦¤
Ġà¦¬ à¦ĩà¦Ł
à§ª à§¬
9 0
à¦ı à¦ª
à§© à§©
7 7
à¦¨ à¦¸à¦¹
à¦² à¦¶
à¦Ł à¦«à¦°
Ġà¦ķà¦° à¦ª
à§¦ à§¯
Ġ à®
6 5
à§ĭ '
à¦ĸ à¦¯
Ġà¦² à¦¨
8 1
: :
à¦Ĩ à¦¬à¦¦
Ġà¦ķ à¦¨à¦Ł
à¦ĵ à¦¡
à¤ ¦
à¦² à¦®à¦¨
à¦¶ à¦¦
Ø¹ Ø±
0 1
Ġà¦¬ à¦ĩà¦¯
Ġà¦« à¦¯
Ġà§Ń à§¦
Ġà¦² à¦®
Ġà¦ªà¦° à¦®
à¦· à¦§
0 3
à¦® à¦®
Ġà¦ıà¦¸ à¦ıà¦¸à¦¸
ÙĬ ÙĨ
à¦¯à¦¬ à¦§
5 1
Ġà¦¤ à§İà¦ķ
à¦ļ à¦¬
Ġà¦¡ à¦ķ
à§ª à§®
Ġà¦¸à¦¬ à¦ľ
à¦Ĩ à¦ªà¦¡
7 2
à¦¼ !
Ġà¦¦ à¦®
Ġà§¦ à§Ń
à¦¹à¦¬ à¦§
' ');
Ġà¦Ĩ à¦¬à¦°
Ġà¦Ĩ à¦ªà¦¤
Ġà§© à§Ń
à¦¨à¦¬ à¦¤
Ġà§¦ à§¨
"" ===
à¦ī à¦ļ
5 3
à¦¾ ;
à¦¨ à¦ľà¦¨
à¦¶ à¦ĩ
à¦ª à¦¯
Ġà¦Ĩ à¦¹à¦¸
Ġà¦¨ à¦ľ
Ġà¦² à¦ľ
Ø¬ Ùħ
Ġà§¯ à§¦
Ġà§® à§¦
Ġà¦ı à¦¸à¦®à¦¯
) (
à¦¨ à¦ªà¦¤
à¦¯ à¦Łà¦ķ
à¦¿à¦Ĥ ,
Ġà§© à§¨
Ġà§¨à§¦à§§ à§§
Ġà§¦ à§§
Ġà¦ļ à¦®
0 8
à¦¾ à¥¤
Ġà¦ķ à¦¡
à§¬ à§¦
Ġà§¦ à§§à§Ń
( \'
\ +
Ð º
à¦¾ "
à¦ħ à¦¤
Ġ Â©
Ġà¦ľ à¦²à¦¬
9 5
à ¬
à¦ļ à¦Ĺà¦¡
Ġà¦§ à¦°à¦¤
Ġà¦ķà¦° à¦£
à§ª à§«
** **
9 2
à¦¼à¦¾ '
à¦¬à¦¤ à¦²
Ġ.( '
Ġà¦ĩà¦ī à¦ıà¦¨
Ġà¦Ķ à¦·à¦§
..( ()
Ġà¦¬à¦¸ à¦¤
Ġà¦ĩà¦ī à¦¸
0 5
à¦¾ /
Ġà¦ķ à¦Ł
à¤ ¨
6 3
Ġà¦¬ à¦¦
: (
à¦ĺ à¦Ł
" );
8 6
Û Į
Ġà¦ĵ à¦ķ
Ġ ....
à¦¤ à¦¦à¦¨
Ġà¦ħ à¦¯
Ġà¦Ĩà¦² à¦¹
........ ........
Ġà¦ª à¦ľ
à¦°à¦¹ à¦¨
. /
à§ª à§Ń
ÙĦ Ø§
6 6
à ·
à¦ķ à¦ĩ
à¦¦ à¦°à¦¬
Ð °
à¦° à¦·
Ġà¦ľà¦¨ à¦Ĺ
à§ĭ à¦Ĥ
Ġà¦ªà¦° à¦ĵ
Ġ- -
' +
8 2
ĠØ§ÙĦØª Ø±
Ġà¦ī à¦¸
Ġà¦Ĩà¦¸ à¦°
Ġà¦ķà¦² à¦®
Ġà¦Ĩà¦¶ à¦°
Ġà§§à§¯ à§®
à¦° à¦¡
Ġà¦Ĺ à¦ł
"" ,
Ġ ðŁ
Ġà¦® à§İà¦¸
à§¦ à§ª
Ġà¦ĸ à¦¤
Ġà¦īà¦ª à¦Ń
à¦ĩ à¦ĵ
Ġ+ =
à¦® à¦Ľ
à¦Ĩ à¦ĩà¦¡
Ġ6 0
7 1
* /
Ġà¦¬ à¦Ł
Ġà¦ĩ à¦ľ
8 7
à¦Ń à¦¨
Ġà¦ķ à¦¬à¦°
Ġà¦¨ à¦ķà¦²
Ġà§ª à§©
Ġà¦¹ à¦Ł
Ġà¦¸à¦¨ à¦¦
Ġi i
Ġs i
Ġà¦® à¦²
à¦ĩ à¦ļ
Ġà¦² à¦ŀ
à¦ı à¦¤
Ġà¦ķ à¦«
Ġà¦ķ à¦®à¦¨
à§Ń à§§
22 22
9 3
Ġà§Ń à§«
Ġà§¦ à§¯
à¦¸ à¦Ĺ
à¦¬ à¦Ł
à¦ª à¦¬
Ġ9 0
Ġ+' ([
). '
Ġ+'.( ).();'
" -
à§Ģ )
Ġà¦ĩ à¦ķ
à¦ľà¦¨ à¦ª
à¦Ī à¦®
± ÙĦ
à¦® à¦¸à¦®
Ġà¦° à¦®
à¦¼à¦¿ ,
Ġà¦ħà¦¬ à¦®
&& (
9 4
à¦¯ à¦ĵ
à¦Łà¦¸ à¦ħ
à ¶
Ġà¦ĵ à¦Ł
Ñ ģ
Ġà¦ıà¦ķ à¦¸à¦Ļ
Ġ. _
Ù °
à¦¯ à¦ľ
à¦Ĺ à¦¸
2 00
à¦ĩ à¦īà¦¨
à¦ıà¦® à¦ıà¦¸
Ġà¦ľ à¦¹
Ø ¥
à¤ µ
Ġà¦¨ à¦Ĺà¦¦
à§Ń à§Ń
ÙĪ Ø§
à¦° à¦ĵà¦¯
à¦¼ )
Ġà¦Ł à¦¨
Ġà§© à§ª
à¦°à¦ļ à¦²
9 7
Ø ·
à¥ ĭ
à¦¸ à¦ĵà¦¯
à¦ª à¦Ĺà¦ŀ
à¦Ĺ à¦Ł
à¦Ĺ à¦ł
Ġà¦¶ à¦¯
à¦ħ à¦§
Ġà§ª à§®
Ġ( !
Ġà¦ıà¦ķ à¦¸
Ġà§« à§¦à§¦
Ġà§¦ à§ª
Ġà¦Ī à¦®
à¦² à¦¹
à¦¦ à¦Ĺ
à¦Ł à¦¸à¦®
Ġà¦« à¦¤
à¤ ®
à§¦ à§®
à¦Ĩ à¦«
Ġà¦ıà¦° à¦ĩ
Ø§ Ø±
0 4
Ġ );
Ġà¦Ĺ à¦Ļ
Ġà¦ĩ à¦¹
à¦¾à¦ģ ,
à¦°à¦¦ à¦²
Ġ$( ).(
à¦¿ ...
à¦¤ à¦ĩ
Ġà¦¸ à¦ľ
à¦¦ à¦«
Ġà¦ıà¦ķ à¦ķ
"" )
' #
à¦¤ à¦Ĺ
à¦² à¦ļ
Ġà¦ļ à¦®à¦ķ
à¦¦à¦° à¦¬à¦¨
à¦ĩà¦ľ à¦¡
' ).();
à§¬ à§§
6 2
à¦¯ à¦¶
à¦² à¦ĺ
Ġà§¦ à§®
7 5
à¦² à¦¥
Ġà¦¬ à¦¹à¦¨
Ġà§© à§®
Ġà¦Ĩà¦ľ à¦®
, =
Ġà¦¸ à¦²
Ġà¦¤ à¦°à¦«
/ -
à¦ĩ à¦ĵà¦¯
à¦ļ à¦¡
à¤ ¯
Ġà¦Ĩà¦ľ à¦ĵ
à¦² à¦¡
à¦Ĩ à¦ķ
... ]
ĠØµ ÙĦÙī
Ġà¦ĩà¦īà¦ıà¦¨ à¦ĵ
à ³
Ġà¦® à¦¶
Ġà¦ĵ à¦¨
Ġà¦ıà¦ķ à¦¤
Ġà¦ħà¦¬ à¦ķ
à¦¯ à¦Ń
à¦¬ à¦Ľ
à¦ıà¦° à¦ªà¦°
8 4
à¦¼à¦¾ à¦Ĥ
Ġà¦ī à¦¸à¦®
à¦ı à¦¸à¦¬
9 1
ĠØ§ÙĦ ÙĨ
Ġà¦¯ à¦®
Ġà¦¸à¦® à¦Ĺ
" )
Ġà¦Ĩ à¦ĩà¦Ł
à¦Ĩ à¦¶
), (
à§§à§¯ à§¯
à¦ĵ à¦¬
à§¦ à§©
à¦°à¦§ à¦°
9 6
Ġà¤ ¹
à¦ľ à¦Ľ
à¤ ¡
Ġà¦ħà¦ª à¦¸
Ġ"" ;
à¦ħ à¦¬
Ġà¦ħà¦¬à¦¸ à¦°
Ġà¦īà¦ł à¦Ľ
à¦¿ /
Ġà¦ķà¦¨ à¦«
à¦Ń à¦ľà¦¨à¦ķ
à§© à§Ń
à¦Ĩà¦ĩ à¦ª
7 28
8 5
à¦ª à¦ļ
Ġà¦ľà¦¨ à¦¤
à§© à§§
à« Ģ
à¦® à¦ĩ
à§ģ à§į
Ġà¦Ĩ à¦Ń
Ġà¦ªà¦° à¦ĩ
à§© à§¯
à§© à§¬
Ġà§ª à§¬
à¦Łà¦ķ à¦®
à¦¬à¦¦ à¦²
ĠÙ Ĩ
:: >
7 3
à¦¥ à¦ª
Ġà¦ıà¦®à¦¨ à¦Ł
Ġ[ ...]
à¦¤ à¦ļ
à¦ĵ à¦¦
Ġà¦ªà¦° à¦Ĺà¦¨
Ġà¦ĸ à¦²
à¦Ĩ à¦°à¦¸
à¦¶ à¦ĸ
à¦°à¦¬ à¦²
Ġà§ª à§ª
à¦ķ à¦²à¦ķ
à¦¼ à¥¤
Ø§ Ø³
ĠØ§ÙĦ Ø£
7 6
à¦¨ à¦¸à¦®
Ġà¦Ń à¦Ļ
à¦¬à¦¨ à¦¯
à¦ı à¦®à¦¨
à§© à§®
Ġà§« à§®
} }
à¦ī à¦ĩ
Ġà¦¸à¦¬ à¦ĩ
Ġà¦ĩà¦¨ à¦«
Ġà¦Ŀ à¦°
Ġà§¦ à§©
Ġà¦¦ à¦²à¦ķ
à¦ħ à¦¬à¦¶
.( )
Ġà§¦ à§¬
Ġà¦¤à¦ĸà¦¨ à¦ĩ
à¦¦à¦« à¦¤à¦°
{ :
Ġà§© à§¦à§¦
Ġ< #
7 4
à¦¨ à¦¶à¦¨
Ġà¦ĵ à¦®à¦°
9 8
à¥ Ĥ
Ġà¦² à¦Ļ
Ġà§© à§¯
à¦ĵ à¦Ł
" +
? "
Ġà¦ľà¦¨ à¦¨
ÙĬ Ø±
Ġà§¨à§¦à§¦ à§®
Ġà¦¦à¦« à¦¤à¦°
Ġà¦Ĩ à¦ĩà¦¯
à¦· à¦Ń
Ġà¦ħ à¦ļ
Ġà¦Ń à¦¦
à¦¬ à¦ļ
à¦ĩ à¦¸à¦¬
Ġà§® à§ªà§©
à§ģ à¦Ĥ
à¦Ń à¦Ļ
Ġà¦¶ à¦ªà¦¥
Ġà¦Ĺà¦£ à¦ªà¦°
Ø§Ø ¡
Ġà¦¹ à¦ĩà¦²
Ġà¦Ľ à¦ķ
Ġà¦ļà¦® à§İà¦ķ
Ġà¦Ĺ à¦ľ
à± ģ
Ġà§¯à§® à§¨à§ª
à¦Ĩ à¦ĵà¦¯
Ġà¦Ĩ à¦¹à¦²
Ø¹Ø± Ø¨
à¦ľ à¦¹
à¦Ļ à¦ļ
Ġà¦ıà¦ĩ à¦Ł
ĠÙ ĩ
] ;
ĠØ ¬
à¦Ł à¦Ń
à¦· à¦Ł
à¦Ľ à¦²
Ø§ Øª
.( '
Ġà¦¬ à¦¸à¦²
à¦ª à¦ŀ
à¦ľ à¦¡
à§« à§¬
8 9
] [
à§« à§ª
Ġà§ª à§¯
Ġà¦¸à¦« à¦²à¦¤
Ø¹Ø±Ø¨ ÙĬØ©
? ?
Ġà¦ıà¦° à¦¶
à¦ħ à¦Ł
Ġà§« à§¨
Ġà¦¦à¦² à¦Ł
8 3
à¦§ à¦Ń
à¦¤à¦¬ à¦¤
à¦ķ à¦ľ
Ġà¦¹ à¦ĩ
Ġà¦« à¦ķ
Ġà¦§à¦° à¦²
à¦¯ à§İ
à¦°à¦¸ à¦°
Ġà¦ħà¦ª à¦¹à¦°à¦£
Ġà¦® à¦ķ
à¦¥ à¦®à¦¨
à¦ī à¦¥
à§© à§¨
Ġà¦īà§İ à¦ķ
Ġà¤ ķ
Ġà¦¨ à¦ķà¦¶
Ġà§ª à§Ń
Ġ3 1
Ġà§¦ à§«
à¦ĩ à¦¶
Ġà¦ªà¦° à¦ªà¦°
à¦°à¦£ à¦¯
Ġà¦®à¦¨ à¦¸
Ġ" );
ĠÙ ±ÙĦ
Ġà§§à§¯à§Ń à§§
: )
? !
Ġ ï
Ġà¦® à¦¤à¦¨
à¦· à¦ª
Ġà¦ıà¦ķ à¦¸à¦®à¦¯
Ġ* /
Ġà¦Ĩà¦ĩà¦¨ à¦¶
Ġà¦ħà¦ª à¦¶à¦¨
) -
à¦¾ ),
à¦¨ à¦Ľ
à¦ĩ à¦ľà¦¨
à¦· à¦¸
à® ¿
à¦īà¦ª à¦ľ
à¦ı à¦ĸ
Ġ- --
à§İ à¦¸à¦¬
Ġà¦¸à¦° à¦ŀ
à¦¸ à¦ķà¦²
Ġà¦ħ à¦¹
à¦® à¦°à¦¤
Ġà¦Ĩ à¦ĸà¦¤
à§İ à¦ªà¦°
Ġà§¬ à§ª
Ġà¦¯à¦¤ à¦Ł
à§ĩ "
à¦ĸ à¦®
à¦ Ĳ
à¦¬ à¦ªà¦¨
Ġà¦ħ à¦·
20 20
? (
Ġà¦¹ à¦ĩà¦¤
à¦Ľ à¦¦
Ġà¦ħ à¦¬à¦¨
Ġà¦īà¦ª à¦²à¦¬
Ġ* *
) )
à ©
Ġà§¨à§¦à§¨ à§¨
à¦°à¦ļ à¦£
Ġà¦īà¦ł à¦¬
Ġà¦² à¦¬à¦£
== ==
Ġu u
Ñ Ģ
à¦¯ à¦¹
à¦ķ à¦Ĩà¦ª
Ġà¦ĵ à¦¸à¦®
à¦°à¦® à¦¶
Ġà§® à§«
à¦Ľ à¦¤
à¦°à¦ķ à¦°
à§ª à§§
Ġà§ª à§¨
Ġà¦Ĩà¦¶ à¦ª
à¦¼ ;
Ġà¦ĩ à¦Ļ
Ġà¦ĩ à¦«à¦¤
à¦Ĩ à¦ĩà¦¸
Ġà¦ī à¦ĩà¦¨
à¦ī à¦ĩà¦¯
Ġà¤ «
à¦ľà¦² à¦ª
Ġà¦¸ à¦«à¦Ł
à¦£ à¦¹
Ġà¦ªà¦° à¦ķ
à¦ı à¦ķà¦¦
/ '
à¦ĸ à¦¸
Ġà¦« à¦ľ
Ġà§« à§¯
Ġà¦Ĩà¦ĩà¦¨ à¦®à¦¨
Ġà¦ħà¦ª à¦Ł
Ġà¦ıà¦¤ à¦Ł
Ġà§ª à§§
à¦ıà¦¨ à¦ľ
Ġà§§à§ª à§¨à§®
à¦Ĩ à¦¹
à§« à§®
Ġà§§à§¯ à§¬
ÙĪ ÙĦ
Ġ'' ;
à¦Ĺ à¦ª
Ġà¦ī à¦ĩà¦²
Ġà¦« à¦²à¦¨
à¦°à¦¤ à¦ķ
à¦Ĩà¦° à¦Ł
Ġ:// ..
ä ¸
Ġà¦° à¦¨
Ġà¦ĩ à¦¦
Ġà¦ıà¦ķ à¦°
à¦¬à¦¸ à¦®
] ).'
Ġ à²
Ġà¦¡ à¦Łà¦ķà¦®
), .(
à¦ĩà¦ī à¦ª
___ :(
à¦¡ à¦°
à¦®à¦¨ à¦Ĺà¦°
à§ª à§¯
Ġà¦ĩà¦¨ à¦ķ
Ġà¦ıà¦ķà¦¦ à¦®
à¦¤à¦° à¦¬à¦Ļ
à¦¨à¦¸ à¦Ń
Ġ& &
Ġà¦¬ à¦¶
Ġà¦² à¦¤
Ġà¦ħà¦ª à¦®
à¦°à¦¹à¦£ à¦ķ
à² ¨
à¦Ĩà¦Ĺ à¦¸
î ł
Ġà¦ī à¦·
Ġà¦Ĩà¦Ĺ à¦®à¦¨
ĠØ§ÙĦ Ø¹Ø±Ø¨ÙĬØ©
Ġà¦¬ à¦¸à¦¨
à¦£ à¦°
Ġà¦¶ à¦¤à¦ķ
Ð ¸
à¦¿ à¥¤
à¦¡ à¦Ł
à¦ļ à¦¶
à§ª à§¨
à¦Ŀ à¦²
Ġ àª
Ġà¦ª à¦¤à¦¨
à§Ģ !
ĠØ ´
à¦Ĺà¦¤ à¦Ń
Ġà¦Ĩà¦ª à¦²
à¦ĩ à¦®à¦¸
Ġà¦ľ à¦¸
Ġà¦ĵ à¦²
à¦ħ à¦¬à¦¸
à¤ ¹
Ġà¤ µ
à¦°à¦ªà¦° à¦ĵ
à¦ķ à¦«
Ġà¦¹ à¦ĩà¦¬
Ø§ Ùħ
à§¨à§¦ à§§à§®
), =.(
. ,
à¦¿ ;
à§ĭ !
Ġà§¨à§¦ à§¦à§¦
à§« à§Ń
.( /\
à¦¥à¦¬ à¦Ľà¦°
Ø ¢
Ġà¦¸ à¦¶à¦¸
Ġà¦¬ à¦ŀ
à¦£ à¦¦
à¦ħ à¦ª
Ġà§« à§Ń
://.. //
Ġà¦ħà¦ª à¦¬
. -
Ĺ ı
Ġà¦ļà¦² à¦²
à¦¿ "
Ġà¦¨ à¦¬à¦¨
à¦Ļ à¦¨
Ġ} ;
Ġ{ {
Ġà¦ıà¦¨ à¦ľ
à¦¡ à¦Ĺ
Ġà¦ĩ à¦¸à¦®
à¦ŀ à¦°
à¦¦à¦¨ à¦Ĺà¦°
Ġà¦ıà¦ĸà¦¨ à¦ĩ
%%%%%%%% %%%%%%%%
à¦ľ à¦Ń
à¦¹ à¦ķà¦¦
Ġ. ,
à¦²à¦ķ à¦Ń
Ø¬Ùħ Ø©
à ¹
à¦¼ .
à¦ĵ à¦¹
Ġ( @
à¦°à¦¬ à¦£à¦¤
à¦¸à¦® à¦¸
Ġà§¨à§¦à§¦ à§Ń
à¦² à¦ĩ
à¦² à¦ĸ
à¦Ń à¦°à¦¶
à¦ĵ à¦ĩ
Ø§ Ø¯
à¦ıà¦¸ à¦ª
Ġà¦īà¦ªà¦ķ à¦°à¦£
Ġà¦¨ à¦¥
Ġà¦ĵ à¦ĸ
Ġà¦¸à¦® à¦¬
à§© à§ª
Ġà¦ķà¦® à¦ªà¦ķ
Ġà§¬ à§«
Ġà¦ıà¦¤ à¦¦
à¦Ī à¦¨
Ġà¦¬ à¦ī
à¦¦à¦¨ à¦ķ
Ġà¦¬à¦° à¦ĸ
Ø º
Ġà¦ħ à¦¬à¦²à¦®
Ġà§« à§¬
)( );
à¦® à¦ĵ
Ġà¦¨ à¦°à¦®
à§Ĥ à¦ģ
46 8
Ġà¦¸à¦«à¦Ł à¦ĵà¦¯
Ġ( __
Ġà¦Ń à¦°à¦¸
Ġà¦¸à¦ķ à¦²à¦ķ
ĠØ§ÙĦØªØ± Ø¬ÙħØ©
Ġ $
à¦® à¦ŀ
Ġà¦¬ à¦¦à¦°
à¦£ à¦¬à¦Ļ
à¦ªà¦¨ à¦Ĺà¦°
Ġà§« à§«
ÙĬ Ùħ
Ùį ØĮ
Ġà¦® à¦«
Ġà¦¤ à¦¸à¦²
Ġà¦ıà¦ĩ à¦¸à¦¬
à¦® à¦ĺà¦Ł
Ġà¦¶ à¦°à¦£
Ġà¦ĩ à¦Ł
à¦ı à¦¡
Ġà¦Ł à¦ª
à¦īà¦ľ à¦¬
Ġà§§à§« à§¦
, ){
? '
à¦¹ à¦ķà¦°
Ġà¦¤ à¦¦
Ġà¦¤ à¦¹à¦¬
Ġà¦° à¦ŀ
à¦ī à¦ĩà¦¨
Ġà¦¬à¦° à¦Ĺ
Ġà§« à§ª
).( /
à¦¨à¦ľ à¦Ł
à¦¤ à¦¸
__ ');
à¦°à¦« à¦°à¦®
Ġâ Ĩ
à¦ĩà¦ī à¦°
Ġ}); "
à¤¿ à¤Ĥ
Ġ+" ..(()
à¦¤ à¦¶
à¦¹ à¦ĩà¦¯
à¦ļ à¦²à¦¤
Ġà¦¶ à¦ª
à§Ń à§«
Ġ8 80
Ùĥ Øª
Ġà¦¨ à¦Ĺ
à¦¬à¦ķ à¦ķ
à¦ķà¦¸ à¦ĩ
+ +
_ );
Ġ à°
Ġà¦¨ à¦ķ
à¦ī à¦ĩà¦ķ
à¦¬à¦° à¦¦
à¦ıà¦ĩà¦ļ à¦ıà¦¸à¦¸
Ġà¦¡ à¦Ł
à¦ĩà¦² à¦Ł
Ġ0 1
à¦ıà¦ķ à¦ľà¦¨
Ġà§¨à§§ à§®
Ġà¦¸ à§İ
Ġà¦Ĩ à¦ĩà¦Ń
à¦¥ à¦¸
Ġ0 2
Ġ.. ;
Ġà¦ıà¦¡ à¦ľ
". ").(
Ġ ),
Ġà¦¤ à¦¨
Ġà¦ľ à¦ĸà¦®
à¦Ń à¦¬à¦¨
Ġ. -
à¦ħ à¦«
Ġ= >
"" );
Ġ8 8
Ġg i
à¦Ĺ à¦ªà¦¤
à¦¹ à¦¦
Ġà¦¡ à¦¬
Ġà¦ĭ à¦¤
ĠÂ ®
Ġà¦¸ à¦ļà¦²
Ġà¦¨ à¦ĩ
Ġà¦ļ à¦¯
Ġà¦ĵ à¦¡
à¦°à¦¨ à¦Ĺà¦°
Ġà¦« à¦¨
Ġà§¨à§¦à§¦ à§§
27 7
à¦Ŀ à¦¬
Ġà¦· à¦·
-------- --------
Ġà¦° à¦¤
à¥ ģ
Ġà§§ à§¨à§¦
Ġà§¬ à§®
Ġà§§à§Ń à§¨
à¦ª à¦ľ
à¦ª à¦¶à¦¨
à¦Ĥ -
à¦°à¦¹ à¦°
à³ į
Ġà¦ıà¦ķ à¦¥
à¦ĩà¦¨ à¦¸
Ġ= =
Ġà§¨à§¦à§¦ à§¨
Ġà§¨à§¦à§¦ à§«
" ),
] ]
à¦¥ à¦ķà¦¦
à§« à§¨
Ġà§« à§§
à® ®
à¦¤ à¦°à¦ķ
à¦Ĺ à¦²à¦ķ
à¦¹ à§İ
Ġà¦Ĺ à¦¦
Ġà¦Ĺ à¦Ńà¦°
ĠØ «
à¦¨à¦¤ à¦®
://.. /
. $
} );
à¦¬ à¦°à¦¤
à¦ĩ à¦ĸ
à¦§ à¦Ł
à¦ĸ à¦£
à¦°à¦¹à¦£ à¦¯
Ġâ Ŀ
Ġ a
à¦¯ à¦ĸà¦¨
Ġà¦® à¦®
Ġà¦° à¦®à¦ľ
à¦¯à¦¬ à¦¦
Ġà¦¸à¦° à¦²
à¦°à¦ļ à¦°
Ġ_ ()
Ġà¦Ĩà¦ĩ à¦ıà¦¸
à¦ĵ à¦«
à¦Ĩ à¦°à¦¬
à¦°à¦¦ à¦¤
à§¨à§¦ à§§à§Ń
Ġ[ [
ĠâĨ Ĵ
à¦Ĺ à¦¬à¦°
Ġ0 3
Ġà¦Ī à¦¸
Ġà¦ħà¦¬à¦¨ à¦¤
à¦¦ à¦ªà¦¤
Ġ( '#
à¦ĥ -
Ġ' /'
Ġ: -
20 19
Ġâ ĩ
$ /,
à¦ľ à¦Ļ
à¦ī à§İà¦ª
à¦¬à¦¨ à¦ķ
Ġà§« à§©
-- ');
à¦ıà¦¸ à¦ĩ
Ġà§¦ à§§à§¯
Ġ__ .(
à¦¼ ...
à¦¦ à¦°à¦ķ
à§ª à§ª
à§« à§©
Ġà¦¬à¦° à¦«
Ġ} )();
Ġà¦ĺà¦Ł à¦¤
Ġ.( /\
Ġ$( ".
Ġ! =
ÙĥØª Ø§Ø¨
( ?!
\ ''
\ (\'
\ :)
^ \+
â Ģ¢
Ġà¦Ĩ à¦ĩà¦ľ
à¦¼à¦¾ )
Ġà¦ľ à¦ľ
Ġ( \''
Ġà¦ī à¦¹
à¥¤ \+
Ġà¦Ĩà¦ĩà¦¨ à¦Ĺà¦¤
Ġà§Ń à§§
Ġ_ []
Ġ'' ).(/
(\' /,
.(/\ \(\'
Ġ(__ .)
Ġ('# --');
$/, '');
Ġ__.( _);
Ġ.(/\ (\'/,
(?! \:)
^\+ à¥¤\+
Ġ_[] .(/\\(\'
Ġ'').(/ ^\+à¥¤\+
(?!\:) /,
Ġ_[].(/\\(\' (?!\:)/,
Ġ'').(/^\+à¥¤\+ $/,'');
Ġà¦ķ à¦Ń
à¦§ à¦°à¦¨
Ġà¦ıà¦¸ à¦Ĩà¦ĩ
Ġâĩ Ħ
à¦² à¦ĵ
Ġà¦Ł à¦²
à§« à§¯
à¦®à¦¤ à¦ª
à¦¶à¦ķ à¦¦
Ġà§® à§®
Ġ$('. __
Ġà¦ª à¦²à¦ķ
Ġà¦® à¦°à¦¹
" ).();
à¦² à¦Łà¦¨
Ġà¦ķ à¦Ļ
à¦¦ à¦īà¦²
Ġ_ :
à¦° à¦ŀ
Ġà¦ķ à¦¬à¦²
Ġà¦¬ à¦ĩà¦®
à¦Ĺ à¦ĩ
Ġà¦° à¦«à¦¤
Ġà¦Ń à¦Ĺà¦¬
à¤ ¤
à¦·à¦ķ à¦ķ
Ġ0 9
Ġà¦Ĺà¦£ à¦¤
Ġ:// ./
à¦ľ à¦ķà¦°
Ġà¦¹ à¦ĩà¦¯
Ġà¦§ à¦¸
à¤ ļ
à¦¹à¦¤ à¦¦
Ġ.. _
8 80
Ġà¦¦ à¦°à¦¬
Ġà¦ī à¦ĸ
Ġà¦ĩ à¦īà¦ľ
Ġà¦Ĩà¦¸ à¦®
Ġ4 5
- :
. ?=
à¦Ł à¦ĸ
Ġà¦ĩ à¦®à¦¨
Ġà¦Ľ à¦¨
Ġà¦Ł à¦ķ
à¦ľà¦¨ à¦¶
Ġà§Ń à§¨
à® ķ
à§İà¦ª à¦°à¦¤
à§ĩ à¦Ĥ
à¦ļ à¦¸
Ġà¦ī à¦ĩ
Ġà¦¸à¦® à¦¤
à¦Ĩ à¦īà¦Ł
Ġà¦Ĩà¦ľ à¦ĩ
Ġà§¬ à§¯à§¯
Ġà§Ń à§Ń
Ġà§Ń à§¬
Ġ.( )
)} }
à¦° à¦Ļ
à¦Ĺ à¦¤à¦®
Ġà¦ıà¦ķ à¦¦à¦²
Ġà¦ķà¦® à¦°
Ġà¦ķà¦® à¦¬
à¦²à¦¨ à¦ķ
. ,:
à¦Ľ à¦Ł
à¦§ à¦¸à¦®
Ġà¦ĸ à¦£
Ġà§¬ à§¬
Ġà¦ĺà¦Ł à¦Ľ
Ġ.( ()
Ġ}); */
Ñģ Ðº
Ġ. ;
Ġà§Ń à§¯à§¬
Ġà§¯ à§¦à§Ń
// /
Ġà¦ıà¦¡ à¦Ń
70 7
à¦¬à¦ķ à¦¦
**** ****
à¦Ĩà¦« à¦Ĺ
Ġà¦ħ à¦®à¦°
à¦ĵ à¦ļ
à¦Ļ à¦²
à¦°à¦£ à¦ķ
Ġ. ");
à¦¦à¦¨ à¦¶
Ġà¦ħà¦¬ à¦¤à¦°à¦£
Ġ/* .(
Ġà¦¹à¦ľ à¦°à¦¤
à¦ķ à¦ĵ
Ġà¦ľ à¦Ĺ
à¦£ à¦ª
Ġà¦Ń à¦Ĺ
Ġà¦ĵ à¦¹
Ġà¦¸à¦® à¦Ŀ
Ġà¦Ł à¦¸
à§« à§§
à¦ħ à¦²
"" ,:
îł ĥ
Â ®
Ġà¦ľ à¦Ĺà¦¦
Ġà¦² à¦°
Ġà¦Ĩà¦¸ à¦ĵà¦¯
Ġà¦ķà¦® à¦¤
à¦²à¦¤ à¦²
Ġà¦ĩà¦¨ à¦ļ
Ġà§¯ à§¬
Ġà¦īà¦° à¦ĵà¦¯
à¦°à¦¥ à¦®à¦¤
à¦ ĭ
à¦ľ à¦ĵà¦¯
à¦£ à¦¯
Ġà¦ĵ à¦°à¦«
ĠØ§ÙĦ Ø³
Ġ0 6
__ __
à¦ĩà¦¸ à¦Ļ
à¦²à¦ª à¦®
.() );
) ]
à¦° à¦ĺ
à¦¦ à¦Ĺà¦ŀ
à¦ľà¦¨ à¦ķà¦¨
à± Ĩ
? "":
à¦® à¦Ń
Ġà¦ª à¦ª
à¦ĩ à¦īà¦Ł
à¦§ à¦¦
Ġà¦ĩ à¦¸à¦¹
à¦¸ à¦ĵ
à¦¶ à¦¸à¦¹
Ġà¦° à¦ļ
ĠØ ®
à¦¯à¦Łà¦ķ à¦¦
Ġ e
à¦¶ à¦ľ
Ġà¦Ĺ à¦®
à§§ à§¨à§§
Ġ. --
à¦·à¦ķ à¦¤
Ġà§Ń à§ª
Ġà¦ĺà¦Ł à¦²
Ġà§©à§© à§®à§¦
Ġ Ì
à¦¸ à¦¯
Ġ( .
à¦ī à§İà¦¸à¦¬
Ġà¦Ĩà¦¨ à¦²
21 707
,, ,,
2222 277
2222 21707
2222277 80
à¦Ĺ à¦«
à¦ī à¦ıà¦ĩà¦ļ
à¦Ĩ à¦§
Ġà§¬ à§§
Ġ0 5
Ġ'' )
à¦° à¦ļà¦¨
à¦£ à¦«
Ġà¦ħà¦¬ à¦¤
Ġà¦Ĩà¦ķ à¦¸
à¦ªà¦Ł à¦ª
Ġà¦¨à¦ľ à¦°à¦¦
5 00
à¦Ľ à¦ª
Ġà¦ªà¦° à¦¦
à¦¬à¦° à¦Ĺà¦ŀ
à§Ń à§¬
Ġà¦¬ à¦®
Ġà¦Ĩ à¦ĩà¦²
à¦Ĩ à¦ĩà¦ľ
Ġ: #
à¦ıà¦¸ à¦ľ
Ġà¦Ŀ à¦Ĺà¦¡
Ġà¦¬ à¦ķà¦°
Ġ1 20
à§Ń à§©
Ð ¾
Ġà§ ³
à¦ī à¦«
Ġà¦Ĩà¦° à¦®
Ġà¦Ĩà¦² à¦¬
Ġà¦Ĺà¦£ à¦¨
Ġà¦ıà¦® à¦¡
1 00
à¦¿ ),
à¦¼à¦¾ Â®
Ġà¦ī à¦Ĺ
Ġà¦Ł à¦®
à¦Ĩ à¦¸à¦²
Ùİ Ù°
Ġà¦ķà¦¨ à¦Ń
Ġ(@ )
à¦¼à¦¾Â® ,
Ġà¦¸ à¦¸
à¦¶ à¦¹
Ġà¦ī à¦®à¦°
à¦¬à¦² à¦¤
Ġà¦¶à¦¤ à¦Ń
Ġà¤ ª
Ġà§¯à§®à§¨à§ª à§¦à§¬
à¦¤ à¦ĸà¦¨
Ġà¦ªà¦° à¦¸
à§¯ à§®
à¦īà¦ľ à¦Ł
35 40
Ġà§¦à§Ń à§¨à§§
( .
à¦® à¦ĩà¦¨
Ġà¦°à¦¹à¦® à¦¤
à® ´
Ġà¦²à¦Ĺ à¦ĩà¦¨
à¦· à¦¬
à¦ĸ à¦ª
.. ...
à¦Ŀ à¦ĸ
Ġà§Ń à§©
Ġ{ '
à¦ıà¦® à¦ĩ
Ġ+' ..(()
'. ___:(
57 3540
67 573540
Ġ+" .('
Ġ+'.( );
}); '
.()); "
Ġ+".(' /
Ġà¦Ĩ à¦ĩà¦ķ
Ġà¦° à¦ĵ
Ġà¦ıà¦ķ à¦¶
à¦ī à¦ĸ
Ġà¦Ĩà¦ķ à¦¬à¦°
Ġà¦Ĺà¦£ à¦¸
à¦īà¦ıà¦ĩà¦ļ à¦ĵ
- ").(
Ġ à´
Ġà¦¸ à¦¯
à¦Ł à¦ĵ
Ġà¦¤ à¦«à¦¸
Ġà¦ľ à¦Ĺà¦¨
à¦ļ à¦°à¦£
à¦Ĺà¦¤ à¦ķ
à¦ıà¦¸ à¦ıà¦«
Ġ0 4
Ġ0 8
Ġà¦ĩà¦ī à¦ķ
à¦¬à¦¹ à¦£
Ġ< >
ÑģÐº Ð¸
à§Ń à§®
à¦ıà¦¸ à¦Ĩà¦ĩ
).( (){
à¦ıà¦¨ à¦¸
Ġ[ ]
à¦®à¦¸à¦® à¦°
à¦¥ à¦¦
Ġà§ª à§¦à§¦
Ġà¦ıà¦®à¦¨ à¦ĩ
Ġà¦īà§İ à¦ªà¦¤
ĠÂ ·
Ú ©
Ġà¦ķ à¦¸
Ġà¦° à¦ĵà¦¨
à¦°à¦¬ à¦£
Ġ202 2
à¦ķà¦Ł à¦ķ
à¦®à¦ķ à¦°à¦£
Ġ$( "#
àª °
( ).(
¤ à®®
à¦¬ à¦¦à¦¨
à¦Ń à¦¸
Ġà¦¸à¦® à¦®
à¦ł à¦ķà¦¦
à¦¼à¦¿ à¦Ĥ
Ġ' ;
Ġà¦Ĩà¦¬ à¦¶
à§Ń à§¨
Ġ0 7
Ġo u
à¦ķà¦¡ à¦ĩà¦¨
3 00
à¦ļ à¦ľà¦¨
à§§ à§¨à§¦
Ġà¦¸à¦¹ à¦ķà¦°
à¦¯à¦® à¦¯
Ġà§¨à§¦à§¦ à§©
Ġà¦ķà¦ĸà¦¨ à¦ĩ
Ġà¦¯à¦¤ à¦ĩ
Ø§ÙĦ Øª
! =
' ":
à¦¤ à¦ĵ
Ġà¦¦ à¦¸
Ġà¦ĩ à¦¬à¦°
à§¯ à§¦
Ġà§¨à§¦à§¦ à§ª
à¦ķ à¦¸à¦¹
à¦¸ à¦ıà¦ķ
à¦ª à¦ķà¦²
Ġà¦ı à¦®à¦¬
à¦· à¦ĩ
à¦« à¦ĵà¦¯
à¦ı à¦¸à¦®à¦¯
Ġà¦¦à¦² à¦Ĺ
Ġà¦Ĺà¦£ à¦ª
à¦ķà¦¸ à¦Ń
à¦ıà¦ķ à¦ĩ
à° ²
ĠðŁ ĺ
< #
Ø ¸
à¦£ à¦ľà¦¯
à¦Ĩ à¦ĩà¦Ł
Ùİ ØĮ
Ġà¦ĺ à¦¡
à§¯ à§ª
Ġà¦®à¦¨ à¦ľ
ĠØ ²
Ġ. "
à¦¾' ,
Â °
à¦¯ à¦ľà¦¨à¦ķ
à¦ķ à¦¹
Ġà¦Ĺ à¦¯
Ġà¦ªà¦° à¦¤
ĠÙ Ģ
Ġà§¨à§¦à§¦ à§¬
Ġ13 0
Ġ$().( '
. +
Ġà¦® à¦ĩà¦¨
à¦¶ à¦¹à¦°
Ġà¦īà¦ª à¦®à¦¹
Ġà¦ħà¦¬ à¦§
Ġà¦Ĩà¦ľ à¦¹
à¦ķà¦Ł à¦²
Ġà¦¨à¦¬ à¦ľ
à¦¸à¦Ń à¦¬à¦¨
Ġà¦ıà¦ĩà¦ļ à¦¡
Ġà¦ ¾
à¦ķ à¦®à¦¤
à¦§ à¦¹à¦¯
à¦ŀ à¦¦
Ġà¦īà§İ à¦¸à¦°
à¦¬ à¦ĩà¦¯
Ġà¦¹ à¦ľà¦®
Ġà¦¦ à¦¶à¦Ł
Ġà¦ķà¦° à¦¦
Ġà¦² à¦Ł
à¦ĺ à¦®
à¦ħ à¦¶
Ġ> >
à¦ľ à¦īà¦¦
à¦· à¦Ĺ
à¦¼à¦¾ à¦ĥ
à¦Ń à¦®
à¦°à¦® à¦§
Ġà¦Ĩà¦¨ à¦¬
.( ,
Ġà¦Ĺà¦£ à¦¹à¦¤
à¦²à¦Ĺ à¦¸
Ġà¦¨à¦¬ à¦®
àª ¾
à¦¨ à¦·
Ġà¦® à¦Īà¦¨
à¦§ à¦ķà¦¤
Ġà¦Ł à¦Ļ
.. $
à§¯ à§«
à¦¿à¦Ĥ -
Ġà¦ıà¦¸ à¦ª
Ġà¦ĩà¦¨ à¦¡
ĠØ§ÙĦ Ùħ
Ġ0 17
- %
Ġà¦¨ à¦²à¦¡
à¦ĸ à¦Ł
Ġà¦ıà¦ķ à¦ĩà¦Ń
à¦ħ à¦®
à¦ĩà¦Ł à¦Ł
Ġà¦ıà¦¸ à¦ıà¦®à¦ıà¦¸
Ġà¦¤ à§İà¦ªà¦°à¦¤
Ġà¦¸à¦® à¦¤à¦²
à¦¼à¦¿ -
Ġà§¬ à§Ń
"" +
"," '":
< =
à¦¶ à¦ĵ
Ġà¦¦ à¦Ĺ
Ġ20 09
ĠØ§ÙĦ Øµ
à¦Ī à¦²
à¦¥ à¦Ń
Ġà¦¶ à¦¸
Ġà¦¶ à¦Ł
Ġà¦² à¦ĺ
Ġà¦ıà¦ķ à¦®à¦¤
à¦ĩà¦¨ à¦Ł
à¦ĩà¦² à¦¸
Ġà¦¸à¦¬ à¦Ĺ
à¦¹à¦¨ à¦ª
ĠØ¹ ÙĨ
Ġâ Ĺı
1 20
> =
} ,
à§ģ .
Ġà¦¬ à¦¬
à¦ļ à¦£
à¦ĵ à¦ķ
à¦ł à¦ª
ÙĲ ØĮ
à¦¯à¦® à¦ķ
à¦ĩà¦ķ à¦®
à§¨à§¦ à§§à§¬
Ġà¦¤à¦ĸà¦¨ à¦ĵ
à´ ¯
Ø® Ø±
Ø ¡
à¦¯ à¦ĸ
à¦ĩ à¦ĺ
Ġà¦ħ à¦£
Ġà¦ļ à¦²à¦¨
Ġà¦ĸ à¦°
ĠØ ¯
Ġà¦ħà¦¬ à¦Ĺà¦¤
Ġi g
Ð ½
à¦ĵ à¦Ĺ
Ġà¦ĸ à¦¨à¦¨
Ġà¦Ĩà¦² à¦¤
ĠØ§ Ø¨
), =
Ġà¦ľà¦¨à¦Ĺà¦£ à¦ķ
à¦¨ à¦«
Ġà¦¸ à¦°à¦¦
à¦ı à¦Ń
à§İ à¦¸à¦°
à§¨à§¦ à§¨à§¨
à§İà¦¸ à¦ķà¦°
Ġà¦ıà¦ķà¦ľà¦¨ à¦ķ
Ġc o
,: ,:
à¦®à¦¶ à¦¤à¦¬
à¦¦ à¦¹
Ġà¦ĸ à¦¡
à¦®à¦¨ à¦ĩ
à¦¤à¦° à¦¨
Ġà¦¸à¦¹ à¦¸
Ġà§¬ à§¨
à° Ĺ
Ġ$('. -
á ŀ
à¦¸ à¦¬à¦¨
Ġà¦® à¦ĵà¦²
à¦¥ à¦ķà¦°
Ġà¦¯ à¦¤à¦ķ
à§Į -
Ġ. @.
à¦¦à¦ķ à¦¦
à¤ ł
Ġà¦ĩà¦¨ à¦ľ
Ġà¦Ĩà¦¦ à¦®
Û ģ
à¦¯ à¦¸à¦®
Ġà¦¬ à¦£
Ġà¦¬ à¦°à¦£
Ġà¦® à¦¦à¦¨
Ġà¦¹ à¦°à¦®
Ġà¦ħ à¦¸à¦¨
Ġà¦ħ à¦®à¦¸
à¦ĵ à¦Ń
Ġ1 22
à§® à§¬
à¦¤à¦¬ à¦¯
Ġà¦ħà¦ª à¦ª
àª ¤
à¦° à¦°à¦®
Ġà¦® à¦¸à¦²
à¦ī à¦¶
Ġà§§ à§¦à§¦à§¦
Ġ= '
).( '.___:(
Ġà¦¶à¦¤ à¦¬à¦°
Ġ$( __
à¦²à¦ª à¦¥
ĠÙģ ÙĬ
à« ģ
Ġ+'.(); });'
= ""
Ù Ģ
à¦ Ĭ
à¦Ĺ à¦ĵ
à¦īà¦¨ à¦¸
Ġà¦ħà¦¤ à¦ıà¦¬
à¦°à¦®à¦£ à¦ķ
Ġà§¨à§§ à§¨
à¦ľà¦ª à¦¥
................ ................
Ġà¦°à¦ĵ à¦¶à¦¨
! ==
, '
\ /
à¦¯ à¦²
à¦ļ à¦¤à¦°
Ġà¦ľà¦¨ à¦¸à¦®
Ġà¦Ł à¦¯
Ġà¦®à¦¤ à¦ĩ
Ġà§¯ à§«
à´ Ĥ
à¦° à¦°à¦«
à¦²à¦¤ à¦ª
Ġà¦ªà¦°à¦ªà¦° à¦ĩ
" ===
ľ àª°
à¦¨ à¦ļà¦°
à¦« à¦«
Ġà¦ľà¦¨ à¦ªà¦¦
à¦¶à¦¨ à¦ķ
à§¬ à§¬
à¦ļà¦¨ à¦ķ
à¦Ĺà¦° à¦ª
Ġà§¯ à§¯
Ġà¦ıà¦¨ à¦¸
Ġà¦¨à¦¬ à¦¬à¦°
àª ľàª°
99 99
à´ ¾
á ĥ
à¦¯ à¦ķà¦²
à¦°à¦® à¦ª
à§« à§¦à§¦
Ġà¦Ĩà¦Ĺ à¦·
à¦Ī à¦¶
; }
Ġà¦ķ à¦ĩ
à¦Ł à¦¹
à¦Ł à¦¸à¦¹
à¦¼à§ĩ -
Ø§ Ùĩ
à¦¸à¦¹ à¦ķ
ÙĪ Ø±
=( ).(
à© Ģ
? :
á Ģ
à¦¾ à§į
Ġà¦® à¦ł
à¦Ĺ à¦°à¦£
Ġ.. /
ĠØ§ÙĦØªØ± Ø§
; (
{ {
Ð »
à¦² à¦§à¦¨
à¦· à¦ĵ
Ġà¦¤ à¦¤à¦ķ
Ġà¦ĩ à¦¶
à¦ł à¦¤
à¦ı à¦¶
à¦ĺ à¦ķ
à¦¸à¦¬ à¦ľ
.( "
à¦²à¦¬ à¦ķ
Ġ} }
à¥ĩ à¤Ĥ
à¦ķ à¦ľà¦¨à¦ķ
Ġà¦ķ à¦¦
Ġà¦¸ à¦ĸ
Ġà¦¤ à¦°à¦²
à¦§ à¦¸
Ġà¦¶ à¦®
à¦ī à¦ªà¦°
Ġà¦« à¦°à¦¹
à¦¦à¦ķ à¦¬
Ġà¦¢ à¦²
à¦ıà¦¸ à¦¡
à§¨à§¦ à§§à§«
Ġà§Ń à§¯
Ġà§® à§©
à¦ĩà¦ī à¦¤
Ùģ Ø§Ø³
à´ ²
ĠØ§ÙĦØ£ Ø®Ø±
à¦Ĳ à¦¤
ĠØ§ÙĦØªØ±Ø§ Ø¬Ùħ
ÙģØ§Ø³ ÙĬØ±
ĠØ§ÙĦØ£Ø®Ø± Ùī
6 00
â ĺ
à¦¬ à¦ĵ
à¦¶ à¦Ļ
Ġà¦¤ à¦²à¦¬
à¦§ à¦¶
à¥¤ ":
Ġà¦ıà¦ķ à¦¨
ĠØ °
à§Ń à§¦
à¦ĺ à¦²
à¦ħ à¦ľ
Ø§ Ùģ
à¦ªà¦ķ à¦¥
Ġà§Ń à§®
00 00
à¦®à¦¸ à¦ľ
11 8
"," à¥¤":
Ġà¦ľà¦Ĺ à§İ
( ,){
Ġà¦Ĩ à¦īà¦¯
à¦Ĩ à¦ĩà¦¯
Ġà¦Ĩà¦¨ à¦¹
Ġà¦ĩà¦¨ à¦Ń
à¦®à¦¦ à¦ª
$( "#
à¦Łà¦¬ à¦²à¦ķ
à´ ³
Ġà® ¤à®®
® à´²
Ñ ĥ
Ġ ],
à¦¹ à¦Ń
à§ĥ à§ĥ
à¦Ĩ à¦ĩà¦¬
Ġà§¬ à§©
$( ).(
à¦¬à¦ĩ à¦ªà¦¤
à¦¥à¦² à¦¬à¦¨
Ġ$('. _
à¨ ¾
Ø¹Ø± Ø¶
à© °
Ø§ÙĦØª ÙģØ§Ø³ÙĬØ±
®à´² à´¯
' ://..//
Ġà¦Ĩ à¦Łà¦Ł
à¦Ĩ à¦¬à¦°
à¦®à¦¨ à¦Ł
Ġà¦Ĩà¦° à¦¶
Ġà¦ıà¦ĩ à¦Ń
à¦²à¦ķ à¦ķ
Ġà¦®à¦¤ à¦²à¦¬
ĠØ§ÙĦ Ø±
Ġà§® à§ª
Ġ4 7
à¨ ¬
. [
. []
. &&(
Ġ %
à§į -
à¦ķ à¦ł
à¦ķ à¦®à¦²
Ġà¦¤ à§İà¦ªà¦°
Ġà¦° à¦¤à¦¨
Ġà¦ªà¦° à¦¶
à¦ĥ :
ĠØ º
à¦°à¦¸ à¦®
à¦·à¦ķ à¦¥
Ġà§¦ à§§à§ª
à¨ ª
à¨ ľ
à§¦à§§ à§§à§®
ĠðŁ Ļ
ĠÌ ĩ
Ġà§¦à§§à§ª à§¦à§§à§§à§®
) à¥¤
à¦¨ à¦°à¦¸
à¦® à¦ªà¦°
à§ģ !
Ġà¦° à¦£
Ġà¦ĩ à¦ķà¦°
à¦ıà¦¨ à¦ı
Ġà§® à§¦à§¦
Ġà¦ĩà¦ī à¦ıà¦¸
à¦Ĺà¦ľ à¦ªà¦¤
Ø§Ø ¦
'://..// .?=
Ð µ
à¦¾ îłĥ
à¦° à¦īà¦ĩà¦¨
à¦¨ à¦Ĩà¦ľ
à¦¤ à¦Ľ
à¦® à¦¸à¦¹
à§ĭ ...
Ġà¦¨ à¦ĸ
Ġà¦ı à¦°à¦®à¦§
Ġà¦¦ à¦ĩ
à¦Ľ à¦¯
Ġà¦®à¦¹ à¦¡
Ġà¦ĸà¦¬à¦° à¦Ł
Ġà§¯ à§Ń
Ġà§¦ à§§à§®
à¦¯à¦¥ à¦Ń
à¦ľà¦ķ à¦¥
à² ¡
Ġ(! )
Ġà¦īà§İà¦ķ à¦£
Ġï ħ
à¦¦à¦°à¦ķ à¦¥
â Ģ
à¦ĩà¦¨ à¦ķ
à¦ħ à¦¸à¦®
à¦¸à¦¨ à¦ķ
à¦ıà¦® à¦¡
Ġà§¨à§« à§¦
. //
à¦ľ à¦ĵ
à¦¹ à¦ª
à¦Ĥ ,
à¦ļ à¦ķà¦°
à¦ĸ à¦ľà¦¨à¦ķ
Ġ( -
Ġà¦ıà¦ĩ à¦¬
à¦¤à¦° à¦ª
Ġ1 000
à§¬ à§ª
à¦®à¦¤ à¦²
à¦¬ à¦ķà¦°
à¦ªà¦ķ à¦Ń
.... ..
à¦Ĩà¦ĩ à¦ıà¦¸
à¦¹ à¦Ł
Ġà¦¹ à¦¨à¦¨
à¦§ à¦¬à¦ª
Ġà¦ļ à¦¶à¦®
à¦« à¦ķ
Ġà¦ıà¦ķ à¦ª
à§§ à§¦à§¦
Ġà¦ľà¦¨ à¦¬à¦²
à§¯ à§¨
Ġà¦Ĩà¦¨ à¦Ľ
Ġà¦ĩà¦¨ à¦¶
à§¨à§¦ à§§à§§
"" ==
ĠÙĪ Ø§ÙĦ
Ġà¦ħà¦² à¦°
Ġc s
à¦¯ à¦°à¦ķà¦®
à¦°à¦¬ à¦¤
Ġà¦ħà¦Ń à¦¯
Ġ3 65
Ġà¦Ĳ à¦¶
Ġà§§à§ª à§ªà§©
Ġ$( '#
Ø ¦
Ġà¦ Ļ
Ġà¦ķ à¦ĩà¦°
à¦ĩ à¦īà¦ľ
Ġà¦¨ à¦¸
à¦Ĩ à¦ļ
Ġà¦ıà¦ĩ à¦¡
à¦°à¦¸ à¦¬
à§¬ à§®
Ġà§® à§¨
Ġà¦Ĩà¦« à¦¸
à¦¯ à¦®à¦¤
à¦ķ à¦²à¦¨
à¦¸ à¦«à¦Ł
à¦Ł à¦ļ
à¦Ń à¦°à¦¯
Ġ( );
à¦°à¦¤ à¦²
à¦¬à¦° à¦ĩ
ÙĬ ÙĦ
Ġà§Ń à§¦à§¦
' :
ķ à²¨
à¦Ł à¦ĩ
Ġà¦® à¦¹à¦®
à¦ªà¦ķ à¦¥à¦¨
Ġà§¯ à§§
Ø¯ ÙĪ
Ġ.( ).();
Ġà¦¯à¦¤ à¦¦
à¦ıà¦ĩà¦ļ à¦¡
à± į
à²¨ à²¡
1 22
à§ °
Ġà¦Ĩ à¦«à¦°
à¦· à¦¦à¦°
à¦¥ à¦¦à¦£
Ġà¦¶ à¦ĸ
Ġà¦¶ à¦ĵ
Ġà¦ĩ à¦²à¦®
Ġà¦ľà¦¨ à¦Ĺà¦¨
Ġà¦Ĩà¦¸ à¦ķ
] ],
à¦¨ à¦ľà¦¨à¦ķ
à¦¯ à¦ľà¦¨
à¦¤ à¦¯
Ġà¦¬ à¦§
à¦ľà¦¨ à¦¤
Ġà¦īà¦ª à¦ļ
Ġà¦ķà¦® à¦Ľ
à¦¦à¦¨ à¦ªà¦¤
Ġà¦Ĩà¦ķ à¦¤
ÙĬ Ø¯
à¦¸à¦ķ à¦·
Ġà¦Ĺà¦£ à¦Ńà¦¬à¦¨
Ġà¦¶à¦ĵ à¦ķà¦¤
Ġà¦¨ à¦ĵà¦¯
à¦¸à¦¬ à¦ļ
Ø§ Ø¹
), ()
'' )
à¦Ĺà¦ł à¦¨à¦Ł
à¦ħà¦¬à¦¸ à¦°
, "
/ >
à¦® à¦ļà¦¨
Ġà¦¸ à¦ĵà¦¯
à¦Ĺ à¦ļ
Ġà¦¦ à¦¡
à¦ī à¦¦à¦ķ
à¦°à¦¤ à¦°
à¦ľà¦¨ à¦Ĺà¦°
à¦ĩà¦¨ à¦¸à¦¹
Ġ. __');
).( .());"
Ġà§® à§Ń
Ġ.( ).'
Ġc i
ĠÙĦ Ø§
,: !
à¦°à¦ľà¦¨ à¦¨
=.( "
"- "),
Ġ$(__ ).('.___:(
, ""
à¦¯ à¦Ļ
à¦¤ à¦ªà¦ķ
à¦® à¦¹à¦²
à§Ģ ...
Ġà¦ĩ à¦¡
Ġà¦² à¦¸
à¦Ĩ à¦¨à¦¨
.. )
09 8
Ġà¦¤à¦° à¦Ļ
à¦¹à¦¯ à¦°à¦¤
Ġà° ¤
. ]
6 40
Ø ¤
à¦ķ à¦£
Ġà¦ķ à¦¤à¦ķ
Ġà¦¸ à¦°à¦¬
Ġ( _
à¦¬à¦° à¦¡
à¦ı à¦Ĺ
à¦ľà¦¨ à¦¦
à¦ħ à¦Ĺ
à¦ĩà¦Ł à¦¸
Ġà¦Ĩà¦¯ à¦¹
Ġ[ +
à¦¹à¦°à¦£ à¦¸
) [
4 00
à µ
à¦® à¦ĺ
Ġà¦ıà¦° à¦¦
à¦°à¦¶ à¦¸
Ġà¦ħà¦ªà¦° à¦¦
à¦ķ à¦¸à¦¨
à¦¬ à¦Ĺà¦¨
à¦Ł à¦ľ
Ġà¦Ĩ à¦ł
à¦§ à¦Ĺ
à¦¬à¦¸ à¦¨
à¦¸à¦® à¦°
Ġà¦¯à¦ĸà¦¨ à¦ĩ
18 0
==== ====
ä¸ Ń
Ġà´ ®à´²à´¯
) );
< />
à º
à¦¸ à¦Ľ
Ġà¦¤ à¦¡
à¦ī à¦ªà¦¦
à¦°à¦® à¦ľ
à¦¶à¦¨ à¦Ł
à§¨à§¦ à§§à§©
Ġà¦¸à¦¤ à¦¤
ĠÙħ ÙĨ
æ ĸ
à¦¯ à¦¸à¦¹
à¦® à¦«
à¦® à¦¸à¦¨
à§Ģ ]
à¦Ĺ à¦Ń
Ġà¦¨ à¦¬à¦¬
Ġà¦¨ à¦Łà¦°
Ġà¦ıà¦ķ à¦¯
Ġà¦ıà¦ķ à¦ĩà¦¸à¦Ļ
à¦ł à¦¶
Ġà¦¸à¦¬ à¦¶
Ġà§© à§§à§©
Ġà¦ªà¦¦ à¦ª
Ġà§® à§¬
Ġà¦ķà¦®à¦² à¦Ĺà¦ŀ
à§ĩ /
à¦¨ à¦°à¦¤
à¦Ĺ à¦łà¦ķ
Ġà¦ı à¦¹
à¦ī à¦ªà¦ķ
à§§ à§¦à§¦à§¦
ĠØ§ÙĦ ÙĤ
Ġà¦¶à¦¤ à¦ķà¦°
Ġ* **
âĨ Ĳ
Ġ.... ..
Ġà¦ķà¦¬à¦° à¦¸
à¦¨ à¦ķà¦°
à¦¸ à¦ľ
Ġà¦ķà¦° à¦¨
Ġà¦Ľ à¦¤
à§ª à§¦à§¦
à¦²à¦ķ à¦¦
à¦¤à¦¨ à¦ķ
à¦®à¦¤ à¦¸à¦¹
à¦Ŀ à¦°
à¦ıà¦« à¦ª
,, ,
,, ){
""=== ..
"") +
.$ .(
Ġà¦Ĩà¦ĩà¦ķ à¦¨
/ .
à¦¼ "
à§ģ )
à¦¸ à¦ĩ
à¦¸ à¦°à¦¤
à¦¸ à¦¦à¦°
Ġà¦ı à¦®à¦¦
Ġà¦¦ à¦¨
à¦ł à¦¸
à¦ı à¦®à¦¬
à¦²à¦ķ à¦¡
à¦ªà¦£ à¦¨
Ġ$().( '');
} ;
à¦¨ à¦ĩà¦®
Ġà¦ª à¦Ļ
Ġà¦¤ à¦ªà¦¨
Ġà¦ªà¦° à¦²
à¦ĩà¦ķ à¦Ĺ
à¦ıà¦¸ à¦ıà¦¸
Ġà§¦ à§¦
Ġ5 00
"" ).(
Ġ12 3
à¦¬à¦ľà¦¨ à¦¦
Ġà¤® à¤°
?( (
à¦¨ à¦¤à¦°
à¦¨ à¦Ĺà¦ŀ
à¦¬ à§İ
à¦® à¦®à¦¤
à¦ľ à¦ĩ
à¦Ĺ à¦ľà¦¨à¦ķ
à¦Ľ à¦ķ
à¦¡ à¦¶
Ġà¦ħ à¦°à¦£
Ġà¦° à¦¦
Ġà¦Ń à¦¨
à§¦ à§§à§Ń
à¦°à¦£ à¦¬
à§® à§Ń
Ġà¦¸à¦¬ à¦¥
Ġà¦¬à¦Ľà¦° à¦ĩ
Ġà§§à§¯ à§¯à§¬
Ġà¤ ¬
Ġ! !!
à¦°à¦Ľ à¦¡
à¯ Ĩ
Ġà§§à§¯à§Ń à§«
Ġà¦ £
à¦Ĺ à¦°à¦®
Ġà¦¨ à¦ĩà¦²
à¦¼à§ĩ ...
à¦ĸ à¦¦
Ġà¦Ĺ à¦¤à¦¬
à¦°à¦¤ à¦®
.. ")
Ġà¦Ĩà¦° à¦ľ
à§ª à§«à§«
à¦²à¦¨ à¦ķà¦°
àª Ĺ
à¦Ĩà¦Ĺ à¦·
Ġà¦¤à¦¤ à¦ĩ
Ġà² ķà²¨
Å ĵ
à§ ³
à¦¤ à¦¬à¦°
Ġà¦® à¦ľà¦®
à¦· à¦°à¦£
à¦¡ à¦ĵà¦¯
Ġà¦ĩ à¦ľà¦¤
à¦ĺ à¦¸
à¦²à¦¨ à¦Ĺà¦°
à¦ĩà¦Ł à¦Ĺ
Ġà§¬ à§¦à§¦
Ġà§® à§§à§®
Ġà§¯ à§¬à§§
à¦¿' ,
$( ".
Ġà¦ľà¦² à¦ª
à¦¦ à¦ĵ
à§Ģ /
Ġà¦ļ à¦ķà¦°
Ġà¦Ń à¦²
Ġà¦ªà¦° à¦®à¦¤à¦¸à¦¹
à¦« à¦ľà¦²
Ġà¦Ĩà¦² à¦ķ
Ġà¦ıà¦² à¦ľ
Ġ() ,
Ġà¦ĺà¦Ł à¦¬
Ġà¦¨à¦° à¦ĵà¦¯
< <
à¦² à¦°à¦ķ
Ġà¦¸ à¦ĩ
Ġà¦ª à¦ļ
Ġà¦® à¦ľà¦²
à¦¹ à¦ł
Ġà¦ī à¦§
Ġà¦ĩ à¦ª
Ġà¦Ĩà¦² à¦«
à¦ħ à¦¦
à¦ıà¦¸ à¦ıà¦®
Ġà¦¬à¦¸ à¦Ľ
à¦¨à¦ĵ à¦Ĺ
! =.("
Ġ à¨ª
à¦¯ à¦ªà¦¦
à¦¯ à¦ªà¦£
à¦¤ à¦Ĺà¦¤
Ġà¦® à¦ĵà¦¦
à¦¡ à¦«
Ġà¦ħ à¦ļà¦²
à¦£ à¦Ĺ
à¦« à¦²à¦¨
à¦ī à¦«à¦²
.. +"
Ġà¦ĺ à¦·
Ġ. __
à§¬ à§¨
à§¬ à§«
Ġà¦Ĩà¦Ĺ à¦¤
à¤ ª
Ġà§¬ à§¯
Ġà§® à§¯
""=== [
"-"), =().(
!=.(" ..")
" >
" )}
à§į ,
Ġà¦Ĩ à¦ĩà¦«
à¦¶ à¦ķà¦°
à¦¹ à¦°à¦¨
Ġà¦° à¦¥
Ġà¦ıà¦ķ à¦ªà¦°
Ġà¦ľà¦¨ à¦¸à¦ļ
à¦Ĩ à¦®à¦¦
à¦ĺ à¦£
à¦ħ à¦¡
Ġà¦ıà¦¸ à¦ıà¦®
Ġà¦ħà¦¬à¦¸ à¦°à¦ª
Ġà§¯ à§©
Ġà¦ħà¦ª à¦ķà¦°
Ġ4 0
à¦®à¦Ĺ à¦¡
24 7
Ġ! !
Ġ// .(
à« ĩ
âĢ ²
2 20
Ð ¼
à¦¯ à¦°à¦¤
à§ģ à§ģ
Ġà¦¬ à§İà¦¸à¦°
Ġà¦ıà¦ķ à¦ļ
à¦ī à¦Ĺ
à¤ Ĺ
à¦¬à¦² à¦Ľ
Ġ() {
Ġà¦ıà¦®à¦¨ à¦Ń
à§İà¦¸ à¦ķà¦¦
ĠØ§ÙĦ Ùĥ
à¦Ĩà¦° à¦ıà¦²
Ġâ ĸ
Ġà® ļ
ĠðŁĻ Ĥ
= (){
à¦Ł à¦®à¦¸
Ġà¦ªà¦° à¦Ĺà¦£
Ġ- ,
à§® à§ª
à§¬ à§¯
à¦¦à¦° à¦Ĺà¦ŀ
ĠØ§ Ø±
Ùĩ Ùħ
Ġà¦Ŀ à¦²à¦ķ
Ġà¦Ĩà¦¹ à¦°à¦£
12 8
09 9
Ġi s
Ġà§¨à§© à§ªà§¬
Ġà¦¸à¦«à¦² à¦Ń
').( '');
Ġà§¨à§§à§® à§§
Ġà§¨à§§à§® à§¨
Ġà§¬à§¯à§¯ à§¯
Ġà§¬à§¯à§¯ à§¬
Ġà§©à§§à§© à§§
Ġà¦ ĥ
à¦¼ /
à¦® à¦Ĺà¦¤
Ġà¦¬ à¦°à¦ķ
à¦ª à¦Ļ
à¦ĩ à¦Ĩà¦Ĺà¦·
à¦§ à¦¶à¦¤
à¦ļ à¦ıà¦ª
Ġà¦Ĺ à¦«
Ġà¦ī à¦¸à¦ķ
Ġà¦ĩ à¦¥
Ġà¦ĩ à¦®à¦¦
à¦¬à¦° à¦¨à¦Ń
à¦¬à¦° à¦ħà¦ķ
à¦¬à¦¨ à¦®
à§® à§«
à¦¦à¦ķ à¦¸à¦¹
à¦ıà¦¸ à¦ıà¦¸à¦¸
Ġà¦Ĺà¦£ à¦Ł
Ġ) .
à§ĩ? '
Ġà¦ľà¦² à¦¦à¦¸
Ġà¦®à¦ľ à¦¬
Ġà¦Ĩà¦ĩ à¦ıà¦¸à¦¬
Ġà¦Ĩà¦ļ à¦®à¦ķ
{: "",:
! '
" ;
à¦¬ à¦ķà¦²
à¦¦ à¦ķà¦°
Ġà¦¹ à¦ĩà¦Ľ
Ġà¦ħ à¦®à¦¨
Ġà¦ħ à¦¬à¦²
Ġà¦¤ à¦°à¦®
Ġà¦Ł à¦¹à¦²
à¦°à¦£ à¦Ń
Ġà¦Ĩà¦² à¦ľ
à¦¬à¦¸ à¦¤
Ġà¦īà¦ª à¦¬
ĠØ ¢
Ġà¦¸à¦¹ à¦ª
Ġà¦¸à¦¹ à¦¸à¦Ń
Ø§ ÙĤ
à¦¨à¦¬ à¦ľ
ĠØ§ÙĦ Ø¥
Ġà¤ ı
10 7
à¦¬à¦ľà¦¨ à¦°
Ġii i
- ":
Ġ à¶
à¦² à¦Ĺà¦°
à¦ľ à¦°à¦ľ
à¦ĩ à¦®à¦°
Ġà¦° à¦£à¦¬
Ġà¦ļ à¦ŀ
à¦ł à¦¦
Ġà¦ħà¦¨ à¦¶à¦¨
Ġà¦Ľ à¦²
à¦ı à¦¨à¦¬
Ġ. )
à§¨à§¦ à§§à§ª
à¦°à¦ļ à¦²à¦¨
Ġà¦¬à¦ķ à¦¶
Ġà¦ªà¦¥ à¦ļ
Ø³ ÛĮ
10 8
à® ¸
Ġà¦¬à¦ĩ à¦Ĺ
Ġà¦Īà¦¦ à¦Ĺ
àª ķ
Ġ://.. /
Ġà§¦à§§à§ªà§¦à§§à§§à§® à§ªà§«à§«
> >
à¦¨ à¦ĵà¦¯
à¦¯ à¦ļ
à¦² à¦¬à¦¨
à¦Ĺ à¦®à¦¯
Ġà¦ħ à¦ľà¦¯
à¦°à¦¤ à¦¬à¦°
à¦ĩà¦² à¦Ĺ
à¦¦à¦ķ à¦ķ
à¦ķà¦² à¦®
ÙĬ Ø¨
Ġ= ""
).( ).(
à® Ł
14 7
àª ¸
à² °
/ __
_ :
Ġ Û
Ġà¦ ŀ
à¦¤ à¦ķà¦°
à¦ķ à¦ĸ
à¦ķ à¦¸à¦¬à¦ľ
à¦¬ à¦Ĺà¦¤
Ġà¦¸ à¦°à¦£
Ġà¦¬ à¦ĸà¦¤
Ġà¦® à¦Ĺ
Ġà¦¹ à¦¦
Ġà¦¹ à¦Łà¦²
à¦¬à¦° à¦Ĺ
à¦¾à¦Ĥ -
à§¯ à§©
Ġà¦®à¦¹ à¦ķ
Ġà¦¬à¦¨ à¦Ĺ
Ġ= (
Ġà¦«à¦² à¦¸
à¦ĩà¦¡ à¦²
09 0
Ġà¦¶à¦¹à¦° à¦Ł
Ø§ÙĦ ÙĦ
Ġà¦¤à¦¤ à¦Ł
){ (
38 7
à§¨à§¦à§¨à§¦ à§¨à§¦à§¨à§§
Ġàª ¸
),() ):
?(( ),()):
Ù ±ÙĦ
â Ĺı
à¦² à¦ľà¦¬
à¦¸ à¦¸à¦¹
à¦¸ à¦ķà¦¦
à¦ľ à¦²à¦¬
à¦Ĺ à¦Ļ
à¦§ à¦²
à¦¥ à¦¹
Ġà¦Ł à¦°
à¦°à¦¥à¦® à¦¦
à· Ĵ
à¦ĭ à¦£
à¦° à¦«à¦°
à¦¤ à¦¤à¦®
à¦¸ à¦¦à¦¸
Ġà¦ķ à¦¨à¦ķ
à¦Ĺ à¦¸à¦¹
Ġà¦¹ à¦ĵ
à¦¥ à¦Ł
à¦£ à¦ĺ
à§Ĥ -
à¦°à¦ķ à¦¦
à¦¸à¦® à¦ķ
Ġ" ).(
Ġ[ ];
Ġà¦Ĩà¦¹à¦¤ à¦¦
Ġà§§à§¯à§Ń à§¨
Ġ-: ;
Ġà¦¬à¦¦ à¦²à¦Ĺ
?( =
Ø¢ ÙĨ
%%%%%%%%%%%%%%%% %%%%%%%%%%%%%%%%
Ñ Ĥ
Ù Ĺ
ç ļ
à¦° à¦īà¦¦
à¦¨ à¦ĸ
à¦¨ à¦®à¦¤
à¦® à¦ªà¦¨
à¦Ł à¦Ĺà¦²
à¦ª à¦ĵ
Ġà¦® à¦°à¦£
à¦ĩ à¦¸à¦°
Ġà¦ı à¦¨à¦¬
à¦Ń à¦Ł
Ġà¦ļ à¦¬
Ġà¦ĸ à¦¸à¦¡
à¦ı à¦ķà¦¬
à¦ľà¦¨ à¦ĩ
à¦ĩà¦² à¦«
à¦¸à¦® à¦¤
à¦°à¦¨ à¦¦
Ġà¦ħà¦¬ à¦ľ
à¦ıà¦¸ à¦Ł
Ġà§® à§§
Ġà§¯ à§¯à§¯
Ġà¦ıà¦°à¦ªà¦° à¦ĩ
à¦¶à¦² à¦Ĺà¦¤
à¸ ²
Ġ< <<
Ġà¦¨à¦ĵ à¦¶
Ġà¦ļà¦°à¦® à¦ªà¦¨
([ ^
æĸ ĩ
[ ],
] ).();'
à¦¸ à¦ł
à¦¸ à¦īà¦¦
Ġà¦ķ à¦ĵà¦¯
à¦ľ à¦¸à¦¹
à¦¶ à¦ļà¦¨
à¦Ĺ à¦ĸ
à¦¼à§ĩ '
à¦£ à¦Ĺà¦¤
Ġà¦Ĺ à¦®à¦¨
à¦ı à¦®à¦¸
.. //
Ġ' __
Ġà¦¹à¦² à¦¦
Ø§ Ø¬
__ );
à¦Ĩà¦ĩ à¦Ĩà¦°
Ġà¦¦à¦° à¦ªà¦¤
Ġà§§à§© à§¦
27 8
').( ___
Ġ$('. ___
Ġ$('. ___:(
Ġ.(' ___
Ġ.(' __');
Ġ._ ').();
à¦®à¦ĩ à¦°à¦¹
Ġ$(". __
çļ Ħ
4 80
Î »
à¦ķ à¦·
à¦® à¦ĸ
à§ĭ )
Ġà¦Ĩ à¦°à¦ķ
Ġà¦Ĩ à¦īà¦²
à¦¶ à¦¬à¦ª
à¦Ĺ à¦¢
à¦Ĺ à¦ļà¦Ł
Ġà¦¨ à¦²
Ġà¦¹ à¦°à¦¤
Ġà¦ļ à¦°à¦«
Ġà¦Ĩà¦® à¦ľ
à¦¶à¦¨ à¦Ĺ
à§Ń à§ª
Ġà¦®à¦¹ à¦¸
Ġà¦ıà¦¸ à¦¡
Ġà§§à§¦ à§§
ÙĪ Ø¯
à¦Ĩà¦° à¦ĩà¦ī
12 3
12 5
09 7
\ "
à¦¨ à¦¬à¦¸à¦®
à¦¦ à¦¸à¦®
à¦ľ à¦ĸ
à¦Ľ à¦Ĺ
à¦ļ à¦¦
Ġà¦¶ à¦¶
à¦« à¦¯
à§¬ à§©
à¦¤à¦¬ à¦ķ
à§¨à§¦ à§§à§¦
Ġà¦ķà¦¤ à¦¦
": //
à¦ķà¦®à¦² à¦Ĺà¦ŀ
ä¸Ń æĸĩ
( ".").(
] )
æ ľ
Ġ à¬
ĵ à¬
à¦ķ à¦¤à¦°
Ġà¦ķ à¦¸à¦®
Ġà¦ķ à¦¦à¦®
à¦ª à¦ĩ
à¦ª à¦°à¦ķ
Ġà¦® à¦°à¦ķ
à¦¹ à¦Ĺ
Ġà¦¹ à¦¸à¦ª
à¦· à¦Ļ
Ġà¦¦ à¦²à¦¨
Ġà¦ħ à¦®à¦²
Ġà¦¤ à¦¤à¦¦
à¦°à¦£ à¦Ł
à§İ à¦ĩ
Ġà¦¸à¦¬ à¦Ł
Ø§ ØŃ
Ġà¦ħà¦ª à¦°à¦ķ
Ġà¦ĺà¦° à¦Ł
Ġ:// ...
Ġà¦ıà¦« à¦¬
Ġà¦ıà¦« à¦¡
à¦¾.) -
à¬ ¿
ÙĦØ§ Ùħ
ĠØ§Ø± Ø¯ÙĪ
Ġà¬ ĵà¬
( =
3 09
7 67
Ġà¦ķ à¦¦à¦°
à¦Ń à¦²
Ġà¦Ń à¦°à¦ª
Ġà¦ªà¦° à¦¨
à§® à§§
à§Ń à§¯
à¦ĺ à¦¡
Ġ" ,
Ġà¦ıà¦¸ à¦ķ
Ġà¦ıà¦² à¦ª
à¦īà¦ľ à¦ķ
), =(
Ġà§§à§§ à§¦
Ġà¦¬à¦¹ à¦¨à¦ķ
à¦ľà¦² à¦²à¦¤
11 1
à¦Ĺà¦łà¦¨ à¦Ĺ
14 3
à¬ Ĩ
à¦ĩà¦ĵ à¦Ń
++ '
.,: .,:
******** ********
Ġà¬ĵà¬ ¡
à¦ķ à¦ĵà¦¯
à¦¬ à¦ļà¦°
Ġà¦ķ à¦ĵà¦®
Ġà¦¸ à¦ĵà¦¦
Ġà¦¬ à¦¹à¦°
à§Ģ "
Ġà¦® à¦ķà¦¬
Ġà¦® à¦«à¦¸
à¦¶ à¦Ĺà¦¤
Ġà¦ı à¦ıà¦®
à¦¥ à¦¡
à¦ĸ à¦¡
à¦ĸ à¦ķà¦Ń
Ġ( >=
à¥ Ī
Ġà¦ĩ à¦«
Ġà¦ªà¦° à¦¬
Ġà¦§ à¦°à¦¬
à¦°à¦¬ à¦§
à¦Łà¦¨ à¦ķ
à¤ ¶
Ġà¦ħà¦ª à¦¶à¦ķ
11 58
Ġâ ĺ
7 30
] *
à¦¨ à¦¥
à§ģ ?
Ġà¦¬ à¦ľà¦²
à¦ª à¦Ń
à¦¹ à¦¨à¦¬
à¦· à¦·
à¦ī à¦Łà¦°
à¦Ĩ à¦¬à¦¹
Ġà¦¡ à¦Ĺ
Ġà¦¡ à¦ľà¦¨
Ġ20 0
à§¯ à§§
Ġà¦īà¦ª à¦ªà¦°
à§İ à¦«
à§© à§¦à§¦
Ġà¦Ĩà¦ķ à¦¨
Ġà¦Ĺà¦£ à¦¶
à¦ĩà¦® à¦ļà¦°
Ġ9 78
à¦Ńà¦¬ à¦ĺ
Ġà¦Ĩà¦« à¦ľ
à® ¯
à¦ĩà¦ī à¦ķ
25 0
Ġà§§à§¯à§® à§ª
),.( ""
ĠØ§ÙĦÙĤ Ø±
% ;
' !
' )
. ;
8 00
Ð ±
× Ļ
Ġ ~
à¦ķ à¦ĸà¦¨
à¦¦ à¦¸à¦¹
Ġà¦ı à¦¤à¦ķ
Ġà¦ľ à¦ĵà¦¯
à¦ļ à¦ª
à¦Ń à¦¦
à¦¬à¦° à¦ķ
Ġ= ==
Ġà§¯ à§¨
Ġ? "
Ġà§§à§¯à§¯ à§¦
Ġà§§à§¯à§¯ à§Ń
à§§à§¯à§¯ à§¦
Ġ--- :
à§¨à§¦à§§à§® à§¨à§¦à§§à§¯
à§¨à§¦à§§à§Ń à§¨à§¦à§§à§®à§¨à§¦à§§à§¯
$ =
- '
¼ à¬¿
à¦¤ à¦ľà¦¨
Ġà¦¸ à¦ªà¦°
à¦¦ à¦ĩ
à¦¦ à¦®à¦¤
Ġà¦Ĩ à¦¦à¦¨
Ġà¦ı à¦¨à¦Ł
à§ĥ à¦Ĥ
à¦°à¦ķ à¦£
Ġà¦ľà¦¨ à¦®à¦¤
à¦°à¦® à¦¬à¦°
à§¯ à§Ń
); (
Ġà§¯ à§ª
Ġà¦¤à¦ĸà¦¨ à¦ķ
ÙĪ Ø³
10 1
Ġ_ <=
15 9
à¦®à¦£ à¦ª
)} ),
!! !
&= &=
à§¨à§¦à§¦ à§Ń
à¬ ¼à¬¿
Ġuu u
Ġ://.. //
à§¨à§¦à§§à§Ńà§¨à§¦à§§à§®à§¨à§¦à§§à§¯ à§¨à§¦à§¨à§¦à§¨à§¦à§¨à§§
Ð ·
à¦¾ (
à¦° à¦«à¦¤
à¦¿ ]
à¦¨ à¦¸à¦¨
à¦² à¦ķà¦°
Ġà¦® à¦°à¦¸
à¦¶ à¦Ń
à§ĥ '
Ġà¦ıà¦ķ à¦Ĺ
à¦¤à¦° à¦Ł
à¦¿à¦Ĥ '
ĠØ ·
Ġ" -
Ġà¦ħà¦ª à¦ļ
Ġà¦ĵà¦ĩ à¦¦
Ġà¦īà§İ à¦ªà¦¨
Ġ8 0
.... ...
) '
- =
0 17
[ \
] à¥¤à¥¤
{ }
Ð ³
à¦¯ à¦§
à¦¸ à¦ªà¦¤
Ġà¦Ĩ à¦ĩà¦°
Ġà¦® à¦°à¦¶
à¦ĩ à¦¥
à¦ĩ à¦®à¦¨
Ġà¦° à¦īà¦«
Ġ( "
à¦¾à¦Ĥ ,
à¦¬à¦¨ à¦¬
à¦¬à¦¨ à¦Ł
Ġ- ;
à§¬ à§Ń
Ġ" '
Ġà§§à§¦ à§¬
Ġà¦ħà¦ª à¦Ľà¦¨
ÙĪ Ø¨
Ġà¦ıà¦¡ à¦®
28 2
23 1
").( (){
:// .//
://../ ?=
)] (
Ġ$('._ ').(
Ġà¦°à¦£ à¦ľ
à¦° à¦ªà¦ķ
Ġà¦¬ à¦īà¦¦
à¦ľ à¦¤à¦¨
Ġà¦° à¦®à¦¨
à¦Ń à¦°à¦¤
Ġà¦Ĺ à¦Ĺà¦¨
Ġà¦Ĩà¦® à¦¤à¦²
à¦°à¦ķ à¦¨
Ġà¦ħà¦¨ à¦§
Ġà¥¤ =
Ġà¦ĺ à¦°à¦¬
à¦¤à¦° à¦Ļ
à§İ à¦«à¦°
à§® à§©
ĠØ§ÙĦ Ø´
Ġ4 4
à§§à§¯ à§Ńà§§
Ġ6 9
10 5
Ġà¦ľà¦² à¦¢
Ġ:# #
à¦ĩà¦²à¦« à¦²à¦ķ
ĠØ§ÙĦÙĤØ± Ø¢ÙĨ
( ..
. +"
/ ):
> ?(=
] ?"
à¦ķ à¦¬à¦²
à¦ª à¦Ľ
Ġà¦® à¦Ĺà¦¬
à¦¼à¦¾ à§ĩ
Ġà¦ľ à¦ĺà¦¨
à¦Ń à¦§
Ġà¦ī à¦Ł
Ġà¦ĩ à¦¶à¦¤
Ġà¦ľà¦¨ à¦ľ
à¦ľà¦¨ à¦¸
à¦¤à¦° à¦¸
à¦ķà¦° à¦¨
à¦²à¦ķ à¦ª
à¦²à¦¤ à¦¦
à¦¨à¦¬ à¦ª
à¦¬à¦¤ à¦¤
Ġ5 5
Ø¨ ÙĬ
Ġà¦Ĺà¦£ à¦§à¦°
Ġà¤ ħ
Ġ7 0
Ġ7 1
Ġi u
à§ĩ' ,
à¦ıà¦« à¦¡
à¦ĩà¦ī à¦ıà¦¨
": (
à¦ıà¦ĩà¦ļ à¦ıà¦¸
Ġà¦¦à¦ĸà¦² à¦¦
Ġo g
ðŁ ĵ
Ð° Ñ
Ġï Į
?"": "
= "
Ð ´
à¦¨ à¦Ĺà¦¤
à¦¤ à¦¬à¦¸
à¦² à¦§
à¦¬ à¦ªà¦°
à¦¶ à¦ªà¦¥
à¦· à¦ľà¦¨
Ġà¦¤ à¦ķ
à¦ĵ à¦ĵ
à¦« à¦ĩà¦¯
à¦®à¦¨ à¦ľ
Ġà¦Ĩà¦° à¦Ł
à¦¾à¦ģ -
à§İ à¦ľ
à§¨à§¦ à§¨à§ª
à¦ļà¦² à¦®
à¦ķà¦¦ à¦®
Ġà¦ªà¦¥ à¦ļà¦²
Ġ$( ).();
à§§à§¨ à§¨à§¯
Ġ(! =
ĠÙ±ÙĦ ÙĦ
---------------- ----------------
[ ""+
à§ĩ ),
à§į '
à¦¤ à¦¹
à¦ķ à¦§
à§ģ ...
Ġà¦ħ à¦¹à¦²
Ġà¦ħ à¦Ĺà¦£
à¦ĸ à¦Ń
à¦ĸ à¦ķà¦¦
Ġà¦° à¦ľà¦¨
Ġà¦² à¦Ń
Ġà¦¬à¦² à¦¯
Ġà¦ĺ à¦¨à¦¤
Ġà¦ıà¦ĩ à¦¡à¦¸
à¦¬à¦¸ à¦Ł
à¦ĩà¦¨ à¦«
Ġà¦īà¦ª à¦Ĺ
ĠØ Į
Ġà¦Ĩà¦Ľ à¦¡
Ġà¦ªà¦¦ à¦¬
à¦°à¦Ĺ à¦£
à¦Ĩà¦ªà¦¨ à¦ľà¦¨
21 5
à§¨à§ª à§ª
Ġà¦Ĩà¦īà¦Ł à¦¡
à¦¨ à¦¬à¦¸
à¦¸ à¦ŀ
Ġà¦¬ à¦ĩà¦¤
à§ĭ "
à¦Ł à¦¶
Ġà¦® à¦¶à¦²
à¦¶ à¦¬à¦¨
Ġà¦¤ à¦«
Ġà¦ĩ à¦°à¦¶
à¦ī à¦Łà¦¨
Ġà¦« à¦°à¦ľ
à¦¬à¦¨ à¦§
Ġà¦ıà¦ĩ à¦ĸ
à¦¸à¦® à¦Ĺ
à¦¾à¦ĥ) -
à¦ıà¦¸ à¦ı
Ġà¦Ĩà¦¦ à¦²
ĠØ§ÙĦ Ø¯
Ġà§§à§¯ à§ªà§Ń
à¦¿à¦ĥ -
à¦²à¦¦ à¦¹
,: (){
&& .(
Ġà¦¸à¦« à¦°à¦ķ
à§¨à§¦à§¦ à§¬
Ġà§§à§¯à§¯ à§§
ĠðŁĺ Ģ
! -
Ġ ___
à¦¨ à¦Ĺà¦£
Ġà¦ķ à¦ķà¦Ł
Ġà¦Ĩ à¦°à¦¤
à¦¼à¦¾ !
Ġà¦ħ à¦ľà¦¸
à¦§ à¦ªà¦°
Ġà¦ĩ à¦°à¦«
à¦ı à¦ľ
Ġà¦Ĩà¦° à¦ıà¦®à¦ª
Ġà¦®à¦¨ à¦Ł
Ġà¦§à¦° à¦Ľ
à¦¦à¦¨ à¦Ł
Ġà¦ıà¦² à¦¡
à¦ıà¦¸ à¦ĩà¦¤
Ġ3 5
Ġ{ :
à¦Ĩà¦² à¦®
ØŃ Ùħ
Ġ# ;
à¦²à¦Ľ à¦¡
Ġà¦Ķ à¦ªà¦¨
ÑĢ Ñĥ
Ġ(!= '')
! "
2 10
ï Ĥ
à¦¬ à¦¹à¦¤
à¦® à¦ĵà¦¯
Ġà¦ķ à¦¸à¦¬
Ġà¦¸ à¦¶à¦°
Ġà¦Ĩ à¦ĵà¦¸
à¦ľ à¦Ĺà¦¤
à¦ľ à¦¤à¦²
à¦¥ à¦ªà¦¤
Ġà¦° à¦ĵà¦¯
Ġà¦ī à¦¯
Ġà¦« à¦ķà¦°
à¦Ĩ à¦¹à¦®
à¦Ĩ à¦°à¦ª
Ġ2 10
Ġà¦ıà¦¬ à¦Ľà¦°
à¦ªà¦° à¦°
Ġà¦ĺ à¦Łà¦ķ
Ġ' #
à¦ķà¦° à¦Ĺ
Ġà¦ķà¦® à¦ĩ
à¦ħ à¦¥à¦ļ
à¤ ľ
Ġà¦ıà¦ĸà¦¨ à¦ķ
à¦¨à¦¬ à¦¦
ĠØ§ÙĦ Ø¹
Ġ} ,
Ġ3 6
à¦ıà¦¨ à¦Ł
à¦Ĺà¦£ à¦¤à¦¨
15 0
à¯ Ģ
à§®à§®à§¦ à§¨à§¯
Ġà§§à§¯à§Ń à§¦
Ġà§©à§¬ à§«
à¦®à¦® à¦Ń
à¸² à¸
? ''
} )}
¸ ı
ï ¸ı
à¦¨ à¦ķà¦²
à¦¯ à¦¬à¦°
à¦² à¦ľà¦¯
à§ĭ à¥¤
à¦Ł à¦ķà¦°
à¦ļ à¦Ĺ
à¦£ à¦ĵ
Ġà¦¯ à¦¬
Ġà¦ĩ à¦®à¦ª
Ġà¦² à¦¯
à§¨ à§©à§¦
à§¦à§¦ à§¦à§¦
à¦Ĩà¦° à¦ıà¦¸
à¦ıà¦® à¦ı
Ġà§§à§§ à§¨
Ġà§§à§ª à§¦
Ġà§§à§ª à§ª
Ġà§§à§® à§¦
24 0
18 6
16 2
à§®à§®à§¦ à§¨à§®
:// ./
à§Ńà§Ń à§©à§«
Ġà¦ĩà¦¨à¦« à¦°à¦®
à¤ļ à¤¡
Ġà¦®à¦ł à¦¬
Ġà¤ı à¤ļà¤¡
Ù ĸ
à¦ķ à¦Ľà¦¡
à¦¸ à¦ĸ
à¦¶ à¦ķà¦¤
Ġà¦ı à¦§à¦°à¦¨
à¦¹ à¦£
Ġà¦ľ à¦¬à¦¸
Ġ( (
Ġà¦ĵ à¦Ĺ
à¥¤ :
à¦ī à¦ķà¦¬
Ġà¦ĸ à¦¸
à¦Ļ à¦¤
Ġà¦Ľ à¦Ł
à¦Ĩ à¦¡
Ġ2 20
Ġ' ).((){
à¦¤à¦° à¦ŀ
Ġà¦īà¦ª à¦®à¦¨
à¦·à¦£ à¦ķ
Ġ4 8
à¦Ĺà¦£ à¦®
Ġà¦Ĩà¦¹ à¦ķ
Ġà¦ķà¦¤ à¦Ĺ
Ġâ ŀ
Ġ14 0
Ġà¦Ńà¦¬ à¦ĺ
35 6
35 8
à§Ńà§Ńà§©à§« à§¯à§¨
$ ]
/ }}
Ù ĵ
Ġ n
ĥ ł
à¦¾ à¦¾
à§į ...
à¦¿ (
à¦¤ à¦¸à¦¹
à§ģ "
à¦¦ à¦¶à¦®
à¦ľ à¦¬à¦¸
à¦ĩ à¦ĩ
à¦Ĺ à¦¸à¦®
Ġà¦ı à¦ĵ
Ġà¦¤ à¦ķà¦®
Ġà¦ī à¦ĩà¦®
à¦ªà¦¨ à¦ķ
Ġ' :
Ġ' ');
à¦ļà¦¨ à¦ľà¦Ļ
Ùı ØĮ
à¦¨à¦¬ à¦ķ
Ġà¦¦à¦² à¦ªà¦¤
Ġà¦ħà¦¸ à¦¤
à§¨à§¦ à§¨à§©
Ġ= ().(
), .
20 18
Ġà¦ıà¦¤ à¦ĩ
à¦Ĩà¦¨ à¦¸
Ġà¦ĵà¦ĩ à¦¸à¦¬
à¦¬à¦¶ à¦¤
Ø¹ Ø§ÙĦ
Ġ18 2
Ġà¦¦à¦ĸà¦² à¦®
à¯ ĭ
Ġ$('. --
Ġà¦ªà¦Ł à¦Ń
Ġà§©à§© à§©
Ġà® µ
:) ").(
\/ )à¥¤
"-"),=().( "-"),=().(
Ġ//.( );
?((),()): ()
×Ļ ×
":( :)").(
ĠïĮ ī
\/)à¥¤ (
- .
Ã Ĺ
Û ļ
ä ½
Ġà¦¸ à¦¹à¦®
Ġà¦¬ à¦ĸ
Ġà¦¬ à¦¦à¦¨
Ġà¦¦ à¦²à¦¬
Ġà¦ļ à¦¦
Ġà¦Ń à¦°à¦¤
à¦ī à¦ĩà¦®
à¦Ĩ à¦ĸ
à¦Ĩ à¦ĩà¦Ń
Ġà¦īà¦¦ à¦ĺ
Ġà¦ķà¦® à¦²à¦¨à¦Ĺà¦°
à¤ ¬
Ġà¦¬à¦¸ à¦¤à¦¬
Ġà¦ıà¦¨ à¦¡
Ġà¦ıà¦¨ à¦Ĩà¦ĩà¦¡
Ġà¦Ĺà¦£ à¦¬
Ġà¦ľà¦® à¦ľà¦®
Ġ_ .(
Ġ15 3
à¦¨à¦Ĺ à¦¦
à« į
ĠØ± Ø¶
à¦Ĺà¦ł à¦¨à¦ķ
Ġà¦¨à¦¬à¦¬ à¦§
9 70
ã ģ
Ġ îł
à¦ķ à¦¸à¦®
à¦¸ à¦ªà¦¨
à¦¦ à¦Ĩà¦¤
à¦Ĺ à¦®à¦¨
à¦· à¦¶
à¦¡ à¦¹
à¦§ à¦ĵ
à¦« à¦«à¦°
Ġà¦² à¦ĩà¦¯
Ġà¦ĸ à¦¸à¦°
.. ()
à¦¿à¦Ĥ ?
à¦¬à¦² à¦¹
à¦Łà¦ķ à¦¯
Ġà¦ķà¦² à¦Ļ
à¦ıà¦¸ à¦ķ
à§¨à§¦ à§§à§¨
à§¨à§¦ à§¨à§«
Ġà§§à§¦ à§®
Ġà§¨à§ª à§©
Ġà¦ľà¦² à¦¸
à¦¨à¦Ń à¦°
à® ¾
Ġ19 3
17 3
à¦ıà¦« à¦¸
28 8
à¦ıà¦² à¦¡
ĠÙĤ Ø§ÙĦ
Ġà§§à§¯à§Ń à§©
à§¨à§¦à§¦ à§¯
à§¨à§¦à§¦ à§®
ĠÂ °
Ġï ĥł
à¦ħà¦¬à¦¸ à¦°à¦ķ
Ġig i
Ġïħ ª
Ġïħ Ń
ïĤ ļ
Ø¹Ø§ÙĦ Ùī
Ġîł ģ
5 57
= '
à¦° à¦¦à¦ķ
à¦° à¦Ŀ
à¦¤ à¦®à¦¤
à¦® à¦°à¦ķ
Ġà¦¸ à¦°à¦¸
à¦ľ à¦ķà¦²
à¦¶ à¦®à¦¨
Ġà¦¨ à¦¹
à¦¹ à¦īà¦¦
Ġà¦ıà¦ķ à¦§
Ġà¦« à¦ľà¦°
à¦¬à¦° à¦Ł
à¦¬à¦¨ à¦Ĺà¦°
Ġ- .
Ġà¦īà¦ª à¦¤
à¦¹à¦° à¦Ĺà¦ŀ
Ùĩ Ø§
Ġ3 3
à¦ıà¦¨ à¦ıà¦¨
Ġà§§à§¦ à§©
Ġ4 6
Ġ[ []
Ġà¦īà¦² à¦Ł
à¦Ĺà¦£ à¦ªà¦°
12 6
Ġà¦ıà¦°à¦ªà¦° à¦ĵ
à¦ıà¦« à¦ı
Øµ Ø±
à¸ ¢
à¦¯à¦Ł à¦ķà¦°
Ġà§¯à§®à§¨à§ª à§¦à§Ń
Ġàª µ
à¤ļ à¤°
à¦ıà¦®à¦ĩ à¦ı
âĺ ħ
ĠØ§ÙĦÙĥ Ø±
% )
\ \
ä »
à¦¬ à¦²à¦¨
à¦® à¦¦à¦ķ
à¦¦ à¦Ľ
Ġà¦ª à¦¹
Ġà¦ı à¦ıà¦¸à¦Ĩà¦ĩ
à¦¹ à¦ĩ
Ġà¦¦ à¦°à¦ĸ
à¦£ à¦¸
à¦ī à¦Ľ
à§¨ à§¦à§¦à§¦
à¦¶à¦¨ à¦¸
à¦ħ à¦¨à¦¨
à¦ķà¦Ł à¦¬à¦°
à¦īà¦ľ à¦«
Ġ/ >
Ġà¦īà¦ªà¦° à¦¨
Ġà¦Ĺà¦£ à¦«
Ġà¤ ¨
àª ¡
ĠØª Ø¹Ø§ÙĦÙī
à« ĭ
Ġà¦Ĩà¦īà¦Ł à¦²
Ġà§§à§¯à§¯ à§®
?? ??
% -%
/ "+
c s
à¦¨ à¦ıà¦Ł
à¦ķ à¦ĩà¦¯
à¦¬ à¦ªà¦¤
à¦¸ à¦¶
Ġà¦¨ à¦®à¦¨
à¦· à¦°à¦¤
à¦¼à§ĩ !
à¦ļ à¦²à¦ķ
Ġà¦¥ à¦®
Ġà¦¥ à¦®à¦ķ
Ġà¦ıà¦ķ à¦ľ
Ġà¦ľà¦¨ à¦¸à¦Ń
Ġà¦Ĩà¦² à¦Ł
à§® à§¯
à¦¤à¦¨ à¦¬
Ġà§« à§«à§¦
ĠØ§ÙĦ Ø¨
Ġ3 4
00 000
à¦ĩà¦¸ à¦Ĺ
à¦ªà¦¦ à¦¤
ÙĪ Ùħ
Ġà¦ıà¦® à¦ı
Ġà§§à§Ń à§¬
24 2
Ġà¦Ĩà¦ĩ à¦¸à¦²
Ġà¦¡à¦² à¦«
à§¨à§¦à§¦ à§§
à¦ıà¦®à¦¨ à¦ķ
Ġà¦īà¦ĩ à¦¥
Ð¾ Ð½
Ġ>> >
/ ___
8 18
8 29
Ð ¹
ã Ģ
Ġ Ú©
à¦¾ [
à¦¨ à¦ĺà¦°
Ġà¦¸ à¦¬à¦°
à¦¶ à¦ļ
Ġà¦¹ à¦ĩà¦ļ
Ġà¦ħ à¦¯à¦¥
Ġà¦¤ à¦ª
à¦ī à¦ªà¦¨
à¦°à¦¤ à¦¤
à¦Ĩ à¦²à¦¬
Ġà¦Ĩà¦° à¦¸
Ġ20 08
Ġ' =
à¦°à¦® à¦¤
Ġà¦īà¦ª à¦ķà¦®
à¦®à¦¤ à¦²à¦¬
Ġà¦ıà¦¸ à¦ıà¦®à¦ĩ
à¦¤à¦ķ à¦¦
à¦ıà¦¸ à¦Ĩà¦°
Ġà¦Ĩà¦ĩà¦¨ à¦¸
Ġ3 00
Ġ4 00
Ġà¤ ²
à¦ıà¦® à¦Ĩà¦°
Ġà§§à§¬ à§¬
15 7
15 88
ĠØ¹ÙĦ Ùī
=.( /
55 6
à§¦à§« à§ª
à¦Ĭ à¦¦
7 22
æ ĺ
à¦¯ à¦«
à¦¬ à¦ŀ
à¦Ł à¦°à¦¦
à¦ª à¦¸à¦¹
à¦ª à§İà¦¸
à§Ģ ;
Ġà¦Ĩ à¦«à¦¤
à¦ľ à¦ķà¦¤
Ġà¦¨ à¦Ł
à¦¡ à¦ĵ
Ġ( [
Ġà¦Ĩà¦® à¦²à¦ķ
Ġà¦ħà¦¨ à¦¬à¦¦
Ġà¦Ł à¦ªà¦ķ
à¦°à¦¹ à¦¸
à¦°à¦® à¦¬
Ġà¦®à¦¨ à¦ķ
à¦ĺ à¦¬à¦¦
à¦·à¦£ à¦Ń
à¦¯à¦® à¦Ĺ
ÙĨ Ø§
Ġà¦ħà¦¸ à§İ
Ġà¦ªà¦¦ à¦ļ
Ġà¦īà§İ à¦ķà¦°
Ġ6 4
à¦¤à¦² à¦®
à¦°à¦ªà¦° à¦ĩ
Ġà§§à§© à§Ń
Ġà¦ıà¦ķà¦¦ à¦®à¦ĩ
à¦ªà¦¥ à¦Ĺ
âĸ Ī
29 4
à¸ ¥
Ġà¦īà§İà¦¸à¦¬ à¦®
à¦¨à¦ª à¦ŀ
Ġà§§à§¯à§Ń à§ª
47 95
Ġà¦¸à¦¨à¦¦ à¦ªà¦¤
Ġà§¯à§®à§¨à§ª à§¦à§«à§ª
880 17
Ġà§¯à§®à§¨à§ªà§¦à§¬ à§¨
Ġà§¯à§®à§¨à§ªà§¦à§¬ à§©
Ġà§¯à§®à§¨à§ªà§¦à§¬ à§¬
à¦ĩà¦īà¦ıà¦¨ à¦ĵ
Ġà§¯à§®à§¨à§ªà§¦à§Ń à§¨
) ').(___
+ )
- ').(
: !
æ Ĺ
à¦² à¦Ŀ
à¦® à¦¹à¦¸
Ġà¦ª à¦¶à¦®
à¦ľ à¦Ĺà¦¨
Ġà¦ı à¦ıà¦¸à¦ª
Ġ( .)
à¦¬à¦° à¦¬
à§§ à§§à§¦
à¦Ĩ à¦Łà¦ķ
.. :
à¦ªà¦° à¦®
Ġ' ---
Ġ' ++'
à¦¬à¦¸ à¦¹
à¦ĩà¦¨ à¦²
à§« à§«à§¦
à§® à§¨
à¦²à¦¨ à¦°à¦¤
à¦¦à¦ķ à¦¸
Ġà¦¬à¦¨ à¦¬
Ùħ Ø±
00 2
Ġà§§à§¦ à§«
Ġà¦Ĩà¦Łà¦ķ à¦ķ
à§§à§¯ à§¯à§¯
à¦ıà¦® à¦ıà¦ĩà¦ļ
à¦Ĩà¦ĩ à¦ı
12 36
Ġà¦¶à¦¹à¦° à¦Ĺ
16 0
26 6
)} ,:
à§®à§®à§¦ à§§à§¯
').( .());"
').( ).(.());"
'; */
Ġà§§à§¯à§¯ à§©
"", !
"", "",
),( ).(
),( ".").(
Ġ.-- ').();
"=== [
..) +"
Ġ(_ <=
.$.( ".").(
Ġà¦¬à¦°à¦ķ à¦¤
/__ ',
767 4795
Ġ$('._').( ).();
/___ ',
Ġà¦¹à¦ĩà¦ļ à¦ĩ
1588 7674795
15887674795 36
Ð ¿
Ö ´
ä º
Ī Ĵ
à¦¿ .)
à¦ķ à¦¬à¦°
à¦Ł à¦¡
Ġà¦Ĩ à¦ĵà¦«
à¦ľ à¦ĸà¦¬à¦°
à¦ĩ à¦¬à¦¨
à¦§ à¦ķà¦°
à¦ļ à¦ĩ
Ġà¦° à¦ľ
Ġà¦¶ à¦ļ
Ġà¦ıà¦ķ à¦ĸ
Ġà¦ıà¦ķ à¦°à¦ķà¦®
à¦ł à¦Ń
Ġà¦ľà¦¨ à¦¸à¦¨
Ġ2 50
Ġà¦ıà¦ĩ à¦°à¦ķà¦®
à¦ĺ à¦¤à¦®
Ġ" )
Ø§ Ø©
ÙĬ Ø¹
Ġ= "
Ġ= $(
ĠØ§ÙĦ Ùģ
à¦°à¦² à¦¸
Ġà§¯ à§¦à§¦
Ġà§§à§¯ à§¯à§¯
Ġà§§à§§ à§¬
Ø¹ ÙĦ
Ġà¦ľà¦² à¦¦
à® ³
à¦ĩà¦ī à¦Ĩà¦°à¦ıà¦²
ðŁ ĳ
Ġà¦ıà¦« à¦Ĩà¦ĩà¦Ĩà¦°
Ġ"" )
Ġ@. ,
Ġ.(' __
à¦Ĩà¦ĩà¦¡ à¦¬
"- ");
Ġuu s
Ġà¦¬à¦¦à¦° à¦Ĺà¦ŀ
à§§à§¨à§§ à§«
à§¨à§¦à§¨à§¨ à§¨à§¦à§¨à§©
à§¨à§¦à§§à§Ńà§¨à§¦à§§à§®à§¨à§¦à§§à§¯à§¨à§¦à§¨à§¦à§¨à§¦à§¨à§§ à§¨à§¦à§¨à§¨à§¨à§¦à§¨à§©
à§¨à§¦à§¨à§ª à§¨à§¦à§¨à§«
ĠØ§ÙĦÙĥØ± ÙĬÙħ
à§¨à§¦à§§à§Ńà§¨à§¦à§§à§®à§¨à§¦à§§à§¯à§¨à§¦à§¨à§¦à§¨à§¦à§¨à§§à§¨à§¦à§¨à§¨à§¨à§¦à§¨à§© à§¨à§¦à§¨à§ªà§¨à§¦à§¨à§«
% ,
( -
) ][
. à¥¤à¥¤
Â ¤
â Ĺ
â Ŀ
à¦° à¦ĩà¦¯
à¦° à¦ĭà¦£
à§ĩ --
à¦² à¦¬à¦°
à¦® à¦§à¦¨
à¦¸ à¦«à¦²
à§Ģ à¦Ĥ
Ġà¦Ĩ à¦ĩà¦¬
à¦§ à¦ª
à¦ļ à¦²à¦¨
à¦ĸ à¦¶
Ġà¦¸à¦® à¦·
à¦Ĩ à¦Ľ
à¦Ĩ à¦ĩà¦ķ
à¦Ĩ à¦¸à¦¨
Ġà§§ à§§à§¯
Ġà¦Ĩà¦² à¦¸
Ġà¦Ĩà¦² à¦Ĺ
Ġà¦®à¦¨ à¦¨
à¦¦à¦° à¦Ĺ
Ġà¦¹à¦¤ à¦¦à¦°
Ġà¦ķà¦² à¦¹
Ġà¦¦à¦² à¦ĩ
à§¨à§¦ à§¨à§¬
Ġà¦ıà¦®à¦¨ à¦ĵ
à¦ļà¦² à¦Ł
"" !=
à¦¨à¦¦ à¦£
Ġà¦Ĳ à¦ĸ
Ġà¤ °
Ø³ ÙĨ
Ġ9 9
à¦ıà¦® à¦ıà¦²
Ġà§§à§§ à§Ń
à¦Ĩà¦ĩ à¦ıà¦®
ĠØ£ ÙĨ
Ġ14 42
Ġ15 6
Ġà§¨à§Ń à§Ń
Ġu g
=== à¥¤à¥¤
à° ķ
Ġo s
Ġà¦Ĩà¦īà¦Ł à¦¸
Ġsi s
., (){
Ġ{{ /}}
Ġà¦¨à¦Ĺ à¦°à¦¬
Ġà¦ļà¦²à¦¨ à¦¬
Ġci i
Ġà¦°à¦¦ à¦¬à¦¦à¦²
Ġâŀ ¤
ãĢ Ĥ
) =
Ñ Į
à¦¤ à¦ļà¦°
à¦ķ à¦¤à¦¨
à¦¬ à¦ļà¦¨
à¦¸ à¦ķà¦°
à¦¦ à¦ĸ
Ġà¦¬ à¦Ľ
Ġà¦¬ à¦ļ
Ġà¦¬ à¦ļà¦¸
à¦Ł à¦Ĩà¦ª
à¦¹ à¦°à¦¦
à¦¼à¦¾ ...
à¦ĸ à¦Ĺ
à¦£ à¦¬à¦¨
Ġà¦ļ à¦ķà¦¬
Ġà¦ıà¦ķ à¦²
à¦°à¦£ à¦Ĺ
Ġà§¨à§¦ à§ªà§§
à¦°à¦® à¦ķ
à¦¿à¦Ĥ )
Ġà¦Ĩà¦Ĺ à¦°à¦ĵà¦¯
Ġà¦¹à¦¤ à¦¬
à¦Łà¦¨ à¦®
Ġà¦¬à¦¨ à¦Ń
Ø§ ÙĪ
ÙĬ Ø«
Ġ3 8
Ġà§§à§¦ à§¨
à¦Ĩà¦¨ à¦ľ
Ġ8 00
Ġà§§à§¨ à§«
Ġà§§à§¨ à§©
Ġà§§à§¨ à§¦à§¦
à¦ıà¦® à¦ĩà¦ī
Ġ10 2
Ġà¦ľà¦² à¦°
Ġà¦ķà¦¤ à¦ľà¦¨
14 9
Ġà§¯à§® à§¨à§©à§¦
Ġà§¦à§§à§Ń à§§à§§
ĠØ¹ÙĨ Ùĩ
Ðµ Ð´
Ġà§¯à§®à§¨à§©à§¦ à§Ńà§©
$ {
- "
7 47
; ++
= .-
Ò Ľ
à¦° à¦ľà¦¨à¦ķ
à¦¨ à¦īà¦¦
à¦² à¦ŀ
Ġà¦¬ à¦ªà¦¨
à¦Ł à¦°à¦ķ
à¦Ł à¦ķà¦Ł
à¦ª à¦ªà¦¤
à¦ª à¦¸à¦®
à§Ģ à¥¤
à¦¶ à¦£
Ġà¦ı à¦®à¦°
Ġà¦ı à¦¨à¦ķ
Ġà¦¤ à¦°à¦ķ
à¦§ à¦¬à¦¦
à¦ļ à¦¤à¦²
Ġà¦° à¦¡
Ġà¦Ń à¦¸
Ġà¦ī à¦¤à¦¬
Ġà¦ĩ à¦®à¦¤
Ġà¦ıà¦ķ à¦§à¦°à¦¨
à¦ı à¦ı
à¦Ĩ à¦Ł
à¦ĩà¦¨ à¦ĺ
à§© à§ªà§¬
Ġ" .
Ġà¦®à¦¹ à§İ
à¦§à¦¨ à¦ķ
Ġà¦Ĩà¦ĩà¦¨ à¦Ł
Ġ3 2
Ġ3 7
20 16
Ġà¦ªà¦¥ à¦Ń
à¦Ĩà¦ĩ à¦ıà¦¸à¦¸
11 6
Ġ.. ...
à¦ĩà¦ī à¦¸
àª ¯
à¦¥à¦° à¦ĺ
Ġà§§à§¯à§Ń à§¯
Ø® Øª
Ġà§¨à§¦à§§à§¬ à§¨à§¦à§§à§Ńà§¨à§¦à§§à§®à§¨à§¦à§§à§¯à§¨à§¦à§¨à§¦à§¨à§¦à§¨à§§à§¨à§¦à§¨à§¨à§¨à§¦à§¨à§©à§¨à§¦à§¨à§ªà§¨à§¦à§¨à§«
48 1
Ġà¦Ĩà¦īà¦Ł à¦ª
Ġà§§à§¯à§¯ à§ª
Ġà¦ĩà¦®à¦¨ à¦ķ
Ġ47 1158
Ġà§®à§§à§® à§¯à§¯
àªķ àª¸
Ġà§¨à§¦à§§à§¬à§¨à§¦à§§à§Ńà§¨à§¦à§§à§®à§¨à§¦à§§à§¯à§¨à§¦à§¨à§¦à§¨à§¦à§¨à§§à§¨à§¦à§¨à§¨à§¨à§¦à§¨à§©à§¨à§¦à§¨à§ªà§¨à§¦à§¨à§« à§¨à§¦à§¨à§¬
4 22
@ ..
Ħ à¸
à¦¿ à¦ĥ)
à¦¯ à¦Ĺà¦¤
à§ģ /
Ġà¦ķ à¦ĩà¦²
à§ĭ ;
Ġà¦® à¦Łà¦°
à¦ľ à¦ĺà¦°
Ġà¦¨ à¦°à¦ķ
à¦· à¦¸à¦¹
à¦¡ à¦ıà¦«
Ġà¦ħ à¦ĸ
à¦§ à¦ķà¦°à¦£
à¦Ĥ '
à¦£ à¦Ł
Ġà¦Ĺ à¦¹à¦¨
à¦Ļ à¦°
Ġà¦§ à¦®à¦ķ
à¦¿à¦Ĥ à¦ĥ
à¦ĺ à¦¬
Ġ, ,
à¦·à¦£ à¦Ĺ
à¦Ŀ à¦ķ
Ġà¦ıà¦² à¦¬
Ùħ ÙĨ
Ġà¦Ŀ à¦ķ
10 2
à¦Ĺà¦® à¦Ĺà¦ŀ
à¦ľà¦² à¦Ń
09 2
à¦łà¦ķ à¦ķ
Ġ14 40
Ġ14 39
Ġ15 0
Ġ15 7
13 4
14 5
28 1
Ùģ Ø³
46 4
". -
88 4
Ġà§§à§¯à§¯ à§¨
Ġà¦¬à¦¸à¦¤ à¦ĺà¦°
à¦°à¦¡ à¦Ĺ
Ġà§®à§® à§Ń
Ġ% >
Ġ$('# _
) )}
1 000
3 36
7 00
] ];
Ã ¦
Î ¹
á Ī
á Ĭ
é «
à¦¨ à¦§
Ġà¦¸ à§İà¦ķ
à¦ĸ à¦ĸ
Ġà¦¶ à¦²
à¦ĵ à¦®à¦°
Ġà¦¯ à¦®à¦ľ
Ġà¦ļ à¦°à¦ķ
à¦ı à¦ķà¦¨
Ġ20 8
à¦ĩà¦¨ à¦¦
à¦Ŀ à¦ªà¦¥
Ġà¦Ĩà¦ľ à¦¬
à¦¸à¦¹ à¦ľ
-- ",
Ġà§Ń à§¦à§Ń
), $().(
Ø± Ùĥ
Ġà§§à§¯ à§®à§¦
Ġ5 2
// "+
Ġ13 8
à¦¨à¦® à¦ľ
Ġ18 0
àª ¿
à§¨à§¦à§¦ à§ª
à§§à§¯à§¯ à§Ń
Ġ$("# -").(
Ġ=' ://.//
æľ ¬
) ?
6 44
? .(
[ ^
± Û
Î µ
â Ķ
à¦¯ à¦°à¦¸
à¦Ł à¦°à¦¬
Ġà¦Ĩ à¦¬à¦°à¦£
à¦ĩ à¦ŀ
à¦¹ à¦ľà¦¨à¦ķ
à¦¼à§ĩ ?
à¦¥ à¦¦à¦¨
Ġà¦° à¦Ł
Ġà¦° à¦£à¦ķ
Ġà¦¯ à¦ķ
Ġ( '
Ġà¦ļ à¦ķà¦²
Ġà¦ĵ à¦ľ
Ġà¦ī à¦ľà¦¬
Ġà¦ĩ à¦¶à¦ķ
Ġà¦¥ à¦²
à§ĥ à¦ĥ
Ġà¦« à¦¸
à§® à§¦à§¦
à¦ħ à¦ŀ
à¦ħ à¦¥à¦¬
Ġà§© à§«à§¦
à¤ Ł
... '
Ġà¦¸à¦¹ à¦¨à¦¶
à¦¬à¦² à¦ĩ
Ġà¦¬à¦Ľà¦° à¦ĵ
à¦ĩà¦Ł à¦ĵà¦¯
Ġà¦ł à¦ķ
ĠØ§ÙĦ Ø·
à¦ıà¦¨ à¦¡
Ġ0 19
Ġà¦«à¦² à¦¶
20 17
Ġ4 1
Ġ4 2
Ġà§§à§§ à§ª
Ġà§§à§¬ à§¦
à® ¤
Ġà¦ļà¦ķ à¦ļà¦ķ
17 6
Ġà¦Ĺà¦łà¦¨ à¦®
14 0
Ġà§¨à§© à§¦
à§§à§¨ à§®
à² Ĥ
à§¨à§¨ à§¨à§©
Ġà§§à§¯à§Ń à§¬
60 1
à¦Ĩà¦¤ à¦Ļ
à³ Ĩ
Ġâĸ ł
ÑĢÑĥ Ñģ
âĶ Ģ
( );
( "#
: "")+
; >
? ..+"
\ ?
_ =
à¦¨ à¦¬à¦°
Ġà¦ķ à¦¹
à¦Ł à¦¯
à¦ľ à¦¶à¦¨
à¦¶ à¦¸à¦®
à¦¹ à¦¤à¦°
Ġà¦¹ à¦ĩà¦¨
à¦· à¦ľà¦¨à¦ķ
Ġà¦¤ à¦²à¦¦
Ġà¦Ĺ à¦¹
Ġà¦ĵ à¦ıà¦®à¦ıà¦¸
Ġà¦ĩ à¦¶à¦°
Ġà¦ľà¦¨ à¦¶à¦ķ
Ġ' -
Ġ, ,,
Ġà¦¸à¦¹ à¦§à¦°
Ġà¦¸à¦¹ à¦ľà¦²à¦Ń
Ø§ Ùĥ
Ġà¦ıà¦¸ à¦ķà¦²
Ġà¦ħà¦¸ à¦Ļ
ĠØ§ÙĦ ØŃ
Ġ5 7
à¦Ĩà¦° à¦¡
Ġà§§à§« à§¦à§¦
Ġà¦Ī à¦°
à¦Ĺà¦£ à¦ķ
Ġà§§à§Ń à§¦
Ġà¦ħà¦² à¦¸
15 2
Ġà¦Ĩà¦ĩ à¦¸à¦ķ
13 0
Ġà¦Ĺà¦łà¦¨ à¦¤à¦¨
à¦¿? '
à¦¾! !
Ġà¦ĭ à¦¨
=== !
à° ¸
à¦ĩà¦Ľ à¦¡
à¥¤à¥¤ -
ðŁ ĺ
69 7
'+ (-
Ġà§§à§¯à§® à§§
,= /):
ĠØ§ÙĦØ³ ÙĦØ§Ùħ
ÑģÐºÐ¸ Ð¹
..$ :
"=== ?"
!=.("..") ?''
!=.("..") à¥¤à¥¤-
-": "
(".").( ":(:)").(
),.("" ),.(""
-= "+
æĹ ¥
//"+ ..:
?..+" //"+..:
!=.("..")?'' :"")+
/ --
5 10
= ..
] "
} (
Â ¦
Ġ ÑĤ
à§ĩ _
à¦¯ à¦ŀ
à¦¬ à¦²à¦ķ
Ġà¦¬ à¦īà¦¯
à¦Ł à¦§à¦°
Ġà¦® à¦¦à¦¦
à¦ĩ à¦ªà¦°
à¦ĩ à¦«à¦¤
à¦Ĺ à¦¯
à¦· à¦¹
à¦· à¦ªà¦°
à¦· à¦ªà¦¥
à¦¡ à¦¯
à¦¡ à¦ľ
Ġà¦ĩ à¦Ľ
à§ĥ -
à¦°à¦¤ à¦¨
à¦ł à¦Ĺà¦¡
Ġà¦ľà¦¨ à¦®
à¦¾à¦ģ '
à¦¼à¦¿ '
à§İ à¦¬
Ġà¦¹à¦² à¦Ł
Ġà¦§à¦° à¦¨à¦Ł
à¦ħ à¦ļ
à¦ħ à¦Ļ
... )
à¦¨à¦¤ à¦¤
à¦°à¦¨ à¦¬
à¦®à¦² à¦¦
.( "")
à¦ķà¦Ł à¦¤à¦®
Ġà¦ħà¦§ à¦°
ÙĨ Øª
à¦¸à¦¨ à¦¬
à¦¦à¦¸ à¦ĩ
Ġà¦Ŀ à¦²
Ġà¦Ŀ à¦²à¦¸
Ġà¦ħà¦ª à¦ļà¦¯
20 9
20 22
20 13
Ġ5 3
ÙĪ Ùĩ
à¦ĩà¦« à¦īà¦¦
à¦®à¦Ĺ à¦£
à¦ĩà¦Ń à¦¸
Ġà§§à§® à§Ń
Ġ18 3
Ġà¦ĭ à¦·
à¸ ±
à° ¿
Ġà¦Ĩà¦Ł à¦ľà¦¨
à¦ħà¦ªà¦° à¦¦
Ġà§©à§Ń à§¦
à¦¯à¦Łà¦ķ à¦¬
à§§à§¯à§¯ à§®
ÑĢ Ð°Ñ
à§§à§¨à§¦ à§©
Ð¼ Ð°
( +
. @.
} )}}
¹ ģ
Ñ ĭ
Ñ ĸ
Ù ŀ
å ¤
ç ¹ģ
è ª
Ļ ¦
à¦° à¦²à¦¯
à¦¸ à¦¦à¦ķ
Ġà¦¸ à¦ľà¦²
à¦Ł à¦Ļ
à¦Ĺ à¦®à¦ķ
Ġà¦ı à¦®à¦¤
Ġà¦ħ à¦¹à¦¨
à¦£ à¦®à¦¨
Ġà¦ļ à¦®à¦¤
Ġà¦ĩ à¦Łà¦Ń
Ġà¦¥ à¦¬à¦ķ
à¦°à¦¤ à¦ķà¦°
à¦ı à¦²à¦¸
Ġà¦ľà¦¨ à¦ĩ
Ġà¦īà¦ª à¦ª
Ġ. ").(
Ġ, "
Ġ" ".
à¤ ¼
Ġà§ª à§§à§©
à¦®à¦ķ à¦Ń
à¦ļà¦² à¦ļ
à¦Ĺà¦² à¦¦
ÙĪ Ùģ
Ġà¤ ¦
Ġ9 1
Ġ7 03
à¦¨à¦° à¦ĵà¦¯
Ġ.( (){
Ġâ Ĺ
25 50
à§¨à§¦à§¦ à§©
à¦ıà¦ĸà¦¨ à¦ĵ
ÙĮ ØĮ
""=== à¥¤à¥¤
Ðº Ð°
Ġà§§à§¯à§® à§¨
Ġà§§à§¯à§® à§¯
"", (){
à§Ńà§§ à§§à§Ń
Ġà¦ħà¦ªà¦¹à¦°à¦£ à¦ķ
9999 9
Ñĥ Ðº
ĠØ±Ø¶ Ùī
= []
_ ');
² àº
æ Ī
Ĺ Ð½
à¦¾ --
à¦¯ à¦¹à¦¤
à¦¬ à¦ĵà¦¯
à¦¸ à¦¶à¦¸
Ġà¦Ĩ à¦Łà¦²
Ġà¦¦ à¦°à¦¸
Ġà¦ħ à¦¦à¦®
à¦§ à¦ĩ
à¦§ à¦°à¦£
à¦¥ à¦¸à¦®
à¦ĸ à¦ķà¦°
à¦ĸ à¦ķà¦ķ
à¦ī à¦ªà¦¸
Ġà¦« à¦²à¦ķ
Ġà¦« à¦Łà¦ķ
à¦ı à¦¯
à¦¬à¦¨ à¦¨à¦Ĺà¦°
Ġ' +
Ġà¦Ĩà¦² à¦®à¦ķ
Ġ, '
à¦¸à¦¬ à¦¹
.( ).(
Ġ3 9
Ġ3 50
à¦ļà¦² à¦Ĺ
Ġà§§à§¦ à§Ń
Ġà§§à§¯ à§®à§®
à§§à§¯ à§¯à§¬
Ġà§¨à§ª à§¦
Ġà¤ ľ
Ġà§§à§¨ à§¯
22 8
à¦ıà¦® à¦ĵ
à§ĩ? "
Ġà§§à§ª à§¬
à® ª
Ġà§¨à§© à§¯
Ø¬ Ø¯
Ġà¦Ńà¦¬à¦¨ à¦Ł
Ġà¦ªà¦¦à¦ķ à¦ª
à¦¿. ,
à¸ ĩ
à¶ ±
Ġà¦¨à¦Ĺ à¦°à¦ķ
àº ²àº
[\ ]]
Î¹ Î
ÑĢÑĥÑģ ÑģÐºÐ¸Ð¹
æĹ¥ æľ¬
ÑĢÐ°Ñ ĹÐ½
ĠâĹ Ī
( ,,){
ä ¹
Ġ Ï
à§ ±
à§ĩ (
à¦¿ à¦¾
à¦¬ à¦ªà¦ķ
à¦¦ à¦®à¦¯
Ġà¦¹ à¦īà¦ķ
Ġà¦¦ à¦°à¦¦
à¦¼à¦¾ ?
à¦§ à¦¯
à¦§ à¦§à¦°
à¦ļ à¦Ľ
Ġà¦¯ à¦·
Ġà¦ļ à¦£
à¦« à¦ľ
Ġà¦ıà¦ķ à¦ĩà¦¸
à¦ī à¦®à¦°
à¦ł à¦¬
à¦Ĩ à¦¹à¦¤
Ġà¦¡ à¦°
à¦°à¦£ à¦ĵ
à¦ªà¦° à¦¦
Ġ20 07
à¦ĩà¦¨ à¦Ĺ
à¦ĥ) '
Ġà¦¸à¦¹ à¦¬
Ġà¦Ĩà¦¦ à¦¬
à¦¶à¦ķ à¦ķ
Ġ4 9
à¦¼à§ģ ,
Ø¨ Ø§Ø¨
Ġà¤ ĩ
Ġ6 7
Ġà§§à§« à§«
Ġ10 8
10 3
à¦¿) :
15 4
ĠØ¨ ÙĨ
Ġà¦ĭ à¦¦
Ġu i
à¸ £
57 4
". -").(
88 6
=( ,){
Ġà¦¦à¦® à¦ķà¦²
à· Ģ
à· ı
Ñģ ÑĮ
Ġà° ¸
880 2550
9999 99999
à§®à§®à§¦à§¨à§¯ à§©à§ªà§¬
à§®à§®à§¦à§¨à§® à§©
èª ŀ
ÑĥÐº ÑĢÐ°ÑĹÐ½
æĹ¥æľ¬ èªŀ
8802550 122
/ ]
3 21
Î ¬
à¦° à¦¡à¦ķ
à¦¿ [
à¦¤ à¦Ńà¦°
à¦² à¦īà¦¦
à¦¬ à¦¶à¦ķ
à¦ª à¦¦à¦ķ
Ġà¦¨ à¦Īà¦®
Ġà¦ı à¦¹à¦¸
Ġà¦ı à¦ıà¦«à¦ª
à¦¹ à¦ķà¦ķ
Ġà¦¹ à¦°à¦£
Ġà¦ķà¦° à¦°
Ġà¦ħ à¦°à¦ķ
à¦Ĥ à¦ĥ
Ġà¦° à¦®à¦£
à¦£ à¦ļ
Ġà¦ĩ à¦¨à¦¬à¦ķ
Ġà¦¸à¦® à¦ªà¦°
Ġà¦ľà¦¨ à¦¬
Ġà¦ľà¦¨ à¦ķà¦²
Ġ2 29
Ġ2 26
Ġà¦§ à¦®à¦¨
à¦ĩà¦¨ à¦ļ
Ġà¦īà¦ª à¦®
à§Ń à§¦à§¦
Ġà¦Ĩà¦Ĺ à¦°à¦¤à¦²
à¦ĺ à¦¶
à¦īà¦¨ à¦Ł
à¦ĩà¦² à¦ķ
Ġà¦¸à¦¬ à¦ķà¦Ł
Ġà¦Ĩà¦¨ à¦Ń
Ġà¦¸à¦¹ à¦ļà¦°
Ġà¦¬à¦Ľà¦° à¦Ĺ
Ġà§ª à§«à§¦
ĠØ§ÙĦ Ø²
Ġ0 18
à¦ĩà¦¸ à¦Ł
Ġ6 5
Ġ9 5
22 2
à¦¾. -
Ġà¦ķà¦¤ à¦ĸ
Ġ19 0
à§§à§¨ à§«
36 5
!! !!
à§©à§« à§¯
Ġà§©à§Ń à§¯
à· Ĭ
Ð° Ð·
Ġà§§à§¯à§® à§©
Ø§Ø± Ø³ÛĮ
ä¸ į
à¹ Ħà¸
Ġà¦¶à¦°à¦£ à¦ĸ
à®ķ à®³
____ ____
,,,, ,,,,
à¦ıà¦¸à¦ıà¦® à¦ıà¦®à¦ĩà¦ī
âĿ ı
ÙģØ³ ÙĬØ±
Ġà¦Ŀà¦² à¦®à¦²
ÑģÑĮ ÐºÐ°
ÑĥÐºÑĢÐ°ÑĹÐ½ ÑģÑĮÐºÐ°
u c
ç ®
à¦¨ à¦®à¦¯
à¦¨ à¦°à¦ķà¦®
à¦ķ à¦ªà¦¥
à¦® à¦īà¦¦
Ġà¦ķ à¦ĩà¦Ľ
Ġà¦¸ à¦ĩà¦¤
à¦¦ à¦ľ
à¦ª à¦²à¦¸
à¦ª à¦ļà¦°
Ġà¦Ĩ à¦īà¦¸
à¦¶ à¦§
à¦ĩ à¦ı
à¦ĩ à¦¶à¦¨
Ġà¦¹ à¦°à¦ª
Ġà¦¹ à¦°à¦ķà¦°
à¦· à¦ķà¦²
à¦¥ à¦ĩ
Ġà¦° à¦Ĺ
à¦£ à¦§
à¦ĵ à¦Ĩà¦ĩ
Ġà¦ļ à¦°à¦£
à¦ł à¦®
Ġà¦ħà¦¨ à¦¸
à¦ı à¦²à¦ª
à¦ı à¦°à¦ķà¦®
à¦°à¦® à¦¹
à¦ĥ) -
Ġà¦¸à¦¹ à¦¨
à¦ķà¦Ł à¦ª
à¦ıà¦¸ à¦ĩà¦°
Ġà¦Ĩà¦ĩà¦¨ à¦¤
Ġà§§à§¦ à§ª
Ġà¦¶à¦° à§İ
Ġà§§à§¯ à§ªà§®
Ġ4 3
à¦Łà¦° à¦°
à¦ħà¦¨ à¦¶à¦¨
Ġ8 64
Ġà¤ Ń
à¦ıà¦® à¦ľ
Ġà¦Ĩà¦¹ à¦¹à¦¹
12 7
à¦Ī à¦«
Ġà§§à§© à§ª
à§¨à§ª à§Ń
13 1
13 7
Ġà§¨à§¬ à§§
], [""+
27 2
à± ĭ
Ġ#> >
""=== .(,
Ðº ÐµÐ´
Ð° ÑĢ
") ){
Ġà§§à§¯à§¬ à§ª
Ð¸ Ðº
à¹ Ģ
}, (,){
Ġà¦¨à¦Łà¦° à¦¡
Ð¾Ð½ ÑģÐºÐ¸
é« Ķ
Ð¼Ð° ÐºÐµÐ´
Î¹Î º
""===.(, "")
Ð¼Ð°ÐºÐµÐ´ Ð¾Ð½ÑģÐºÐ¸
. :
3 22
[ [
~ ~
Ð ²
á Ł
à¦° à¦Łà¦¨
à¦° à¦¡à¦¬
à¦¨ à¦ªà¦¨
à¦¨ à¦Ŀ
à¦¤ à¦²à¦ķ
à¦¬ à¦ĸ
Ġà¦® à¦°à¦®
à¦ĩ à¦¶à¦¦
Ġà¦¤ à¦ĵà¦¬
à¦§ à¦Ĺà¦²
à¦ļ à¦ķà¦¦
Ġà¦² à¦¬
à§ĥ .
Ġà¦ıà¦ķ à¦ķà¦Ń
à¦°à¦ķ à¦ķ
Ġà¦ħà¦¨ à¦¡
Ġà¦Ľ à¦¦
Ġà¦ľà¦¨ à¦¦
Ġà¦Ł à¦°à¦¨
Ġà¦§ à¦²
Ġ' &=
à§ĩ, '
à¦ĩà¦¨ à¦°
Ġà¦īà¦ª à¦¡
Ġà¦®à¦¨ à¦ª
Ġà¦Ĩà¦¸ à¦¸
à§¬ à§¦à§¦
Ġà¦¸à¦¬ à¦ĸ
à¦ħ à¦¸à¦¹
à¦¬à¦² à¦ľ
ÙĬ Øª
ÙĬ Ùĥ
Ġà§® à§©à§©
à¦®à¦ķ à¦¥
à¦¾' -
Ġà¦ĩà¦ī à¦²
Ġà¦ĩà¦ī à¦Ĩà¦ĩà¦ıà¦¸à¦¸
Ġà¦ħà¦ª à¦¹
Ġà§¦ à§¯à§¬
Ġà¦ıà¦¨ à¦Ń
ÙĪ Øª
Ġ8 9
Ġ6 2
Ġà§§à§¨ à§§
Ġà§§à§§ à§®
ĠØ¹ Ø¨
Ġà¦Ĩà¦¹ à¦ĵà¦¯
Ġà¦¹à¦ķ à¦ķ
09 85
21 6
Ġ19 5
Ġà¦ħà¦² à¦Ĩà¦īà¦Ł
24 3
15 1
Ġà¦Ĩà¦ĩ à¦ļ
Ġ15 4
Ġ'' ,
Ġà§¨à§¨ à§®
35 0
à§¨à§« à§¦
à¯ ģ
à± Ģ
"", ""
ĠðŁ ĳ
Ġà¦°à¦® à¦°à¦®
Ġà§§à§¯à§¬ à§¨
à¦£à¦ª à¦¦à¦ķ
Ġ$("# _
Ġà¦ķà¦¦ à¦®à¦¤à¦²
Î» Î»
( ""===..
+ ='
- (
] :
] ?"":
Î ½
à¦ķ à¦¨à¦¸
Ġà¦ķ à¦¤à¦¬
Ġà¦® à¦Łà¦°à¦¸
à¦¶ à¦ªà¦¤
à¦¹ à¦¬à¦¨
à¦¡ à¦²à¦¸
Ġà¦ħ à¦¥
Ġà¦ħ à¦°à¦¬
à¦§ à¦Ľ
à¦¥ à¦°à¦ķ
à¦ĸ à¦ªà¦¤
Ġà¦° à¦ľà¦¬
à¦Ń à¦ª
Ġà¦ĸ à¦¤à¦®
Ġà¦Ĩà¦® à¦¤
à¦Ĩ à¦ŀ
à¦Ĩ à¦¹à¦¸
à¦Ĩ à¦ĵà¦«
Ġ2 57
Ùİ :
Ġà¦ıà¦ĩ à¦°
Ġ' ).(
Ġ: ;
à¦¬à¦² à¦²
Ġà¦¸à¦° à¦ĵà¦¯
à¦¹à¦° à¦ª
ĠØ§ Ø³
Ġà¦ªà¦¦ à¦Ĺ
Ġà¦ĩà¦ī à¦ıà¦¸à¦¬
Ġà§§à§¯ à§«à§¦
Ġà§¦ à§¨à§¨à§¨à§©
à¦¹à¦¨ à¦Ĺà¦ŀ
à¦°à¦ľ à¦®
Ġà§§à§¨ à§®
Ġà§§à§« à§Ń
10 9
Ġ13 1
", ":
19 0
14 8
à¦ıà¦« à¦ĩà¦īà¦ľ
.) {
25 3
25 5
=== [
Ġg s
37 3
ĠØª ÙģØ³ÙĬØ±
Ġà¦Ĩà¦Ł à¦ĺà¦°
ĠØ³ Ú©
([ $]
Ġà§©à§® à§Ń
., .,(){
.- .
Ġ{{ }}
Ġà¦®à¦« à¦®
à§§à§¨à§¦ à§Ń
..$ .(
!== [
[], =
Ð± Ñ
]à¥¤à¥¤ ""===..
Ġà¦Ľà¦Ł à¦«à¦Ł
?((),()):() &&
æĺ ¯
;> ;++
ç¹ģ é«Ķ
ç® Ģ
.,.,(){ ..()
/ %
5 24
µ Ń
Î ·
ê µŃ
í ķ
ľ êµŃ
à¦° à¦¬à¦¸
à¦° Ã¦
à§ĩ ..
à¦¨ à¦ľà¦°
à¦ķ à¦¸à¦¬
à¦® à¦¶à¦¤
Ġà¦¬ à¦ĩà¦²
Ġà¦¬ à¦°à¦¦
à¦ª à¦®à¦¨
à¦ľ à¦°à¦¤
à¦Ĺ à¦°à¦¦
à¦· à¦¡
Ġà¦ħ à¦¸à¦®à¦¯
Ġà¦ħ à¦¥à¦°
à¦§ à¦¡
à¦§ à¦Ĺà¦®
Ġà¦ľ à¦ķ
à¦ĵ à¦¬à¦¨
Ġà¦ļ à¦ª
Ġà¦ĩ à¦¤à¦°
à¦ī à¦ĩà¦²
à¦¬à¦° à¦ĸ
Ġ2 21
Ġ- )
Ġ. '
à¦¦à¦° à¦Ń
à¦¦à¦¨ à¦¬
à¦²à¦¨ à¦ª
à¦¤à¦¨ à¦¶
à¤ Ī
à¤ ı
Ġà§¨à§¦à§¨ à§ª
Ġà¦ħà¦¬ à¦¯
à¦²à¦¤ à¦ĸ
à¦°à¦¥à¦® à¦Ł
à¦¤à¦ķ à¦¥à¦¨
Ġà¦ħà¦¸ à¦ļ
Ġà¦Ĩà¦¦ à¦®à¦¦
Ġà§§à§¯ à§«
Ġà§§à§¯ à§©à§¦
Ġà§§à§¯ à§«à§¨
20 5
Ġ5 9
Ġà¦ıà¦¨ à¦Ĩà¦ĩà¦¬
Ġà¦Ĺà¦£ à¦ľ
Ġ8 3
Ġà§§à§¨ à§Ń
22 4
Ġà§§à§ª à§§
Ġ.( ,'
à¦¯à¦¸ à¦ļ
Ġà§¨à§§ à§¦
Ġ14 41
Ġà¦Ĩà¦ĩ à¦ĩà¦¡
âĨ Ĵ
à§ĩ! !
ĠÙĦ ÙĦÙħ
35 7
à¸ Ļ
Ġ> =
').( '
').( (){
Ġ26 0
49 0
Ġà§¦à§§à§Ń à§§à§¬
ÙĦØ§ Ø©
::> --
à¦ĭ à¦¦
ä½ ĵ
âĹ ķ
Ġ$('#_ ').((){
Îµ Î»Î»
ç¹ģé«Ķ ä¸Ńæĸĩ
íķ ľêµŃ
Ġ.(,' _');
% ';
3 80
5 50
> </>
Â ·
à¦¯ à¦ªà¦ķ
à¦² à¦¸à¦®
à¦² à¦¸à¦¨
à¦¸ à¦®à¦¨
à¦¸ à¦°à¦¶
Ġà¦Ĩ à¦ĵà¦²
à¦¶ à¦§à¦°
à¦Ĺ à¦²à¦¨
Ġà¦ı à¦ĵà¦¯
Ġà¦ı à¦®à¦¸
Ġà¦¦ à¦ĸ
Ġà¦ħ à¦Ľ
à¦¥ à¦ªà¦°
à¦ĸ à¦ļ
Ġ( :
Ġà¦ĵ à¦¸à¦¬
Ġà¦ĩ à¦ľà¦°
à¦« à¦¸à¦²
Ġà¦² à¦¬à¦¨
Ġà¦« à¦¡
à¦°à¦ķ à¦Ł
Ġà¦ħà¦¨ à¦®
à¦ı à¦ĩà¦Ł
à¦Ĩ à¦°à¦ķ
à¦¬à¦¨ à¦¸à¦Ļ
à¦ľà¦¨ à¦Ĺà¦£
à¦¤à¦° à¦«
à¦°à¦¹ à¦Ł
Ġà¦Ĩà¦¬ à¦Ľ
Ġà¦¹à¦² à¦«à¦¨
à¦¤à¦¨ à¦Ĺ
à¦¯à¦¬ à¦¯
Ġà¦®à¦¹ à¦¤
Ġà§¨à§¦à§¨ à§©
Ġà¦¸à¦° à¦Ĺà¦°à¦®
à¦¸à¦¹ à¦¯
à¦¸à¦¨ à¦¤à¦¨
à¦¨à¦¬ à¦¬
Ùħ ÙĦ
ĠØ§ÙĦ Ø¢
Ġ3 80
à¦Ĺà¦² à¦®à¦¹à¦²
Ġ6 8
Ġà§§à§¨ à§ª
Ġ7 5
Ġ11 0
Ġà¦ķà¦¨ à¦ľ
Ġà¦ħà¦Ĺ à¦¸
Ġà§§à§¬ à§ª
Ġ_ >
à¦ĵà¦² à¦ľ
13 8
16 4
16 8
.) -
Ġà§¨à§Ń à§©
Ġu c
Ġu s
29 0
à¦ıà¦ĩà¦ļ à¦ıà¦®
........ .......
à¸ ģ
:// .
&= '
Ġà¦®à¦¦ à¦¸à¦¹
à· ĥ
/// "+
Ġ.-- .
Ġ(( >=
Ø®Øª ØµØ±
Î¹Îº Î¬
Î½ Î¹ÎºÎ¬
Ġà§¦à§¨à§¨à§¨à§© à§©à§«à§¯
Î· Î½Î¹ÎºÎ¬
ÎµÎ»Î» Î·Î½Î¹ÎºÎ¬
+ '
0 31
× ¨
å ı
ì ĸ
Ġ Ñ
Ĭ Ð»
à¦¤ à¦¡
à¦¤ à¦¸à¦®
à¦ķ à¦Ĩà¦īà¦Ł
à¦¬ à¦ī
à¦¸ à¦ľà¦¨
à¦¸ à¦ĺ
à¦¦ à¦°à¦¤
à§ĭ _
à§Ģ .
Ġà¦® à¦°à¦¤
à¦Ĺ à¦ķà¦°
Ġà¦¨ à¦¬à¦¦
Ġà¦ı à¦«à¦¸
à¦¹ à¦¨à¦¤
Ġà¦¦ à¦®à¦ķ
à¦¡ à¦Łà¦ķà¦®
à¦£ à¦ĩ
à¦£ à¦ļà¦°
Ġà¦¶ à¦°à¦¨
Ġà¦¯ à¦¤à¦¬
Ġà¦ĩ à¦ľà¦®
à¦« à¦ª
Ġà¦¬à¦² à¦§
Ġà¦Ĩà¦° à¦«
Ġ: ))
à¦°à¦¬ à¦ļ
à¦°à¦¬ à¦®à¦¯
à¦·à¦£ à¦¶
.( (){
ÙĨ Ø¯
ÙĨ Ùĥ
ÙĬ Ø³
à§İà¦¸ à¦ķà¦ķ
à¦ıà¦° à¦ĩ
à¦¬à¦¤ à¦¸
à¦¬à¦¤ à¦ĩ
Ġ5 8
Ġà¦īà¦² à¦«
à¦ĩà¦® à¦§
Ġ8 4
Ġ6 1
Ġ6 3
Ġ9 7
Ġ7 3
Ġà§§à§ª à§¦à§¦
Ø¹ Ø©
Ġà§§à§© à§©
Ġ19 6
Ġ19 9
Ġ14 2
ØŃ Ø©
13 6
Ġ24 7
à² ¾
à² ¿
** *
à° ¯
Ġà§§à§¯à§Ń à§Ń
à¦¬à¦Ľà¦° à¦ĩ
à§¨à§¦à§¦ à§«
Ġà§©à§¬ à§¦
Ñģ ÑĢ
à§§à§¯à§¯ à§¨
Ġàª Ĺ
Ø¢ Ø¡
âĢ² âĢ²
Ð³ Ð°ÑĢ
Ġà¦¸à¦¹à¦® à¦¤
Ð¿ ÑģÐºÐ¸
Ð±Ñ ĬÐ»
íķľêµŃ ìĸ
Ð³Ð°ÑĢ ÑģÐºÐ¸
Ð±ÑĬÐ» Ð³Ð°ÑĢÑģÐºÐ¸
íķľêµŃìĸ ´
0 29
> .
× ¢
× ĳ
è ¿
Ġà¦ ¼
Ġà¦Ĩ à¦Łà¦ª
à¦ľ à¦ķà¦¦
à¦¶ à¦°à¦¤
à¦Ĺ à¦¶
à¦¹ à¦¶
à¦¹ à¦ªà¦°
à¦¼à§ĩ )
à¦¼à§ĩ à¦ĥ
Ġà¦ħ à¦ªà¦ķ
à¦Ń à¦¶
à¦Ń à¦Ĺà¦¬
à¦£ à¦ķà¦°
Ġà¦¶ à¦°à¦¦
à¦ĵ à¦ľ
à¦ĵ à¦ľà¦¨
Ġ( ..)
Ġà¦Ĺ à¦¹à¦°
Ġà¦ļ à¦Łà¦ķ
Ġà¦ļ à¦ĵà¦¡
Ġà¦ĵ à¦«
à¦« à¦¦
à¦« à¦°à¦®
Ġà¦ĸ à¦ª
Ġà¦ħà¦¨ à¦¤
Ġà¦ľà¦¨ à¦®à¦¨
Ġà¦ľà¦¨ à¦¸à¦¹
à¦Ĩ à¦¦à¦°
Ġ2 17
Ġ' )
à¦¤à¦° à¦®
à¦°à¦¹ à¦ķ
à¤ ¥
Ġà¦ıà¦² à¦¸
Ġà¦Ĩà¦¦ à¦¤
Ġ= "://
Ġà¦ªà¦¦ à¦¯
Ġà¦ªà¦¦ à¦¸
Ġà§¨à§ª à§Ń
Ġ9 8
22 5
Ġà§§à§« à§¯
Ġà¦Ĩà¦ª à¦¸
à¦¬à¦¶ à¦°
à¦ķà¦¸ à¦Ļ
Ġà¦ıà¦® à¦ıà¦¸
Ġà¦Ĩà¦« à¦¨
Ġi o
", :
à¦ıà¦« à¦Ĩà¦ĩà¦¸
Ġ17 3
Ġà§¨à§¨ à§Ń
à¦¾) -
à´ ¿
=== .
Ġ< %
à° ¤
67 9
37 5
à§¨à§Ń à§Ńà§§à§§à§Ń
Ġà§§à§¯à§® à§«
à¦ıà¦®à¦ıà¦¸ à¦ıà¦¸
à¤® à¤°
à¹ ī
Ġà§¦à§§à§¯ à§¨à§Ńà§Ńà§§à§§à§Ń
à¦ĭ à¦¤
Ġà§¦à§§à§ªà§¦à§§à§§à§® à§ªà§«
======== ========
Ġà¦Ĺà¦« à¦°à¦Ĺ
×Ļ× ª
Ġ'= ',
à¹Ħà¸ Ĺ
ĠØ³Ú© Ø³ÛĮ
ĠÙĦÙĦÙħ Ø®ØªØµØ±
ÑģÑĢ Ð¿ÑģÐºÐ¸
, _=
. ).(
3 99
7 50
Â ¬
å Ľ
Ġ à§ĩ
à¦¨ à¦īà¦²
à¦¯ à¦ªà¦°
Ġà¦ķ à¦ĵ
Ġà¦¸ à¦²à¦®à¦¨
à¦¦ à¦ĺà¦°
Ġà¦ª à¦¬à¦¨
Ġà¦ª à¦ļà¦¨
à¦Ł à¦ľà¦¨
Ġà¦Ĩ à¦¥
à¦Ĺ à¦¨à¦¸
Ġà¦¨ à¦¸à¦°
Ġà¦ı à¦ıà¦ĩà¦ļà¦ıà¦®
à¦Ń à§İà¦¸
à¦ĵ à¦·
à¦ĵ à¦ıà¦¸
Ġà¦Ĺ à¦¸
Ġà¦Ĺ à¦¤à¦°
Ġà¦ī à¦¶
Ġà¦² à¦²
à¦ī à¦ĩà¦¦
Ġà¦ĸ à¦¦
Ġà¦ħà¦¨ à¦Ń
à¦Ĩ à¦ĩà¦°
à¦Ĩ à¦«à¦°
à¦¬à¦¨ à¦Ĺ
Ġ2 25
Ġà¦¡ à¦¨
Ġà¦Ĩà¦° à¦¡
Ġ20 02
Ġ' .
à¦°à¦¹ à¦¸à¦¨
à¦ªà¦¤ à¦¨
à¦²à¦ķ à¦¬
à¤ ĸ
... /
à¦®à¦¤ à¦¤
Ġà§ª à§¨à§©
à¦¤à¦ķ à¦¤
Ùħ Ø§
à¦ıà¦¸ à¦ĩà¦¸
à¦īà¦ľ à¦°
Ġà¦ħà¦« à¦²
Ġ} ).(
Ġà§¦ à§§à§¬
20 2
Ġà¦Ĳ à¦ļ
Ġ7 6
à¦°à¦« à¦ķ
09 6
Ġ13 2
Ġà§§à§¬ à§Ń
11 7
à® ²
Ġà¦¬à¦ĩ à¦Ľ
Ġ18 5
Ġ18 9
Ġ16 1
Ġ16 6
Ġ17 7
Ġ17 8
Ġ17 28
Ġà¦Ĩà¦ļ à¦°à¦¨
Ġà§§à§¯à§Ń à§®
Ġ27 8
à§¨à§¬ à§©
').( {
Ġà¦Ĩà¦ĸ à¦¡
Ø§Ø ·
Ġà¦Ĩà¦ļà¦°à¦£ à¦¬
"",: "",:
à§§à§¨à§§ à§Ń
Ġ$('# -').(
à¹Ħà¸Ĺ à¸¢
" ]
( (
. );
6 88
Û ĸ
à¦ Ķ
à¦° à¦¨à¦¤
à¦¨ à¦¶à¦Ł
Ġà¦¸ à¦¦à¦ķ
Ġà¦Ĩ à¦·
Ġà¦® à¦²à¦¦
à¦ľ à¦²à¦ķ
à¦ľ à¦¤à¦¬
à¦ľ à¦ķà¦¨
à¦¶ à¦¶
à¦ĩ à¦ıà¦¸
à¦ĩ à¦ĩà¦ī
à¦ĩ à¦ªà¦²
à¦Ĺ à¦Ńà¦Ļ
Ġà¦¨ à¦²à¦Ľ
à¦¹ à¦°à¦ķ
à¦Ľ à¦²à¦¤
à¦ļ à¦¦à¦¶
Ġà¦¶ à¦°à¦¤
à¦ĵ à¦Ĩà¦ĩà¦ª
Ġà¦ī à¦ĵà¦°
Ġà¦ī à¦Ńà¦®
Ġà¦ıà¦ķ à¦ĺ
à¦ī à¦¸à¦®
Ġà¦« à¦°à¦¯
Ġà¦Ĩà¦® à¦Ĺ
Ġà¦Ł à¦¬
Ġ2 19
Ġ2 15
Ġà¦Ĩà¦² à¦ªà¦¨
à§İ à¦ªà¦¤
à¦¦à¦° à¦ľ
à¦¦à¦¨ à¦ĵ
à¦·à¦£ à¦ĩ
à¦ħ à¦·
à¦¤à¦¨ à¦Ń
Ġà§© à§®à§¦
Ġà¦¬à¦° à¦¯
à¦°à¦¶ à¦®à¦¨
.( {
Ġà§« à§¦à§¦à§¦
Ġ3 26
Ġà§§à§¦ à§¯
Ġà¦«à¦² à¦®
Ġ5 4
Ġà¦Ĺà¦£ à¦ħà¦Ń
Ġ) :
Ġà¦īà§İ à¦ĸ
22 1
Ġà¦Ĩà¦ª à¦Ĺ
Ġ10 5
Ġà§§à§§ à§©
Ø¯ Ø«
Ġ7 4
Ġà§§à§® à§«
21 9
Ġ? '
Ġ18 4
Ġ18 6
Ġà¦Ĩà¦ĩ à¦Ľ
Ġ15 5
Ġ16 9
Ġà¦ľà¦¨à¦ª à¦¥
Ġ24 2
Ġ24 3
Ġà§¨à§© à§§
Ġà¦ıà¦ĩà¦ļ à¦ª
', ':
âĸ ł
à² ¤
)} ;
à§¯à§¯ à§¯
Ġ30 1
à¦ļà¦® à§İà¦ķ
Ġ27 7
Ġ-: #
à¦¬à¦°à¦£ à¦ķ
à¦ľà¦¦ à¦°à¦¬
Ġà§§à§¯à§¯ à§«
Ġà¦ĩà¦īà¦ıà¦¨ à¦ĵà¦°
à· Ħ
/- //
-").( (){
ĠØ§ÙĦØµ Ùģ
áŀ ¶
áĢ ¬
àµ į
Ġà¦Ĺà¦¤à¦¬ à¦Ľà¦°
Ġ="" ]
æĪ ĳ
ç®Ģ ä½ĵ
. *
6 60
= >
> ]*
\ $
] .(
â ľ
Ġ ÛĮ
ı ²
à¦¿ à§į
à¦¯ à¦Ĺà¦£
à¦ķ à¦ªà¦ķ
à¦¬ à¦¦à¦°
à¦¼ ),
à¦¦ à¦Ń
à¦¦ à¦ĺ
à¦¦ à¦ĸà¦²
à¦Ł à¦°à¦¯
Ġà¦Ĩ à¦ĸà¦²
à¦ľ à¦ľ
à¦¡ à¦¦
à¦¼à§ĩ .
Ġà¦ķà¦° à¦®
Ġà¦ħ à¦¦à¦ķ
Ġà¦ħ à¦ķà¦²
à¦§ à¦¸à¦¹
Ġà¦° à¦¹à¦¨à¦ª
Ġà¦¯ à¦ľ
Ġ( $().(
Ġà¦ĵ à¦ĵà¦ĵ
Ġà¦ī à¦ķà¦¬
Ġà¦ĩ à¦Ľà¦²
à¦ī à¦Ńà¦¯
à¦ł à¦ķà¦°
à¦Ĩ à¦²à¦¤
à¦Ĩ à¦¸à¦¸
Ġ2 80
Ġà¦ıà¦ĩ à¦Ĺ
Ġ' ,
à§Į '
Ġ- ----
Ġ. @..
Ġà¦¸à¦¬ à¦¬
à¦ħ à¦®à¦°
Ġà§© à§¦à§¦à§¦
à¦¸à¦¬ à¦¶
à¦¸à¦¨ à¦ª
Ġà¦ĩà¦¨ à¦ª
ÙĬ ÙĤ
à¦īà¦ľ à¦ª
Ġà¦ªà¦¦ à¦Ł
Ġà§§à§¯ à§¬à§¦
à¦¸à¦ķ à¦ķ
Ġà¦ıà¦¤ à¦Ĺ
Ġ5 1
Ġ4 50
Ġ8 2
à¦ıà¦® à¦Ĩà¦ĩ
Ġà§§à§« à§©
Ġ10 6
Ġ7 2
Ġ7 20
Ġ11 1
Ġà§§à§ª à§«
09 4
Ġ13 9
à® ¤à®®
24 1
24 5
Ø§ÙĦ Ø¹Ø±Ø¨ÙĬØ©
18 5
Ġ14 43
à¦¸à¦Ł à¦²
28 0
Ġà§¨à§Ń à§¦
Ġà§¨à§¬ à§¬
Ġà¦ĸà¦°à¦ļ à¦Ł
26 7
Ġà¦ıà¦ķà¦¬ à¦Ľà¦°
)} )}
à¦īà¦¬ à¦ĵà¦¯
Ġ30 4
'' '
56 5
Ø´ Ø±
à§©à§© à§©
Ġ.(' ---
Ġà§§à§¯à§® à§¬
à¶ ½
Ġà¦ħà¦ªà¦¶à¦¨ à¦Ł
Ġà§§à§¯à§¬ à§¬
Ġà° µ
................................ ................
0000 00
à¦ľà¦ķà¦¤ à¦¤
ðŁĳ ī
" };
$ $
- %%%%%%%%%%%%%%%%%%%%%%%%%%%%%%%%
. ',
/ ))
0 16
3 28
3 40
< >
= [
? -="+
a a
Û Ĵ
à¦° à¦ªà¦¨
à¦² à¦®à¦°
à¦® à§İà¦¸
à¦ª à¦ķà¦°
à¦ª à¦¦à¦¸
Ġà¦® à¦²à¦¯
à¦¶ à¦Ľ
Ġà¦ħ à¦¤à¦¨
Ġà¦ħ à¦ĺà¦Łà¦¨
Ġà¦¤ à¦¹
à¦§ à¦ľ
à¦¥ à¦¸à¦¹
à¦ĸ à¦°à¦ļ
Ġà¦Ĺ à¦ŀ
Ġà¦Ń à¦°à¦£
à¥¤ )
à¥¤ \'
Ġà¦² à¦Ĺà¦¬
à¦ı à¦ľà¦¨
Ġà§¨ à§§à§¯
à¦Ĩ à¦Ļ
à¦Ĩ à¦¦à¦¨
.. );
.. à¥¤à¥¤
.. &&
Ġà¥¤ '
Ġà¦¡ à¦®
Ġà¦§ à¦¨à¦ķ
à¦ĥ) ]
Ġà¦ıà¦° à¦ĵ
Ġà¦Ĩà¦Ĺ à¦²
Ġ" ,:!
Ġà¦Ĩà¦¨ à¦ľ
à¦¯à¦¬ à¦ĩà¦¯
à¦®à¦² à¦®à¦¤
à¦ĩà¦ķ à¦¬
à¦°à¦ª à¦²
Ġà¦ªà¦¦ à¦®à¦°
ĠØ§ÙĦ Ø¸
).( "")
Ġà¦¬à¦¸ à¦¤à¦Ń
Ġà¦ĩà¦ī à¦Ĩà¦°à¦ıà¦²
Ġà§§à§¯ à§«à§©
20 11
20 14
Ġ5 6
Ø¨ Ø±
à¦¨à¦¸ à¦ĩ
Ġ) -
Ġ6 00
à¦Ĺà¦¨ à¦Ń
à¦¾à¦ĥ -
Ġ7 7
Ġ7 8
à¦Ĩà¦² à¦®à¦Ĺ
Ġà¦¸à¦¦à¦° à¦ª
Ġ.( "")
Ġà¦ķà¦¨ à¦¡
à¦¯à¦¸ à¦Ń
Ġ$( "
Ġ18 1
Ġ14 6
Ġà¦īà¦ªà¦ķ à¦¥
17 8
ĠØ¨ Ø§ÙĦ
.) +"
à¦¾! !!
à¦ıà¦² à¦ľ
": ")){
)} ).((){
36 36
Ġ29 3
70 8
47 5
à¦īà¦ª à¦Ń
à¦Ĩà¦¯ à¦¹
à§ĭ? '
?= ',
à¦¹à¦¹ à¦¹à¦¹
Ġà¦ıà¦°à¦ķà¦® à¦ĩ
56 3
=( =.(/
""=== ?"":
)( ""==
Ġ(! =(=.(/
/- /"+
à§§à§¯à§¯ à§ª
Ġ$ $
(. +"
ĠðŁĺ Ľ
,:,: ,:,:
?: \"
.&&( =
{:"",: ".
&=&= --",
ðŁĵ ĸ
?"":" /-/"+
\/)à¥¤( \/)à¥¤(
âĸĪ âĸĪ
.$.(".").( ),
===à¥¤à¥¤ ""===à¥¤à¥¤
?..+"//"+..: ..)+"
Ġ'+ +"
.().( ":")){
ĠØ§ÙĦØµÙģ ØŃØ©
à¥¤\' )?
?:\" à¥¤\')?
.().(":")){ .(
" }
) ),
+ (
. }
/ =
6 69
7 09
7 57
É Ļ
Õ ¥
â ı²
Ġ ÃĹ
à¦¾ ..
à¦¤ à¦£
à¦ķ à¦ªà¦£
à¦¬ à¦¤à¦®
à¦® à¦°à¦¨
à¦¸ à¦¤à¦°
Ġà¦¬ à¦Łà¦¬
à§Ģ ',
Ġà¦Ĩ à¦ĸà¦¨
Ġà¦Ĩ à¦īà¦¨
à¦ľ à¦¸à¦®
à¦ĩ à¦ķà¦°
Ġà¦ı à¦¤à¦¬
Ġà¦ı à¦ĸà¦¤
Ġà¦¹ à¦ľà¦¯
à¦Ľ à¦®
Ġà¦ħ à¦¤à¦°
Ġà¦ħ à¦ªà¦¤
Ġà¦ħ à¦²à¦ķ
à¦ļ à¦ķà¦Ń
à¦Ń à¦Ĺ
Ġà¦ĩ à¦¦à¦°
Ġà¦ıà¦ķ à¦¤à¦°à¦«
.. ,
Ġ' ://
Ġà§¨à§¦ à§«
Ġà¦ıà¦° à¦ĩà¦®à¦§
Ġ. /
à¦ħ à¦¯
à¦¤à¦¨ à¦¯
Ø§ Øµ
Ġà§« à§¨à§¦
); }
Ġà¦ıà¦¸ à¦ıà¦¸
à¦¬à¦ķ à¦¨
Ġ() .
Ġà¦Ĩà¦ĩà¦¨ à¦¸à¦Ń
Ġà¦ħà¦¤ à¦Ł
Ġà§Ń à§§à§¨
Ġ3 30
Ġà§¯ à§«à§¦
Ġà§§à§¯ à§¦
à¦ªà¦¦ à¦Ĺ
à¦¨à¦¸ à¦Ļ
Ġà¦ªà¦¥ à¦¸à¦Ń
Ġ8 5
à¦¿' -
Ġ6 6
ĠÙĪ Ø£
Ġ10 1
Ġ10 9
à¦Ĩà¦² à¦ľ
Ġà¦¸à¦¦à¦° à¦ĺ
09 1
Ġà§§à§© à§«
Ġ$( _
Ġà¦¯à¦¤ à¦Ĺ
Ġà§¨à§§ à§©
18 4
Ġ15 2
13 40
16 3
à¦ĩà¦ī à¦ıà¦¸
à¦¾? "
à° ¡
à¦¬à¦§ à¦²
à§¨à§« à§®
Ġà¦¨à¦ĵ à¦«
Ġà¦¬à¦²à¦¬ à§İ
67 6
à§¨à§¯ à§®
Ġà¦ħà¦¸à¦¹ à¦¯
[] +
à¦Łà¦« à¦°à¦®
à§¨à§¦à§¦ à§¨
ĠÂ £
90 8
Ġà® ķ
,= ,=
Ġà§§à§¯à§¬ à§¯
Ġ://.. ///
ĠÌ Ħ
Ġ:# ;
(. ==
Ġ$("# ").();
ĠØ§ÙĦØµ ÙĦØ§Ø©
120 3
Ġ$('# ').('
à¦Łà¦ĩ à¦ªà¦¤
à¦¯à¦ľà¦¨ à¦ķà¦Ń
Ġâĺ µ
Ġà¦¸à¦¬à¦° à¦ķà¦®
Ø¹ÙĦ ÙĬÙĩ
Ġ,' ://../
à¹Ģ à¸
ç®Ģä½ĵ ä¸Ńæĸĩ
Ġ($().( )
# à¥¤
& #
- ,
- /
. ,=
/ ____
} ,:(){
á ł
Ġ ........
Ġ à¸
à¦¤ à¦ªà¦°
à¦ķ à¦Ĺà¦¨
à¦¼ --
à¦¼ ',
à¦® à¦ªà¦¤
à§Ģ ),
Ġà¦Ĩ à¦īà¦¶
Ġà¦® à¦ĩ
Ġà¦® à¦Ĺà¦ľ
Ġà¦ı à¦Ļ
Ġà¦ı à¦¹à¦¨
à¦¡ à¦¸à¦¹
Ġà¦ħ à¦Łà¦²
Ġà¦ľ à¦¬à¦°
Ġà¦ľ à¦¶à¦¨
à¦ļ à¦ĵ
à¦¥ à¦ķà¦¤
Ġà¦° à¦ļà¦¯
Ġà¦¶ à¦¤à¦¬
Ġà¦¶ à¦°à¦¬à¦¤
Ġà¦Ń à¦£
Ġà¦ī à¦ĩà¦ľ
Ġà¦ĩ à¦Łà¦¨
Ġà¦ªà¦° à¦ĸ
à¦ī à¦¹
à¦°à¦¤ à¦¬
à¦¬à¦° à¦¸à¦¬
à¦ģ -
Ġà¦ħà¦¨ à¦°
à¦Ĩ à¦°à¦®
.. =(){
Ġà¦Ĩà¦° à¦ıà¦¸à¦ıà¦¸
à¦¤à¦° à¦ªà¦¤
à¦°à¦¹ à¦¨à¦¯
à¦°à¦® à¦¯
à¦ķà¦° à¦¦
à¦¶à¦¨ à¦ĵ
ĠØ ¸
à¦¦à¦¨ à¦®
à¦¦à¦¨ à¦¹
à¦²à¦¨ à¦®
Ġà¦Ĩà¦¨ à¦¯
à¦®à¦¤ à¦ķ
à¦¨à¦¤ à¦²
à¦¯à¦® à¦ķà¦°
Ġà¦Ĩà¦ľ à¦®à¦²
à¦ķà¦Ł à¦¸
à¦¨à¦¬ à¦®
-- :
à¦Łà¦ķ à¦ļ
à¦Łà¦ķ à¦®à¦ķ
Ġà¦ĩà¦¨ à¦Ł
Ġ= .(
), .+
Ġ3 60
Ùĳ Ù°
Ġ0 0
Ġà§§à§¯ à§¨
à¦®à¦¯ à¦ľ
Ġà§¨à§ª à§®
à¦ĩà¦ľ à¦®
Ġà§§à§¨ à§¬
Ġ11 2
Ġà§§à§ª à§Ń
Ġ.( ,
Ġ12 4
Ġ12 8
Ġ12 0000
12 4
09 3
09 82
09 83
à¦°à¦ĸ à¦°
11 4
Ġà¦¨à¦¦ à¦Ń
Ġà¦¸à¦¹à¦ľ à¦¤à¦°
Ġ_ '
à® °
19 9
17 0
16 9
Ġ16 47
], =
29 9
30 3
âĨĳ ]
23 3
26 3
à¸ µ
à¸ Ń
à¯ Ī
à¦¬à¦ľà¦¨ à¦ª
45 5
=.( ,
=.( ),=
39 2
Ø§ÙĨ ÙĬØ©
Ø§Ø ²
Ġ100 000
=( ,,){
à¦Ĩà¦¸ à¦Ľ
Ġà¦¬à¦Ł à¦¤à¦²
&&( =
à¹ Ī
Ġ$ .(,
à¦§à¦¶ à¦¤à¦ķ
ĠðŁĻ ģ
Ġ*** *
..// .?=
Ġ://... /
Ġà¦Ŀà¦ķ à¦Ŀà¦ķ
",": ":
" ).
$ )
& à¥¤
& ");
& ]"
( ,
+ /,
/ [\
5 44
? &]"
[ ?&]"
] .
] .(/\
å ®
å ħ
Ġ ).();
à¦¾ _
à§ĩ à§ĩ
à§ĩ ......
à¦¿ ..
à¦¨ à¦¦à¦¨
à¦¯ à¦¶à¦¸
à¦¤ à¦«à¦¸
à¦² à¦°à¦¦
à¦¬ à¦ľà¦²
Ġà¦ķ à¦²à¦¤à¦²
Ġà¦¸ à¦Ĺ
à¦Ł à¦īà¦¡
Ġà¦® à¦²à¦¤
Ġà¦® à¦Ĺà¦¨
à¦ľ à¦ªà¦°
à¦Ĺ à¦Ńà¦¬à¦¨
Ġà¦¨ à¦«à¦²
à¦¡ à¦¡
Ġà¦¤ à¦°à¦¬
Ġà¦¤ à¦°à¦ľ
à¦Ĥ ...
à¦ļ à¦°à¦®
à¦ĸ à¦ĵ
Ġà¦° à¦ľà¦Ń
Ġ( .('
Ġà¦ļ à¦¸
Ġà¦ī à¦°à¦¸
à¦ī à§İà¦¸
Ġà¦ĸ à¦°à¦Ĺ
Ġà¦« à¦£
Ġà§¨ à§¨à§§
Ġà¦¬à¦² à¦Ł
Ġ2 30
Ġà¦¡ à¦Łà¦ķà¦®à¦ķ
Ġà¦ıà¦ĩ à¦¦
Ġ' ?=
à¦¬à¦¸ à¦ķ
à¦°à¦® à¦°
à¦°à¦¸ à¦ļ
Ġ. );
Ġà¦īà¦¦ à¦Ĺ
Ġà¦¸à¦¬ à¦¦
à¦²à¦¨ à¦ļ
à¦¦à¦ķ à¦®à¦¨
à¦¼à§ĭ ,
Ġ" ":
Ġ" ));
Ġ" (=
à¦¸à¦¬ à¦ķ
Ġà¦¬à¦¨ à¦²à¦¤
ÙĬ ØŃ
Ġ() .()
Ġ3 600
Ġ0 16
à¦°à¦² à¦¸à¦Ń
Ġà¦ħà¦ª à¦¦à¦¸
Ġà§§à§¯ à§ªà§«
Ġà§§à§¯ à§¬à§§
Ġà§§à§¯ à§«à§ª
Ġà¦«à¦² à¦ª
Ġ... ")
Ġ[ âĨĳ]
à¦Ĩà¦° à¦ľ
à§§à§¯ à§Ńà§«
Ġà§¨à§ª à§¨
Ġ6 0000
Ġ9 2
Ġà§§à§« à§§
Ġ10 3
Ġ7 00
Ġ7 200
Ġà¦¸à¦¦à¦° à¦¦à¦ª
à¦¯à¦¦ à¦²
à¦ĩà¦Ń à¦ķ
Ġà§§à§ª à§©
Ġ.( /[\
à¦ıà¦ķ à¦®
Ġ_ ';
Ġ$( );
Ġà¦Ĩà¦²à¦® à¦¡
Ġ? ?
19 7
ĠÙħ Ø¹
Ġâ ĪĴ
Ġà¦īà§İà¦ª à¦²
Ġ// $(
à¦¯à¦ķà¦° à¦Ń
Ġ17 0
Ġ"\ \$
'. __
23 2
33 4
'; $("#
&= ',
?= ')
"# ");
): .(
Ġà® ª
Ġ.(' ?'
Ġ.(' ?=',
Ġ.(' &=',
Ġ(! [
Ġà¦Ĺà¦ľ à¦¦à¦¨
),.( "
Ġà§§à§¨à§¦ à§®
Ġ(. ).();
à§Ńà§® à§¯
)à¥¤ &à¥¤
Ġ//.( .,
ĠÛ ±Û
([^ &#
Ġà¦¦à¦°à¦ªà¦¤ à¦¨
]* )à¥¤&à¥¤
Ġ"- ",
Ġ(" [?&]"
Ġ'# ';
Ġ$('.-- ').('');
Ġà¦«à¦¸ à¦«à¦°
[\]] /,
365 123
Ġ864 00000
Ġ'&= _:
ĠðŁĳ ģ
Ġ}).( "#");
Ġ1728 00000
Ġà¦ħà¦ªà¦¤ à§İà¦ªà¦°à¦¤
#à¥¤ $)
].(/\ +/,
Ġ(.(' ?=')
Ġ'?= _:
Ġ"(= ([^&#
Ġ3600 000
Ġ7200 000
Ġ.(/[\ [\]]/,
Ġ"\\$ &");
';$("# ").();
Ġ.('?' )
]*)à¥¤&à¥¤ #à¥¤$)
Ġ"(=([^&# ]*)à¥¤&à¥¤#à¥¤$)
Ġ"(=([^&#]*)à¥¤&à¥¤#à¥¤$) "),
" **
' ',
( '
) *
) ');
) ).
, ...
, ),
, (,,){
. ;(
. =.-
2 12
3 12
3 18
7 70
9 30
9 32
: []
> ]
{ :(
Û ¹
à¦¿ _
à¦¨ à¦ĩà¦ī
à¦ķ à¦Ļ
à¦ķ à¦®à¦¨
à¦ķ à¦ĺà¦°
à¦² à¦®à¦¤
à¦¸ à¦°à¦¨
Ġà¦¸ à¦¶
Ġà¦¸ à¦īà¦¦
Ġà¦¬ à¦«
Ġà¦¬ à¦Łà¦Ĺ
Ġà¦¬ à¦īà¦ķ
Ġà¦ª à¦Łà¦²
à¦ª à¦ĸ
à¦ª à¦ľà¦²
Ġà¦® à¦ĵà¦ķ
à¦ĩ à¦¸à¦¹
à¦ĩ à¦¶à¦¤
Ġà¦¨ à¦¨à¦¦
Ġà¦¤ à¦¦à¦¬
à¦Ĥ /
à¦ļ à¦ªà¦°
à¦ļ à¦ľà¦¨à¦ķ
à¦¥ à¦ķà¦ķ
à¦¥ à¦ªà¦¥
Ġà¦° à¦ĺ
à¦ĵ à¦Ľ
Ġà¦ıà¦ķ à¦¹
Ġà¦Ĩà¦® à¦¬
Ġà¦Ĩà¦® à¦«
à¦Ļ à¦Ľ
Ġà¦Ľ à¦¹
Ġà¦ľà¦¨ à¦¬à¦¹
à¦ªà¦° à¦¬
Ġà¦§ à¦ķà¦²
à¦ľà¦¨ à¦¨
Ġà¦ĺ à¦°à¦®
Ġ' ___
Ġ: ');
à¦ĩà¦¨ à¦Ń
Ġ- '
à§ª à§ªà§®
Ġ. ___
Ġ. &&(
Ġ. /.
à¦·à¦£ à¦®
à¦ħ à¦¬à¦¹
Ġ" +
Ġ" ",
Ġà§© à§©à§¦
à¦ĩà¦Ł à¦®
); ';*/
à¦²à¦¬ à¦£
à¦ªà¦ķ à¦¦
à¦¸à¦° à¦²
Ġ= ''
Ġà¦Ĩà¦¶ à¦«
), !=
Ġ3 56
à§ģà¦ģ '
).( __);
Ø± ÙĤ
Ġà¦ĩà¦ī à¦ıà¦ĩ
Ġà¦¶à¦° à¦¥
Ġà§§à§¯ à§ªà§¨
Ġà¦Ĩà¦¤ à¦¤
20 3
20 23
__ */
Ġ4 70
"" },(,){
à¦Ĩà¦° à¦Ĩà¦ĩ
à¦Ĩà¦° à¦ıà¦«
Ġà¦īà¦² à¦Ļ
à§§à§¯ à§®à§¦
Ġ8 6
Ġà¤ Ĩ
Ġà¤ Ĺ
à¦°à¦ľ à¦Ĺà¦¤
Ġà¦ļà¦Ł à¦ªà¦Ł
Ġ9 4
Ġà§§à§« à§®
Ġ10 4
Ġ10 7
Ġà§§à§§ à§«
Ġ11 4
Ġ11 5
Ġà¦īà¦ªà¦¸ à¦ļ
Ġ.( ,,,
10 4
$( '.__
12 9
() à¥¤à¥¤
à¦¿) -
Ġà§§à§Ń à§§
Ġ+' });'
Ġ$( ,(,,){
Ġ? []
à¦¨à¦® à¦£
19 3
19 6
Ġ! "
ĠÙħ Ø§
15 200
---- --
Ġ// $(".
Ġ16 0
Ġà§¨à§® à§¨
], (,){
27 6
29 5
Ġà¦ħà¦ľ à¦Ĺà¦°
à¦ıà¦ĩà¦ļ à¦ª
'. __');
à´ ķ
57 8
").( __);
36 2
___ );
___ */
').( '')
').( ));
').( __);
').( $('.__
').( '.__');
Ġ__ ____
&& ""===.(,"")
Ġ/* __*/
Ġ/* ___*/
Ġà¦ıà¦« à¦ı
à§«à§« à§Ń
320 50
:( =
"", "
Ġ+'.().();' +
à¶ ¸
Ġ._ ');
200 908
Ġà¦ļà¦®à¦ķ à¦ª
75 159
),( ),
.(' /'
à¦īà¦¥ à¦ĩà¦¸
),.( [
),.( {:"",:
),=.( ,""
.- .-
Ġ(__ .('/'
Ġà¦Ĩà¦ĩà¦Ń à¦°
]] ).();'
Ġ:- (
Ġ$('.__ ').();
Ġ$('.__ ').($('.__
Ġ.-- ').('')
,,,, ,
Ġ+'.(); '
).((){ .("
Ġ[] ).((){.("
.+ =""
.(, à¥¤à¥¤
.(, "",!
""+ ],[""+
Ġ$(__ ).(__);
$("# --
.[ ""+],[""+
.[] =(){
.[] =(,){
.&&( .=.-
180 145
Ġ.__ ').();
Ġ.__ ').());
")} );';*/
Ġ'__ ').(
Ġ'__ ').().(.());"
Ġ$('.___ ').();
Ġ.('___ ');
Ġ$(".__ ").();
Ġ$(".__ ").
Ġ$(".__ ").(__);
**************** ****************
Ġâĺ ħ
),.("" ),(
[""+ ]:
Ġ/> :
829 75159
)},: (,){
)= .;
Ġà¦¬à¦Ľ à¦°à¦ķ
Ġ='://.// ?=
ĠÏ Ģ
"","" ],(,){
Ġ').( ___);
à¦®à¦¶à¦¤ à¦¬à¦°
></> <
Ġ.--. ').();
ĠÑ ĺ
>. </>
åĽ ½
Ġ$(_ ).('.___:(
=.(, "",!
Ġ//$( '.___:(
{:( ,,){
Ġ'___ ').(.());"
Ġ.&&( .+=""
Ġ='' ></><
),!= .&&(.=.-
15200 82975159
Ġ//$(". __
&&""===.(,"") )=.;
),.({:"",: ""},(,){
.-.- .(,"",!
Ġ(__.('/' )[
Ġ[]).((){.(" _
180145 17
Ġ.&&(.+="" ),
),!=.&&(.=.- .+
3 29
6 34
Û ¥
å ľ
Ġ æĹ¥æľ¬èªŀ
Ġà¦ ¿
à¦° à¦ĸà¦¨
à¦¤ à§İà¦ķ
à¦ķ à¦īà¦²
à¦® à¦·
Ġà¦ķ à¦ĩà¦¤
à¦¦ à¦ĵà¦¯
à¦¦ à¦¶à¦ķ
à¦Ł à¦ªà¦Ł
Ġà¦Ĩ à¦¢
à¦Ĺ à¦Ńà¦°
Ġà¦ı à¦¥
à¦· à¦¸à¦°
à¦Ń à¦°à¦ª
à¦ĵ à¦¶
Ġà¦Ń à¦ľà¦¨
Ġà¦ī à¦ĩà¦Ń
Ġà¦ĩ à¦ĩà¦ī
Ġà¦² à¦£
à¦ī à¦¤à¦¬
à§§ à§§à§Ń
à¦Ļ à¦¬
à¦ı à¦¤à¦¦
à¦Ĩ à¦®à¦¨
à¦Ĩ à¦ªà¦¤
à¦Ĩ à¦ļà¦°à¦£
à¦Ĩ à¦®à¦¤à¦²
à¦®à¦¨ à¦ķ
Ġà¦§ à¦¡
Ġ20 00
Ġà§¨à§¦ à§¬
Ġà¦Ĩà¦¬ à¦¯
Ġà¦Ĩà¦¬ à¦¹à¦®
à¦°à¦® à¦¹à¦²
à§İ à¦²
Ġà¦¹à¦² à¦°
Ġà¦¹à¦² à¦Ĺ
à¦ĩà¦² à¦ļ
Ġà¦¸à¦¬ à¦®
à¤ §
... /-
à¦¯à¦¬ à¦¶à¦¤
Ġà§¨à§¦à§¨ à§«
à¦°à¦¶ à¦ķ
à¦¸à¦¨ à¦¦
à¦®à¦° à¦¬à¦¨
Ġà¦ķà¦² à¦¸
Ġà¦ħà¦« à¦¬
Ġ3 16
Ġà¦ħà¦ķ à¦ªà¦Ł
à¦Ĺà¦² à¦Ĺ
Ġà¦ķà¦¬ à¦ľ
Ġ8 1
Ø³ Ø¬Ø¯
Ġ9 00
à¦²à¦Ĺ à¦Ł
Ġà§§à§« à§ª
Ġà¦¨à¦¬ à¦Ĺà¦ł
Ġà§§à§§ à§§
// ://./
Ġ11 8
à¦Ĩà¦² à¦¹
Ġà¦Ĺà¦¡ à¦«
Ġà¦ıà¦® à¦Ĩà¦ĩ
à¦Ĩà¦ĩ à¦ĵ
à¦Ĩà¦ĩ à¦¸à¦²
à¦¤à¦² à¦ľ
à¦łà¦ķ à¦ª
Ġà§§à§¬ à§§
Ġà§§à§¬ à§¯
Ġà§§à§¬ à§©
Ġà§§à§Ń à§«
Ġà§§à§© à§¬
à¦ľà¦® à¦¹à¦²
à® ©
Ġ19 8
Ġ$( '
Ġ24 0
Ġ24 1
28 3
à¦ķà¦°à¦£ à¦Ł
Ġà§¨à§¨ à§«
à¦¾? '
à§§à§¨ à§©
âĸ ¼
à§§à§« à§¬à§¦
à§¨à§¨ à§¨
à§©à§¦ à§«à§«à§Ń
)} }}
)} )}}
à¦¹à¦ľ à¦°à¦¤
'' [
Ġ25 5
45 14
à¦¯à¦Łà¦¨ à¦ķ
Ġà¦ĩà¦Ń à¦Ł
78 6
ÙĮ Ùĳ
à§®à§® à§§à§¨
à§ªà§® à§©
'+ +'
Ġà¦¸à¦¨à¦¦ à¦§
à³ Ģ
ĠÙĩ Ø°
à¦Ĳ à¦ķ
à¦ıà¦ķà¦¦ à¦®
Ġà§§à§¯à§¬ à§«
ÙĢ ÙĢ
à§ĥà§ĥ à§ĥà§ĥ
à²° à²
Ġà§«à§«à§¦ à§¨à§¯à§®
à§§à§§à§¦ à§©à§¦à§«à§«à§Ń
à§®à§®à§¦à§§à§¯ à§§à§«à§¬à§¦
à§®à§®à§¦à§§à§¯ à§§à§§à§¦à§©à§¦à§«à§«à§Ń
âĶĢ âĶĢ
Ð°Ð· Ð°
Ø¯Ø« ÙĨØ§
Ġà§«à§«à§¦à§¨à§¯à§® à§©à§¨
à§®à§®à§¦à§§à§¯à§§à§«à§¬à§¦ à§®à§®à§§à§¨
" !==
* )
. _
6 49
7 13
8 24
8 72
Â ¡
Ġ \
Ġ Ûģ
à§ĩ [
à¦¨ à¦ł
à¦¨ à¦ĩà¦¯
à¦¨ à¦Ľà¦¡
à¦¤ à¦¸à¦²
à¦¬ à¦ĩà¦Ł
à¦® à¦¹à¦°
à¦® à¦«à¦²
à§ģ ;
à¦¸ à¦Ĩà¦²
à¦¸ à¦Ĩà¦¬
Ġà¦¸ à¦¦à¦¯
à¦¦ à¦¶à¦¨
à¦¦ à¦¯à¦¨
Ġà¦¬ à¦¤
à¦ª à¦Łà¦ķ
Ġà¦® à¦¥
Ġà¦® à¦ĸ
Ġà¦® à¦¶à¦ķ
Ġà¦® à¦°à¦²
à¦ĩ à¦Łà¦¨
Ġà¦ı à¦·
à¦¹ à¦Łà¦¨
à¦· à¦¤à¦¨
à¦¡ à¦²à¦ķ
Ġà¦¤ à¦ľ
Ġà¦¤ à¦¤à¦¬
à¦§ à¦¤à¦¨
Ġà¦ľ à¦²à¦ķ
à¦¥ à¦ĵ
à¦Ń à¦ľà¦¨
à¦£ à¦ł
à¦£ à¦¨à¦Ĺà¦°
à¦ĵ à¦¹à¦°
Ġà¦ī à¦«
Ġà¦ĩ à¦Ĺ
Ġà¦¥ à¦°
Ġà¦ĸ à¦ļ
à¦¬à¦° à¦ĵ
à¦ł à¦°
à¦ł à¦Ł
à¦ı à¦°à¦¦
à¦ı à¦Ĩà¦°
à¦Ĩ à¦¹à¦¬
Ġà¦¡ à¦Ļ
à¦¤à¦° à¦ľ
Ġà§¨à§¦ à§©à§¦
Ġà¦Ĩà¦¬ à¦¬
Ġà¦īà¦ª à¦¶à¦®
Ġà¦īà¦ª à¦¶à¦¹à¦°
à§İ à¦¦
à§İ à¦¶
Ġà¦®à¦¨ à¦®
Ġà¦®à¦¨ à¦¨à¦¶
à¦°à¦¬ à¦ķ
Ġ. [
Ġà¦Ĩà¦Ĺ à¦¨
à¦¸à¦® à¦¤à¦²
Ġ" ;
à¤ ĩ
Ġà¦¬à¦¨ à¦ľ
à¦¤à¦¬ à¦¬
à¦¨à¦¤ à¦ľ
à¦¬à¦² à¦¸
Ġà§ª à§ªà§®
Ġà¦ĩà¦¨ à¦¹
ÙĬ Ùģ
Ġà¦ħà¦¸ à¦¦
à¦īà¦ľ à¦²
Ġà§Ń à§©à§Ń
Ġà¦ªà¦¦ à¦¦à¦²
ĠØ§ÙĦ Ø«
Ġ3 20
à¦ıà¦¨ à¦ıà¦¸
Ġ0 96
Ġà¦ħà¦ķ à¦¥
Ġà§® à§ªà§®
Ġà§§à§¯ à§«à§«
à¦ıà¦ĩ à¦¬
ÙĪ ÙĤ
Ġà¦ĺà¦° à¦Ĺ
à¦ĩà¦¡ à¦Ł
Ġà§§à§¨ à§¨
Ġ9 3
à¦¨à¦ĵ à¦Ń
Ġ11 9
Ġ12 80
à¦Ĩà¦ĩ à¦ĩà¦¡
12 15
Ġà§§à§¬ à§«
11 4514
Ġà¦ıà¦ķà¦ĩ à¦°à¦ķà¦®
Ġ19 70
Ùĥ Ø±
15 3
Ġà¦īà§İà¦ª à¦²à¦ķ
Ġà¦¶à¦¹ à¦°à¦¤à¦²
à§§à§® à§§à§¯
14 1
Ø¬ ÙĪØ¯
Ġà§¨à§Ń à§¨
Ġà§¨à§Ń à§«
à§§à§¨ à§©à§¦
30 4
à§ĩ! "
,: "
": "
40 5
").( ),
67 2
44 5
47 1158
?= --
"# ").(
Ġ#> =""
77 6
à¦ħà¦¤ à¦ıà¦¬
Ġà§§à§¯à§® à§Ń
&&( =.(
Ø§Ø± Ø¯ÙĪ
"") +"
à¦Ĩà¦¶ à¦ľ
?? ?
à¦ķà¦ľ à¦®à¦ķ
Ð¾ Ð²
Ġ47 114514
,"" ),=(
Ġà¦ķà¦¤à¦ķ à¦Ĺ
$(". -").(
à¦ļà¦ª à¦¦à¦¸
ØŃÙħ Ø¯
Ġà¦¦à¦²à¦¬ à¦¦à¦²
à§«à§«à§¦ à§§à§¨à§«
ÒĽ Ð°Ð·Ð°
Ġ471158 79
Ġ471158 75
ĠØ¹Ø¨ Ø¯
Ġà§Ńà§§à§¨ à§¨à§¬
Ġ='://.//?= &=
471158 65
Ġ#>="" <#
ÒĽÐ°Ð·Ð° ÒĽ
! )
' ?
( ()
4 11
5 32
5 43
6 18
6 02
7 17
8 61
? [
â ĪĴ
ã Ĥ
Ġ Ð±
Ľ áĪ
ł áĪ
Ń áĬ
à§ĩ ]
à§ĩ ....
à¦¨ à¦ĩà¦¬
à¦¯ à¦ªà¦Ł
à¦¤ à¦ĵà¦¯
à¦ķ à¦°à¦ķ
à¦² à¦ªà¦°
à¦¬ à¦īà¦¦
à¦® à¦īà¦¤
à§ģ à¥¤
à¦¸ à¦¤à¦¤
à¦ĩ à¦ľà¦¨à¦ķ
à¦Ĺ à¦¹
à¦Ĺ à¦¬à¦¤
Ġà¦¨ à¦¬à¦°
Ġà¦¨ à¦®à¦¸
Ġà¦ı à¦Ĩà¦ĩ
Ġà¦ı à¦ıà¦«à¦¸
à¦¹ à¦ĵ
Ġà¦¹ à¦ª
Ġà¦¦ à¦ĩà¦¯
à¦Ľ à¦Ń
à¦¼à¦¾ "
Ġà¦° à¦ľà¦¤
à¦Ń à¦²à¦ªà¦®
à¦£ à¦¸à¦¹
Ġà¦¶ à¦®à¦¸
à¦ĵ à¦¸à¦®
à¦ĵ à¦ıà¦ĩà¦ļà¦ıà¦¸
Ġà¦ĩ à¦ĵà¦°
à¦« à¦®
à¦« à¦¡
à¦« à¦ĸà¦°
à§Ĥ '
Ġà¦ıà¦ķ à¦ķà¦¥
Ġà¦¸à¦® à¦ķà¦ķ
Ġà¦« à¦²à¦¤
à¦¬à¦° à¦¨
Ġà¦ľà¦¨ à¦¶
à¦Ĩ à¦¶à¦ª
Ġ2 16
.. /
à¦®à¦¨ à¦Ń
à¦ªà¦° à¦¶
à¦ľà¦¨ à¦ĵ
à¦ľà¦¨ à¦ķà¦Ń
Ġà¦ĺ à¦·à¦¤
Ġ20 01
à¦¼à¦¿ à¦ĥ
à¦¤à¦° à¦Ĺ
à¦°à¦¹ à¦¶
à§ĩ, "
à¦ķà¦° à¦¬
Ġ- (
Ġà¦Ĩà¦¸ à¦¨à¦Ł
Ġà¦¸à¦¬ à¦²
à¦²à¦ķ à¦ļ
à¦¦à¦ķ à¦®à¦£
Ġà¦¹à¦¤ à¦Ńà¦®
à¦¼à§ĭ -
Ġ" :
Ġà§© à§§à§¯
à¤ Ń
Ġà¦¬à¦¨ à¦ª
à¦°à¦¨ à¦®
Ġà¦Ĩà¦ľ à¦Ĺà¦°
à¦Ĺà¦¤ à¦¤
à¦¸à¦¨ à¦Ł
à¦¨à¦¬ à¦ľà¦®
ÙĬ Ø²
à¦§à¦¨ à¦¶
à¦¬à¦¬ à¦Ļ
à¦īà¦ľ à¦¡
Ġà§¦ à§§à§«
à¦¸à¦ķ à¦Ń
Ġà¦īà¦ªà¦° à¦ĩ
Ġ4 80
Ġà¦Ĺà¦£ à¦Ń
Ġà¦Ĺà¦£ à¦ħà¦¨à¦¶à¦¨
à§§à§¯ à§®à§®
Ġ8 7
Ġ6 17
// //
Ġ7 9
Ġ11 3
Ġ11 7
Ġà¦ĵà¦ªà¦° à¦ĩ
Ġà§§à§ª à§®
Ġ12 9
Ġà¦ľà¦² à¦ľ
12 44
à¦¿) [
11 3
Ġà§§à§© à§¨
Ġà¦¸à¦¹à¦ľ à¦Ń
à® ļ
Ġ19 7
Ġà¦ħà¦² à¦Ļ
18 2
18 7
Ġ14 9
à¦®à¦¹ à¦¨à¦¨
Ġà¦Ĩà¦ĩ à¦ıà¦«à¦Ĩà¦ĩà¦¸
ĠÙģ ÛĮ
14 4
.) '
Ġà§¨à§¬ à§¨
Ġà¦ıà¦ĩà¦ļ à¦Ĩà¦ĩà¦Ń
à¦ķà¦¶ à¦ª
à² µ
à¦¼à¦ĥ -
à¤¾ à¤Ĥ
48 5
49 1
Ġà¦Ĺà¦¨ à¦¤à¦¨
à¦īà¦ª à¦¸à¦®
à¦¸à¦°à¦£ à¦ķ
77 2
Ġà¦ľà¦¨à¦Ĺ à¦¨à¦ķ
ĠðŁ ĵ
Ġà¦ķà¦®à¦¨ à¦ĵà¦¯
à¶ »
Ġà¦ħà¦¹ à¦°à¦¹
Ġà¦Ĩà¦ĩà¦ıà¦¸ à¦ıà¦²
Ġ120 9
áĢ Ļ
âĺ ĳ
Ġà¦Ļ à¦¸
à§¦à§§à§Ń à§§à§¨
ðŁĵ ļ
ØŃÙħ Ø©
áĬ łáĪ
à¦ĩà¦ı à¦ĵ
ĽáĪ ŃáĬ
áĬłáĪ ĽáĪŃáĬ
áĬłáĪĽáĪŃáĬ Ľ
" /,
) +"
/ ),(
/ ">
1 108
2 000
6 55
7 16
7 27
= }
] +"
] ?!
Û ¢
â Ļ¦
ï ģ
Ġ à§ģ
à¦¾ à¦¼
à¦° à§İ
à¦¯ à¦¯à¦¨
à¦¤ à¦§à¦¨
à¦ķ à¦¸à¦®à¦¯
à¦® à¦¥
à¦® à¦²à¦ķ
à¦¸ à¦¯à¦ľ
Ġà¦¸ à¦¤à¦¨
à¦¦ à¦¤à¦°
à¦¦ à§İ
Ġà¦Ĩ à¦¯à¦®
à¦ľ à¦īà¦ķ
à¦ĩ à¦°à¦¹
à¦ĩ à¦Ŀ
Ġà¦¨ à¦Ĺà¦£
à¦¹ à¦ĵà¦¯
Ġà¦¹ à¦°à¦Ń
à¦· à¦²
à¦Ľ à¦¸à¦¹
à¦¼à§ĩ à¥¤
Ġà¦ħ à¦ĺ
à¦ĸ à¦®à¦£
Ġà¦° à¦¸à¦¦
à¦£ à¦ªà¦¤
Ġà¦ī à¦Ĺà¦°
Ġà¦ĩ à¦¬à¦¤
à¦ĥ ]
Ġà¦ıà¦ķ à¦¡
Ġà¦ĸ à¦¯
à¦¬à¦° à¦ª
Ġà¦Ĩà¦® à¦¡
à¦Ĩ à¦«à¦¸
Ġà¦¬à¦² à¦°
à¦¬à¦¨ à¦¦
Ġ2 24
Ġ2 37
Ġà¦§ à¦ĩà¦°
à¦ľà¦¨ à¦¬
Ġà¦ıà¦ĩ à¦§à¦°à¦¨
Ġ20 04
Ġ: {
à¦°à¦® à¦¸
à¦ķà¦° à¦ª
Ġ- "
Ġ- ---
à¦¿à¦Ĥ "
Ġà¦®à¦¨ à¦Ĺà¦¡
à¦°à¦¬ à¦¦
Ġà¦Ĩà¦¨ à¦²à¦ķ
à¤ £
Ġà¦ķà¦¥ à¦¨
Ġà¦¬à¦¨ à¦¶
Ø§ Ø°
Ø§ Ø¶
à¦²à¦¤ à¦ķ
Ġà¦®à¦¤ à¦ª
Ġà¦ıà¦¸ à¦¸
ÙĬ Ø§Øª
à¦²à¦¬ à¦¯
à¦¤à¦ķ à¦ķ
à¦®à¦¦ à¦®
Ġà¦¦à¦² à¦Ĺà¦¤
Ùħ Ø¹
ĠØ§ÙĦ Ø®
Ġà¦ĩà¦¤ à¦¸
Ġà¦ħà¦ªà¦° à¦Ł
à¦¨à¦Ł à¦°
à¦¨à¦Ł à¦°à¦¡
Ġ4 15
à¦¼à§ģ à¦ĥ
à¦ªà¦¦ à¦ľà¦¨à¦ķ
ÙĪ Ø¹
"" ).(/
"" ){(
Ġà¦ĺà¦° à¦¬à¦¨
à§§à§¯ à§Ńà§¨
Ġà§¨à§ª à§¬
ĠØ¹ ÙħØ±
Ġ7 37
Ġà¦ĵà¦ªà¦° à¦ĵ
à¦Ĺà¦£ à¦ª
10 22
10 18
10 61
à¦ľà¦² à¦¦
à¦Ĩà¦ĩ à¦ıà¦¨
12 30
à¦ªà¦Ł à¦²
11 61
Ġà§§à§© à§§
à¦ķà¦® à¦²à¦¨à¦Ĺà¦°
Ġà§¨à§§ à§Ń
19 5
19 70
15 6
Ġ14 4
Ġ15 8
ÙĤ Ø±
Ġà¦¶à¦¹ à¦°à¦ķ
13 5
14 10
à¦ıà¦« à¦ĵ
16 6
à¦¿? "
28 5
@. ,
30 8
,: .,:.,:
à¦ĩà¦ª à¦Ĺ
26 9
"": "")+
Ùį Ùĳ
Ġà¦ĭà¦£ à¦¦
57 5
à¦ĸà¦¬à¦° à¦Ł
Ġ25 6
Ġ29 4
/, "");
48 88
-------- ----
à§©à§« à§¦à§¦
""=== ?"
à§ªà§« à§¬
à¶ º
Ġ$().( ),$().(
,= ..
à³ ģ
),( ),(),
à§©à§¬ à§¨
),=.( ""
"), =
.$ ).(
(. ===!
Ġ$().(' ',':
..$ .$
,:,: !
Ġà¦®à¦¸à¦² à¦ķ
$("# ----
.[ $]
.[] .
.[] .){
""== ?((),()):()&&
122 9
,"" )}
à¦¹à¦¯à¦°à¦¤ à¦ĵà¦¯
Ġ=( "",
%; ');
(.. ?'
(.. ===!
à¦Ĩà¦¹à¦® à¦¦
Ġ=().( "-"),=().("-"),=().(
Ġ=$( );
à¦ļà¦²à¦¨ à¦¬
),$().( ),.(""),.(""
..$: ""
})}} {
Ġà¦¶à¦°à§İ à¦ļà¦¨
(""===.. ?..+"//"+..:..)+"
]?"": ""===[
([$] ===[
[],= [],=
;>;++ )(""==
.,.,(){..() })}}{
///"+ (..===!
,_= /):
?"":"/-/"+ ..)+"
(.== ""){(
Ġ1647 9
>] +)
),.(""),( ,,
Ġ096 1244
"").(/ "/,
Ġ$().(),$().( ),$().(),.(""),.(""
),(),(), !
(""===..?..+"//"+..:..)+" ///"+(..===!
(.==""){( .().(":")){.(
Ġ0961244 4888
Ġ$().(),$().(),$().(),.(""),.("" ),.(""),(,,
" /
) "
/ )
/ [
4 46
7 26
7 02
_ à¥¤à¥¤
Ö °
â ĩ
å °
å į
å Ĳ
Ġ Ð¼
à¦¨ à¦ĺ
à¦¨ à¦§à¦°
à¦² à¦ļà¦°
à¦¬ à¦ĺ
à¦¬ à¦ĩà¦®
à¦¼ _
à¦® à¦®à¦¨
à¦® à¦Ĺà¦¨
Ġà¦ķ à¦ľà¦¨
Ġà¦ķ à¦ĩà¦¬
Ġà¦ª à¦¥à¦¨
à¦ª à¦²à¦ķ
à¦ª à¦¬à¦¯
Ġà¦® à¦ľà¦¨
à¦ĩ à¦Ļ
à¦ĩ à¦ļà¦Ł
à¦ĩ à¦¶à¦°
Ġà¦ı à¦ŀ
Ġà¦ı à¦ĺà¦Łà¦¨
Ġà¦¦ à¦®à¦¦à¦®
à¦¡ à¦ĩ
à¦¼à¦¾ /
à¦¼à¦¾ ;
Ġà¦¤ à¦®à¦²
Ġà¦ľ à¦ª
Ġà§ ±
à¦¥ à¦ķà¦Ń
à¦ĵ à¦¸à¦¹
Ġ( []
Ġà¦Ĺ à¦ļ
Ġà¦ĵ à¦Ŀ
Ġà¦ĵ à¦Ĩà¦ĩà¦¸
Ġà¦ī à¦¤à¦°
Ġà¦ıà¦ķ à¦Ŀ
à¦°à¦ķ à¦°à¦£
Ġà¦ħà¦¨ à¦Łà¦¨
à¦ı à¦®à¦¦
à¦ı à¦®à¦ķ
à¦Ĩ à¦ķà¦°
à¦Ĩ à¦®à¦²
Ġà¦¡ à¦¯
à¦°à¦£ à¦°
Ġà¦§ à¦¬
à¦ľà¦¨ à¦Ł
Ġà¦ıà¦ĩ à¦ľà¦¨
à¦¶à¦¨ à¦¸à¦¹
à§İ à¦¨
à¦°à¦¸ à¦ª
Ġà¦¸à¦¬ à¦§à¦°à¦¨
Ġ, ,,,,,
à¦¦à¦° à¦¦
Ġ" [
Ø§ ÙĬ
Ġà¦¬à¦Ľà¦° à¦Ł
à¦¼à§Ģ -
Ġà¦ĸà¦¬à¦° à¦¬
à¦®à¦¦ à¦Ńà¦Ĺà¦¬
ĠØ§ÙĦ Ø¬
ĠØ§ÙĦ Ø°
Ġ3 10
Ġ3 40
Ġ3 25
à¦ıà¦¨ à¦Ĩà¦ĩ
à¦°à¦² à¦Ń
Ġà¦ħà¦ª à¦¹à¦°à¦¨
Ġà§§à§¯ à§©
Ġà§§à§¯ à§¨à§¯
Ġà§§à§¯ à§ªà§¯
Ġà¦«à¦² à¦Ł
20 200908
Ġ{ "
Ġ4 20
Ġ4 90
Ġ) ?
à¦°à¦®à¦£ à¦Ń
Ġà¤ ¶
Ġà§§à§¨ à§Ńà§«
Ġ9 6
Ġà§§à§« à§¨
Ġ11 6
à¦Ńà¦¬ à¦ªà¦°
à¦ıà¦ķ à¦ķ
Ġà¦Ĩà¦¹ à¦¤à¦°
Ġ12 1
Ġ12 5
Ġ12 00
Ġà¦ķà¦¤ à¦ĩ
09 81
() :
Ġ13 6
à¦ªà¦¸ à¦Ł
Ġà§§à§© à§¯
18 8
ĠÙħ Ø±Ùĥ
15 03
à¦¶à¦Ĺ à¦¡
13 3
13 16
ĠÙģ ÙĤ
Ġ24 4
à§§à§¦ à§«
Ø¬ ÙĦ
à¦¥à¦² à¦ľ
à¦ªà¦² à¦Łà¦¨
à§§à§« à§§
,, ,){
Ġà§¨à§¯ à§§
25 1
à¸ §
à¦®à¦°à¦£ à¦¸à¦Ń
Ġ26 1
48 3
"," \
Ø§Ø ´
à¦ıà¦ĸà¦¨ à¦ĩ
Ġà¦¨à¦ľ à¦°à¦ķ
à¦ıà¦®à¦ıà¦¸ à¦ıà¦«
à§Ńà§Ń à§Ń
à¦¥à¦ª à¦°à¦¤
Ġà§§à§¯à§¬ à§Ń
Ġ.- ").(
à§§à§¨à§§ à§¨
ĠðŁĺ ī
Ġà¦®à¦Īà¦¨ à¦īà¦¦
Ð» Ñĸ
Ġ(- )
cs c
ĠÑĤ Ñĸ
à¦°Ã¦ à¦¤
................................................ ...............
ĠÙģÛĮ ÙĦÙħ
à§ªà§«à§¬ à§Ńà§®à§¯
ĠÙħØ±Ùĥ Ø²
ĠÑĤÑĸ Ð»Ñĸ
" ==
, ..()
9 00
Ú º
ã ĥ
à¦¾ ....
à¦¾ ",
à¦¿ à§ģ
à¦¨ à¦Ĩà¦¯
à¦ķ à¦¥à¦¨
à¦² à¦ªà¦¤
à¦¼ ]
à¦® à¦¹à¦®
à¦® à¦ļà¦°
à§ģ à§Ĥ
Ġà¦ķ à¦Łà¦ķ
Ġà¦¸ à¦°à¦¤
à¦¦ à¦®à¦ķ
à¦¦ à¦¬à¦ª
Ġà¦¬ à¦ļà¦¨
Ġà¦¬ à¦¹à¦®
Ġà¦¬ à¦°à¦ķà¦²
à¦Ł à¦²à¦®
Ġà¦® à¦Ł
à¦¶ à¦¬à¦ķ
Ġà¦¨ à¦ļ
Ġà¦ı à¦²à¦ķ
Ġà¦ı à¦²à¦¨
à¦¹ à¦¸à¦®
Ġà¦¹ à¦īà¦¨
Ġà¦¹ à¦Łà¦¸
à¦· à¦ĸ
Ġà¦¦ à¦²à¦¤
Ġà¦¦ à¦°à¦Ĺ
à¦¡ à¦ī
à¦¼à§ĩ à¦Ĥ
à¦¼à¦¾ (
à¦¼à¦¾ ),
Ġà¦ħ à¦¶à¦¨
Ġà¦¤ à§İà¦¸
Ġà¦¤ à¦ľà¦®
Ġà¦ľ à¦®à¦¤
Ġà¦ľ à¦¬à¦°à¦¦
à¦ĵ à¦ĸ
Ġà¦Ĺ à¦¨à¦¸
Ġà¦ĵ à¦ĩà¦Ł
Ġà¦ĵ à¦°à¦ķà¦®
Ġà¦ªà¦° à¦ª
Ġà¦ªà¦° à¦Ľ
Ġà¦ĸ à¦¤à¦¨
à¦¬à¦° à¦ļà¦¨
Ġà¦ħà¦¨ à¦¬à¦°à¦¤
à¦Ĩ à¦¸à¦®
Ġà¦¬à¦² à¦ª
à¦¬à¦¨ à¦¸
Ġ2 12
Ġ2 27
Ġ2 35
Ġ2 33
Ġ2 39
Ġ2 34
Ùİ -
à¦ªà¦° à¦¨
Ġà¦§ à¦¨à¦¬
Ġ20 7
Ġ20 9
à¦ĩà¦¨ à¦¶
à§ª à§ªà§©
Ġà¦īà¦ª à¦¶
ÙĦ Ùĥ
à¦°à¦¸ à¦«
à¦ĩà¦² à¦¶
à¦¦à¦° à¦Ł
à¦·à¦£ à¦ļ
Ġà¦¹à¦¤ à¦Ń
Ġ" ?
à¦¤à¦¨ à¦®
Ġà§© à§¨à§¬
à¤ «
à¦¸à¦¬ à¦Ĺ
à¦¬à¦² à¦¬
Ø§ Ø«
à¦ĩà¦ķ à¦¸à¦¹
Ġà¦ħà¦§ à¦¸
ÙĨ Ø³
ÙĨ Ùģ
Ġà¦ıà¦² à¦ĩà¦¡
Ġà¦ĸà¦¬à¦° à¦ĩ
Ġà¦ĸà¦¬à¦° à¦Ĺ
à¦¾- à§ĩ
Ùħ Ø©
Ġ+ +)
à¦ıà¦¸ à¦ıà¦¨
à¦ıà¦¸ à¦ıà¦²
ĠØ§ ÙĨ
Ġà§¬ à§«à§¦
Ġà§¬ à§ªà§¦
Ġ= []
à¦°à¦ª à¦¥
Ġà¦Ĩà¦¶ à¦Ĩà¦°
Ġ} */
Ġ3 29
Ġ3 35
Ġ3 70
Ġ3 61
Ø± ØŃÙħØ©
à¦°à¦Ń à¦ķ
à¦¹à¦² à¦¦
à¦¸à¦ķ à¦¨
Ġà¦Ĺà¦² à¦¦
20 15
à¦ıà¦ĩ à¦¡
Ġ4 13
Ġ4 40
Ġ4 48
Ġà¦ıà¦¨ à¦Ĩà¦°à¦¸
Ġà¦Ĺà¦£ à¦§
Øª Ø±
Ġà¦Ĳ à¦¸à¦¬
Ġà¦ªà¦¥ à¦ª
Ġà¤ ļ
Ø³ ÙĪÙĦ
Ġ9 90
à¦ıà¦® à¦ıà¦®
à¦ıà¦® à¦¡à¦¬
ĠÙĪ Ùħ
Ġà§§à§ª à§¯
10 6
Ġ12 6
à§¨à§§ à§«
à§¨à§§ à§¦à§Ń
Ġ13 4
Ġà§§à§Ń à§¯
Ġà§§à§Ń à§ª
Ġà§§à§Ń à§Ń
11 5
Ġà¦¸à¦ļ à¦°
Ġà§§à§© à§®
24 67
Ġà¦ıà¦¡ à¦ĵà¦¯
Ġà§¨à§§ à§«
ĠØ£ Ø¨ÙĬ
18 1
18 54
à§ĩ' -
Ġâ ī
Ġâ Ļ¦
Ġ14 5
Ġ15 00
à§§à§® à§¦
à§§à§® à§§à§¨à§®
à¦ıà¦« à¦¬
Ġ16 4
à¦ĩà¦ī à¦Ń
à§§à§¦ à§©
Ġà§¨à§¬ à§ª
à§§à§¨ à§©à§¨
30 2
ĠÙĦ Ø£
à² §
ĠÙĬ Ø¹
à¦ıà¦ĩà¦ļ à¦Ĩà¦°
26 0
=== ?"":
à¸ ļ
(){ (
à¦ĩà¦Ľ à¦²
Ġ27 0
Ġ27 4
à¥¤à¥¤ (.
Ġ29 0
Ġ29 1
Ġ29 6
Ġà¦¸à¦«à¦° à¦°à¦¤
33 33
ĠØ¥ ÙĦÙī
=.( );
&= //
à§ĭ? "
à§©à§« à§®à§®
59 2
ĠÙĥ ÙĦ
Ùĭ Ùĳ
à· Ķ
à§§à§¯à§¯ à§©
ĠÙ±ÙĦ Ø³
à¦Ĳ à¦¶
Ġà² ª
://..// %
ĠÌ Ī
à¦Łà¦ĵ à¦Ń
................................ ...............................................................
à§¨à§¦à§§à§« à§¨à§¦à§§à§¬
Ðµ Ð»
Ġcs i
ÙĩÙħ Ø§
à§¨à§¦à§§à§ª à§¨à§¦à§§à§«à§¨à§¦à§§à§¬
)}), $(".
à§®à§®à§¦à§¨à§¯ à§©à§«à§®à§®
à§®à§®à§¦à§¨à§® à§©à§«à§¦à§¦
à§®à§®à§¦à§¨à§¯à§©à§ªà§¬ à§ªà§ªà§®
à§®à§®à§¦à§¨à§¯à§©à§ªà§¬ à§©à§¬à§¨
à§®à§®à§¦à§¨à§®à§© à§¨à§§à§¦à§Ń
à§®à§®à§¦à§¨à§®à§© à§§à§®à§§à§¨à§®
8802550122 81
8802550122 86
Ġgs s
ç®Ģä½ĵä¸Ńæĸĩ ç¹ģé«Ķä¸Ńæĸĩ
Ġà¦¹à¦°à¦Ń à¦ľà¦¨
âĩ Ĵ
à§®à§®à§¦à§¨à§¯à§©à§«à§®à§® à§¬à§¨
à§®à§®à§¦à§¨à§®à§©à§«à§¦à§¦ à§§à§©
à§®à§®à§¦à§¨à§®à§©à§¨à§§à§¦à§Ń à§©
. "
1 10
2 30
6 35
7 42
9 52
9 82
^ à¦¾
º ï¸ı
Ì Ī
Û Ł
á ®
æ ī
à¦ Į
à¦¿ +
à¦¯ à¦Ľ
à¦¯ à¦ĵà¦¯
à¦¤ à¦ĸ
à¦² à¦¹à¦¤
à¦¬ à¦ķà¦Ł
à¦¬ à¦ľà¦¯
à¦® à¦®à¦¦
Ġà¦ķ à¦ĩà¦¯
à¦¦ à¦ļ
à¦¦ à¦°à¦®à¦¹à¦²
Ġà¦¬ à¦Łà¦®
Ġà¦¬ à¦¦à¦®
à§ĭ /
à¦Ł à¦®à¦°
à¦ª à¦¤à¦°
à§Ģ (
Ġà¦Ĩ à¦ªà¦¦
Ġà¦Ĩ à¦¹à¦¨
Ġà¦® à¦ķà¦¸
à¦Ĺ à¦ĺà¦¨
Ġà¦ı à¦ªà¦°
à¦¹ à¦Ĩà¦²à¦®
Ġà¦¦ à¦¬
à¦¼à§ĩ ;
à¦£ à¦¬à¦¯
Ġà¦Ĺ à¦¸à¦ª
Ġà¦ļ à¦ªà¦²
Ġà¦ĵ à¦ĩà¦¨
à¥ ĥ
à¥ ī
à¦« à¦ķà¦°
Ġà¦ĸ à¦Łà¦ķ
Ġà¦« à¦ķà¦¨
à¦¬à¦° à¦ļ
à§§ à§¨à§ª
Ġà¦Ĩà¦® à¦ľà¦¨à¦¤
à¦Ĩ à¦Ń
à¦Ĩ à¦Ĩ
à¦Ĩ à¦¨à¦ķ
Ġà¦¬à¦² à¦¨
Ġ2 14
Ġ2 28
Ġ2 67
Ġà¦¡ à¦Ĺà¦®
à¦ªà¦¨ à¦¸à¦¹
Ġà¦Ĩà¦° à¦¬à¦¦
Ġ20 5
Ġà§¨à§¦ à§ª
à¦ĩà¦¨ à¦¡
Ġà¦īà¦ª à¦²
Ġà¦īà¦ª à¦²à¦Ń
à§İ à¦ļ
Ġà¦®à¦¨ à¦¯
ĠØ ¶
Ġà¦Ĩà¦ªà¦¨ à¦ľà¦¨
à¦ĺ à¦°à¦Ł
à¦²à¦ķ à¦¨
à¦ħ à¦°à¦£
Ġ" ]
Ġà¦Ĩà¦¨ à¦ķ
Ġà¦Ĩà¦¨ à¦®
Ġà¦Ĩà¦¨ à¦ļ
à¦¤à¦¨ à¦Ł
à¤ ģ
Ġà¦®à¦¹ à¦°
à¦Ŀ à¦Ľ
à¦°à¦¨ à¦ķ
à¦°à¦¶ à¦¤
.( )}
Ġà¦¸à¦° à¦·
à¦ķà¦Ł à¦°
Ġà§ª à§¦à§¦à§¦
à¦¹à¦¤ à¦Ń
à¦Ĺà¦¤ à¦¦
à¦¨à¦¬ à¦Ĺ
-- .
ĠØ§ Øª
Ġ/ //
à¦¶à¦ķ à¦¶
Ġ3 21
Ġ3 15
Ġ3 99
Ġ3 45
Ġ3 54
Ġ3 94
Ġ3 91
à¦ıà¦¨ à¦ķ
à¦®à¦¸ à¦ķ
Ġà¦ĩà¦ī à¦Ń
Ġà§§à§¯ à§«à§¬
Ġà§§à§¯ à§«à§Ń
Ġà§§à§¯ à§©à§ª
à¦¨à¦ķ à¦¶
à¦¬à¦ª à¦¦
Ġà¦Ĺà¦² à¦«
20 10
20 59
Ġà¦ıà¦ķà¦ľà¦¨ à¦ĵ
Ġ{ -:
à¦ıà¦ĩ à¦ļà¦ķ
Ġ5 50
Ġà¦īà¦ªà¦° à¦ĵ
Ġ4 25
Ġ4 35
à§§à§¯ à§Ńà§®
à¦Łà¦° à¦Ĺ
à¦ĩà¦ľ à¦¦
Ġà¦īà§İ à¦ķà¦¨
Ġà¦Ĳ à¦Ł
à¦°à¦ľ à¦¯
à¦¨à¦ĵ à¦¦
Ġ7 60
Ġà¦Ĩà¦« à¦Ł
à¦ľà¦² à¦¢
12 1
à¦Ī à¦®à¦ķ
09 87
Ġ13 5
Ġà§§à§¬ à§¦à§¦
Ø§ÙĦ ÙĨ
Ġà§¨à§§ à§ª
Ġà¦Ĩà¦ĩ à¦°à¦¨
ØŃ ÙĦ
16 5
16 7
à¦¾! '
Ġà¦§à¦¨ à¦°à¦¤
Ġà¦§à¦¨ à¦ŀ
àª ¨
Ġà¦ıà¦ĩà¦ļ à¦Ĩà¦°
à§§à§§ à§ª
Ġà§¨à§¯ à§¬
à² ²
à§§à§¬ à§¦
à§§à§¬ à§¬
à§§à§ª à§¨à§ª
'. -').(
Ġà§ªà§¦ à§§
à¸ ª
à° °
Ġ30 3
Ġ30 8
à§®à§®à§¦ à§§à§Ń
Ġ27 5
Ġ27 9
Ġ25 3
Ġ25 4
Ġ25 8
ĠØª Ø±
ĠØ± ÙĪØ§
ĠØ± Ø³ÙĪÙĦ
Ġà¦Ĩà¦ĸ à¦īà¦¡
Ġà§©à§© à§Ń
Ġà¦¦à¦¶ à¦ľà¦¨
'- ');
'- '+
à§ªà§¦ à§ª
Ġà§¦à§§à§Ń à§§à§¨
66 2
à¶ Ĥ
200 7
ĠØ§ÙĦÙĨ Ø¨ÙĬ
Ġà¦Ŀà¦° à¦Ŀà¦°
Ġà§§à§¯à§¬ à§©
à¹ ģ
ĠâĿ ¶
ĠâĿ ·
ĠâĿ ¸
ĠâĿ ¹
ĠâĿ º
ĠâĿ »
ĠâĿ ¼
ĠâĿ ½
ĠâĿ ¾
ĠØ® ÙĦ
Ġ[] .
áĥ Ĳ
Ġà¦ĩà¦īà¦ıà¦¸ à¦ı
àµ ĭ
220 3
).().( ).(
ĠÛ ļ
Ġ=( ),=.(
":// ..//
áŁ Ĵ
Ġà§®à§©à§© à§¨à§¯
ĠÙĩØ° Ùĩ
à§¨à§¦à§§à§ªà§¨à§¦à§§à§«à§¨à§¦à§§à§¬ à§¨à§¦à§§à§Ńà§¨à§¦à§§à§®à§¨à§¦à§§à§¯à§¨à§¦à§¨à§¦à§¨à§¦à§¨à§§
' >.</>
. =
/ .?=
1 12
5 19
? )
[ ...]
[ /]
\ /\
³ Û¹
Û ²
Û ±Û
ä ¼
Ġ Ðº
à¦¨ n
à¦¨ à¦Łà¦¨
à¦¤ à¦ĺ
à¦¬ à¦¹à¦°
à¦® à¦Ĩ
à¦® à¦°à¦¹
à¦¸ à¦ħà¦°
Ġà¦ª à¦Łà¦ķ
à¦Ł à¦ķà¦²
à¦ª à¦¹
Ġà¦Ĩ à¦ķà¦²
Ġà¦® à¦¬
Ġà¦® à¦ĸà¦¦
à¦¶ à¦²à¦Ĺ
à¦ĩ à¦°à¦¯
à¦ĩ à¦¸à¦¨
à¦ĩ à¦¸à¦®à¦¯
Ġà¦ı à¦§à¦°à¦£
à¦¹ à¦ľà¦®
Ġà¦¹ à¦°à¦Ĺ
Ġà¦ħ à¦ĩà¦²
Ġà¦¤ à¦¬à¦²
à¦§ à¦¬à¦¨
à¦§ à¦®à¦¨
à¦ĸ à¦«
Ġà¦° à¦²
Ġà¦° à¦Łà¦¨
Ġà¦° à¦¥à¦¬
Ġà¦° à¦ĩà¦Ľ
Ġà¦¯ à¦¯
Ġà¦Ń à¦¡
Ġà¦ĵ à¦¤à¦ª
Ġà¦ī à¦°à¦«
Ġà¦ī à¦¶à¦°
Ġà¦ī à¦«à¦«
à¥¤ =
Ġà¦² à¦ĸà¦¨
Ġà¦² à¦¬à¦Ļ
à¦ī à¦£
à¦ł à¦¤à¦®
à¦°à¦ķ à¦¬
Ġà¦ħà¦¨ à¦Ĺ
à¦ı à¦ķà¦¸à¦Ļ
Ġà¦ľà¦¨ à¦¬à¦¸à¦¤
à¦Ĩ à¦¹à¦²
à¦Ĩ à¦ªà¦¦
Ġà¦¬à¦² à¦¦
Ġ2 22
Ġ2 11
Ġ2 18
Ġ2 13
Ġ2 23
Ġ2 38
Ġ2 31
.. ]
à¦ľà¦¨ à¦¸à¦¹
Ġà¦ıà¦ĩ à¦®
Ġ20 6
Ġ' -'
Ġ' /.?=
à¦¤à¦° à¦ĵ
à§ĩ, ,
à§© à§¬à§¦
à§© à§Ńà§§
Ġ. ").((){
à¦·à¦£ à¦¸à¦¹
à¦¸à¦® à¦¬
à¦¸à¦¬ à¦²
Ġà¦®à¦¹ à¦°à¦°à¦®
à¦®à¦¤ à¦Ń
à¦¨à¦¤ à¦¤à¦°
à¦¬à¦² à¦¯
Ġà§« à§®à§¦
Ġà§ª à§ªà§Ń
à¦Łà¦ķ à¦¹
à¦ªà¦ķ à¦¤
à¦¹à¦° à¦ĩ
Ġ() :
Ġà¦Ĩà¦ĩà¦¨ à¦ķ
Ġ= ;
Ġ= .("
Ġà¦ħà¦« à¦¸
à¦°à¦ª à¦Ł
Ġà§Ń à§§à§¦
Ġà§Ń à§«à§¦
Ġ3 11
Ġ3 27
Ġ3 46
Ġ3 44
Ġ3 49
Ġ3 31
Ġ3 39
Ġ3 88
Ġ3 32
Ġ3 43
Ġ3 58
Ġ3 78
Ġ3 90
Ġ3 92
Ġ3 63
Ġ3 97
Ġ3 84
Ġ3 98
Ġà¦Ŀ à¦Łà¦ªà¦Ł
à¦®à¦¸ à¦ļ
Ġà¦ħà¦ªà¦° à¦ľà¦¨
Ġà§§à§¯ à§¨à§®
Ġà§§à§¯ à§«à§¯
Ġ{ "":
Ġ5 30
Ġ5 33
Ġ4 38
à¦¼à§ģ -
Ġà¦ıà¦¨ à¦°
Ġà¦ıà¦¨ à¦Ĩà¦°à¦¬
ÙĪ Ø¬
à¦ĩà¦¡ à¦¸
à¦¯à¦¤ à¦¦
Ġ8 88
Ġ6 50
Ġ9 14
Ġ9 99
à¦²à¦Ĺ à¦£
à¦ıà¦® à¦Ĩà¦ĩà¦¡
à§ĩ? ?
à§ģ' ,
à¦ıà¦ķ à¦ĩà¦Ń
à¦ıà¦ķ à¦¸à¦®à¦¯
Ġ12 7
Ġà¦ıà¦® à¦Ń
Ġà¦ľà¦² à¦®à¦¯
Ġà¦ľà¦² à¦®à¦¹à¦²
09 99
09 95
09 86
09 93
09 97
09 89
à¦¤à¦² à¦¸à¦¹
à¦ľà¦¸ à¦ľ
Ġà§§à§® à§¨
Ġà§§à§® à§®
à¦¨à¦Ń à¦Ļ
Ġ19 61
Ġ19 71
", "");
Ø§ÙĦ ÙĬØ©
à¦¤à¦¤ à¦ªà¦ķ
19 73
Ġ! '
ĠÙħ ØŃÙħØ¯
15 5
Ġà¦Ĩà¦ĩ à¦īà¦¬
Ġ15 1
à§¨à§ª à§©
à§§à§® à§Ń
Ġ16 8
Ġ17 2
Ġ17 5
à¦ĩà¦ī à¦Ĩà¦ĩ
Ġà¦īà¦® à¦®à¦®
Ġà¦§à¦¨ à¦¸à¦®
Ġà§¨à§© à§®
Ġà§¨à§© à§Ń
Ùģ Ø±
Ġà§¨à§¯ à§¯
Ġà§¨à§¯ à§ª
à¦ıà¦ĩà¦ļ à¦¸
à§§à§ª à§¯
à¦ĩà¦ª à¦®
à§¨à§¨ à§¨à§¦
à´ ®à´²à´¯
à§ĩ... "
à¸ ķ
à¦Ĩà¦ĩà¦¨ à¦¶
'' ;
Ġ27 6
à¦¼? '
Ġ25 2
Ġ28 1
Ġ28 2
Ġ28 6
Ġ26 5
Ġ26 8
Ġ26 9
Ġà¦ļà¦°à¦® à¦Ń
Ø§ÙĨ ÙĬ
'+ ;
à¶ ļ
à¥ĭ à¤Ĥ
Ġà§©à§® à§¬
ä¸ Ģ
Ġ$ .({
]] >
Ġà¦Ĩà¦ĩà¦ıà¦¸ à¦ĵ
)] }
Ð¾ Ð»
Ġà¤ª à¤°
Ġ[] .,
Ġà¦ĸà¦¨à¦¨ à¦ķ
áŀ ĺ
áŀ ļ
áŀ Ł
âĺ ºï¸ı
à§ĥà§ĥ à§ĥ
à¦īà¦ªà¦ķ à¦°à¦£
Ġà§®à§§à§® à§¯
ĠØ¢ Ùħ
Ġà¤ħ à¤¶
Ð°Ñ ı
Ġà¦¸à¦¹à¦® à¦°
Ġ[[] ];
88017 11
å¤ §
à¸Ń à¸ĩ
Ð¾Ð² Ð°
ÐµÐ» Ð°
³Û¹ Û
" (
4 50
é ¦
Ġ Ê
à¦¾ ----
à§į !
à¦¨ à¦°à¦ķ
à¦¨ à¦ªà¦²
à¦¤ à¦§
à¦¤ à¦Ļ
à¦ķ à¦¤à¦ķ
à¦ķ à¦Ĺà¦£
à¦² à¦¹à¦ľ
à¦² à§±
à¦¼ '-
à¦® à¦¦à¦°
à¦® à¦®à¦°
à¦¸ à¦¬à¦¸à¦®à¦¯
Ġà¦¸ à¦ĩà¦«
Ġà¦¬ à¦ĩà¦¨
Ġà¦¬ à¦Ĺà¦²
Ġà¦¬ à¦īà¦®
Ġà¦ª à¦¸
à¦Ł à¦ªà¦¤
à¦Ł à¦¸à¦¨
à¦ª à¦Łà¦¨
Ġà¦Ĩ à¦ĩà¦¤
à¦ĩ à¦¸à¦®
à¦ĩ à¦®à¦²
à¦Ĺ à¦¨à¦ķ
Ġà¦¨ à¦²à¦ķ
à¦¡ à¦¸à¦®
à¦¼à¦¾ à¥¤
à¦¼à¦¾ ',
Ġà¦¤ à¦²à¦ª
à¦§ à¦ĸ
à¦ļ à¦¸à¦¹
à¦ĸ à¦¸à¦¹
à¦£ à¦Ĺà¦¤à¦®
Ġ( ...
Ġ( (){
Ġà¦Ĺ à¦ľà¦²
Ġà¦ĩ à¦°à¦®
Ġà¦ĩ à¦¹à¦ľ
Ġà¦ıà¦ķ à¦«
Ġà¦¸à¦® à¦®à¦¨
à¦ī à¦ıà¦«à¦ª
Ġà¦ĸ à¦²à¦¨
Ġà¦« à¦¸à¦ķ
à¦°à¦ķ à¦Ĺ
à¦ı à¦ıà¦¸
à¦ı à¦ıà¦¸à¦Ĩà¦ĩ
Ġà§¨ à§®à§¦
Ġà¦Ł à¦¨à¦ķ
Ġ2 99
Ġ2 36
à¦ľà¦¨ à¦Ĺ
Ġ20 4
à¦¤à¦° à¦Ń
Ġà§¨à§¦ à§Ń
à¦°à¦® à¦¦
à¦°à¦® à¦Ł
à¦ķà¦° à¦²
à¦ĸà¦¨ à¦¨
à§® à§§à§Ń
à¦īà¦¨ à¦ķ
à¦·à¦£ à¦ª
à¦ħ à¦¹
à¦ķà¦² à¦¸
Ġà¦Ĩà¦¨ à¦®à¦¨
Ġà§© à§§à§¨
Ġà§© à§¨à§«
à¤ ĵ
à¦¯à¦¬ à¦ļ
Ġà¦¬à¦¨ à¦§
à¦¯à¦® à¦Ł
Ġà§ª à§§à§§
Ġà§ª à§ªà§©
à¦¤à¦® à¦¯
Ġà¦ĸà¦¬à¦° à¦¦
-- /
à§¦à§¦ à§¬
Ġà¦ħà¦¤ à¦²
Ùĩ ÙĦ
à§İà¦¸ à¦Ļ
Ġà¦ªà¦¦ à¦ĵ
Ġ3 12
Ġ3 24
Ġ3 13
Ġ3 02
Ġ3 33
Ġ3 52
Ġ3 41
Ġ3 64
Ġ3 68
Ġ3 81
Ġ3 86
Ġ3 66
Ġ3 87
Ġ3 93
Ġ3 75
Ġ3 73
Ġ3 76
Ġà¦Ŀ à¦°à¦¨
à¦¾' !
Ġà§§à§¯ à§¦à§¦
Ġà§§à§¯ à§¨à§¬
Ġà§§à§¯ à§©à§Ń
à¦ķà¦¦ à¦²
à¦¸à¦ķ à¦Ĺ
20 7
20 12
Ġ5 59
Ġ5 87
Ġ4 10
Ġ4 28
Ġ4 29
Ġ4 30
Ġ4 46
Ġ4 45
Ġ4 41
Ġ4 06
Ġà¦ıà¦¨ à¦ıà¦¸
ÙĪ ØŃ
Ġà¦Ĺà¦£ à¦Ĺ
à§§à§¯ à§ªà§¬
à§§à§¯ à§¬à§ª
à§§à§¯ à§Ńà§ª
Ġ) )
à¦ĩà¦ľ à¦°
Ġà¦Ĳ à¦¨
Ġà¦ªà¦¥ à¦Ł
Ġ8 18
Ġà¤ ī
Ġ6 40
Ø³ Ø¨
Ġ9 88
Ġ9 95
à¦ıà¦® à¦ıà¦«
ĠÙĪ Øª
Ġ10 80
à¦Ĩà¦² à¦«
Ġà§§à§ª à§¨à§¦
Ø¹ Ùħ
Ø¹ Ø¯
à¦ıà¦ķ à¦¶à¦¤
à¦ıà¦ķ à¦ĩà¦¸à¦Ļ
Ġ12 82
Ġà¦ıà¦¸à¦¬ à¦ĩ
à¦¥à¦¬ à¦¹
à¦ľà¦¸ à¦Ń
Ġ13 3
Ġà§§à§¬ à§®
Ġ19 1
24 8
19 4
Ġ14 3
Ġ15 9
13 9
Ġ16 28
Ġ17 6
Ġ24 5
Ġ24 8
à§§à§¦ à§®
Ġà¦ĭ à¦·à¦Ń
Ġà§¨à§¨ à§¯
à¦°à¦ķà¦® à¦ĩ
27 4
à§ĩ! '
Ġà§¨à§¯ à§«
,: "",:"",:
Ġà¦ľà¦¨à¦Ĺà¦£ à¦ĩ
40 2
Ġà¦°à¦ķà¦® à¦ĩ
à§§à§¬ à§®
26 1
26 4
âĸº âĸº
à¦Ĩà¦ĩà¦¨ à¦ľ
à¦Łà¦¤ à¦ĩ
Ġ30 5
Ġ27 1
Ġ27 2
Ġ@ _
Ġ@ ..
Ġ26 4
){ =
Ġà§¬à§¦ à§©
Ġà¦Ĩà¦ĩà¦¡ à¦²
Ø§Ø º
Ġ50 8
Ġà¦Ĩà¦¬à¦¹ à¦®à¦¨
Ġà® ħ
Ġà® Ĩ
Ù° Ùĵ
Ġà¦«à¦¤ à¦ĵà¦¯
,= !
Ġà¦¤à¦°à¦« à¦¦
à§§à§¯à§¯ à§§
à§©à§¯ à§ª
ÙĬØ± Ø©
Ġà¤ķ à¤°
Ġà§ªà§Ń à§¦
Ġà§§à§¯à§¬ à§®
ä¸ Ĭ
Ġà¦¬à¦¶ à¦¬à¦°
://..// /
à¹ Į
Ġà´ µ
áŀ ģ
Ġ.@. ,
Ġà¦ıà¦ķà¦¨ à¦ľà¦°
à§¦à§§à§Ń à§§à§ª
Ġà¦ħà¦Ĺà¦£ à¦¤
ÑĢÑĥ ÑģÐº
ä» ¬
äº Ĩ
áŁ Ĥ
Ġ$("#_ ").(
Ġ$("#_ ").();
ĠØ§ÙĦØ¢ ÙĬØ§Øª
Ġà§¦à§¨à§¨à§¨à§©à§©à§«à§¯ à§ªà§¦à§ª
Ġà§¦à§¨à§¨à§¨à§©à§©à§«à§¯ à§©à§¯à§ª
à¦Ķ à¦·à¦§
âľ ħ
ĠÛ±Û ³Û¹Û
Ġà¦ıà¦«à¦ı à¦ĵà¦°
ĠÐ¼ Ð¾Ð²Ð°
Ġà¦¹à¦°à¦Ĺ à¦Ļ
âĺºï¸ı âĺºï¸ı
# #
' )[
) /
* :
+ =(
- //
. >
3 42
5 99
7 10
> )
? []
i o
£ áĥ
¥ áĥĲ
¾ Ú
æ ¸
Ĺ áĥ
ļ áĥ
Ŀ à¤µ
ł áĥ
à§ĩ ",
à¦¨ à¦¸à¦ª
à¦¯ à¦¤à¦¬
à¦ķ à¦°à¦¤
à¦ķ à¦ļà¦ķ
à¦ķ à¦°à¦ķà¦®
à¦² à¦ļà¦¨
à¦¬ à¦Ĺà¦£
à¦® à¦ªà¦ķ
à¦® à¦®à¦¯
à¦¸ à¦Ĩà¦ª
Ġà¦ķ à¦²à¦¤
à¦¦ à¦°à¦¸
à¦¦ à¦²à¦ķ
à¦¦ à¦²à¦¨
Ġà¦ª à¦Łà¦¨
à¦Ł à¦²à¦ķ
à¦Ł à¦¤à¦®
à¦ª à¦§
à¦ª à¦Ľà¦¨
Ġà¦® à¦°à¦Ĺ
Ġà¦® à¦¸à¦¨à¦¦
à¦¶ à¦¬à¦°
à¦¶ à¦ĵà¦¯
à¦Ĺ à¦Ĩ
à¦Ĺ à¦¤à¦°
à¦Ĺ à¦¬à¦¸
Ġà¦¨ à¦ĵà¦°
à¦¹ à¦ĸ
Ġà¦¹ à¦Łà¦¨
Ġà¦¹ à¦Łà¦¤
à¦Ľ à¦ªà¦Ł
à¦Ľ à¦Ńà¦°
Ġà¦ķà¦° à¦¸
Ġà¦ħ à¦®à¦¤
Ġà¦¤ à¦°à¦¤
Ġà¦¤ à¦¹à¦®
Ġà¦ľ à¦®à¦ķ
à¦¥ à¦¯
Ġà¦° à¦¨à¦ľ
Ġà¦° à¦Ĺà¦ķ
à¦Ń à¦¬à¦ķ
à¦£ à¦®à¦¤
à¦ĵ à¦ł
à¦ĵ à¦°à¦Ĺ
Ġ( *)
Ġà¦ļ à¦¹
Ġà¦ĵ à¦¶
Ġà¦ī à¦¥
Ġà¦ĩ à¦°à¦¬
Ġà¦ĸ à¦¬
Ġà¦Ĩà¦® à¦ª
Ġà§¨ à§¨à§¦
Ġà¦ľà¦¨ à¦°à¦¬
à¦Ĩ à¦¶à¦°
à¦¬à¦¨ à¦ĩ
Ġ2 32
Ġà¦¡ à¦°à¦®
à¦°à¦£ à¦®
à¦°à¦£ à¦ĩ
Ġà¦ıà¦ĩ à¦ļà¦Ł
à¦¬à¦¸ à¦¬
à§Į ,
à§¯ à§§à§®
à¦¿à¦Ĥ /
à§İ à¦§
à¦¾, '
Ġ. {
Ġà¦īà¦¦ à¦°
à¦ĩà¦² à¦¨
Ġ" (
Ġ" ).
Ġ" ).((){
... "
à¦¬à¦² à¦¶
Ġà¦Ĩà¦Ľ à¦®
à¦ĩà¦Ł à¦°
.( {:
à¦¯à¦® à¦£
Ġà¦®à¦¤ à¦Ń
Ġà§ª à§¨à§¦
Ġà¦ıà¦¸ à¦ĩà¦īà¦Ń
à¦¤à¦® à¦ŀ
ÙĨ Ø²
Ġà¦ıà¦² à¦ı
Ġà¦ıà¦² à¦ıà¦¸à¦¡
à¦²à¦¬ à¦¦à¦²
Ġà¦°à¦¯ à¦Ń
à¦·à¦ķ à¦®à¦¨
à¦·à¦ķ à¦¸à¦¹
Ġà¦¸à¦¨ à¦®
à§¦à§¦ à§¯
à§¦à§¦ à§§à§§
Ġà¦ħà¦¸ à¦Ń
Ġ/ ///
Ġ= ..
Ġà¦Ĩà¦¯ à¦°
Ġ3 22
Ġ3 09
Ġ3 19
Ġ3 18
Ġ3 57
Ġ3 36
Ġ3 37
Ġ3 48
Ġ3 38
Ġ3 55
Ġ3 42
Ġ3 79
Ġ3 51
Ġ3 72
Ġ3 53
Ġ3 95
Ġ3 82
Ġ3 96
Ġ3 85
Ġ3 83
).( ""
Ġà¦Ŀ à¦Łà¦ķ
Ġà§§à§¯ à§©à§«
Ġà§§à§¯ à§«à§®
Ġà§§à§¯ à§ªà§ª
à¦°à¦Ń à¦Ļ
à¦Ĺà¦² à¦®à¦¹
Ġà¦°à¦ķ à¦¸
Ġà¦Ĺà¦² à¦ª
20 1
Ġ... "
Ġ5 20
Ġ5 10
Ġ5 12
Ġ5 40
Ġ5 02
Ġ5 60
Ġ5 41
Ġ4 12
Ġ4 24
Ġ4 19
Ġ4 16
Ġ4 23
Ġ4 36
Ġ4 31
Ġ4 39
Ġ4 55
Ġ4 60
Ġ4 42
Ġ4 79
Ġ4 68
Ġ4 05
Ġ4 86
Ġ4 04
Ġà¦¶à¦¤ à¦¤à¦®
Ø¨ ÙĪ
ÙĪ Ø¡
ÙĪ Ø§Ø¦
à¦ĸà¦² à¦®
Ġà¦ĵà¦ĩ à¦ĸ
à§§à§¯ à§Ńà§©
à¦ĩà¦ľ à¦²
à¦ĩà¦ľ à¦Ń
à¦ķà¦¨ à¦ľ
Ġà¦Ĳ à¦¦
Ġ8 20
Ġ8 97
Ġà¤ ¤
Ġ6 55
Ġ6 86
à¦¬à¦¦ à¦Ĺ
à¦°à¦ľ à¦²
à¦°à¦ľ à¦¬
Ġ9 11
Ġ9 80
Ġ9 30
Ġ9 44
à¦¨à¦ĵ à¦Ł
Ġ7 87
Ġ7 89
à¦Ĩà¦² à¦®à¦¡
à¦Ĺà¦£ à¦¤
Ø¹ Ø¨
Ġ.( "");
Ġà¦Ĩà¦« à¦«
à¦łà¦ķ à¦ĵ
Ġi c
Ġà§§à§® à§¯
21 8
Ġà¦®à¦° à¦Ľ
à¦ļà¦ķ à¦ķ
à¦²à¦® à¦£
à¦¯à¦° à¦ŀ
Ġà§©à§¦ à§¯
Ġ19 4
Ġ19 99
Ġ19 97
Ġ19 91
24 109
Ġ? ??
Ġà¦ıà¦¡ à¦Ĺ
Ø§ÙĦ Ø³
Ġs s
ĠØ£ ÙĪ
Ġ18 7
Ġ14 7
Ġ14 8
à§§à§Ń à§«
Ġ// ]]>
17 7
à¦ıà¦« à¦Ĩà¦ĩ
à¦ıà¦« à¦ıà¦²
Ġ16 7
à¦¶à¦² à¦Ł
Ġ17 9
Ġ24 6
à§§à§¦ à§¬
Ġc g
).(); .(
Ġ'' '
Ġà§¨à§¨ à§©
Ġà§¨à§¨ à§®à§¬
Ġà§¨à§¬ à§¯
Ġu o
âĸ ²
à§§à§« à§¦
40 4
à§§à§¬ à§¨à§¬à§©
Ġà¦ĸà¦°à¦ļ à¦ĵ
23 7
Ġà§ªà§¦ à§¯
)} )}),
Ġà¦īà§İà¦¸à¦¬ à¦Ł
50 15
Ġ30 7
'' ];
Ġ27 3
à¦¼? "
Ġ25 1
Ġ25 9
Ġ29 2
Ġ29 7
Ġ29 8
44 4
44 200
Ġ28 3
Ġ28 4
Ġ28 8
Ġ28 9
Ġ26 3
ðŁ ¤
Ġ:// .//
à§¯à§¬ à§ª
Ġà¦Ĭ à¦ªà¦¦
Ġà¦Ķ à¦·
..( "
Ġ50 1
Ġ50 5
Ġ50 7
): (
à§©à§© à§¨à§¨à§¨
Ġà§¦à§§à§Ń à§¨à§«à§®
à· Ļ
Ġii s
à§§à§¯à§¯ à§«
à§©à§Ń à§¦à§¦à§¦à§¦
à§«à§ª à§ª
Ġà¦ħà¦¹ à¦Ļ
Ġà§®à§« à§¦à§¦
Ġà¦¸à§İ à¦ķà¦°
Ġà§¦à§§à§¯ à§ªà§ªà§©
Ġà§¦à§§à§¯ à§©à§Ńà§§
Ġà§¦à§§à§¯ à§©à§Ńà§¦à§¦à§¦à§¦
Ġ09 81
880 24109
à§Ńà§¬ à§¯à§¬à§ª
à¦ıà¦®à¦ĩ à¦ıà¦°
().( ).(
Ġou u
Ġig c
\/ (
áĥ ¥áĥĲ
áĥ łáĥ
;} (
Ġà¦¨à¦ĸ à¦¦à¦°
Ġà§¦à§§à§® à§ª
à¦¸à¦«à¦Ł à¦ĵà¦¯
àµ Ģ
à§¬à§¯ à§¨à§¨à§¨à§¦
Ġà§¦à§§à§ªà§¦à§§à§§à§®à§ªà§«à§« à§§
Ġà§¦à§§à§ªà§¦à§§à§§à§®à§ªà§«à§« à§¯
Ġà§¦à§§à§ªà§¦à§§à§§à§®à§ªà§«à§« à§ª
Ġà§¦à§§à§ªà§¦à§§à§§à§®à§ªà§«à§« à§«
Ġà§¦à§§à§ªà§¦à§§à§§à§®à§ªà§«à§« à§¬
Ù±ÙĦ ÙĦ
à¦¸à¦ķà¦¦ à¦²
à·Ĵ à¶Ĥ
Ġà¦ķà¦¨à¦ķ à¦¨
Ġ://... ///
159 44200
)]( );
Ġog u
-------------------------------- --------------------------------
Ġà¦¦à¦²à¦¬ à¦¦
88017 15944200
Ġ.('__ ')[
Ġuus io
Ġos i
116 094
Ġuc uc
Ġà§¦à§§à§¯à§¨à§Ńà§Ńà§§à§§à§Ń à§®à§ª
Ġà§¦à§§à§¯à§¨à§Ńà§Ńà§§à§§à§Ń à§®à§«
Ġà§¦à§§à§ªà§¦à§§à§§à§®à§ªà§« à§¬à§¦
Ġà§¦à§§à§ªà§¦à§§à§§à§®à§ªà§« à§¬à§®
Ġà¦ıà¦¤à¦¬ à¦¡
Ø±ÙĤ Ùħ
à²°à² ¬
à§¦à§§à§Ńà§§à§¨ à§¬à§¯à§¨à§¨à§¨à§¦
"/ "==
Ġâī £
\/\ /\
8801711 116094
ÐµÐ»Ð° ÑĢÑĥÑģÐº
£áĥ ļáĥ
Ĺáĥ £áĥļáĥ
à¦Ĺà¦²à¦®à¦¹ à¦²à¦ķ
Ġà§¦à§§à§Ńà§¨à§«à§® à§Ńà§¬à§¯à§¬à§ª
Ġà§¦à§§à§¯à§ªà§ªà§© à§©à§©à§¨à§¨à§¨
Ġà§¦à§§à§¯à§©à§Ńà§§ à§¦à§¦à§§à§§
Ġà§¦à§§à§¯à§©à§Ńà§¦à§¦à§¦à§¦ à§§à§§
88024109 5015
áĥ¥áĥĲ áĥłáĥ
ÐµÐ»Ð°ÑĢÑĥÑģÐº Ð°Ñı
Ĺáĥ£áĥļáĥ ĺ
áĥ¥áĥĲáĥłáĥ Ĺáĥ£áĥļáĥĺ
, (){
/ (
/ ^
/ _
0 18
3 26
3 48
< \
\ -
] +
_ )
{ };
¡ Õ
¢ ĵ
¥ àº²àº
Õ ¡Õ
Û ¦
Ġ \"
Ġ ÑĢÑĥÑģÑģÐºÐ¸Ð¹
ĥ ½
Ġà¦ Ĥ
à¦¿ --
à¦¤ à¦¸à¦°
à¦¤ à¦ľà¦¨à¦ķ
à¦ķ à¦¤à¦®
à¦ķ à¦¨à¦ķ
à¦® à¦ľà¦®
à¦¸ à¦¯à¦¨
Ġà¦¸ à¦ľà¦¨
Ġà¦¬ à¦¸à¦°
Ġà¦ª à¦®
Ġà¦Ĩ à¦ľà¦¨
Ġà¦Ĩ à¦ĵà¦°
Ġà¦Ĩ à¦ĵà¦¨
Ġà¦® à¦ª
Ġà¦® à¦°à¦¬
à¦ľ à¦ļ
à¦ľ à¦¬à¦¨
à¦ľ à¦ĺ
à¦¶ à¦ªà¦°
à¦ĩ à¦®à¦¤
à¦ĩ à¦ķà¦Ł
à¦ĩ à¦ªà¦ķ
à¦Ĺ à§İ
à¦Ĺ à¦¤à¦¬
à¦Ĺ à¦°à¦ķà¦¨
à¦¹ à¦·
Ġà¦¹ à¦¡
à¦· à¦¬à¦°à¦£
Ġà¦ħ à¦Ĺà¦¤
à¦§ à¦ķà¦²
à¦¥ à¦²à¦Ń
à¦ĸ à¦ĩ
à¦ĸ à¦²à¦¨
Ġà¦° à¦¸à¦¨
à¦Ń à¦¡
à¦£ à¦ªà¦£
Ġà¦¶ à¦®à¦¶
Ġà¦ļ à¦°à¦ª
Ġà¦ĵ à¦¤
Ġà¦ĵ à¦²à¦Ł
Ġà¦ĵ à¦¹à¦¹
à§¦ à§§à§¯
à¥¤ (
à¥¤ .
Ġà¦ĩ à¦¨à¦¤
à§Ĥ ,
à§Ĥ à§į
à¦ĥ +
Ġà¦ıà¦ķ à¦¶à¦¤
à¦ī à¦Ń
à¦ī à¦ł
à¦ī à¦ĩà¦°
à¦¬à¦° à¦«
à¦ı à¦ķà¦²
à¦Ĩ à¦ł
à¦Ĩ à¦ĸà¦¤
à¦Ĩ à¦¦à¦®
Ġà¦¬à¦² à¦¶
Ġà¦¡ à¦¬à¦²
à¦°à¦£ à¦¸à¦¹
à¦ªà¦¨ à¦Ĺ
Ġà¦Ĩà¦° à¦Ĩà¦°
Ġà¦§ à¦¬à¦²
Ġà¦ıà¦ĩ à¦¤
Ġ20 3
Ġ20 03
à¦°à¦® à¦ĵ
à¦ķà¦° à¦°
à§Ī à¦ĥ
à§İ à¦®
à¦ĩà¦² à¦°
à¦²à¦ķ à¦®
Ġ, ,,,,,,,,
Ġà¦ķà¦® à¦²à¦ķ
à¦²à¦¨ à¦ķà¦¶
à¦·à¦£ à¦Ł
à¦·à¦£ à¦§à¦°
à¦¸à¦® à¦®
Ġ" *
à¦¤à¦¨ à¦ĩà¦¤
à¦Łà¦¨ à¦Ł
à¤ Ľ
à¦ĩà¦Ł à¦ķ
Ġà¦Ĩà¦ľ à¦Ĺ
Ġà§ª à§¬à§¦
Ġà¦ıà¦¸ à¦ı
à¦¯à¦¨ à¦Ĺà¦°
à¦·à¦ķ à¦Ĺà¦£
à¦¤à¦ķ à¦£
Ġà§¬ à§¨à§©
Ġ= [
Ġ3 17
Ġ3 14
Ġ3 28
Ġ3 23
Ġ3 67
Ġ3 47
Ġ3 34
Ġ3 59
Ġ3 69
Ġ3 77
Ġ3 71
Ġ3 62
Ġ3 74
Ġ3 89
à¦¨à¦¨ à¦Ĺà¦°
Ġà¦Ŀ à¦¨
Ø± Ø¶
Ø± ÙĪÙĨ
Ġà§® à§«à§¦
Ġà§¯ à§«à§¬
Ġà§§à§¯ à§ªà§§
Ġà§¦ à§¨à§¦
Ġà§¦ à§§à§©
à¦ıà¦° à¦Ĩà¦Ĺ
Ġ... ,
Ġ5 26
Ġ5 67
Ġ5 49
Ġ5 55
Ġ4 22
Ġ4 09
Ġ4 18
Ġ4 14
Ġ4 67
Ġ4 37
Ġ4 49
Ġ4 32
Ġ4 43
Ġ4 07
Ġ4 77
Ġ4 01
Ġ4 08
Ġ4 66
Ġ4 87
Ġà¦Ĺà¦£ à¦¹
à¦Ľà¦¨ à¦Ľ
à§§à§¯ à§ªà§Ń
Ġà§¨à§ª à§«
Ġà¦īà§İ à¦°
Ġà¦ªà¦¥ à¦¶
à¦°à¦Ĺ à¦¨
Ġ8 09
Ġ8 50
Ġ8 70
Ġ8 58
Ġ6 10
Ġ6 29
Ġ6 67
Ġ6 60
Ġ6 52
à¦īà¦Ł à¦¸
Ġ9 43
à¦ĩà¦« à¦Ł
ĠÙĪ ÙĤ
Ġ10 95
à§ĭ, ,
Ġ7 12
Ġ7 80
Ġ7 40
Ġ7 50
Ġ7 77
Ġ11 33
à¦Ĺà¦£ à¦¨
Ġà¦ıà¦® à¦«
Ġà¦ıà¦® à¦ıà¦²
Ġ13 14
Ġà§§à§¬ à§¨
Ġà§§à§® à§§
Ġà§§à§® à§¬
21 3
21 4
à¦¯à¦° à¦ļà¦¨
à® µ
Ġ19 2
Ġ19 88
Ġ19 69
Ġ19 90
Ø§ÙĦ Øµ
18 9
Ġ! ==
Ġ18 8
Ġ14 1
Ġà¦ĩà¦¸ à¦¤
à¦ĩà¦¦ à¦Ĺ
à¦ıà¦« à¦ıà¦«
Ġ16 2
Ġ16 222
Ġ17 4
à¦¦à¦¶ à¦Ł
Ġ24 9
àª ª
Ġà§¨à§® à§¬
à§§à§¨ à§¨
', '
âĸ ¬
29 8
à¦īà¦° à¦ĵà¦¯
à§§à§§ à§¬
ĠÙĦ ÙĦ
à¦Īà¦¦ à¦Ĺ
à´ ¸
35 5
à¦Ĩà¦ĩà¦¨ à¦¸
Ġà¦°à¦Ļ à¦Ł
").( )}
à° Ĥ
à§¨à§« à§«
Ġ30 6
à¦®à¦¡ à¦®
à¥¤à¥¤ .
Ġ29 5
:// .../
Ġ28 5
Ġ28 7
Ġ@ .)
Ġ26 2
Ġ26 6
ĠØ¥ ÙĦØ§
=.( {}
à§¨à§Ń à§©
Ġà¦¦à¦¶à¦ķ à¦¸
-------- -
ĠØ³ Ø¨
Ġà¦ıà¦« à¦ıà¦®
Ġà¦Ķ à¦¦
ĠÙĥ Øª
Ġà® ®
Ġà§¦à§§à§Ń à§§à§®
à· ļ
Ø¥ ÙĨ
/- .
à¦ıà¦°à¦ªà¦° à¦ĩ
Ġà§§à§¨à§¦ à§«
à¦ıà¦¸à¦ĩ à¦ıà¦ķ
Ġà§¦à§§à§¯ à§Ń
Ġ120 5
Ġà¦°à¦ĵ à¦¨à¦ķ
Ġà´ ¸
Ġ$("# ").(
à§§à§¨à§¦ à§«
à§§à§¨à§¦ à§®
áŀ Ĺ
Ġà§¦à§§à§® à§§à§¯
Ġâĸ ²
à¦¨à¦¬à¦¸ à¦Ń
???? ????
à¦ıà¦ķà¦¨ à¦ľà¦°
[^ >]*
/-- .
Ġà¦¦à¦ĸ à¦²à¦ķ
à·Ħ à¶½
Ġà¦Ńà¦°à¦£ à¦ª
à¦¡à¦ī à¦ĩà¦ļ
ĠØ±ÙĪØ§ Ø¯
<\ [^>]*
¥àº²àº §
=.({} ,,
<\[^>]* >
! (){
! &&
" ):
" /"+
" ),(".").(
# \
$ "
& )
& \"
& \?
& -="+
( ""===
( (.
) ...
) &&
) ),=(
+ .
+ >
, ..
, =.("
. ,,
. ")}
. ?..+"//"+..:
6 57
6 281
: ,:
= ",
= ""===[
= {:"",:
> &&(=
? ([^
\ ??
\ ?(
] :(
] .("
] ?"":"
] .&&(=
_ à¥¤
} {
} ).().(
Ã ·
å ¹
î ¢ĵ
Ġ d
Ġ \\
ĩ Ð°
ļ Øª
à¦° à¦°à¦ķ
à§į à§į
à¦¨ à¦¨à¦¬
à¦¯ à¦¸à¦¬
à¦¯ à¦ļà¦°
à¦¤ à¦ļà¦ķ
à¦ķ ØµÙĦÙī
à¦ķ à¦ĩà¦¨à¦«
à¦® à§İ
à¦® à¦Ŀ
à§ģ .(
à§ģ *:
Ġà¦¸ à¦¸à¦®
à¦¦ à¦ªà¦°à¦¬à¦°
Ġà¦ª à¦¸à¦°
Ġà¦ª à¦łà¦¨
Ġà¦ª à¦ĩà¦¡
à¦Ł à¦§
à¦Ł à¦¸à¦ķ
à¦ª à¦Ŀ
à¦ª à¦¸à¦¨
Ġà¦Ĩ à¦Ľà¦°
Ġà¦Ĩ à¦¹à¦°
Ġà¦Ĩ à¦ĸà¦°
Ġà¦Ĩ à¦£à¦¬
à¦¶ à¦¡
à¦ĩ à¦ļà¦ķ
à¦ĩ à¦°à¦ķà¦®
à¦ĩ à¦Ĩà¦¤
Ġà¦¨ à¦ľà¦¦
Ġà¦ı à¦Ĺà¦°
Ġà¦ı à¦ªà¦¸
à¦· à¦¬à¦°
à¦· à§İ
à¦¡ à¦ķà¦Ń
Ġà¦ķà¦° à¦ľ
à¦¼à¦¾ à¦ģ
Ġà¦ħ à¦¹à¦®
Ġà¦ħ à¦ĩà¦¯
Ġà¦ħ à¦¹à¦°
Ġà¦¤ à¦ªà¦¤
Ġà¦¤ à¦²à¦ķ
Ġà¦¤ à¦²à¦¸
Ġà¦¤ à¦Ľà¦¨à¦Ľ
à¦§ à¦²à¦ķ
à¦ļ à¦°à¦ķ
à¦ļ à¦°à¦¨
à¦ļ à¦¢
à¦ĸ à¦²à¦¤
à¦Ń à¦ĵ
Ġà¦¶ à¦¤à¦°
Ġ( ...)
Ġà¦Ĺ à¦¨à¦ľ
Ġà¦ĩ à¦ĸà¦²
Ġà¦ĩ à¦¹à¦¸
Ġà¦ĩ à¦«à¦«
Ġà¦ĩ à¦¸à¦ķà¦¨
Ġà¦ªà¦° à¦·
Ġà¦ıà¦ķ à¦ĺà¦°
à¦ī à¦ī
à¦ī à¦ıà¦®à¦ıà¦ĩà¦ļ
Ġà¦« à¦°à¦¸
à¦°à¦¤ à¦¸à¦¹
à¦¬à¦° à¦²
à§§ à§§à§®
à§§ à§§à§¨
à¦ı à¦ıà¦¸à¦ıà¦®
Ġà¦Ł à¦ķà¦Łà¦ķ
à¦Ĩ à¦īà¦¨
.. ){
.. =(,,){
Ġà¦Ĩà¦° à¦ª
Ġà¦Ĩà¦° à¦Ń
Ġà¦§ à¦®
Ġà¦§ à¦¨à¦¤
Ġà¦§ à¦¨à¦Ł
Ġ20 06
Ġ20 05
Ġ' ++
à¦°à¦¹ à¦®
à§¯ à§«à§¬
Ġà¦īà¦ª à¦§
à§Ń à§«à§¦
Ġ. ")
à¦ĺ à¦¸à¦®à¦¯
à¦²à¦ķ à¦§
à¦²à¦ķ à¦®à¦²
à¦·à¦£ à¦¬
à¦ħ à¦ªà¦®
Ġ" ++
Ġ" )[
à¦¤à¦¨ à¦ĵ
à¦¸à¦¬ à¦ĩ
Ġà¦¬à¦° à¦¨
à¦¬à¦² à¦¦
à¦°à¦¨ à¦¯
à¦¯à¦ķ à¦¨
à¦¯à¦ķ à¦¤
à¦¯à¦ķ à¦°à¦£
Ġà¦¸à¦° à¦²à¦¤
Ġà¦Ĩà¦ľ à¦°
Ġà¦Ĩà¦ľ à¦®à¦¤
); &&
Ġà§ª à§§à§ª
Ġà§ª à§ªà§¬
Ġà§ª à§¬à§§
Ġà¦Ĩà¦ķ à¦®à¦²
Ġà¦ıà¦¸ à¦ıà¦®à¦ª
Ġà¦ıà¦¸ à¦ıà¦¸à¦ķ
à¦ªà¦ķ à¦¬
à¦·à¦ķ à¦ĩ
Ġà¦¸à¦¨ à§İà¦ķ
Ġà§¬ à§©à§¬
Ġ= ,=
Ġ= (.
Ġ= $().(
Ġ= .;
à¦°à¦ª à¦ļ
à¦¨à¦®à¦¨ à¦¸
), $(".
à¦ķà¦¬ à¦Ľà¦°
).( '
).( .()
).( ".-
à¦ıà¦¨ à¦ĩà¦ī
Ø± Ø¯
à¦ļà¦² à¦Ľ
Ġà§¯ à§«à§«
Ġà§§à§¯ à§ªà§¬
à¦Ĺà¦² à¦ª
à¦¨à¦Ł à¦ĺ
Ġ5 09
Ġ5 11
Ġ5 14
Ġ5 16
Ġ5 28
Ġ5 80
Ġ5 27
Ġ5 99
Ġ5 70
Ġ5 45
Ġ5 39
Ġ5 64
Ġ4 21
Ġ4 11
Ġ4 17
Ġ4 27
Ġ4 99
Ġ4 26
Ġ4 02
Ġ4 44
Ġ4 33
Ġ4 47
Ġ4 34
Ġ4 54
Ġ4 69
Ġ4 64
Ġ4 65
Ġ4 81
Ġ4 03
Ġ4 51
Ġ4 95
Ġ4 63
Ġ4 82
Ġ4 71
Ġ4 93
Ġ4 94
Ġ4 84
Ġ4 85
Ġ4 73
Ġ4 98
Ġ[ {
"" ++'
"" ),.
à§§à§¯ à§Ńà§¦
à§§à§¯ à§®à§§
à§§à§¯ à§Ńà§¯
à¦ħà¦¨ à¦Łà¦¨
Ġ8 40
Ġ8 95
Ġà¤ §
Ġà¤ Ķ
Ġà¤ ĸ
Ġ6 28
Ġ6 30
Ġ6 57
Ġ6 70
Ġ6 90
Ġ6 08
Ġ6 63
Ġ9 12
Ġ9 17
Ġ9 50
Ġ9 47
Ġ9 61
Ġ9 85
22 3
22 6
à¦ĩà¦« à¦ķ
== [
== ..
à¦ıà¦® à¦ıà¦¨
ĠÙĪ Ø§ÙĦØª
Ġà¦¨à¦¬ à¦Ĺ
Ġ10 20
Ġ7 14
Ġ7 67
Ġ7 70
Ġ7 43
Ġ11 00
Ġ11 69
à¦Ĺà¦£ à¦¬
à§ĭà¦ĥ -
à¦ıà¦ķ à¦¶
Ġ12 16
Ġà¦ķà¦¨ à¦¡à¦®
à¦Ī à¦¦à¦ķ
à¦¤à¦² à¦Ł
Ġ13 7
Ġ13 20
Ġ13 15
Ġà§§à§Ń à§©
à¦Ĺà¦łà¦¨ à¦¸à¦®
Ġ19 60
Ġ19 98
Ġà¦¬à¦ĩ à¦ªà¦¤
Ġà¦¬à¦ĩ à¦ªà¦¡
à¦Ĩà¦ľ à¦¬
", .$).(
Ġà§¨à§« à§¨
Ġà§¨à§« à§«
18 3
Ġ! ;
15 8
à¦ĸà¦ķ à¦Ĺà¦£
ØŃ Ø¯
Ġ& #
17 2
14 2
Ġ16 3
Ġ16 5
Ġ17 1
à¦¨à¦Ĺ à¦°à¦¬
.) }}
à§§à§¦ à§ª
Ġà¦ĵà¦ł à¦²
Ùģ Ø§Ø±Ø³ÛĮ
Ġà§«à§¦ à§«
Ġà§¨à§Ń à§ª
Ġà§¨à§¬ à§®
], :
Ġà¦Ńà¦¬à¦¨ à¦Ĺ
à¦īà¦° à¦¡
à§§à§« à§¨à§§à§«
ÙĬÙĩ Ø§
,: .,:
,: })}
à² ķà²¨
": ""===[
99 0
à§§à§© à§¦
à§§à§ª à§ª
à´ ¡
Ġà§ªà§¦ à§¬
=== ?
=== ?!
à¸ ´
Ġà¦ĭà¦£ à¦Ĺ
50 5
à¦¬à¦ľ à¦Ĺà¦¤
(){ "":
(){ ("#
". ",.$).(
à¥¤à¥¤ à¥¤)
37 1
/, "/"+
ĠØ¥ ÙĦ
&& .$.(".").(),
&& "/"==
[] .[$]
45 2
45 8
--- .
Ġà¦°à¦« à¦īà¦²
). */
Ġ:// .
Ġ:// ....
Ġà¦®à¦¦ à¦¤
?= ])
?= à¥¤(
?= ?([^
..( ,
Ġ50 4
\' >]+)
ĠÙĥ Ø§ÙĨ
"# _
à¦¾] [
=( ?:\"à¥¤\')?
à¦²à¦¶ à¦¹à¦°
Ø¬Ùħ Ø§Øª
)( ?:\"à¥¤\')?
à¦¾" -
Ġà¦¬à¦¦ à¦¹à¦ľà¦®
'+ +"
'+ ..+"
'+ .+"
'+ (..?'
"", =""===[
&&( =.-
Ġ._ "),=
Ġà§©à§ª à§¨
"") &&(=.-
,= ""===[
,= /),(
/- /
") +
),( "#
),( .).(
{: ===à¥¤à¥¤""===à¥¤à¥¤
{: ,:})}
"+ [
"+ .+"
"+ (""===..
]; }(
à¦¯à§İ à¦¬
)) ([^
)) \??
/' /,"");
ä¸ º
Ġà² ®
Ġà² ħ
Ġà² ľ
),.( ),.(
Ġàª ª
Ġàª ¬
),=.( "");
Ø¢ Ø®
Ġà¦ĩà¦¸à¦® à¦¤
Ġà¦īà¦ªà¦ķà¦°à¦£ à¦Ĺ
à¦Īà¦¨ à¦īà¦¦
Ġà§§à§¨à§¦ à§§
.,: !
"",: !
à¦īà§İà¦¸à¦¬ à¦®
Ð¾ ÑĢ
Ġà¦Ĩà¦²à¦¬ à¦¦à¦°
(. \/
à¦ıà¦¸à¦Ĩà¦ĩ à¦Ĩà¦°
).((){ (".").(":(:)").(
Ġ[] ?[]
().( ),(".").(
""+ ([$]===[
ĠØ¹ÙĨ ÙĩÙħØ§
),= .+
),= .[
!== &&
\/ ].(
\/ ))([^
à§¬à§¬ à§¬
ÙĪØ± Ø©
?: "")+
?: à¥¤à¥¤à¥¤)
;( "#").(
""== ?((),()):
..) &&.$.(".").(),
Ġ(_ )
ä¸Ń åĽ½
,,, )}
.$.( ".
.$.( "").(
}; =.({},,
"").( /'/,"");
Ġ123 45
"-"),=().( "-");
Ġ(){ !(){
"; =
"; =(
-": ""===[
-": ""===?"
([^ >]*
..// .
(".").( '
(".").( ),.+
),=( ().(),(".").(
.,:.,: !
]* ).*/
").((){ (
.+" &=&=--",
&&.( "",
ĠØ§ÙĦØ¹ ÙħÙĦ
Ġ=().( ),=(().(),(".").(
),. &&.("",
"-"),=().("-"),=().( "-");
?((),()):() ?((),()):()
=.(/ <\[^>]*>
à¦Ĩà¦Łà¦ķ à¦ķ
),().( ".-").(
),(".").( {:,:})}
.à¥¤à¥¤ (
""!= ?((),()):()&&
)= [
Ġ,, =(
[^ [\]]
[^ \/].(
("# ").()}
\? &\"
\? ))\??
,=/): (=
..$: "","
(".").(":(:)").( )}).((){
!=.("..")?'':"")+ '
!=.("..")?'':"")+ ""++'
=.. ;(
Ġ.").( {:"",:".
=[] ..$.(
Ġà¦Ĩà¦¹à¦¹à¦¹ à¦¹
Ġà§¦à§¯à§¬ à§¯à§¬
([$] !==[
]à¥¤à¥¤""===.. à¥¤à¥¤.
;>;++ ){(
.,.,(){..() }).().(
ĠØ§ÙĦØ¢ Ø®
-").((){ (".").(":(:)").()}).((){
.* &)
.* ((.
].( /^
/)) ){
/)) )=[
?-="+ ..+"
?-="+ .+"&=&=--",
à¥¤) \/))([^
..); .(
..&& "
""===?"": ""===?"":
Ġ(!=(=.(/ =(?:\"à¥¤\')?
Ġ(!=(=.(/ (.\/
,:,:,:,: ,:,:
\/)à¥¤(\/)à¥¤( \/\/\
\/)à¥¤(\/)à¥¤( \?))\??
)), +>
+( ?=])
Ġà¦ľà¦¬à¦° à¦¦à¦¸
åľ ¨
Ġ.[ ''];
à¦ķà¦ľà¦®à¦ķ à¦ª
ĠÐ± ÐµÐ»Ð°ÑĢÑĥÑģÐºÐ°Ñı
ĠðŁĵ ļ
)+" ...
]+" /
"":"")+ (..
,=.. ;>;++)(""==
.[]. ;}(
.[].){ =
""==?((),()):()&& ""==?((),()):()&&
Ġ=().("-"),=().("-"),=().( "-"),=().("-"),=().("-");
.,.,(){..()})}}{ (.==""){(.().(":")){.(
?"":"/-/"+..)+" ?-="+..+"
"").(/"/, "").(/'/,"");
"://..// "+[
é¦ Ļ
ĠÊ »
+=( ..
¾Ú ļØª
Ġ"). >
\/( \?(
Ġà§¦à§§à§®à§ª à§§à§«à§¨à§§à§«
à¥¤. \/(\?(
"),(".").( ":(:)").(
#\ &\?
(""=== .?..+"//"+..:
)),=( (".").(),.+
:,: ===à¥¤à¥¤""===à¥¤à¥¤
=", "").(/"/,"").(/'/,"");
].(" =","").(/"/,"").(/'/,"");
].&&(= "://..//"+[
Ġ=,= {:"",:
Ġ=(. );(
?=à¥¤( à¥¤)\/))([^
?=?([^ #\&\?
\'>]+) /))){
)(?:\"à¥¤\')? /)))=[
Ġ._"),= $("#--
"")&&(=.- (+
),(.).( "").(
];}( =""
).((){(".").(":(:)").( ).(""
),=.[ (,
?:"")+ '
?:à¥¤à¥¤à¥¤) )(?:\"à¥¤\')?/)))=[
;("#").( "")&&(=.-(+
..)&&.$.(".").(), .$.(".").(),
([^>]* [^\/].(
]*).*/ );&&
Ġ=().(),=(().(),(".").( )),=((".").(),.+
=.(/<\[^>]*> /,
),(".").({:,:})} ).((){(".").(":(:)").().(""
[^[\]] +(?=])
\?&\" \'>]+)/))){
..$:""," $"
-").((){(".").(":(:)").()}).((){ (".").(":(:)").(
.*&) ?=à¥¤(à¥¤)\/))([^
.*((. \/)à¥¤(\/)à¥¤(\/\/\
].(/^ .*((.\/)à¥¤(\/)à¥¤(\/\/\
Ġ(!=(=.(/=(?:\"à¥¤\')? ([^>]*[^\/].(
Ġ(!=(=.(/(.\/ à¥¤.\/(\?(
\/)à¥¤(\/)à¥¤(\?))\?? ?=?([^#\&\?
)),+> ?=--
Ġ=().("-"),=().("-"),=().("-"),=().("-"),=().("-"); (".").('
(""===.?..+"//"+..: .)+"
[^[\]]+(?=]) /
.*&)?=à¥¤(à¥¤)\/))([^ \?&\"\'>]+)/))){
].(/^.*((.\/)à¥¤(\/)à¥¤(\/\/\ \/)à¥¤(\/)à¥¤(\?))\???=?([^#\&\?
Ġ(!=(=.(/=(?:\"à¥¤\')?([^>]*[^\/].( ?:à¥¤à¥¤à¥¤))(?:\"à¥¤\')?/)))=[
Ġ(!=(=.(/(.\/à¥¤.\/(\?( .*&)?=à¥¤(à¥¤)\/))([^\?&\"\'>]+)/))){
].(/^.*((.\/)à¥¤(\/)à¥¤(\/\/\\/)à¥¤(\/)à¥¤(\?))\???=?([^#\&\? ]*).*/);&&
# -
% =
% -%%%%%%%%%%%%%%%%%%%%%%%%%%%%%%%%
. ),
4 32
5 000
7 44
: -
; :
< %=
= $(
\ ';
} ;(
¡ Ù
¤ ï¸ı
° ç
° Õ¡Õ
µ Õ¥
Ã Ł
Ì Ħ
Õ ¶
Õ °Õ¡Õ
Ö Ģ
Ù ±
Ù Ķ
å ¿
å İ
ç º
è ¯
è Ģ
Ġ ................
Ġ Ñģ
Ġ à·Ģ
Ġ à·ĥ
Ĺ áĢĻ
à¦° à¦«à¦²
à§ĩ ^
à¦¿ ",
à¦¨ à¦¹à¦¤
à¦¯ à¦¨à¦¤
à¦¤ à¦¤à¦°
à¦¤ à¦¬à¦¸à¦®
à¦² à¦¤à¦¬
à¦² à¦°à¦¸à¦¹
à§ģ ),
à¦¸ à§İ
Ġà¦¸ à¦ªà¦ķ
Ġà¦¸ à¦¯à¦¤
Ġà¦¬ à¦°à¦¬
Ġà¦¬ à¦¶à¦¤
à¦Ł à¦¤à¦°
à¦Ł à¦¶à¦¨
à¦Ł à¦¤à¦¤
Ġà¦Ĩ à¦ī
Ġà¦Ĩ à¦īà¦«
Ġà¦® à¦Łà¦ķ
Ġà¦® à¦ĵà¦¸
à¦ľ à¦ªà¦¤
à¦ľ à¦®à¦ķ
à¦Ĺ à¦°à¦ķ
Ġà¦ı à¦°à¦ķ
Ġà¦ı à¦«à¦Ł
à¦¹ à¦Ļ
Ġà¦¹ à¦°à¦«
à¦· à¦Ľ
à¦¡ à¦īà¦¡
Ġà¦ħ à¦ĩà¦¬
Ġà¦ħ à¦ĩà¦Ľ
Ġà¦ľ à¦Łà¦²
à¦ĸ à¦¸à¦¡
Ġà¦° à¦£à¦¦
à¦£ à¦¶
à¦£ à¦®à¦¯
Ġà¦Ĺ à¦ª
Ġà¦Ĺ à¦Ĺ
Ġà¦ļ à¦°à¦¬
Ġà¦Ń à¦°à¦¦
Ġà¦ĩ à¦ķà¦¨
Ġà¦ĩ à¦ĩà¦īà¦°
Ġà¦ªà¦° à¦ĵà¦¯
à¦« à¦¹
à¦« à¦¨à¦¦
Ġà¦¸à¦® à¦Ń
Ġà¦¸à¦® à¦¬à¦¯
à¦ł à¦ļà¦ķ
à¦°à¦ķ à¦¤
à¦ı à¦°à¦¶
à¦ı à¦ķà¦¸
Ġà¦ľà¦¨ à¦¹
Ġà¦Ł à¦°à¦ķ
à¦Ĩ à¦ĩà¦®
à¦Ĩ à¦ľà¦®
à¦ªà¦¨ à¦¸à¦°
Ġà¦ıà¦ĩ à¦¸
Ġà¦ıà¦ĩ à¦¸à¦®à¦¯
à¦¤à¦° à¦¯
à¦°à¦¹ à¦ª
à¦°à¦¹ à¦¨à¦ķ
à§ĩ, ...
Ġà¦Ĩà¦¬ à¦Ĺ
à§İ à¦ķà¦°
à§« à§¨à§¯
ÙĦ Ø¨
ÙĦ ÙĤ
à§© à§§à§©
à§¬ à§«à§¦
à¦²à¦ķ à¦¸à¦¹
à¦¦à¦¨ à¦¨à¦Ĺà¦°
à¦ħ à¦£
Ġ" #
Ġà¦Ĩà¦¨ à¦ĵà¦¯
à¦¤à¦¨ à¦¦
Ġà§© à§§à§¦
Ġà§© à§§à§«
Ġà§© à§ªà§«
à¦®à¦¤ à¦¦
Ø§ Ø®
Ġà¦ħà¦° à¦ĵà¦¯
à¦ĩà¦Ł à¦²
Ġà§« à§¯à§¯
Ġà§« à§¬à§¦
à¦¯à¦® à¦ľ
Ġà¦Ĩà¦ľ à¦²
Ġà¦Ĩà¦ľ à¦«
à¦¼à§Ģ )
à¦¸à¦¹ à¦¸
ÙĨ ÙĬ
Ġà¦ıà¦² à¦Ĩà¦°à¦¬
à¦¸à¦¨ à¦ĵ
à¦¸à¦¨ à¦¸à¦¹
Ġà¦ĸà¦¬à¦° à¦¸
à¦²à¦¬ à¦¦
Ġà¦¦à¦² à¦ĵ
à¦¬à¦ķ à¦¬
Ġ() -
Ġ= "#
Ùĩ Ø¯
Ġà¦Ĩà¦¶ à¦ķ
Ġ} )
), ""
Ġà¦Ŀ à¦ŀ
Ġà¦Ŀ à¦°à¦²
Ø± Ø³
00 1
à¦ļà¦² à¦Ń
Ġà§§à§¯ à§ª
Ġà§§à§¯ à§§à§¯
Ġà§§à§¯ à§¨à§«
Ġà§§à§¯ à§ªà§¦
Ġà§§à§¯ à§©à§¬
Ġà§§à§¯ à§©à§®
Ġà§¦ à§§à§¨à§©
Ġà¦Ĩà¦¤ à¦¶à¦¬
à¦¹à¦² à¦Ń
Ġ5 22
Ġ5 21
Ġ5 17
Ġ5 35
Ġ5 57
Ġ5 44
Ġ5 31
Ġ5 32
Ġ5 43
Ġ5 52
Ġ5 61
Ġ5 54
Ġ5 68
Ġ5 90
Ġ5 77
Ġ5 65
Ġ5 53
Ġ5 82
Ġ5 71
Ġ5 93
Ġ5 62
Ġ5 85
Ġ5 98
Ġ4 57
Ġ4 88
Ġ4 58
Ġ4 52
Ġ4 56
Ġ4 59
Ġ4 61
Ġ4 78
Ġ4 72
Ġ4 53
Ġ4 97
Ġ4 62
Ġ4 75
Ġ4 91
Ġ4 76
Ġ4 74
Ġ4 89
Ġ4 83
Ġà¦¶à¦¤ à¦¶à¦¤
Ġà¦Ĺà¦£ à¦Ĩà¦¨
à¦¿à¦ĥ :
à§§à§¯ à§¬à§¦
à§§à§¯ à§Ńà§¬
Ġà§¨à§ª à§§
à¦ĩà¦¡ à¦¬
Ġà¦īà§İ à¦«
à¦®à¦ķà¦° à¦¨
Øª Ùī
Ġà¦Ĳ à¦¹
Ġà¦ªà¦¥ à¦°
Ġà¦ªà¦¥ à¦ĩ
Ġ8 10
Ġ8 24
Ġ8 29
Ġ8 30
Ġ8 57
Ġ8 33
Ġ8 55
Ġ8 60
Ġ8 56
Ġ8 79
Ġ8 90
Ġ8 92
Ġ8 82
Ġ8 75
Ġà¤ ¯
.... .....
Ġ6 20
Ġ6 22
Ġ6 80
Ġ6 99
Ġ6 35
Ġ6 61
Ġ6 69
Ġ6 03
Ġ6 93
Ø³ ÙĦØ§Ùħ
Ġà¦ļà¦Ł à¦ľà¦²à¦¦
Ġà§§à§¨ à§§à§«
Ġ9 20
Ġ9 10
Ġ9 18
Ġ9 28
Ġ9 40
Ġ9 46
Ġ9 70
Ġ9 60
Ġ9 34
Ġ9 59
Ġ9 53
Ġ9 82
Ġ9 84
Ġ9 98
Ġ9 89
22 7
Ġ10 10
Ġ10 21
Ġ10 24
Ġ10 19
Ġ10 28
Ġ10 25
Ġ10 35
Ġ10 37
Ġ10 44
Ġ10 72
Ġ10 66
Ø¯ Ø±
Ġ7 10
Ġ7 13
Ġ7 28
Ġ7 30
Ġ7 36
Ġ7 47
Ġ7 55
Ġ7 88
Ġ7 32
Ġ7 56
Ġ7 69
Ġ7 90
Ġ7 65
Ġ7 81
Ġ7 86
Ġ7 98
Ġ7 83
Ġ11 37
Ġ11 81
à¦¤à¦°à¦£ à¦ķ
à¦¦à¦² à¦ªà¦¤
Ġà¦Ĩà¦¹ à¦¹
Ġà¦Ĩà¦¹ à¦Ľ
Ġ12 20
Ġ12 19
Ġ12 15
Ġ12 40
Ġ12 44
Ġà¦ıà¦® à¦ıà¦®
à¦īà¦¦ à¦¯
à¦¸à¦¦ à¦¦
09 90
à¦łà¦ķ à¦ĩ
Ġà§į ÌĦ
Ġ13 10
Ġ13 11
Ġ13 25
Ġ13 81
11 9
à¦ªà¦¸ à¦Ĺ
à¦¯à¦¸ à¦Ļ
Ġà¦ªà¦¶ à¦¤
Ġà¦¸à¦¹à¦ľ à¦¬
Ġ19 77
Ġ19 95
Ġà¦ħà¦² à¦¸à¦¤
Ùĥ Ùħ
Ġ? ,
à¦ķà¦ķ à¦ķ
à§§à§Ń à§¬
à¦¬à¦¹ à¦Ń
Ġà¦Ĩà¦ĩ à¦ĵ
Ġà¦Ĩà¦ĩ à¦ĵà¦¸
Ġà¦Ĩà¦ĩ à¦ıà¦¸à¦ª
Ġà¦Ĩà¦ĩ à¦ıà¦®à¦ıà¦«
à§ĩà¦ĥ -
ĠÙģ ÙĪØ§Ø¦
à¦ıà¦« à¦Ł
à§§à§¦ à§¨
Ġà§¨à§© à§«
).(); ().(
à¦¶à¦° à¦¥
Ġà¦ķà¦ķ à¦ª
à¦Łà¦® à¦¹à¦²
à¦°à¦®à¦¨ à¦ķ
à¦ıà¦¬ à¦Ľà¦°
à² ¦
Ġà¦°à¦ķà¦® à¦«
à§¨à§¨ à§©
à§¨à§¨ à§Ń
23 4
)} );
Ġà¦īà§İà¦¸ à¦Ĺ
à¸ ¡
à¸ «
à¦¿! !
à¤¾ à¤ģ
ðŁ Ļ
à§¨à§Ń à§¨
Ġà¦°à¦« à¦¯
Ġ/* !
à¦¸à¦« à¦°à¦®
ĠØ³ Ø¬ÙĪØ¯
%%%%%%%% %%%%
à¦¡à¦Ń à¦£
..( "")
Ġ50 6
Ġà§©à§¬ à§®
Ġà§©à§Ń à§«
Ġà§¦à§§à§Ń à§§à§«
ÙĦØ§ ØŃ
ÙĦØ§ ÙĤ
à§ĭà¦Ĥ -
'+ ().(
à¦ĩà¦ĵ à¦ķ
à§Ńà§Ń à§¬
'# -
à¦ıà¦®à¦¨ à¦Ł
à§©à§® à§ª
Ġà¦īà¦ĩà¦² à¦¸à¦¨
à¹ Ĥ
ÙĬÙħ Ø§ÙĨ
ÙĥØª Ø±ÙĪÙĨ
Ġà¦¸à§İ à¦ªà¦¥
Ġa a
à¦¯à¦ĸà¦¨ à¦ĩ
à¦Ĩà¦īà¦Ł à¦¸
Ġà¦Ńà¦Ĺ à¦¬à¦¤
Ġà¦Ńà¦Ĺ à¦¬à¦¦à¦Ĺ
Ġ$("# __
Ġ017 77
Ġà¦®à¦¦à¦¨ à¦ª
áĢ ħ
áĢ ĹáĢĻ
Ġ$('._ ').();
ĠÙĪØ§ÙĦ Ø£
Ġà¦°à¦¥ à¦¯
Ġà¤ı à¤ķ
Ġà¶ ļ
Ġà¦®à¦°à¦£ à¦«
æľ ī
Ð³ Ð¾Ð»
Ġ$('._').( {
Ġ=().( ).();().(
ĠØ±Ø¶ ÙĬ
Ġà¦¥à¦® à¦¥à¦®
Ð¾Ð½ Ð³Ð¾Ð»
Ġ$("#-").( '#-
Ġà¦¥à¦¬à¦ķ à¦¶
Ð°Ð· Ð¸Ðº
è¿ Ļ
Â¬ à¦¾
Õ¥ Õ¶
ĠÑĺ Ð°Ð·Ð¸Ðº
)})}} ();
µÕ¥ ÖĢ
Õ°Õ¡Õ µÕ¥ÖĢ
Ġ="# "]
Ġà§¦à§§à§¨à§© à§ªà§«à§¬à§Ńà§®à§¯
ĠÙģÙĪØ§Ø¦ Ø¯
Õ°Õ¡ÕµÕ¥ÖĢ Õ¥Õ¶
( !
( =.(
( =().(
( ,,,){
) []+
) =.();
+ ="
+ =.(,"",!
, "":
, ..(
, )}}
, ?:
/ ----
4 000
8 49
: .-.-.(,"",!
; ?.(
; .[]=(){
< (+
= à¥¤à¥¤
= ),=
= ,=.("
= ..("")
? .(,
? .:
? [""+]:
[ .,,
] ){
] )]
] )})}),
e à¨ª
{ (
{ =.(),=
} :
ª àº²àº
· Ð¸Ðº
Ò ·Ð¸Ðº
Ó £
Û °
Û µ
á ´
å Ī
æ ³
æ Ģ
ç Ī
ŀ àº²àº
à¦¾ *
à¦¾ &=
à¦° à¦ĩà¦²
à¦¿ Â¤
à¦¯ à¦¬à¦¨
à¦¯ à¦¤à¦ķ
à¦¤ à¦ªà¦¨
à¦ķ à¦ªà¦°
à¦ķ à¦Łà¦¨
à¦ķ à¦®à¦°
à¦² à¦°à¦°
à¦¬ à¦®à¦¯
à¦¬ à¦Ī
à¦® à¦¤à¦°
à¦® à¦ĩà¦¯
à¦¸ à¦§
à¦¸ à¦°à¦¦
à¦¦ à¦®à¦¸
à¦¦ à¦ĺà¦¨
Ġà¦¬ à¦¤à¦¸
à¦ª à¦«
à¦ª à¦°à¦¤
Ġà¦Ĩ à¦¤à¦°
Ġà¦® à¦ķà¦°
Ġà¦® à¦°à¦ľ
Ġà¦® à¦²à¦®
Ġà¦® à¦ķà¦Ľ
à¦ľ à¦Ĺà¦¦
à¦¶ à¦°à¦®
à¦Ĺ à¦¦à¦°
à¦Ĺ à¦°à¦¨
Ġà¦¨ à¦ĵà¦®
Ġà¦ı à¦¹à¦¤
à¦Ľ à¦ĵ
à¦¡ à¦ķà¦°
Ġà¦ķà¦° à¦¹
à¦¼à¦¾ .
à¦¼à¦¾ à¦¾
Ġà¦ħ à¦Ŀ
Ġà¦ħ à¦®à¦Ĺ
Ġà¦¤ à§İ
à¦§ à¦¸à¦¤
Ġà¦ľ à¦«
à¦ļ à¦²à¦¬
à¦ļ à¦ķà¦¤
à¦ļ à¦°à¦«
Ġà§ İ
Ġà¦° à¦¨à¦ķ
à¦£ à¦ĸ
à¦£ à¦¸à¦®
à¦£ à¦¤à¦®
à¦£ à¦ªà¦¦
à¦ĵ à¦ªà¦°
Ġ( >
Ġà¦Ĺ à¦ľà¦¨
Ġà¦ĵ à¦¨à¦²
Ġà¦ī à¦Ľ
Ġà¦ĩ à¦Łà¦ª
Ġà¦ªà¦° à¦ľ
à¦ĥ ,
à§ĥ à§į
Ġà¦¸à¦® à¦ª
à¦ī à¦ıà¦¸
à¦¬à¦° à¦®
à¦¬à¦° à¦ķà¦£
à¦ł à¦ªà¦°
Ġà¦Ľ à¦®
Ġà¦Ľ à¦²à¦Ľ
à¦ı à¦ķà¦¤
Ġà¦Ł à¦ķà¦¶
à¦Ĩ à¦¸à¦°
à¦Ĩ à¦ĩà¦«
à¦Ĩ à¦¯à¦¦
à¦Ĩ à¦¸à¦«
.. =""
.. ),.
.. [""+]:
Ġà¦Ĩà¦° à¦ıà¦¸
Ġà¦§ à¦¨à¦Ń
à¦¾à¦ģ )
Ġà¦ĺ à¦°à¦ķ
Ġà¦ĺ à¦¨à¦ķ
Ġà¥¤à¥¤ })}}
à¦¬à¦¸ à¦Ń
à§¯ à§¦à§¦
à¦¶à¦¨ à¦ľà¦Ł
Ġà¦īà¦ª à¦²à¦¦
Ġà¦Ĩà¦¸ à¦Ĩà¦¦
à¦¾, ,
à¦ĺ à¦·
Ġ, ,=
à¦¦à¦ķ à¦®
à¦·à¦£ à¦¸
à¦·à¦£ à¦¦
à¦ħ à¦²à¦ľ
Ġà¦ªà¦¡ à¦ķ
Ġ" ),(
Ġ" .("
Ġà§© à§¨à§¦
Ġà§© à§ªà§¬
... (
... =(){
Ġà¦®à¦¹ à¦°à¦®
à¦®à¦¤ à¦¬
à¦°à¦¨ à¦Ł
Ġà¦ħà¦¬ à¦¬
.( [
.( ).
.( "",
.( .[""+],[""+
Ġà¦¸à¦° à¦«à¦°
Ġà§« à§©à§¯
Ġà§ª à§©à§¦
Ġà§ª à§¨à§Ń
Ġà§ª à§ªà§¦
Ġà¦Ĩà¦ķ à¦ĵà¦¯
Ġà¦ıà¦¸ à¦ıà¦¸à¦Ĩà¦°
à¦Łà¦ķ à¦ķ
Ġà¦ĩà¦¨ à¦Ńà¦¯
Ġà¦¦à¦² à¦®à¦¤
à¦¬à¦ķ à¦¤
Ġ() ?
Ġ() .(
ĠØ§ Ùħ
à¦īà¦ľ à¦¸
à¦īà¦ľ à¦Ĺ
Ġ= ""===
Ġ= .&&(
Ġ= ========
Ġ= .;(
Ġà§Ń à§Ńà§Ń
Ġà¦Ĩà¦¶ à¦ľ
), ..(
), à¥¤à¥¤(.
), :.-.-.(,"",!
).( à¥¤à¥¤
).( ):
).( &&(
).( ),.(
).( )[]+
Ġà§® à§®à§¦
Ġà§® à§©à§¦
00 8
à¦ļà¦² à¦¸à¦®
Ġà§¯ à§Ńà§¨
Ġà¦ĩà¦ī à¦¡
Ġà§§à§¯ à§¨à§§
Ġà§§à§¯ à§§à§®
Ġà§§à§¯ à§ªà§©
Ġà§§à§¯ à§©à§¯
à¦Ĺà¦² à¦Ł
20 4
20 8
Ġà¦ıà¦¤ à¦¸à¦¬
à¦ıà¦ĩ à¦Ń
Ġ5 24
Ġ5 19
Ġ5 18
Ġ5 15
Ġ5 13
Ġ5 29
Ġ5 25
Ġ5 23
Ġ5 36
Ġ5 46
Ġ5 37
Ġ5 48
Ġ5 47
Ġ5 38
Ġ5 88
Ġ5 42
Ġ5 58
Ġ5 34
Ġ5 56
Ġ5 78
Ġ5 79
Ġ5 69
Ġ5 51
Ġ5 72
Ġ5 63
Ġ5 86
Ġ5 66
Ġ5 75
Ġ5 91
Ġ5 96
Ġ5 76
Ġ4 92
Ġ4 96
Ġà¦ıà¦¨ à¦ĵà¦¸
Ġà¦ıà¦¨ à¦ıà¦ĩà¦ļà¦ıà¦¸
Ġà¦Ĺà¦£ à¦ħà¦§
Ġà¦ľà¦® à¦ľ
à§§à§¯ à§ª
à§§à§¯ à§©à§¦
à§§à§¯ à§«à§®
à§§à§¯ à§®à§¯
à¦¹à¦¨ à¦Ĺ
à¦ĩà¦ľ à¦Ł
à¦ķà¦¨ à¦Ĺà¦°
Ġà¦ªà¦¥ à¦ķ
Ġ8 12
Ġ8 11
Ġ8 19
Ġ8 17
Ġ8 14
Ġ8 16
Ġ8 28
Ġ8 25
Ġ8 99
Ġ8 35
Ġ8 02
Ġ8 36
Ġ8 67
Ġ8 48
Ġ8 52
Ġ8 69
Ġ8 07
Ġ8 68
Ġ8 65
Ġ8 03
Ġ8 51
Ġ8 53
Ġ8 08
Ġ8 71
Ġ8 93
Ġ8 96
Ġà¤ ¡
Ġà¤ Ŀà¤µ
à¦¿' )
Ġ6 12
Ġ6 09
Ġ6 24
Ġ6 15
Ġ6 13
Ġ6 23
Ġ6 33
Ġ6 48
Ġ6 45
Ġ6 38
Ġ6 31
Ġ6 39
Ġ6 32
Ġ6 42
Ġ6 43
Ġ6 58
Ġ6 68
Ġ6 77
Ġ6 65
Ġ6 01
Ġ6 51
Ġ6 95
Ġ6 66
Ġ6 71
Ġ6 75
Ġ6 76
Ġ6 74
Ġ6 98
Ø³ Ùħ
Ø³ Øª
Ġ9 15
Ġ9 29
Ġ9 57
Ġ9 48
Ġ9 31
Ġ9 55
Ġ9 32
Ġ9 58
Ġ9 56
Ġ9 06
Ġ9 07
Ġ9 77
Ġ9 81
Ġ9 01
Ġ9 03
Ġ9 08
Ġ9 86
Ġ9 87
Ġ9 94
Ġ9 62
Ġ9 74
à¦ĩà¦« à¦·
Ġà§§à§« à§¬
Ġà¦Ī à¦¦à¦ķ
Ġ10 17
Ġ10 14
Ġ10 27
Ġ10 29
Ġ10 30
Ġ10 40
Ġ10 23
Ġ10 57
Ġ10 67
Ġ10 55
Ġ10 42
Ġ10 79
Ġ10 90
Ġ10 77
Ġ10 86
Ġ10 97
Ġ10 83
Ġà§§à§§ à§¦à§¦
Ø¯ ÛĮ
à¦ķà¦¸ à¦Ĺ
Ġ7 17
Ġ7 16
Ġ7 27
Ġ7 99
Ġ7 02
Ġ7 48
Ġ7 49
Ġ7 42
Ġ7 34
Ġ7 59
Ġ7 68
Ġ7 01
Ġ7 51
Ġ7 53
Ġ7 63
Ġ7 71
Ġ7 94
Ġ7 62
Ġ7 84
Ġ7 96
Ġ7 85
Ġ11 20
Ġ11 21
Ġ11 19
Ġ11 28
Ġ11 80
Ġ11 40
Ġ11 35
Ġ11 67
Ġ11 45
Ġ11 60
Ġ11 58
Ġ11 34
Ġ11 56
Ġ11 68
Ġ11 08
Ġ11 92
Ġ11 62
Ġ11 76
Ġ11 98
Ġ.( ,,
Ġ.( .,(){
Ġ.( ).(à¥¤à¥¤
Ġ12 13
Ġ12 17
Ġ12 37
Ġ12 49
Ġ12 45
Ġ12 39
Ġ12 60
Ġ12 58
Ġ12 54
Ġ12 64
Ġ12 93
Ġ12 97
Ġ12 75
Ġ12 74
Ġ12 98
à¦Ĩà¦ĩ à¦¦
à§¨à§§ à§©
à¦¿) '
Ġ13 00
Ġ13 12
Ġ13 18
Ġ13 13
Ġ13 17
Ġ13 40
Ġ13 46
Ġ13 37
Ġ13 49
Ġ13 47
Ġ13 45
Ġ13 88
Ġ13 58
Ġ13 59
Ġ13 07
Ġ13 90
Ġ13 77
Ġ13 82
Ġ13 04
Ġ13 62
Ġ13 75
Ġ13 83
Ġà§§à§® à§©
21 7
à® £
Ġ19 79
Ġ19 75
Ġ19 74
24 00
Ùĥ ÙĬØ©
Ġ? ..(,
Ġ? .().
à¦²à¦Ń à¦ª
", )},:(,){
Ø§ÙĦ Ø·
ĠØ£ ÙĩÙĦ
Ġâ ľ
Ġà¦ĺà¦¨ à¦¬à¦¸à¦¤
à¦°à¦° à¦ŀ
Ġà¦Ĩà¦ĩ à¦Ĩà¦ĩà¦Ł
Ġ15 48
ØŃ Ø±
ØŃ Ø¯Ø«ÙĨØ§
à¦¸à¦Ł à¦ª
à§¨à§ª à§¦
à§¨à§ª à§«
13 2
13 23
ĠÙģ Ø§Ø±Ø³ÛĮ
17 5
16 1
.) ));
.) :[]
.) :(=
.) &&""===.(,""))=.;
à§§à§¦ à§¯
Ġà§¨à§® à§ª
Øµ ÙĦ
], ,),
], .[""+],[""+
27 3
Ġà¦ªà¦¦à¦ķ à¦ľà¦¯
Ġ; (()
à¦ķà¦ľà¦¨ à¦ĵ
,, ?:
,, .({
,, ):.(
,, )});
,: ,"":
à² ®
à² ¯
à² Ĺ
25 2
25 4
26 5
"": })}
)} ),.([
)} ).(&&(
=== )
=== ?:
=== .&&(
=== .à¥¤à¥¤
=== ?.(
=== .("")
=== .&&(=
=== ..),.
=== .)&&""===.(,""))=.;
à¸ Ķ
").( .()
à° ¾
à¥¤à¥¤ ""!=
:// ...
à§¨à§¬ à§¯
à§¨à§¬ à§¬
Ø° Ø§
à¦°à¦¬à¦¨ à¦¤
&& .&&(
&& !==&&
Ġà¦Ĺà¦¨ à¦¹à¦¤
à§¨à§© à§¬
à¦īà¦ª à¦¯
à¦īà¦ª à¦¹
=.( )).
=.( ,""),=(
38 6
ðŁ ĩ
Ġà¦¯à¦¶ à¦ª
). },
). =..
Ġà§©à§© à§ª
à§©à§« à§«
?= :
Ġ100 1
Ġ100 3
Ġ100 9
à§«à§« à§«
([ ],,),
..( ,,)});
Ġ50 3
Ġà¦Ĩà¦ļà¦°à¦£ à¦ķ
Ġà§©à§« à§¨
): {:
): =),=
=( =..("")
=( =.()).
Ùĭ ØĮ
""=== &&(
""=== )&&
Ġà§¦à§§à§Ń à§§à§Ń
Ġà§¦à§§à§Ń à§§à§©
:( ""==
à§ªà§Ń à§¦
&&( ===.à¥¤à¥¤
à¶ ľ
Ġ._ {
200 6
,= ()à¥¤à¥¤
,= .):(=
),( ""===à¥¤à¥¤
.() ?(
.() )}}
{: .+
{: .-.-.(,"",!
{: (){(
Ġà§©à§¯ à§¦
Ġà§©à§¯ à§©
"+ +
Ġà§ªà§¯ à§«
Ġ"); -
à¦ĩà¦ľà¦¨ à¦ĩ
Ġà§¬à§ª à§¨
Ġà§¬à§ª à§ª
?( =.(),=
?( =(=.()).
)) ),!=.&&(.=.-.+
)) ?[
ÑĢ Ð³
Ġ&& (=
),=.( ),=.(,""
., (,){
., .(.[""+],[""+
Ġà§«à§Ń à§¦
Ġ(@ _)
,){ .((){
,){ .[]=(,){
Ġ), =à¥¤à¥¤
Ġ.- {
)}} ),.("
)}} ),..(
.,: .+
Ġà¦ľà¦Ĺ à¦¦à¦²
à§§à§¨à§§ à§¬
à¦Ĺà¦« à¦°à¦Ĺ
Ð¾ Ò·Ð¸Ðº
!= -
""+ },(,){
""+ ,:,"":
à¦¶à¦ĵ à¦ķà¦¤
}, ..=(,,){
}, ...=(){
}, ))),!=.&&(.=.-.+
ĠØ§Ø¨ ÙĨ
),= {};
Ġ122 5
Ġà¦ľà¦¨à¦¸à¦® à¦ķ
$("# -
.[ /]
.[] =$(
Ġà¦Ļ à¦®
),() &&(=.(
àµ Ĩ
àº ŀàº²àº
,,, .)}}
?(( =(=..("")
Åĵ à¦¤
ĠØ§ÙĦØ¥ ÙĨ
Ġ=( ,),
?(= .,.(.[""+],[""+
[], (=.(
[], .)));
]) ):
Ġ=== .}
)},: (,,){
)},: (,,,){
"","", "","",
.à¥¤à¥¤ .;(
Ġà¦®à¦¨à¦¨ à¦ľà¦¯
ĠØ£ÙĨ Ùĩ
===à¥¤à¥¤ !
Ġà¦¬à¦Ľ à¦°à¦¬
Ġ,, },..=(,,){
))} {:.-.-.(,"",!
336 135
ĠØ§ÙĦØ· ÙĦØ§ÙĤ
Ġ,,, =[
Ġ,,, =,=.("
Ñĭ Ð·
Ñĭ ÑĢÐ³
],[""+ ])):
""===.(,"") )=.();
Ġ.' "
âĹķ âĶĢâĶĢ
.((){ ..(,,)});
===. ?.(,
===. ?(=.,.(.[""+],[""+
).("") ).=..
).("") ?(=(=.()).
.} ):{:
.., {:.+
.,= .à¥¤à¥¤.;(
},:(){ ([
),.+ =.(,"",!
Ġ.(, )}}),..(
],= {:
=(,,){ ""!=
"** "):
"** ",)},:(,){
)). +=.(,"",!
:[] ;?.(
Ġ.(,,, )},:(,){
Ġ.(,,, )},:(,,){
Ġ?[] :(""==
Ġ?[] :[];?.(
:(= ([],,),
),.([ "",""],(,){
),=.(,"" ),(""===à¥¤à¥¤
.(,à¥¤à¥¤ [.,,
.(,à¥¤à¥¤ "**",)},:(,){
"",""],(,){ .[]=(){
),.({:"",:""},(,){ .({:
Ġ.&&(.+=""), ""==
Ġ.&&(.+=""), .())}}
),!=.&&(.=.-.+ ),""
)}}} ,:(){
=} ,,,.)}}
Ġ,,,,,, =.(,""),=(
,..() ):=),=
===?"": "");
Ġà¦Ĩà¦ĩà¦°à¦¨ à¦¸
'-'+ .);
).().().( '-'+.);
.= {:(,,){
ä¼ ļ
Ġà®Ĩ à®ª
):( ""==
âĸ¬ âĸ¬
!&& [],(=.(
Ġà¤Ķ à¤°
,,,)} ,,?:
};( ""===.(,""))=.();
Ġ01777 336135
(=().( )).+=.(,"",!
,..( {:(){(
,)}} )}),.([
,?: .):[]
<(+ ).("")?(=(=.()).
?.: ,?:.):[]
?[""+]: ..[""+]:
])] :(=([],,),
])})}), },...=(){
{=.(),= .,=.à¥¤à¥¤.;(
ªàº²àº ¥àº²àº§
Ġà¦Ľà¦²à¦Ľ à¦²
..="" ),=.(),=.(,""
Ġà¥¤à¥¤})}} ),.({:"",:""},(,){
Ġ,,= [
à¦ħà¦²à¦ľ à¦¬à¦¸
Ġ"),( ,){.[]=(,){
Ġ=""=== ;.[]=(){
Ġ=.&&( à¥¤à¥¤""!=
Ġ=.;( &&""===.(,""))=.;
),à¥¤à¥¤(. ?((=(=..("")
).(): )}).(&&(
).(),.( [],.)));
).()[]+ "":})}
Ġ.(,, )},:(,,,){
Ġ.().(à¥¤à¥¤ )}}),.("
Ġ?..(, ):(""==
Ġ?.(). ?(=.(),=
],.[""+],[""+ ],[""+])):
Ġ;(() ?=:
,,.({ },))),!=.&&(.=.-.+
,,):.( ,,,)},,?:
===?: .((){..(,,)});
===.&&( (=().()).+=.(,"",!
===?.( ,,):.(,,,)},,?:
===.("") ?[""+]:..[""+]:
===.&&(= .),
===..),. =(,,){""!=
===.)&&""===.(,""))=.; &&!==&&
").(.() ).():)}).(&&(
&&.&&( ).(),.([],.)));
).}, .={:(,,){
""===&&( ..=""),=.(),=.(,""
""===)&& -
&&(===.à¥¤à¥¤ ===.)&&""===.(,""))=.;&&!==&&
,=.):(= ()à¥¤à¥¤
.()?( ).()[]+"":})}
))?[ .([
Ġ&&(= ,=!
.,(,){ ()
,){.((){ .(,à¥¤à¥¤[.,,
Ġ),=à¥¤à¥¤ (!
.,:.+ .}):{:
Ð¾Ò·Ð¸Ðº Ó£
""+},(,){ .[]=(,){
""+,:,"": ""+},(,){.[]=(,){
),={}; ""===&&(..=""),=.(),=.(,""
.[]=$( .,(,){()
),()&&(=.( ,,.({},))),!=.&&(.=.-.+
àºŀàº²àº ªàº²àº¥àº²àº§
Ġ=(,), .()?().()[]+"":})}
Ġ===.} ).},.={:(,,){
"","","","", "",""],(,){.[]=(){
ÑĭÑĢÐ³ ÑĭÐ·
===.?.(, "**"):
===.?(=.,.(.[""+],[""+ ],.[""+],[""+],[""+])):
).("")).=.. ,..()):=),=
..,{:.+ .,:.+.}):{:
Ġ.(,)}}),..( {:(,,){
Ġ?[]:[];?.( ?.:,?:.):[]
),.(["",""],(,){ .[]=$(.,(,){()
),=.(,""),(""===à¥¤à¥¤ ""===)&&-
),.({:"",:""},(,){.({: ""+,:,"":""+},(,){.[]=(,){
Ġ.&&(.+=""),.())}} ,..({:(){(
=},,,.)}} ),.(["",""],(,){.[]=$(.,(,){()
Ġ,,,,,,=.(,""),=( ),={};""===&&(..=""),=.(),=.(,""
!&&[],(=.( ))?[.([
};(""===.(,""))=.(); {=.(),=.,=.à¥¤à¥¤.;(
,)}})}),.([ "","","","","",""],(,){.[]=(){
<(+).("")?(=(=.()). ,=.):(=()à¥¤à¥¤
])]:(=([],,), &&.&&().(),.([],.)));
),à¥¤à¥¤(.?((=(=..("") ).("")).=..,..()):=),=
Ġ?.().?(=.(),= ..,{:.+.,:.+.}):{:
").(.()).():)}).(&&( ,){.((){.(,à¥¤à¥¤[.,,
),()&&(=.(,,.({},))),!=.&&(.=.-.+ ),!=.&&(.=.-.+),""
Ġ=(,),.()?().()[]+"":})} ),.({:"",:""},(,){.({:""+,:,"":""+},(,){.[]=(,){
===.?.(,"**"): .(,à¥¤à¥¤"**",)},:(,){
Ġ?[]:[];?.(?.:,?:.):[] =},,,.)}}),.(["",""],(,){.[]=$(.,(,){()
Ġ.&&(.+=""),.())}},..({:(){( .)
Ġ,,,,,,=.(,""),=(),={};""===&&(..=""),=.(),=.(,"" ),=.(,""),(""===à¥¤à¥¤""===)&&-
};(""===.(,""))=.();{=.(),=.,=.à¥¤à¥¤.;( &&(===.à¥¤à¥¤===.)&&""===.(,""))=.;&&!==&&
),à¥¤à¥¤(.?((=(=..("")).("")).=..,..()):=),= !&&[],(=.())?[.([
").(.()).():)}).(&&(,){.((){.(,à¥¤à¥¤[.,, ])})}),},...=(){
" [
* ,
+ =
, [
0 19
0 32
Î ±
Ï Ħ
Ñ ĩÐ°
Ú Į
Û ¤
Û ¶
å ·
å º
æ Ĭ
æ Ŀ
é »
Ġ ÎµÎ»Î»Î·Î½Î¹ÎºÎ¬
à¦° à¦īà¦²
à§ĩ Â¡
à¦¿ à§ĩ
à¦¨ à¦Ĩà¦²
à¦¯ à¦£
à¦¯ à¦ªà¦¤
à¦¯ à¦§à¦°
à¦¤ à¦¤à¦ķ
à¦¤ à¦ªà¦Ł
à¦¤ à¦¯à¦¶
à¦ķ à¦®à¦ª
à¦ķ à¦Ĩà¦¤
à¦² à¦¸à¦ķ
à¦¬ à¦ħà¦²
à¦¼ (
à¦¼ [
à¦¼ !!
à¦® à¦¬à¦ķ
à¦® à¦ľà¦²
à¦¸ à¦¤à¦®
à¦¸ à¦Ĩà¦®
à¦¸ à¦«à¦°
à¦¸ à¦Ĭà¦¦
Ġà¦¸ à¦ĸà¦°
Ġà¦¸ à¦ĵà¦Ĺ
Ġà¦¬ à¦īà¦Ł
à¦Ł à¦ªà¦°
à¦Ł à¦ħ
à¦Ł à¦ľà¦¨à¦¦
à¦ª à¦°à¦£
Ġà¦Ĩ à¦ĵà¦¡
Ġà¦Ĩ à¦ĵà¦ĵ
à¦ľ à¦Ĩà¦ª
à¦¶ à¦°à¦£
à¦ĩ à¦Ĩà¦ĩà¦Ĩà¦°
à¦Ĺ à¦ĵà¦¯
Ġà¦¨ à¦ľà¦®
à¦¹ à¦Ľ
à¦¹ à¦ļ
à¦¹ à¦°à¦¤
Ġà¦¹ à¦°à¦¹
à¦· à¦°à¦ķ
à¦· à¦¦à¦ķ
à¦· à¦¤à¦¬
à¦· à¦§à¦°
à¦¡ à¦¤
à¦¡ à¦īà¦ĩ
Ġà¦ħ à¦ĵà¦¨
à¦§ à¦¹
à¦§ à¦¬à¦ķ
Ġà¦ľ à¦Ĺà¦²
à¦ļ à¦¤à¦®
à¦¥ à¦·
à¦¥ à¦¬à¦°
à¦ĸ à¦Ī
Ġà¦° à¦ĩ
Ġà¦° à¦¸à¦¬
à¦Ń à¦°à¦¨
à¦Ń à¦²à¦ª
Ġà¦¯ à¦®à¦°
Ġà¦Ĺ à¦ľà¦¬
Ġà¦Ĺ à¦ĵà¦¹à¦°
Ġà¦ĵ à¦ķà¦°
Ġà¦ĵ à¦²à¦¨
Ġà¦ĵ à¦ıà¦¸
Ġà¦ĵ à¦¹à¦¬
Ġà¦ī à¦Ńà¦ķ
Ġà¦ĩ à¦²à¦¨
Ġà¦ĩ à¦¤à¦¬
Ġà¦ĩ à¦¹à¦ķ
à¦« à¦Ń
Ġà¦² à¦Łà¦ķ
à¦ī à¦·
Ġà¦ĸ à¦°à¦¸
Ġà¦« à¦¸à¦«
à§§ à§§à§«
à¦°à¦ķ à¦ª
à¦°à¦ķ à¦Ń
à¦ı à¦ķà¦°
à¦ı à¦°à¦ĵ
à¦ı à¦Ĩà¦ĩ
à¦ı à¦¡à¦Ń
Ġà¦Ł à¦¨à¦¸
à¦Ĩ à¦¸à¦ķ
à¦Ĩ à¦īà¦¦
Ġà¦¬à¦² à¦ķ
Ġà¦¡ à¦Łà¦¨
à¦°à¦£ à¦¦
à¦°à¦£ à¦ľ
à¦°à¦£ à¦¬à¦¶à¦¤
à¦ľà¦¨ à¦ªà¦¦
Ġà§¨à§¦ à§¯
Ġà¦Ĩà¦¬ à¦ĩà¦¯
Ġ: )
à¦°à¦® à¦¥
à¦ķà¦° à¦Ł
à¦¶à¦¨ à¦ª
à¦¶à¦¨ à¦ĩ
Ġà¦īà¦ª à¦¸à¦¹à¦ķ
ĠØ ķ
Ġà¦Ĩà¦¸ à¦Ĺà¦°
à¦¾, "
Ġà¦ıà¦° à¦ļ
Ġà¦¹à¦² à¦¨
Ġà¦¹à¦² à¦ķ
à¦ĺ à¦²à¦ķ
à¦ĺ à¦°à¦Ĺ
Ġà¦ķà¦® à¦¬à¦¯
à¦¦à¦¨ à¦ª
à¦¦à¦¨ à¦ĩ
à¦¦à¦¨ à¦Ĺ
à¦·à¦£ à¦ĵ
à¦ħ à¦¬à¦°
à¦¹à¦® à¦¯
à¦¼à§ĭ '
Ġ" %
Ġà¦Ĩà¦¨ à¦«
Ġà§© à§§à§®
à¤ ·
à¦¿, '
Ġà¦¸à¦¹ à¦¶
Ġà¦¸à¦¹ à¦Ĺ
à¦°à¦¶ à¦ª
Ġà§« à§§à§®
Ġà§« à§¯à§¬
Ġà¦®à¦¤ à¦®
Ġà§ª à§§à§Ń
Ġà§ª à§®à§®
Ġà¦ıà¦¸ à¦Ł
à¦¤à¦® à¦£
ÙĨ Ø©
à¦Łà¦ķ à¦Ĺ
à¦·à¦ķ à¦¦à¦²
à¦¸à¦° à¦°
à¦¤à¦ķ à¦¨
Ġà¦¦à¦² à¦¸à¦®
Ġà¦¦à¦² à¦¬à¦²
à¦§à¦¨ à¦Ĺ
à¦ıà¦¸ à¦¡à¦¬
Ġà¦Ĩà¦¦ à¦®à¦¶
ĠØ§ Ø¯
Ġà§¬ à§¨à§¦
Ġà§¬ à§§à§¬
Ġà§¬ à§¦à§¦à§¦
Ġà¦²à¦ķ à¦Ĺ
Ġà¦Ĩà¦ĩà¦¨ à¦ª
Ġà¦Ĩà¦ĩà¦¨ à¦Ĺà¦¤à¦Ń
Ġà¦ħà¦¬à¦¸ à¦¨
Ġà§Ń à§¨à§¦
à¦Ĩà¦® à¦²à¦ķ
Ġà¦Ĩà¦¯ à¦¦
ĠØ§ÙĦ Ø¶
Ġà¦Ĩà¦¶ à¦¤
Ġà¦Ĩà¦¶ à¦Ĩà¦¸
à¦ķà¦¬ à¦ļ
Ġà§¯ à§Ńà§®
Ġà¦ĩà¦ī à¦Ľ
Ġà¦ĩà¦ī à¦ĸ
Ġà¦¶à¦° à¦«
Ġà§§à§¯ à§¦à§«
à¦Ĺà¦² à¦¸
à¦®à¦ª à¦ļ
à¦Ĩà¦¨ à¦Ĩà¦®
Ġ5 81
Ġ5 95
Ġ5 92
Ġ5 94
Ġ5 97
Ġ5 84
Ġ5 73
Ġ5 74
Ġ5 89
Ġ5 83
Ġà¦ıà¦¨ à¦«
Ġà¦Ĺà¦£ à¦¯
à¦Ĩà¦° à¦Ĩà¦°
Ġà¦ľà¦® à¦Ľ
Ġà¦ĵà¦ĩ à¦Ń
à§§à§¯ à§®à§«
à§§à§¯ à§®à§©
à¦«à¦² à¦Ł
Øª Ùĩ
Ġà¦ªà¦¥ à¦ĵ
à¦°à¦®à¦£ à¦°
à¦°à¦®à¦£ à¦¬
Ġ8 22
Ġ8 21
Ġ8 15
Ġ8 13
Ġ8 27
Ġ8 23
Ġ8 26
Ġ8 46
Ġ8 37
Ġ8 44
Ġ8 49
Ġ8 47
Ġ8 45
Ġ8 38
Ġ8 31
Ġ8 39
Ġ8 32
Ġ8 42
Ġ8 43
Ġ8 34
Ġ8 59
Ġ8 61
Ġ8 41
Ġ8 78
Ġ8 54
Ġ8 06
Ġ8 77
Ġ8 81
Ġ8 01
Ġ8 72
Ġ8 05
Ġ8 63
Ġ8 86
Ġ8 66
Ġ8 87
Ġ8 94
Ġ8 04
Ġ8 62
Ġ8 84
Ġ8 91
Ġ8 85
Ġ8 73
Ġ8 76
Ġ8 74
Ġ8 98
Ġ8 89
Ġ8 83
Ġ6 21
Ġ6 11
Ġ6 19
Ġ6 18
Ġ6 14
Ġ6 16
Ġ6 27
Ġ6 25
Ġ6 26
Ġ6 02
Ġ6 36
Ġ6 46
Ġ6 37
Ġ6 44
Ġ6 49
Ġ6 47
Ġ6 88
Ġ6 34
Ġ6 56
Ġ6 59
Ġ6 41
Ġ6 78
Ġ6 54
Ġ6 06
Ġ6 79
Ġ6 07
Ġ6 64
Ġ6 81
Ġ6 72
Ġ6 53
Ġ6 92
Ġ6 05
Ġ6 82
Ġ6 87
Ġ6 94
Ġ6 97
Ġ6 62
Ġ6 84
Ġ6 91
Ġ6 96
Ġ6 85
Ġ6 73
Ġ6 89
Ġ6 83
Ġ9 22
Ġ9 09
Ġ9 21
Ġ9 24
Ġ9 19
Ġ9 13
Ġ9 16
Ġ9 27
Ġ9 25
Ġ9 23
Ġ9 26
Ġ9 35
Ġ9 02
Ġ9 36
Ġ9 67
Ġ9 37
Ġ9 33
Ġ9 49
Ġ9 45
Ġ9 38
Ġ9 39
Ġ9 42
Ġ9 52
Ġ9 41
Ġ9 54
Ġ9 79
Ġ9 69
Ġ9 64
Ġ9 68
Ġ9 65
Ġ9 51
Ġ9 72
Ġ9 92
Ġ9 05
Ġ9 63
Ġ9 66
Ġ9 71
Ġ9 93
Ġ9 97
Ġ9 75
Ġ9 91
Ġ9 96
Ġ9 73
Ġ9 76
Ġ9 83
à¦²à¦Ĺ à¦¡
ĠÙĪ Ø³
Ġà¦Ī à¦Ĺà¦²
Ġ10 22
Ġ10 12
Ġ10 11
Ġ10 18
Ġ10 15
Ġ10 13
Ġ10 16
Ġ10 99
Ġ10 26
Ġ10 50
Ġ10 36
Ġ10 46
Ġ10 70
Ġ10 33
Ġ10 48
Ġ10 49
Ġ10 47
Ġ10 45
Ġ10 38
Ġ10 31
Ġ10 39
Ġ10 88
Ġ10 32
Ġ10 60
Ġ10 43
Ġ10 58
Ġ10 52
Ġ10 34
Ġ10 56
Ġ10 59
Ġ10 61
Ġ10 41
Ġ10 78
Ġ10 54
Ġ10 69
Ġ10 64
Ġ10 68
Ġ10 65
Ġ10 81
Ġ10 51
Ġ10 53
Ġ10 92
Ġ10 63
Ġ10 82
Ġ10 71
Ġ10 87
Ġ10 93
Ġ10 94
Ġ10 62
Ġ10 75
Ġ10 84
Ġ10 91
Ġ10 96
Ġ10 85
Ġ10 73
Ġ10 76
Ġ10 74
Ġ10 98
Ġ10 89
à¦¨à¦ĵ à¦°à¦ķà¦®
Ġ7 22
Ġ7 09
Ġ7 21
Ġ7 11
Ġ7 24
Ġ7 19
Ġ7 18
Ġ7 15
Ġ7 29
Ġ7 25
Ġ7 23
Ġ7 26
Ġ7 35
Ġ7 57
Ġ7 46
Ġ7 44
Ġ7 33
Ġ7 45
Ġ7 38
Ġ7 31
Ġ7 39
Ġ7 58
Ġ7 52
Ġ7 61
Ġ7 41
Ġ7 78
Ġ7 54
Ġ7 06
Ġ7 79
Ġ7 07
Ġ7 64
Ġ7 72
Ġ7 08
Ġ7 95
Ġ7 92
Ġ7 05
Ġ7 66
Ġ7 82
Ġ7 93
Ġ7 97
Ġ7 04
Ġ7 75
Ġ7 91
Ġ7 73
Ġ7 76
Ġ7 74
Ġ11 22
Ġ11 10
Ġ11 12
Ġ11 09
Ġ11 11
Ġ11 24
Ġ11 18
Ġ11 15
Ġ11 13
Ġ11 17
Ġ11 14
Ġ11 16
Ġ11 27
Ġ11 29
Ġ11 30
Ġ11 25
Ġ11 99
Ġ11 23
Ġ11 26
Ġ11 50
Ġ11 57
Ġ11 02
Ġ11 36
Ġ11 46
Ġ11 44
Ġ11 70
Ġ11 48
Ġ11 49
Ġ11 47
Ġ11 38
Ġ11 31
Ġ11 39
Ġ11 55
Ġ11 88
Ġ11 32
Ġ11 42
Ġ11 43
Ġ11 52
Ġ11 59
Ġ11 61
Ġ11 41
Ġ11 78
Ġ11 54
Ġ11 06
Ġ11 79
Ġ11 07
Ġ11 64
Ġ11 90
Ġ11 77
Ġ11 65
Ġ11 01
Ġ11 03
Ġ11 51
Ġ11 72
Ġ11 53
Ġ11 95
Ġ11 05
Ġ11 63
Ġ11 86
Ġ11 66
Ġ11 82
Ġ11 71
Ġ11 87
Ġ11 93
Ġ11 94
Ġ11 97
Ġ11 04
Ġ11 75
Ġ11 84
Ġ11 91
Ġ11 96
Ġ11 85
Ġ11 73
Ġ11 74
Ġ11 89
Ġ11 83
Ġà§§à§ª à§¨
Ġ12 10
Ġ12 12
Ġ12 11
Ġ12 18
Ġ12 14
Ġ12 30
Ġ12 99
Ġ12 35
Ġ12 50
Ġ12 57
Ġ12 36
Ġ12 46
Ġ12 67
Ġ12 70
Ġ12 33
Ġ12 48
Ġ12 47
Ġ12 38
Ġ12 31
Ġ12 55
Ġ12 88
Ġ12 32
Ġ12 42
Ġ12 43
Ġ12 52
Ġ12 34
Ġ12 56
Ġ12 59
Ġ12 61
Ġ12 41
Ġ12 78
Ġ12 79
Ġ12 69
Ġ12 68
Ġ12 90
Ġ12 77
Ġ12 65
Ġ12 81
Ġ12 51
Ġ12 72
Ġ12 53
Ġ12 95
Ġ12 92
Ġ12 63
Ġ12 86
Ġ12 66
Ġ12 71
Ġ12 87
Ġ12 94
Ġ12 62
Ġ12 84
Ġ12 91
Ġ12 96
Ġ12 85
Ġ12 73
Ġ12 76
Ġ12 89
Ġ12 83
Ġà¦ľà¦² à¦§
Ġà¦ľà¦² à¦ĸ
à¦Ĩà¦ĩ à¦Ĩà¦ĩ
à¦Ĩà¦ĩ à¦ıà¦¸à¦ª
à§¨à§§ à§§à§ª
à§¨à§§ à§®à§§à§Ń
Ġà¦ķà¦¤ à¦¶à¦¤
09 5
Ġ13 22
Ġ13 09
Ġ13 21
Ġ13 24
Ġ13 19
Ġ13 16
Ġ13 28
Ġ13 80
Ġ13 27
Ġ13 29
Ġ13 30
Ġ13 23
Ġ13 26
Ġ13 35
Ġ13 50
Ġ13 57
Ġ13 02
Ġ13 36
Ġ13 67
Ġ13 44
Ġ13 70
Ġ13 33
Ġ13 48
Ġ13 38
Ġ13 31
Ġ13 39
Ġ13 55
Ġ13 32
Ġ13 60
Ġ13 42
Ġ13 43
Ġ13 52
Ġ13 34
Ġ13 56
Ġ13 61
Ġ13 41
Ġ13 78
Ġ13 54
Ġ13 06
Ġ13 79
Ġ13 69
Ġ13 64
Ġ13 68
Ġ13 65
Ġ13 01
Ġ13 03
Ġ13 51
Ġ13 72
Ġ13 53
Ġ13 08
Ġ13 92
Ġ13 05
Ġ13 63
Ġ13 86
Ġ13 66
Ġ13 71
Ġ13 87
Ġ13 93
Ġ13 84
Ġ13 91
Ġ13 85
Ġ13 73
Ġ13 76
Ġ13 74
Ġ13 89
Ġà§§à§® à§ªà§¦
Ġà§§à§® à§Ńà§¨
Ġà§§à§Ń à§®
Ġà§©à§¦ à§ª
Ġà§©à§¦ à§¬
à® Ļ
Ġ19 00
Ġ19 19
Ġ19 25
Ġ19 68
Ġ19 94
Ġ19 96
Ġà¦¬à¦ĩ à¦ĵ
à¦²à¦Ń à¦°
Ø§ÙĦ Ùħ
ĠØ£ Ø¨ÙĪ
Ġà§¨à§« à§¬
Ġà¦ĺà¦¨ à¦ĺà¦Ł
Ġà¦Ĩà¦ĩ à¦ĵà¦ıà¦¸
ØŃ ÙĬØŃ
13 12
14 6
à¦¿? ?
à¦¾! "
à§§à§¦ à§§
à§§à§¦ à§§à§¦
Ġà¦§à¦¨ à¦ĸà¦¡
à¦ıà¦² à¦ĵ
à¦Ĺà¦¬ à¦Ĺ
Ġà¦¨à¦Ĺà¦° à¦ľ
29 120
ĠÙĦ Ùħ
Ġà§¨à§¯ à§¦
à¦ıà¦ĩà¦ļ à¦ľ
25 8
99 9
23 9
à¸ °
à¸ Ĺ
à¸ Ľ
à¦Ĩà¦ĩà¦¨ à¦®à¦¨
50 1
57 0
à§¯à§¯ à§¦
à¯ ĩ
'' +
à§¨à§¬ à§§
ÙĲÙĳ ØĮ
à§¨à§¯ à§§
à§¨à§¯ à§¨
ĠØŃ Ø¯Ø«ÙĨØ§
à§ªà§© à§¯
Ġà¦ªà¦Ł à¦¶
Ġà¦ħà¦¸à¦¹ à¦¨
--- :
ĠØ± Ø¨
à§¨à§Ń à§¬
Ġà¦ħà¦¸à¦® à¦¤
Ġà§¬à§¦ à§§
Ġà§©à§© à§¯
Ġà¦¸à¦« à¦ĵà¦¯
à¦¸à¦« à¦²à¦¤
à¤° à¤£
Ġ100 2
Ġ100 4
Ġ100 5
Ġ100 6
Ġ100 7
Ġ100 8
Ġà§¨à§¦à§§à§© à§¨à§¦à§§à§ªà§¨à§¦à§§à§«à§¨à§¦à§§à§¬à§¨à§¦à§§à§Ńà§¨à§¦à§§à§®à§¨à§¦à§§à§¯à§¨à§¦à§¨à§¦à§¨à§¦à§¨à§§
Ġà¦ľà¦Ĺà¦¤ à¦ķ
Ġà§ªà§« à§¦à§¦
68 1
Ġà¦¦à¦® à¦¬à¦¨
Ġ.... ...
66 6
Ġ60 4
Ġ90 4
à¶ ¯
200 9
Ø§Ø± Ø©
Ġà§ªà§ª à§§
à¦ıà¦®à¦¨ à¦ĩ
à¦īà¦¥ à¦ĵà¦¯
Ġà¦«à¦²à¦¨ à¦¶
ä¸ ª
Ġà² ¬
Ġà² ļ
à§ªà§¯ à§¦
Ġà¦Ĩà¦Ĺà¦®à¦¨ à¦ķ
à¦ľà¦Ń à¦¬à¦¨
ĠâĨ ĵ
à¦Ĩà¦°à¦¬ à¦ª
Ġà§®à§® à§©
880 19
à¦Ĩà¦īà¦Ł à¦¡
Ġà§Ńà§¬ à§«
Ġ120 1
Ġ120 2
Ġ120 3
Ġ120 4
Ġ120 6
Ġ120 7
Ġ120 8
à¦¤à¦ĸà¦¨ à¦ĩ
à§¯à§¦ à§§à§Ń
Ġ017 16
Ġ017 45
Ġ122 1
Ġ122 2
Ġ122 3
Ġ122 4
Ġ122 6
Ġ122 7
Ġ122 8
Ġ122 9
à¦Ĭ à¦°
à¦Ĭ à¦¸
Ġà¦ľà¦¨à¦¸à¦® à¦°
Ġà¦°à¦£ à¦¤à¦°
Ðµ Ð·
Ġà§®à§§à§® à§¯à§¦à§§à§Ń
Ð¼ Ð¾Ð½Ð³Ð¾Ð»
>> >
ĠÛ ĸ
Ø§ÙĦÙĦ Ùĩ
à¥Ī à¤Ĥ
×Ļ× ©
Ġ/> [[
ĠÚ© ÛĮ
à¦ıà¦®à¦ıà¦² à¦ıà¦®
Ġà§®à§§à§®à§¯à§¯ à§¬à§¦
Ġà§®à§§à§®à§¯à§¯ à§Ńà§§
Ġà§®à§§à§®à§¯à§¯ à§Ńà§©
Ġà§®à§§à§®à§¯à§¯ à§Ńà§¨
ĠØ§ÙĦØŃ Ø¬
ĠÑĤ Ð¾Ò·Ð¸ÐºÓ£
________ ________
×¨ ×Ļ×ª
×¢ ×ĳ
à¦¹à¦¹à¦¹à¦¹ à¦¹
ĠÑĺ ÐµÐ·
à§«à§«à§¦à§§à§¨à§« à§¨à§®
à§«à§«à§¦à§§à§¨à§« à§¨à§Ń
Ġà§Ńà§§à§¨à§¨à§¬ à§¬à§¦
Ġà§Ńà§§à§¨à§¨à§¬ à§¬à§ª
Ġà¦§à¦¬ à¦§à¦¬
Ġà¦ľà¦¬à¦°à¦¦ à¦ĸà¦²
Ġà§®à§§à§®à§¯ à§©à§®à§ª
à§¦à§§à§Ńà§§à§ª à§¨à§§à§®à§§à§Ń
æ¸ ¯
ðŁ¤ Ķ
Ġà§¦à§§à§¯à§Ń à§¨à§§à§§à§ª
Ġà§¦à§¯à§¬à§¯à§¬ à§§à§¦à§§à§¦
é¦Ļ æ¸¯
ÚĮ ÙĬ
Ġà¦Ĩà¦ĵà¦ĵ à¦Ĩà¦®
×¢×ĳ ×¨×Ļ×ª
ĠÑĺÐµÐ· Ð¸Ðº
à§¦à§§à§Ńà§§à§ªà§¨à§§à§®à§§à§Ń à§©
Ġà§¦à§§à§¯à§Ńà§¨à§§à§§à§ª à§¨à§«à§«
Ġà§¦à§¯à§¬à§¯à§¬à§§à§¦à§§à§¦ à§¬à§¦
" <#
$ .("
% -
' à¦¾
' ${
) ){
) &&(
, =.(
, "");
, ._
5 12
5 09
6 36
; ;
n cs
Ú ¾
â ŀ
å ¦
å ¼
å ½
å Ĩ
ç §
ç Ķ
ê ¦
Ġ Ð±ÑĬÐ»Ð³Ð°ÑĢÑģÐºÐ¸
Ġ íķľêµŃìĸ´
Ġ ÑģÑĢÐ¿ÑģÐºÐ¸
ģ £
Ĥ ¹
ĵ ×Ļ×©
à¦¾ à¦¿
à¦° à¦²à¦ķ
à¦° à¦Ĺà¦°
à¦° à¦ĺà¦°
à¦¿ à¥¤à¥¤
à¦¨ à¦®à¦²
à¦¨ à§İà¦¸
à¦¯ à¦«à¦²
à¦¤ à¦¦à¦²
à¦² à¦¦à¦²
à¦² à¦ĺà¦°
à¦® à¦ĺà¦°
à¦® à¦łà¦¬
à§ģ (
à§ģ à¦¾
à§ģ "-
à¦¸ à¦¥
à¦¸ à¦ļà¦²
Ġà¦ķ à¦ªà¦Ł
Ġà¦¸ à¦Ł
Ġà¦¬ à¦ĩà¦¬
Ġà¦¬ à¦ľà¦°
Ġà¦¬ à¦¶à¦°
à§ĭ ',
à¦Ł à¦Ŀ
à¦ª à¦Łà¦¨à¦ķ
à¦ľ à¦®à¦¨
à¦ĩ à¦¶à¦ķ
à¦ĩ à¦ĵà¦°
Ġà¦¨ à¦¶
Ġà¦¨ à¦²à¦¤
Ġà¦¨ à¦Ĺà¦¨
Ġà¦¨ à¦ĸà¦°
Ġà¦ı à¦£
Ġà¦ı à¦ĸà¦²
Ġà¦ı à¦ıà¦¸à¦ıà¦®
Ġà¦ı à¦ıà¦¨à¦Ĩà¦ĩ
à¦¹ à¦¨à¦ķ
Ġà¦ħ à¦ĩà¦¤
Ġà¦ħ à¦ĸà¦£
à¦§ à¦ķà¦°à¦¨
Ġà¦ľ à¦ŀ
Ġà¦ľ à¦¹à¦°
Ġà¦ľ à¦ĵà¦¹à¦°
à¦ļ à¦¹
à¦¥ à¦°à¦Ł
à¦¥ à¦¸à¦Ń
à¦ĸ à¦®à¦¨
Ġà¦¶ à¦¬à¦°
Ġà¦¶ à¦¬à¦¨à¦®
à¦ĵ à¦¥
Ġà¦¯ à¦Īà¦«
Ġà¦Ĺ à¦¨à¦¤
Ġà¦ļ à§İ
Ġà¦ī à¦¥à¦°
à§¦ à§§à§¦
à§¦ à§§à§®à§§à§¯
Ġà¦ĩ à¦ıà¦®à¦Ĩà¦ĩ
Ġà¦ªà¦° à¦ļà¦°
à¦« à¦Ĺ
Ġà¦ıà¦ķ à¦¨à¦®
à¦ī à¦²à¦ķ
à¦ī à¦¦à¦°
à¦ī à¦°à¦¨
à¦ī à¦Ĩà¦°
à¦ī à¦ıà¦²
à¦ī à¦ĩà¦Łà¦¸
Ġà¦ĸ à¦Ĺ
Ġà¦« à¦°à¦ļ
à¦°à¦¤ à¦ĵ
à¦ł à¦¤à¦°
à¦Ļ à¦Ł
à¦°à¦ķ à¦ļà¦ķ
à¦ı à¦®à¦¤
à¦ı à¦¤à¦ķ
à¦ı à¦ıà¦¸à¦ª
Ġà¦Ł à¦¬à¦²
Ġà¦Ł à¦ķà¦Ł
à¦Ĩ à¦¬à¦¶
Ġà¦¬à¦² à¦¸
.. "
.. ///
à¦ªà¦¨ à¦¬
à¦ªà¦¨ à¦¦
à¦ªà¦¨ à¦ĵ
Ġà¦Ĩà¦° à¦¦
à¦ľà¦¨ à¦ªà¦°
à¦¾à¦ģ à¦ģ
à¦¼à¦¿ )
Ġ' (
à¦¤à¦° à¦¸à¦®
Ġà¦Ĩà¦² à¦Ń
à¦¬à¦¸ à¦¬à¦°
à¦°à¦¹ à¦Ĺ
à¦°à¦¹ à¦®à¦¤
Ġ: (
à¦ĩà¦¨ à¦ĵ
à¦ĩà¦¨ à¦Ĩà¦ª
Ġà¦īà¦ª à¦¸à¦®
Ġà¦īà¦ª à¦ķà¦°à¦¨
à§İ à¦Ł
ÙĦ Ø©
ÙĦ Øº
à§© à§©à§¦
à¦°à¦¬ à¦ļà¦¨
Ġ. :
Ġà¦Ĩà¦Ĺ à¦°
à¦ĺ à¦¤
à¦ĺ à¦°à¦¸à¦¹
à¦īà¦¨ à¦¬
à¦¦à¦° à¦¨à¦Ĺà¦°
à¦¦à¦ķ à¦¨
Ġ" ,"
Ġ" ','
Ġà§© à§¯à§¬
... !
à¦¯à¦¬ à¦²
Ġà¦ķà¦¥ à¦ķà¦¤
ÙĲ Ûļ
Ġà¦¬à¦¨ à¦«
Ġà¦¬à¦¨ à¦¦à¦¸
à¦®à¦¤ à§İà¦ªà¦°à¦¤
à¦¤à¦¬ à¦®
à¦¨à¦¤ à¦ķ
à¦°à¦¯ à¦¨
à¦¬à¦² à¦§
Ġà¦ħà¦¬ à¦ļ
Ġà¦ħà¦¬ à¦¦à¦®
ĠÙ ±
Ġà¦ħà¦° à¦«
à¦¯à¦ķ à¦¥
à¦ĩà¦Ł à¦¯
à¦ĩà¦Ł à¦¹
.( "-
.( "").(
Ġà§« à§©à§¦
Ġà§« à§©à§©
à¦ķà¦Ł à¦ľà¦¨à¦ķ
à¦¼à§Ģ '
à¦¼à§Ģ à¦ĥ
Ġà§ª à§§à§¦
Ġà¦¢ à¦ķ
Ġà¦Ĩà¦ķ à¦¡
ÙĨ Ø¨
Ġà¦ıà¦² à¦ıà¦¨à¦ľ
à¦¸à¦¨ à¦¸
à¦¸à¦¨ à¦Ĺ
à¦¾à¦ĥ) ,
à¦¨à¦¬ à¦¶
à¦Łà¦ķ à¦°à¦£
Ġà¦¨à¦¯ à¦°
à¦·à¦ķ à¦¬
Ġà¦¦à¦² à¦Ĺà¦¤à¦Ń
à¦§à¦¨ à¦ª
à¦¬à¦ķ à¦¶
Ġ() "
Ġà¦Ĩà¦¦ à¦®à¦ľ
Ġà§¬ à§ªà§Ń
à§¨à§¦ à§¬
Ġ/ **
Ġ= ))
Ġ= ================
Ġà¦ħà¦« à¦¨
Ġà¦ªà¦¦ à¦Ń
à¦ıà¦¨ à¦ıà¦®
à¦ıà¦¨ à¦ıà¦«
à¦ıà¦¨ à¦Ĩà¦ĩà¦¡
Ġà¦Ŀ à¦°à¦¤
Ġà¦Ŀ à¦ķà¦®
Ø± ÙĬØ±Ø©
00 6
Ġà§¯ à§©à§©
Ġà¦īà¦ł à¦¨
Ġà§§à§¯ à§§à§¬
Ġà§§à§¯ à§¦à§®
Ġà¦«à¦² à¦ľ
à¦¨à¦ķ à¦ķ
Ġà§¦ à§¦à§¦
à¦°à¦ĵ à¦¶à¦¨
à¦¸à¦ķ à¦²à¦ķ
à¦Ĩà¦¨ à¦«
à¦¬à¦¤ à¦¶
à¦ıà¦ĩ à¦¸à¦¬
Ġ[ ..]
Ġà¦ıà¦¨ à¦Ĺ
à¦ªà¦¦ à¦¬
ÙĪ Ùĥ
Ġà¦Ĺà¦£ à¦ķà¦¬à¦°
Ġà¦ĵà¦ĩ à¦¬
à§§à§¯ à§Ńà§Ń
à§§à§¯ à§«à§¨
à§§à§¯ à§®à§ª
à¦«à¦² à¦ĵ
à¦«à¦² à¦¸à¦®
Ġ) à¥¤
à¦Łà¦° à¦Ł
Ġà¦Ĩà¦¹à¦® à¦¦à¦ķ
Ġà§¨à§ª à§ª
à¦¯à¦¤ à¦Ł
à¦·à¦¦ à¦Ń
à¦ĩà¦® à¦Ł
à¦¿' !
à¦²à¦Ĺ à¦ĩà¦¨
à¦¾à¦ĥ :
à¦ıà¦® à¦ĸ
ĠÙĪ Ùĩ
à¦Ńà¦¬ à¦ĵ
à¦Ĺà¦£ à¦¸
Ø¹ ÙĨ
à¦¦à¦² à¦Ł
10 10
à§¨à§§ à§Ń
09 98
() }
Ġà¦ħà¦Ĺ à¦Ń
Ġ13 94
Ġà§§à§® à§ª
à¦°à¦ªà¦° à¦¨
Ġà§§à§© à§¦à§¦
à¦Ĺà¦łà¦¨ à¦¸à¦¹
Ġà§©à§¦ à§§
Ġ19 37
Ġ19 45
Ġ19 92
Ġ19 87
Ġ19 93
à¦²à¦ª à¦¡
à¦¨à¦® à¦§
à¦Ĩà¦ľ à¦ĵ
19 8
Ġà§¨à§« à§§
ĠÙħ Ø±
Ġ18 57
à¦¯à¦®à¦¨ à¦¸
à¦ĸà¦ķ à¦ĩ
Ġ14 29
à§§à§Ń à§¦à§¦à§¬
Ġà¦ĺà¦¨ à¦«
Ġ* */
Ġà¦Ĩà¦ĩ à¦¦
Ġà¦Ĩà¦ĩ à¦ıà¦ıà¦¸
Ġ# :
à§¨à§ª à§¬
Ġ16 60
Ġ16 86
Ġ17 53
Ġ17 94
Ġà¦Ĩà¦§ à¦ĺà¦£
Ġà§¨à§© à§ª
à¦ıà¦² à¦ı
Ùģ ÙĬ
Ùģ Ø¹
à¦¬à¦¹à¦¨ à¦Ĺ
àª ĵ
Ġà¦®à¦¯ à¦¹
Ġà§¨à§¬ à§¦
Ġà§¨à§¬ à§Ń
27 5
Ġà¦ıà¦ĩà¦ļ à¦¬
Ġà¦ıà¦ĩà¦ļ à¦ľ
Ġà¦· à¦§
Ġ; ))
à§§à§« à§®
à§§à§§ à§§
Ġà§¨à§¯ à§©
Ġà§¨à§¦à§§à§¯ à§¨à§¦à§¨à§¦à§¨à§¦à§¨à§§
à§§à§© à§«
26 51
Ġà§ªà§¦ à§¨
à¸ ·
à§¯à§¯ à§¨
36 47
à§Ģà¦ĥ ,
'' }
:// .-
à§¨à§¬ à§Ń
à§¨à§¬ à§®à§Ń
70 5
à§Ģ' -
33 9
ĠØŃ Ø³ÙĨ
à§¦à§Ń à§¨à§Ń
Ġà¦ħà¦¦ à¦²à¦¬à¦¦à¦²
à¦īà¦ª à¦®à¦¹
à§¨à§Ń à§¦
à§¨à§Ń à§«
à§¨à§Ń à§Ń
88 2
42 20
Ġà¦Ĩà¦Ł à¦ļà¦²
à¦ľà¦Ĺ à§İ
Ġà¦ķà¦ĸà¦¨à¦ĵ à¦ĩ
-------- ---
"," =
Ġà§ªà§« à§§
"# --
à¦¾] ]
Ġ#> ="
68 7
à§©à§© à§©à§©
Ġà§©à§Ń à§¨
Ġ.(' ://.//
05 2651
Ġà¦¬à¦¦ à¦ħà¦Ń
ÛĮ Úº
Ġ-- =""
"", );
à¶ Ń
200 8
à³ ĩ
ĠØ§ÙĦÙĨ Ø§Ø³
à§©à§Ń à§¯
Ø§Ø³ Øª
ĠØ§ÙĦØ£ Ø°
Ġà§«à§® à§ª
ĠÙĩ Ø±ÙĬØ±Ø©
Ġà¤ķ à¤¹
Ġà§«à§¯ à§¦
Ġà² °
.(/\ /[
Ø§Ø¯ Ø©
Ġ$ {(
Ġ), ''}
Ġ.- .
ĠâĿ ¤ï¸ı
Ġa cs
Ġà§¦à§§à§¯ à§¨à§¬à§®à§Ń
Ġà§Ńà§¬ à§Ń
à¦ķà¦ĵ à¦ıà¦¸
)] =
Ġe ×Ļ
Ġe uc
à§§à§¨à§§ à§©
100 7
à¦ıà¦®à¦ĩ à¦Ĩà¦ĩ
Ġà¦Ĩà¦ĩà¦ķ à¦¨à¦Ł
ÙĪØ± Ø¯ÛĮ
{{ {
{{ }}
.(" --
Ġ}} "<#
Ø§Ùģ Ø±
ĠÙĪØ§ÙĦ Ùħ
ĠØ¢ Øª
ĠØ¢ Ø®
à¦¤à¦ķà¦° à¦¨
%%%%%%%%%%%%%%%%%%%%%%%%%%%%%%%% %%%%%%%%%%%%%%%%
à¦ķà¦ĸà¦¨ à¦ĵ
$= $=
://../?= -
Ġà¦ıà¦ķà¦§ à¦°à¦£
Ġà¦ıà¦®à¦ı à¦ıà¦ĩà¦ļ
à¦ıà¦®à¦Ĩà¦° à¦ĩ
Ġ=$( ),=.(
ĠØ§ÙĦÙģ Ø±
Ø³ÙĨ ÚĮÙĬ
Ġ$('#_ ').();
Ġ$("#-").( "-");
ÑĢÑĥÑģÑģÐºÐ¸Ð¹ ÑģÑĢÐ¿ÑģÐºÐ¸
ä¹ Ī
ÑĥÐºÑĢÐ°ÑĹÐ½ÑģÑĮÐºÐ° Ø§Ø±Ø¯ÙĪ
ÎµÎ»Î»Î·Î½Î¹ÎºÎ¬ Ð±ÑĬÐ»Ð³Ð°ÑĢÑģÐºÐ¸
åı °ç
à¦ĩà¦ĩà¦ī à¦¬
aa ÑĢÑĥÑģÑģÐºÐ¸Ð¹
[]+ '';
ĠÙħØ¹ Ø§ÙĨÙĬ
à¦ıà¦¨à¦ıà¦¸ à¦ĩà¦ī
ÙĬØ² ÙĬØ©
Ġà§¦à§§à§« à§«à§®
à²µ à²¨
áĬłáĪĽáĪŃáĬĽ Ø§ÙĦØ¹Ø±Ø¨ÙĬØ©
),=.("" ),=.(""
Ø¬ÙĦ ÙĬØ²ÙĬØ©
ĠÑĤÑĸÐ»Ñĸ áŀĹ
ĠÐº ÑĭÑĢÐ³ÑĭÐ·
áŀļ íķľêµŃìĸ´
à§¯à§§à§® à§§à§Ńà§¦à§¦à§¬
ĠÙĥØª Ø§Ø¨
à·Ħà¶½ csc
Ġ=$().( "");
ÙĦØ§ØŃ Ø¸
çĪ ¸
ĠØ§ÙĦØ¥ÙĨ Ø¬ÙĦÙĬØ²ÙĬØ©
Ġà²ļ à²°
ncs u
Ġà¦ľà¦ĵà¦¹à¦° à¦²
Ġ"',' "
Ġ#>=" {{
Ġà§¦à§§à§¯à§¨à§¬à§®à§Ń à§¦à§Ńà§¨à§Ń
Ġeuc ÎµÎ»Î»Î·Î½Î¹ÎºÎ¬Ð±ÑĬÐ»Ð³Ð°ÑĢÑģÐºÐ¸
Ø³ÙĨÚĮÙĬ à·ĥ
åı°ç ģ£
ĠÐºÑĭÑĢÐ³ÑĭÐ· ÑĩÐ°
à§¯à§§à§®à§§à§Ńà§¦à§¦à§¬ à§©à§©à§©à§©
' ...
) +
+ %
, +
, -
. --
4 39
6 46
6 37
7 45
9 61
_ "
_ '
_ .
_ /
a ÑģÑĢÐ¿ÑģÐºÐ¸
a ç®Ģä½ĵä¸Ńæĸĩç¹ģé«Ķä¸Ńæĸĩ
u a
´ ¾
´ ¿
Ë Ī
Ø Ľ
Ù ¾ÚļØª
Û ³
Û ĥ
å ¥
å ¯
å ±
æ ĥ
æ ł
ç »
ç İ
ç ľ
è ®
è ´
ï ´¾
Ġ z
Ġ Ú
Ġ ÑĢ
Ġ ÑĥÐºÑĢÐ°ÑĹÐ½ÑģÑĮÐºÐ°
Ġ Ð¼Ð°ÐºÐµÐ´Ð¾Ð½ÑģÐºÐ¸
à¦° à¦Ĩà¦®
à¦° à¦Ĺà¦²
à§ĩ ........
à¦¿ =
à¦¿ &=
à¦¨ à¦ļà¦¨
à¦¨ à¦¶à¦¤
à¦¯ à¦ªà¦¨
à¦¯ à¦ĺ
à¦¯ à¦¸à¦¨
à¦¤ à¦°à¦¤
à¦¤ à¦®à¦²
à¦¤ à¦Ĺà¦£
à¦ķ à¦ķà¦°
à¦ķ à¦ĵà¦®
à¦¬ à¦®à¦¨
à¦¬ à¦¤à¦ķ
à¦¬ à¦ľà¦¨à¦ķ
à¦® à¦ł
à¦® à¦¦à¦¨
à¦® à¦Īà¦¨
Ġà¦ķ à¦ļà¦²
Ġà¦¸ à§İà¦¸à¦Ļ
à¦Ł à¦®à¦¨
à¦Ł à¦¬à¦¦
Ġà¦Ĩ à¦ĩà¦®
Ġà¦® à¦¶à¦Ĺ
à¦¶ à¦¤à¦®
à¦ĩ à¦ªà¦¤
à¦Ĺ à¦ľà¦Ł
Ġà¦ı à¦¸à¦®
à¦Ľ à¦Ľ
à¦Ľ à¦Ĩà¦²
à¦Ľ à¦¤à¦²
à¦¡ à¦¸à¦¨
Ġà¦ħ à¦ķà¦°
Ġà¦ħ à¦ĸà¦¨
Ġà¦ħ à¦®à¦¦
Ġà¦¤ à¦¨à¦¯
à¦§ à¦¨à¦¬
à¦§ à¦®à¦ķ
Ġà¦ľ à¦¶
Ġà¦ľ à¦²à¦¨
à¦Ĥ )
à¦ļ à¦Ń
à¦ļ à¦Ĺà¦¤
à¦ļ à¦®à¦ķ
à¦¥ à¦£
à¦¥ à¦ªà¦¨
à¦ĸ à¦ľ
à¦ĸ à¦¬à¦¨
à¦ĸ à¦°à¦¨
à¦ĸ à¦ľà¦¨à¦ķà¦Ń
Ġà¦° à¦¥à¦®
à¦Ń à¦ĩ
à¦£ à¦ľ
à¦£ à¦ªà¦°
à¦£ à¦¶à¦ķ
Ġà¦¶ à¦£
Ġà¦¶ à¦Łà¦Ĺ
Ġà¦¶ à¦¤à¦°à¦ŀ
à¦ĵ à¦¦à¦°
Ġà¦¯ à¦®à¦¦
Ġà¦¯ à¦¶à¦°
Ġ( .,
Ġà¦Ĺ à¦²à¦¬
Ġà¦Ĺ à¦¨à¦®
Ġà¦Ń à¦Ĺà¦¤
Ġà¦ĵ à¦°à¦¹
Ġà¦ī à¦ĩà¦¶
à¥¤ "
Ġà¦ĩ à¦¤à¦¨
Ġà¦ĩ à¦ĸà¦¤
Ġà¦ĩ à¦ıà¦¸à¦ª
à¦« à¦²à¦ķ
à¦« à¦Łà¦ķ
Ġà¦² à¦ĸà¦¬
à¦ĥ ...
Ġà¦¥ à¦ķ
Ġà¦¥ à¦Ł
Ġà¦ıà¦ķ à¦Ń
Ġà¦¸à¦® à¦¦
à¦ī à¦ŀ
à¦ł à¦ĩ
à¦ł à¦ķà¦¸
Ġà¦Ĩà¦® à¦ķ
Ġà¦Ľ à¦°
à¦ı à¦ĵ
à¦ı à¦¹à¦¸
à§¨ à§®à§¦
Ġà¦Ł à¦Ł
Ġà¦Ł à¦¡
Ġà¦Ł à¦ĩà¦ªà¦¤
à¦¾à¦Ĥ '
à¦Ĩ à¦ªà¦ķ
à¦¬à¦¨ à¦ª
à¦¬à¦¨ à¦ĵ
à¦¬à¦¨ à¦¦à¦°
.. /-//
Ġà¦Ĩà¦° à¦¬à¦ª
Ġà¦§ à¦²à¦ĩ
à¦ľà¦¨ à¦Ĩà¦¨
Ġà§¨à§¦ à§©
Ġà§¨à§¦ à§«à§¦
Ġ: ((
à¦°à¦® à¦²
à¦°à¦® à¦ĩ
à¦ķà¦° à¦Ń
à¦ĩà¦¨ à¦Ĺà¦°
Ġ- >
à§ª à§§à§®
à§İ à¦ªà¦¦
Ġà¦®à¦¨ à¦Ľ
ÙĦ Ùĩ
ÙĦ Øª
à§© à§ªà§¦
à¦°à¦¬ à¦¯
à¦°à¦¬ à¦²à¦Ń
à¦°à¦¸ à¦Ĺ
Ġà¦ıà¦° à¦«à¦²
Ġà¦ıà¦° à¦Ĩà¦Ĺ
à¦ĺ à¦¦à¦²
à¦²à¦ķ à¦²
à¦¦à¦° à¦²
à¦¦à¦¨ à¦¸à¦¹
à¦¦à¦¨ à¦Īà¦¦
à¦²à¦¨ à¦ĵ
à¦·à¦£ à¦¤
à¦·à¦£ à¦¹
à¦ħ à¦Ľ
à¦ħ à¦®à¦²
à¦¹à¦® à¦¤
à¦¹à¦® à¦ĸà¦¦
Ġ" !
Ġ" &
Ġà§© à§¨à§¯
à¦°à¦¦ à¦¦
Ġà¦®à¦¹ à¦²à¦ķ
Ġà¦¬à¦° à¦·
à¦®à¦¤ à¦Ĺ
à¦°à¦¯ à¦¶
à¦Ŀ à¦ĺà¦°
Ġà§¨à§¦à§¨ à§¬
à¦°à¦¨ à¦¬à¦¬à¦°
Ġà¦¬à¦Ľà¦° à¦ľ
Ġà¦ħà¦° à¦²
Ġà¦ħà¦° à¦Ĺ
à¦¯à¦ķ à¦Ł
à¦®à¦² à¦¤
à¦ĩà¦Ł à¦¬
Ġà§« à§§à§¦
Ġà§« à§§à§¬
Ġà§« à§¨à§«
Ġà§« à§ªà§©
Ġà§« à§«à§«
Ġà§« à§©à§¬
Ġà§« à§©à§®
Ġà¦Ĩà¦ľ à¦®à¦ķ
à¦ķà¦Ł à¦®à¦¯
à¦¼à§Ģ _
Ùı .
Ġà§ª à§§à§¨
Ġà§ª à§§à§¬
Ġà¦ħà¦§ à¦®
ÙĨ Ùĩ
Ġà¦ıà¦² à¦¹
à¦¨à¦¬ à¦¬à¦§
-- '
Ġà¦ĩà¦¨ à¦«à¦°
ÙĬ Ø¶
ÙĬ Ø·
à¦·à¦ķ à¦ĵ
Ġà¦¸à¦¨ à¦ľ
à¦¸à¦° à¦ŀ
à¦§à¦¨ à¦®
à¦¬à¦¬ à¦¤
à¦ıà¦¸ à¦ĵ
ĠØ§ ÛĮ
Ġà§¬ à§©à§¨
Ġà§¬ à§¯à§®
Ġà§¬ à§¯à§¦
Ġà§¬ à§«à§ªà§ª
à§¨à§¦ à§¨
Ġà¦ħà¦« à¦¶
à¦°à¦ª à¦¡
Ġà§Ń à§©à§©
à¦ıà¦¨ à¦ıà¦²à¦¡
à¦°à¦² à¦ľ
Ø± Ø£
Ġà§® à§ªà§¬
à¦®à¦ķ à¦¨
Ġà§¯ à§©à§¦
Ġà§¯ à§¯à§¦
Ġà¦¶à¦° à§İà¦ķ
Ġà¦ħà¦ª à¦¶
Ġà§§à§¯ à§¨à§©
Ġà§§à§¯ à§¦à§©
Ġà§§à§¯ à§©à§¨
Ġà¦«à¦² à¦¦
__ à¥¤
à¦°à¦¹à¦£ à¦®
Ġ[ "
à¦ªà¦¦ à¦¶
Ġà¦Ĺà¦£ à¦¦
à¦Ĩà¦° à¦ıà¦®
Ġà¦¬à¦ķ à¦ª
Ġà¦¬à¦ķ à¦¬à¦ķ
à§§à§¯ à§¨à§¦
à§§à§¯ à§§à§«
à§§à§¯ à§¨à§®
à§§à§¯ à§ªà§®
à§§à§¯ à§©à§¬
à§§à§¯ à§©à§¨
à§§à§¯ à§ªà§¯
à§§à§¯ à§«à§©
à§§à§¯ à§¬à§®
à§§à§¯ à§¬à§¨
à§§à§¯ à§¬à§¯
à¦¨à¦¸ à¦¤
Ġ) "
Ġà§¨à§ª à§¯
à¦ĩà¦¡ à¦®
à¦¯à¦¤ à¦ĩ
à¦ķà¦¨ à¦¹
à¦°à¦®à¦£ à¦ª
à¦²à¦Ĺ à¦ª
à¦ıà¦® à¦Ł
à§ĩ? ??
Ġà¦¬à¦¹ à¦°à¦®à¦ª
à¦¤à¦°à¦£ à¦¸à¦¹
10 30
à¦īà¦² à¦Ļ
Ġà¦ľà¦² à¦®à¦Ĺ
Ġà¦ľà¦² à¦ªà¦¥
Ġà¦ľà¦² à¦¬à¦¸à¦¨
Ġà¦ķà¦¨ à¦ĵà¦¯
à¦ľà¦² à¦¸
12 12
12 16
() }}
Ġà§§à§¬ à§¨à§¬à§©
Ġà§§à§® à§¯à§¦
Ġà§§à§Ń à§¦à§¦
à¦ļà¦ķ à¦ļà¦ķ
Ġ_ ,
Ġ_ ;
Ġà§©à§¦ à§©
à® ±
Ġ19 80
Ġ19 49
Ġ19 81
à¦ľà¦¨à¦ķ à¦£
Ùĥ ÙĪØ±Ø¯ÛĮ
Ġà¦¬à¦ĩ à¦ª
19 2
ĠØ£ Ø®
Ġà§¨à§« à§©
Ġà§¨à§« à§¦à§¦
ĠÙħ Ø³ÙĦÙħ
à§ĩ' !
Ġ18 00
Ġâ Ģ
Ġ14 38
à§§à§Ń à§§
à§§à§Ń à§¨
à§§à§Ń à§¬à§ª
Ġ15 20
ØŃ Øª
Ġ# #
ĠÙģ ØŃ
à§§à§® à§¯
ĠØ¨ ÙĩØ§
ĠØ¨ Ø¹Ø¯
Ġ16 84
Ġ17 68
à¦ĩà¦ī à¦¬
à§§à§¦ à§¨à§¦à§¦à§Ń
Ġc áĥ¥áĥĲáĥłáĥĹáĥ£áĥļáĥĺ
à¦ıà¦² à¦ıà¦¸
Ġà¦ĭ à¦ľ
Ġà§¨à§¨ à§¦à§¦à§¦
Ġà§¨à§¬ à§©
Ġà§¨à§® à§«
à§§à§¨ à§¬
80 6
27 0
à§§à§§ à§ªà§©à§¯
à² ķ
à§§à§¬ à§¨
à§§à§¬ à§©
à§§à§© à§¯
à§§à§© à§¬
à§§à§ª à§¦à§¦
à§§à§ª à§§à§«
à¦Łà¦¬ à¦Ĺ
Ġà§ªà§¦ à§®
à§ĩ... '
Ġà¦°à¦Ļ à¦¯
Ġà¦īà§İà¦¸à¦¬ à¦ķ
50 6
à§¨à§« à§«à§Ń
46 7
Ġà¦¨à¦ĵ à¦¦
67 5
Ġà¦ľà¦¨à¦ķ à¦£
Ġà¦ĵà¦· à¦§
37 4
à§¨à§¬ à§¦
ĠØŃ ØªÙī
45 3
38 9
Ø¶ ÙĦ
ðŁ Ĵ
60 4
Ġà¦¸à¦« à¦°à¦¸à¦Ļ
Ġà¦¦à¦¶ à¦Ń
à¦¬à¦Ĺ à¦¤à¦®
Ø§Ø ¤
à¦¾.) '
ÙıÙĳ ØĮ
à¦¼' !
à§Ģ? "
Ġà§¯à§® à§®
Ġà§©à§« à§ª
à§®à§® à§¬
ÙĬÙĨ ÙĬØ©
Ġà§¦à§§à§Ń à§§à§ªà§¨à§ª
à· Ĳ
Ġ+= ''+
Ġà§ªà§© à§§
Ġà§ªà§© à§¨
Ġà§ªà§© à§ª
Ġà§Ńà§« à§©
à¶ §
Ġà§©à§ª à§§
Ġà§©à§® à§«
à§©à§¬ à§§à§¦à§¨à§¦à§¦à§Ń
Ġà§ªà§¬ à§®
Ġà§ªà§ª à§ª
Ġà§«à§® à§Ń
}} ,
}} </>
Ġà§ªà§¯ à§¦
Ġà§ªà§Ń à§«
Ġï ´¿
Ġàª Ń
ĠØ´ Ø±
Ġ$ =
Ġa à¤®à¤°
Ġa Ù¾ÚļØª
Ġà§¦à§§à§¯ à§§à§Ń
Ġà§¦à§§à§¯ à§§à§¬à§®
Ġe Ð¼Ð°ÐºÐµÐ´Ð¾Ð½ÑģÐºÐ¸
à¦īà¦ıà¦ĩà¦ļ à¦ĵà¦°
Ú© ÛĮ
ĠðŁĺ ķ
................................ ................................
{{ #
Ġà§Ńà§¯ à§§
à¦§à¦¶ à¦¤à¦°
Ġà§Ńà§® à§§
âĢ ķ
à¦Ĩà¦ĩà¦ıà¦¸ à¦ĵ
à²¨à²¡ à¤®à¤°
à²¨à²¡ ÒĽÐ°Ð·Ð°ÒĽ
àµ ¾
à§¦à§§à§Ń à§©à§¬à§§à§¦à§¨à§¦à§¦à§Ń
Ġâĸ ¼
ĠØ¢ ÙĦ
Ġà¶ ¸
Ġà¤ħ à¤¨
Ġà¦ĸà¦¸ à¦ĸà¦¸
×Ļ× ĵ×Ļ×©
ĠØ§ÙĦØ¨ Ø±
Ġà¤° à¤¹
Ġà¦®à¦¦à¦¦ à¦¦
ÙĪÙģ Ø§Ø±Ø³ÛĮ
æĹ¥æľ¬èªŀ íķľêµŃìĸ´
ÑĥÐºÑĢÐ°ÑĹÐ½ÑģÑĮÐºÐ° ×¢×ĳ×¨×Ļ×ª
uc ÑĥÐºÑĢÐ°ÑĹÐ½ÑģÑĮÐºÐ°Ø§Ø±Ø¯ÙĪ
Ð¼Ð°ÐºÐµÐ´Ð¾Ð½ÑģÐºÐ¸ ÑĢÑĥÑģÑģÐºÐ¸Ð¹ÑģÑĢÐ¿ÑģÐºÐ¸
"","" )}
à¤ı à¤«
à¸ģ à¸²à¸
ÎµÎ»Î»Î·Î½Î¹ÎºÎ¬ àªĹ
Ð±ÑĬÐ»Ð³Ð°ÑĢÑģÐºÐ¸ aç®Ģä½ĵä¸Ńæĸĩç¹ģé«Ķä¸Ńæĸĩ
Ġà¦ªà¦¬à¦¨ à¦¦
à¹Ħà¸Ĺà¸¢ ç®Ģä½ĵä¸Ńæĸĩç¹ģé«Ķä¸Ńæĸĩ
à¹Ħà¸Ĺà¸¢ ucÑĥÐºÑĢÐ°ÑĹÐ½ÑģÑĮÐºÐ°Ø§Ø±Ø¯ÙĪ
à¦Ķ à¦ªà¦¨
Ø§ÙĦØ¹Ø±Ø¨ÙĬØ© ÙģØ§Ø±Ø³ÛĮ
aa csc
Ġà¦§à¦¨à¦ķ à¦¡
ĠÛģ ÛĴ
Ġà§ªà§ªà§® à§¨
Ø§Ø±Ø¯ÙĪ à¦¬
ïģ ¬
ĠØ¹ÙħØ± Ø§ÙĨ
ÙĤØ± Ø©
ĠÑĤÑĸÐ»Ñĸ Ð¼Ð°ÐºÐµÐ´Ð¾Ð½ÑģÐºÐ¸ÑĢÑĥÑģÑģÐºÐ¸Ð¹ÑģÑĢÐ¿ÑģÐºÐ¸
ÌĪ à¦¾
ĠØ®ÙĦ Ø§ÙĦ
à¦Łà¦ªà¦¤ à¦Ļ
ĠÛ±Û³Û¹Û ·
Ġà¦Ĩà¦ĵà¦° à¦Ļ
à¦Ĺà¦¤à¦¬ à¦Ľà¦°
à§İà¦® à¦°à¦®
ĠØ³Ø¨ ÙĬÙĦ
ĠÊ» ×¢
Õ°Õ¡ÕµÕ¥ÖĢÕ¥Õ¶ ÉĻ
æ³ ķ
Ġà¦ıà¦¸à¦ıà¦¸à¦Ĩà¦° à¦Ĩà¦ĩ
://... //
àºŀàº²àºªàº²àº¥àº²àº§ s
Ð¼Ð¾Ð½Ð³Ð¾Ð» áĢĹáĢĻ
ĠÑĤÐ¾Ò·Ð¸ÐºÓ£ à®¤à®®
ĠÑĺÐµÐ·Ð¸Ðº Ø³ÙĨÚĮÙĬà·ĥ
Ġacs ncsu
Ġe×Ļ ×Ļ×ĵ×Ļ×©
aaÑĢÑĥÑģÑģÐºÐ¸Ð¹ aÑģÑĢÐ¿ÑģÐºÐ¸
áĬłáĪĽáĪŃáĬĽØ§ÙĦØ¹Ø±Ø¨ÙĬØ© Õ°Õ¡ÕµÕ¥ÖĢÕ¥Õ¶ÉĻ
áŀļíķľêµŃìĸ´ ÙĥÙĪØ±Ø¯ÛĮ
à·Ħà¶½csc n
ĠeucÎµÎ»Î»Î·Î½Î¹ÎºÎ¬Ð±ÑĬÐ»Ð³Ð°ÑĢÑģÐºÐ¸ ÒĽÐ°Ð·Ð°ÒĽ
ĠÐºÑĭÑĢÐ³ÑĭÐ·ÑĩÐ° àºŀàº²àºªàº²àº¥àº²àº§s
Ġcáĥ¥áĥĲáĥłáĥĹáĥ£áĥļáĥĺ ÎµÎ»Î»Î·Î½Î¹ÎºÎ¬àªĹ
Ġà§¦à§§à§Ńà§§à§ªà§¨à§ª à§§à§Ńà§¬à§ª
ĠaÙ¾ÚļØª ÙĪÙģØ§Ø±Ø³ÛĮ
Ġà§¦à§§à§¯à§§à§¬à§® à§§à§§à§ªà§©à§¯
ÑĥÐºÑĢÐ°ÑĹÐ½ÑģÑĮÐºÐ°×¢×ĳ×¨×Ļ×ª Ø§ÙĦØ¹Ø±Ø¨ÙĬØ©ÙģØ§Ø±Ø³ÛĮ
Ð±ÑĬÐ»Ð³Ð°ÑĢÑģÐºÐ¸aç®Ģä½ĵä¸Ńæĸĩç¹ģé«Ķä¸Ńæĸĩ cs
aacsc e
ĠÑĤÑĸÐ»ÑĸÐ¼Ð°ÐºÐµÐ´Ð¾Ð½ÑģÐºÐ¸ÑĢÑĥÑģÑģÐºÐ¸Ð¹ÑģÑĢÐ¿ÑģÐºÐ¸ ÑĥÐºÑĢÐ°ÑĹÐ½ÑģÑĮÐºÐ°×¢×ĳ×¨×Ļ×ªØ§ÙĦØ¹Ø±Ø¨ÙĬØ©ÙģØ§Ø±Ø³ÛĮ
Ġe×Ļ×Ļ×ĵ×Ļ×© ua
ĠaÙ¾ÚļØªÙĪÙģØ§Ø±Ø³ÛĮ eà¨ª
ĠÑĤÑĸÐ»ÑĸÐ¼Ð°ÐºÐµÐ´Ð¾Ð½ÑģÐºÐ¸ÑĢÑĥÑģÑģÐºÐ¸Ð¹ÑģÑĢÐ¿ÑģÐºÐ¸ÑĥÐºÑĢÐ°ÑĹÐ½ÑģÑĮÐºÐ°×¢×ĳ×¨×Ļ×ªØ§ÙĦØ¹Ø±Ø¨ÙĬØ©ÙģØ§Ø±Ø³ÛĮ Ø§Ø±Ø¯ÙĪà¦¬
! ;
! ":
" _
" ),=.(
# ":
$ ":
$ ","
% ":
& ":
' }
( ":
) ":
* ":
+ ":
+ []
+ "");
- ",:
. =.(
/ ---------
0 15
3 000
4 09
5 21
5 40
5 60
6 52
9 42
; ":
; "":
= ","à¥¤":
@ ":
@ ","
@ ","");
[ ":
] -
] ":
] ..$
^ ":
^ ","
_ ":
{ },
Ë Ĳ
Ñ ı
Û Ĺ
å ¸
å Ĭ
å Į
å Ĵ
è §
é ĩ
é Ĺ
é Ŀ
ï Ģ
Ġ Ð¿
Ġ à¹Ģà¸
Ġ áĬłáĪĽáĪŃáĬĽ
Ģ ä¹Ī
à§ Ĺ
à¦¾ à§ĩà¦ĥ
à¦¾ ......
à¦¾ Â¤
à¦° à¦ı
à¦° à¦¶à¦¨
à§ĩ à§į
à§ĩ à§Ģ
à¦¨ à¦ªà¦°
à¦¨ à¦ľà¦¯
à¦¨ à¦¬à¦°à¦Ĺ
à¦¯ à¦°à¦ķ
à¦¤ à¦²à¦¤
à¦¤ à¦¸à¦¨
à¦¤ à¦¶à¦¤
à¦ķ à¦°à¦®
à¦ķ à¦¦à¦°
à¦ķ à¦®à¦¸
à¦¬ à§İà¦ķ
à¦¬ à¦ļà¦ķ
à¦¼ ..
à¦¼ à§Ī
à¦® à¦¬à¦¨
à¦® à¦ķà¦¬
à¦® à¦ĵà¦¦
à§ģ ]
à¦¸ à¦Ĺà¦£
Ġà¦ķ à¦¶
Ġà¦ķ à¦Ľ
Ġà¦ķ à¦ĸ
Ġà¦ķ à¦®à¦¨à¦¸
Ġà¦¸ à¦°à¦¯
à¦¦ à¦Ĺà¦£
Ġà¦¬ à¦ĩà¦¸
Ġà¦¬ à¦°à¦£à¦ķ
à§ĭ ..
à¦Ł à¦¹à¦¬
à¦Ł à¦®à¦¹
à¦ª à¦¸à¦¬
à¦ª à¦²à¦¬
à¦ª à¦ĩà¦¯
à¦ª à¦ľà¦¯
à¦ª à¦®à¦§
à§Ģ &=
Ġà¦Ĩ à¦īà¦ľ
Ġà¦Ĩ à¦ļà¦²
Ġà¦Ĩ à¦Łà¦®
Ġà¦® à¦¦à¦ª
Ġà¦® à¦°à¦£à¦¬
à¦ľ à¦ĵà¦²
à¦ľ à¦¤à¦¤
à¦ľ à¦ļà¦Ł
à¦ĩ à¦ķà¦²
à¦ĩ à¦®à¦ķ
à¦ĩ à¦ªà¦¥
à¦Ĺ à¦ľà¦¨
à¦Ĺ à¦Łà¦¨
à¦¹ à¦¸à¦¹
Ġà¦¹ à¦łà¦ķ
à¦· à¦¤à¦®
Ġà¦¦ à¦¶à¦°à¦¥
à¦Ľ à¦ĩ
à¦¡ à¦ļ
à¦¡ à¦¨à¦¯
à¦¼à§ĩ ....
Ġà¦¤ à¦¯
Ġà¦¤ à¦¸à¦¬
Ġà¦¤ à¦ªà¦¸
Ġà¦¤ à¦ªà¦¶
Ġà¦¤ à¦°à¦ľà¦®
à¦§ à¦ªà¦¥
Ġà¦ľ à¦®à¦²
à¦ļ à¦Ļ
à¦ļ à¦¶à¦®
à¦¥ à¦°à¦¬
à¦¥ à¦°à¦Ĺ
à¦ĸ à¦²à¦ķ
Ġà¦° à¦Ń
Ġà¦° à¦ĩà¦¸
à¦£ à¦²
Ġà¦¶ à¦ĵà¦Ĺ
à¦ĵ à¦¢
à¦ĵ à¦Ĩà¦ĩà¦¸
Ġà¦¯ à¦¤à¦°
Ġà¦¯ à¦¤à¦¨
Ġà¦¯ à¦¶à¦ķ
Ġ( ,,
Ġ( ðŁĵĸ
Ġà¦Ĺ à¦Ĺà¦£
Ġà¦ļ à¦°à¦Ń
Ġà¦ļ à¦°à¦ĸ
Ġà¦ĵ à¦®à¦¨
Ġà¦ĵ à¦ĩà¦°
Ġà¦ī à¦¥à¦²
Ġà¦ī à¦Ľà¦¤
Ġà¦ī à¦Ľà¦®
à¥¤ ","
Ġà¦ĩ à¦¬à¦²
Ġà¦ĩ à¦¹à¦²
Ġà¦² à¦ĵ
à¦ĥ '
Ġà¦ıà¦ķ à¦¶à¦°
Ġà¦¸à¦® à¦§
Ġà¦¸à¦® à¦®à¦°
à¦ī à¦¶à¦°
Ġà¦ĸ à¦ľ
à¦°à¦¤ à¦¦
à¦°à¦¤ à¦¹
à¦Ļ à¦ķ
à¦°à¦ķ à¦Ĺà¦£
Ġà¦ħà¦¨ à¦ķ
Ġà¦ħà¦¨ à¦®à¦¨
Ġà¦Ľ à¦«
à¦ı à¦²à¦ķ
à¦ı à¦ıà¦«à¦¸
à§¨ à§§à§¯
Ġà¦Ł à¦²à¦Ł
Ġà¦Ł à¦Ĺà¦¬à¦Ĺ
à¦Ĩ à¦īà¦²
à¦Ĩ à¦¯à¦¯
à¦Ĩ à¦ªà¦²
à¦¬à¦¨ à¦¨
à¦¬à¦¨ à¦¸à¦®
Ġ2 147
.. !
.. ,=
Ġà¦¡ à¦Ĺà¦²
à¦®à¦¨ à¦¨
à¦°à¦£ à¦¹
Ġà¦ıà¦¬ à¦¤
à¦ªà¦° à¦¬à¦¶
Ġà¦§ à¦ª
à¦ľà¦¨ à¦°
à¦¤à¦° à¦¬
à¦¤à¦° à¦¦
Ġà¦Ĩà¦² à¦®à¦¬
Ġ: à¥¤:
à¦ķà¦° à¦ŀ
à§Ī -
à§ª à§«à§¦
à§İ à¦¸à¦²
ÙĦ ÙĨ
ĠØ ¡
à§® à§ªà§Ń
à§® à§ªà§ª
à§© à§¯à§¬
à¦°à¦¬ à¦¹
à¦°à¦¸ à¦¤
à¦°à¦¸ à¦¦
à§Ń à§ªà§Ń
Ġà¦ıà¦° à¦ľà¦¨
Ġ. ---
Ġ. {:
Ġà¦Ĩà¦Ĺ à¦¤à¦¦
à¦ĺ à¦Ń
à¦ĺ à¦¸à¦¹
à¦ĺ à¦Łà¦ķ
Ġà¦§à¦° à¦¨à¦ķ
à¦ĩà¦² à¦¡
à¦ĩà¦² à¦ł
à¦ĩà¦² à¦Łà¦°
à¦ĩà¦² à¦ªà¦Ł
Ġà¦ķà¦® à¦¦
à¦ļà¦¨ à¦Ĺ
à¦²à¦¨ à¦Ł
à¦ħ à¦¬à¦¤
à¦ħ à¦ľà¦¯
à¦ħ à¦ªà¦¸
à¦ħ à¦¦à¦®
Ġ" ","":
Ġ" ]"
Ġ" $","
Ġ" =","à¥¤":
Ġ" @","
Ġ" ^","
Ġ" à¥¤","
à¦Łà¦¨ à¦¸à¦¹
Ġà§© à§¨à§¨
Ġà§© à§¨à§©
à¤ Ĩ
... ?
à¦¯à¦¬ à¦ĩ
à¦¸à¦¬ à¦¤
Ġà¦®à¦¹ à¦°à¦¤
Ġà¦¬à¦° à¦ŀ
Ġà¦¬à¦¨ à¦¸
à¦°à¦¨ à¦ĩ
à¦°à¦¨ à¦ĵà¦Ĺ
Ġà¦ħà¦¬ à¦¤à¦°à¦¨
ĠÙ ¡Ù
Ġà¦ħà¦° à¦Ń
à¦°à¦¶ à¦°
à¦°à¦¶ à¦®
à¦°à¦¶ à¦¹à¦°
à¦®à¦² à¦Ĺ
.( )};
à¦¼à§Ģ ...
Ùı :
Ùı Ûļ
Ġà§ª à§§à§¯
Ġà§ª à§¯à§¬
Ġà§ª à§«à§«
à¦ĩà¦ķ à¦ª
à¦ĩà¦ķ à¦°à¦£
Ġà¦ıà¦¸ à¦ľ
Ġà¦ıà¦¸ à¦Ľ
Ġà¦ıà¦¸ à¦ıà¦¸à¦¡
à¦°à¦¥à¦® à¦¬à¦°
à¦¸à¦¨ à¦ķà¦°
à¦¨à¦¬ à¦¬à¦°
Ġà¦ĸà¦¬à¦° à¦²
Ġà¦ĩà¦¨ à¦ķà¦°
à§¦à§¦ à§ªà§¦
à¦¤à¦ķ à¦¡
Ġà¦Ĩà¦°à¦ĵ à¦¸à¦°
Ġà§¬ à§§à§¦
Ġà§¬ à§§à§ª
Ġà§¬ à§©à§¦
Ġà¦Ĩà¦ĩà¦¨ à¦¬
à§¨à§¦ à§ª
à§¨à§¦ à§®
à¦°à¦ļ à¦ķ
à¦°à¦ª à¦Ļ
Ġà§Ń à§§à§¯
Ġà§Ń à§¬à§¦
Ġà§Ń à§Ńà§«
Ġà¦ªà¦¦ à¦§
ĠØ§ÙĦ Ø¬Ùħ
Ġ} }}
Ġ} ];
à¦®à¦ķ à¦¥à¦¨
Ġà§¯ à§«à§©
Ġà§§à§¦ à§§à§Ń
Ġà§§à§¦ à§ªà§©
Ġà§§à§¯ à§¨à§¦
Ġà§§à§¯ à§©à§§
Ġà§§à§¯ à§«à§§
Ġà¦«à¦² à¦ĵ
à¦Ĺà¦² à¦¬à¦¨
Ġà¦ıà¦ķà¦ľà¦¨ à¦ĩ
__ .
à¦ĩà¦¸ à¦¤
Ġ... '
à¦ıà¦ĩ à¦®
à¦ıà¦ĩ à¦ĸ
à¦ıà¦ĩ à¦ļà¦Ł
Ġà¦ıà¦¨ à¦ª
à¦ªà¦¦ à¦®
à¦ªà¦¦ à¦ĵ
ÙĪ Ø«
ÙĪ Ø°
ÙĪ Ø¹Ø©
Ġà¦Ĺà¦£ à¦¸à¦ļ
à§§à§¯ à§¨à§©
à§§à§¯ à§®à§Ń
à§§à§¯ à§¬à§©
à§§à§¯ à§®à§¨
à¦¨à¦¦ à¦²
Ġ) à¦ĥ
à¦Łà¦° à¦ªà¦¨
à¦ķà¦¨ à¦¸à¦¹
à¦°à¦®à¦£ à¦ĵ
Ġà¤ ¥
22 9
à¦ıà¦® à¦Ń
Ġà¦Ĩà¦ª à§İà¦ķ
ĠÙĪ Ø¨
ĠÙĪ Ø¬
Ġà¦¨à¦¬ à¦¯
à¦¨à¦ĵ à¦¨
Ġà§§à§§ à§¦à§¨
Ġà¦¬à¦¹ à¦¦
à¦¨à¦° à¦Ļ
à§ģ' )
Ø¹ ÙĦÙħ
à¦¦à¦² à¦Ń
Ġ.( .);
Ġà¦Ĩà¦¹ y
Ġà¦ľà¦² à¦Ľà¦¬
Ġà¦ªà¦¤ à¦Ļ
à¦°à¦« à§İ
09 88
09 64
09 94
09 96
à¦¿) '-
21 1
Ġà¦ıà¦ķà¦ĩ à¦¦
à¦ªà¦¸ à¦ĵà¦¯
à¦Ĺà¦łà¦¨ à¦ĵ
Ġ.. (
Ġ19 23
Ġ19 50
Ġ19 59
Ġ19 65
Ġ19 72
Ġ19 62
Ġ19 84
Ġà¦ıà¦¡ à¦¸
", ".
", ",":
Ø§ÙĦ Ø§
Ġà§¨à§§ à§¬
19 1
Ġ18 70
Ġ18 66
Ġ14 66
à§§à§Ń à§¦
à§§à§Ń à§®
à¦ªà¦£ à¦ķ
Ġà¦ĺà¦¨ à¦ĺà¦¨
Ġà¦īà¦ªà¦ķ à¦£
Ġà¦Ĩà¦ĩ à¦ıà¦®à¦ĩà¦Ĩà¦ĩ
Ġ15 92
ØŃ ÙĬ
ØŃ Ø³ÙĨ
ÙĤ ÙĬ
ÙĤ ÙĪÙĦ
Ġà¦¶à¦¹ à¦°à¦¬
ĠÙģ Ùī
17 4
17 20200908
à§§à§® à§®à§¬
ĠØ¨ Ø¯
Ġ16 24
Ġ17 59
Ġ17 64
à¦ĩà¦ī à¦Ĩà¦ĩà¦ıà¦¸à¦¸
Ø¬ Ø±
Ùģ Ø¸
Ġà¦ħà¦® à¦°à¦¤
Ġà¦ħà¦® à¦Ļ
Ġà§¨à§Ń à§§
Ġà§¨à§Ń à§®
Ġà§¨à§® à§¯
Ġà§¨à§® à§®
Ġà§¨à§® à§©
à¦¡à¦² à¦«
27 1
Ġà¦ķà¦ª à¦ļ
Ġ"\ "","
à¦ķà¦ľà¦¨ à¦¦
30 46
à§§à§« à§Ń
à§ĩ! !!
à§§à§§ à§©
à² £
à² ³
à² ¸
Ġà¦ľà¦¨à¦Ĺà¦£ à¦¨
40 1
à§§à§¬ à§«
à§§à§¬ à§®à§¬
à§§à§ª à§§
à§§à§ª à§¨
à¦ĩà¦ª à¦ľ
à§¨à§® à§©
à§¨à§® à§¨à§¯
'. -
........ ...
à´ Ļ
23 6
à¦¶à¦¤ à¦¬à¦°
Ġà¦ĭà¦£ à¦ªà¦¤
à§İà¦¸à¦ķ à¦¸à¦¹
à§¨à§« à§©
36 6
46 1
Ġà¦¨à¦ĵ à¦¹
'' ),
à¥¤à¥¤ à¥¤à¥¤
à§¨à§¬ à§ª
Ġ@ :
48 3647
&& .>
à¦¬à¦ľà¦¨ à¦¹
Ġà¦Ĺà¦¨ à¦§à¦°
Ġà¦Ĺà¦°à¦® à¦ķ
à¦¯à¦Łà¦¨ à¦¶
à¤ķ à¤°
Ø¶ Ø¹
ðŁ Į
Ġà¦«à¦°à¦® à¦Ł
55 50
à§¨à§Ń à§®
Ġà¦Ĳà¦ķ à¦®à¦¤
Ġà¦ħà¦¸à¦® à¦°
&= '+;
Ġà¦Ĩà¦Ł à¦ľà¦¨à¦ķ
à¦Ĩà¦¦ à¦®à¦¦
Ġà§©à§© à§®
-------- --
"," _
"," -":
"," !":
"," $":
"," (":
"," )":
"," *":
"," +":
"," @":
"," [":
"," ]":
"," ^":
Ġà¦Ĭ à¦·
à¤° à¤¤
à§«à§« à§¯
..( /\
à¦ıà¦ĸà¦¨ à¦ķ
Ġ@. /
56 9
59 3
Ġ.(" @","");
à§ªà§¦ à§©
Ġà§¯à§® à§Ń
Ġà§©à§« à§¦à§¦
à¦ĩà¦¦à¦¹ à¦Ŀ
=( );
69 5
Ġà§©à§¬ à§©
à¦¨à¦ľà¦¨ à¦ĩ
Ġà§¦à§§à§Ń à§§à§¯à§ªà§¬
à· ĵ
Ġà§ªà§© à§®
Ġà§Ńà§« à§ª
"- ").(
200 5
à¤µ à¤°à¤£
à§Ńà§Ń à§«à§¬
à§Ńà§Ń à§«à§ª
à§Ńà§Ń à§«à§®
à§Ńà§Ń à§¬à§©
Ġà§©à§ª à§ª
97 4
Ġà§ªà§® à§ª
à§¦à§® à§¯
Ø§Ø± Ø³
à§©à§¬ à§«
ĠØ§ÙĦØ£ ÙĨ
Ġà§©à§¯ à§§
.(' ',
à¦¬à¦ªà¦¨ à¦ķ
à¦ıà¦ķà¦¦ à¦²
Ġà§«à§¯ à§ª
Ġà² ¸
Ø§Ùħ ÙĬØ©
.- .//
à¹ ĥ
Ġà¦¬à¦¦à¦° à¦ĸ
Ġà¦¨à¦ķ à¦Ĩà¦īà¦Ł
Ġ.- ").((){
à§Ńà§¬ à§®
à§Ńà§¬ à§¦à§¬
Ġà¦°à¦ĵ à¦ľ
!= &&(
!= &&.(
Ġà¦¹à¦ľà¦® à¦¶à¦ķ
ĠØ§ÙĦÙħ Ø¤
Ġ017 11
),= "
!== ){
!== ){(
{{ /}}
.(" {}
à¦§à¦¸ à¦¢
âĺ ī
$("# ---
$("# -").(
Ġà§¦à§§à§® à§©à§«
à¦Ĩà¦ĩà¦ıà¦¸ à¦ıà¦¸
à¦Ĩà¦ļ à¦°à¦£à¦ķ
æĸ ¹
Ġà¦ªà¦Ļ à¦ķ
Ġâĸ ª
107 1323
Ġà¶ ¯
Ġà¦®à¦Ĺ à¦§
Ġ").( {:
Ġ").( "",(){
Ġ", ","*":
ÙĪØ³ Ùģ
)}), $("#----
&=&= '+;
Ġ"- ","+":
{} ")
{} ","");
Ġ"' ",",":
à¸²à¸ ĩ
Ġâŀ ²
),. >
-. ///
Ġà¦¬à¦¦à¦¨ à¦ľà¦°
ä» Ģä¹Ī
ĠØ§ÙĦØ¨ ÙĨ
äº º
Ġ") ","-":
ðŁĳ ı
Ġà§§à§§à§¯ à§¦
Ġà§®à§®à§Ń à§¦à§®
))} )}}
à¤¼ à¤¾
"",(){ .()}
=[] ..$
à¦¶à¦§ à¦°à¦¦
Ġ.--. ---
×Ļ×ª i
Ġ225 7
202 1071323
',': ${
),.(" {}")
Ġ"+ ","=
Ġ"; ","\
?=-- &=
------------ ---
Ġ"[ ","]":
Ġ{" _":
ĠÙģÙĤ Ø§ÙĦ
Ġ"? ":
Ġ"? ","!":
Ġ/// _
Ġ'/.?= &='+;
Ġ'/.?= &=&='+;
Ġ=.(" {}","");
Ġà¦īà¦®à¦®à¦® à¦®
ĠÐ¼Ð¾Ð²Ð° Ð±ÑĬÐ»Ð³Ð°ÑĢÑģÐºÐ¸aç®Ģä½ĵä¸Ńæĸĩç¹ģé«Ķä¸Ńæĸĩcs
Ġ"( ",")":
)](); [
Ġ"* ","[":
Ġà¦ıà¦®à¦ıà¦² à¦ıà¦®
Ġd o
à¦¯à¦ķà¦°à¦£ à¦¶
..//. ")
Ġà¦ĩà¦ķà¦¨ à¦®
Ġ"# ","$":
Ġà¦Ĺà¦ĵà¦¹à¦° à¦¡
Ġ"% ","^":
Ġ"! ","@":
Ġ"& ","(":
ĠÙģØŃ Ø´
Ġà§¦à§§à§¯à§§à§Ń à§©à§©à§©
-",: "
Ġà¦Łà¦²à¦Ł à¦²
Ġ2147 483647
Ġ:à¥¤: ,
Ġ.{: #
Ġ"]" };
Ġ"$"," %":
Ġ"@"," #":
Ġ"^"," &":
Ġ"à¥¤"," ;":
",". ":
Ġ"\""," '":
Ġà§¦à§§à§Ńà§§à§¯à§ªà§¬ à§¦à§¦à§ªà§¦
à§Ńà§Ńà§«à§¬ à§®à§«
à§Ńà§Ńà§¬à§© à§§à§«
.("{} ")){
2021071323 1720200908
Ġ"+","= ":
Ġ";","\ "":
Ġ=.("{}",""); .('
" ---
' à¥¤
( :
) ",
, (
. __.
3 11
5 18
5 14
6 11
7 38
7 65
8 68
9 66
] ..
] +(
_ %
_ ,
_ -
Î ¼
Ï Ĥ
à ½
å ĩ
å Ń
æ ²
æ ķ
ç ķ
ç Ľ
è ĥ½
é ¡
Ł ¥
à¦¾ #
à¦¾ ~
à¦¾ à§ĩ-
à¦¾ à¥¤à¥¤
à¦° à¦²à¦¤
à¦° à¦ĩà¦¸
à¦° à¦Łà¦°
à¦° à¦ħà¦¡
à§ĩ "-
à§ĩ .....
à§į ?
à¦¿ "-
à¦¿ âľħ
à¦¨ à¦°à¦®
à¦¨ à¦®à¦ķ
à¦¨ à¦°à¦Ĺ
à¦¨ à¦Ĩà¦ĩ
à¦¯ à¦§à¦¨
à¦¯ à¦Ľà¦ķ
à¦¤ à¦·
à¦¤ à¦ķà¦²
à¦¤ à¦ªà¦¦
à¦¤ à¦ħà¦¨
à¦¤ à¦¦à¦¶
à¦ķ à¦ªà¦Ł
à¦² à¦ļà¦ķ
à¦² à¦īà¦¡
à¦¬ à¦¤à¦°
à¦¬ à¦ĸà¦¤
à¦¬ à¦īà¦²
à¦¼ à§Į
à¦® à¦¬à¦°
à¦® à¦ķà¦¤
à¦® à¦Ĺà¦¤à¦Ń
à¦¸ à¦°à¦¸
à¦¸ à¦ıà¦¨
à¦¸ à¦ļà¦°
Ġà¦ķ à¦ŀ
Ġà¦ķ à¦ĩà¦¸
Ġà¦¸ à¦Łà¦ķ
Ġà¦¸ à¦ĵà¦ľ
à¦¦ à¦ī
à¦¦ à¦Ĺà¦®
Ġà¦¬ à¦°à¦®
Ġà¦ª à¦Ń
à¦Ł à¦°à¦¸à¦¹
à¦Ł à¦Ľà¦¡
à¦ª à¦¸à¦®à¦¯
à¦ª à¦Ľà¦¬
Ġà¦® à¦²à¦¨
Ġà¦® à¦Łà¦¨
à¦ľ à¦®à¦¤
à¦ľ à¦ĺà¦¨
à¦¶ à¦¤à¦²
à¦¶ à¦¶à¦°
à¦ĩ à¦°à¦¨
à¦Ĺ à¦«à¦²
à¦Ĺ à¦Ĺà¦¨
à¦Ĺ à¦¹à¦°à¦ª
Ġà¦¨ à¦°à¦ª
Ġà¦¨ à¦¨à¦¸
Ġà¦ı à¦®à¦ķ
Ġà¦ı à¦¶à¦°
Ġà¦ı à¦¸à¦®à¦¸
Ġà¦ı à¦¹à¦ĩà¦¯
Ġà¦ı à¦ıà¦¸à¦ĩ
Ġà¦¹ à¦°à¦¦
Ġà¦¹ à¦ªà¦ķ
Ġà¦¹ à¦°à¦²
Ġà¦¹ à¦ĩà¦¹
à¦Ľ à¦ļ
à¦¼à§ĩ ',
Ġà¦ħ à¦¸à¦°
Ġà¦ħ à¦¢
Ġà¦¤ à¦Łà¦¸
Ġà¦¤ à¦°à¦¤à¦°
à¦§ à¦£
à¦§ à¦®à¦¤
à¦§ à¦ľà¦¯
à¦§ à¦ķà¦®
à¦§ à¦Ĩà¦ĩà¦¨
à¦ļ à¦¬à¦°
à¦ļ à¦®à¦¤
à¦ļ à¦®à¦¬
à¦ļ à¦¶à¦¤
à¦ĸ à¦ĵà¦¯
Ġà¦° à¦®à¦¯
à¦Ń à¦°à¦¸
à¦Ń à¦¸à¦¹
à¦£ à¦ķà¦²
à¦£ à¦¤à¦¤
Ġà¦¶ à¦ªà¦Ĺ
à¦ĵ à¦¨à¦¬
à¦ĵ à¦®à¦ķ
à¦ĵ à¦¨à¦Ń
Ġ( <
Ġ( ')
Ġ( ,,,){
Ġà¦Ĺ à¦Ľ
Ġà¦Ĺ à¦¨à¦¶
Ġà¦ĵ à¦²à¦Ĺ
Ġà¦ī à¦°à¦ķ
Ġà¦ī à¦ĩà¦°
Ġà¦ī à¦ĩà¦¦
Ġà¦ī à¦Łà¦Ł
Ġà¦ī à¦ĩà¦ľà¦¡
à¥ Į
à¥¤ '
Ġà¦ĩ à¦Ĺà¦¨
Ġà¦ªà¦° à¦ļ
Ġà¦ªà¦° à¦®à¦¬
à¦« à¦°à¦¹
Ġà¦² à¦ĩ
Ġà¦² à¦¹à¦®
Ġà¦² à¦®à¦ķ
à¦ĥ [
Ġà¦¸à¦® à¦¶
à¦ī à¦Łà¦ķ
à¦¬à¦° à¦¦à¦¸
à¦ł à¦¯
Ġà¦Ĩà¦® à¦¹
Ġà¦Ĩà¦® à¦²à¦¨
Ġà¦Ĩà¦® à¦²à¦Ĺ
Ġà¦Ľ à¦²à¦¨
à¦ı à¦¬à¦²
à¦Ĩ à¦ĺ
à¦Ĩ à¦¸à¦¬
à¦Ĩ à¦¹à¦¤à¦¦
à¦¬à¦¨ à¦¤
Ġà¦¡ à¦°à¦¸
Ġà¦¡ à¦Ĺà¦°
à¦ªà¦¨ à¦¨
Ġà¦Ĩà¦° à¦²
Ġà¦Ĩà¦° à¦ıà¦«à¦ıà¦²
à¦ľà¦¨ à¦®à¦¤
à¦ľà¦¨ à¦ħà¦¨
à¦¾à¦ģ .
à¦¼à¦¿ !
à¦¤à¦° à¦ĩ
à¦°à¦¹ à¦¤
à¦°à¦¹ à¦²
à§ĩ, [
Ġà§¨à§¦ à§®
Ġ: ').(
à¦ĩà¦¨ à¦·
à¦ĩà¦¨ à¦ķà¦¯
Ġ- ...
à¦¿à¦Ĥ !
à¦¶à¦¨ à¦¶
à§ª à§©à§¦
à§İ à¦°
à§« à§®à§®
Ġà¦®à¦¨ à¦®à¦°
Ġà¦Ĩà¦¸ à¦°à¦Ł
à§® à§¦à§¦à§¦à§¦
à§Ń à§§à§¦
Ġà¦ıà¦° à¦¨
Ġ. ").();
à¦ĩà¦² à¦®
à¦ĩà¦² à¦°à¦ķ
Ġà¦¸à¦¬ à¦ĸà¦¬à¦°
à¦²à¦ķ à¦Ł
à¦ļà¦¨ à¦ª
à¦ļà¦¨ à¦ĵ
à¦¦à¦¨ à¦®à¦¯
à¦¦à¦ķ à¦ĵ
à¦ħ à¦°à¦¬
à¦ħ à¦¬à¦ķ
à¦ħ à¦¹à¦²
à¦ħ à¦¬à¦®
à¦ħ à¦ªà¦¬
à¦ķà¦² à¦Ĺ
à¦¼à§ĭ à¦ĥ
Ġà¦Ĩà¦¨ à¦°
à¦¤à¦¨ à¦Ĺà¦°
Ġà§© à§¨à§§
Ġà§© à§§à§Ń
Ġà§© à§¯à§¯
Ġà§© à§®à§®
Ġà§© à§ªà§Ń
à¤ ĥ
à¦¿, "
à¦¸à¦¬ à¦ħà¦ªà¦°
Ġ202 3
à¦Ŀ à¦®
ĠÙ ¾
à¦ĩà¦Ł à¦ĩ
à¦²à¦¤ à¦Ĩà¦°
Ġà¦¸à¦° à¦ľ
Ġà¦¸à¦° à¦Ľ
Ġà¦¸à¦° à¦²à¦°
Ġà§« à§§à§«
Ġà§« à§«à§ª
à¦Ĺà¦° à¦°
à¦Ĺà¦° à¦Ĺ
Ġà¦®à¦¤ à¦ķ
Ġà¦ıà¦Ł à¦Ĺ
Ġà§ª à§®à§¦
Ġà§ª à§§à§«
Ġà§ª à§¨à§®
Ġà§ª à§©à§«
à¦¹à¦¤ à¦ķà¦°à¦£
Ġà¦ıà¦¸ à¦ĩà¦ĵ
à¦¤à¦® à¦ķ
ÙĨ ÙĬØ©
ÙĨ Ø§Ø´
Ġà¦ıà¦² à¦¸à¦ª
à¦¾à¦ĥ) '
à¦¨à¦¬ à¦§à¦°
à¦¨à¦¬ à¦ķà¦£
Ġà¦ĸà¦¬à¦° à¦ķ
Ġà¦ĸà¦¬à¦° à¦ħà¦¨
-- //
à¦Łà¦ķ à¦ª
Ġà¦ĩà¦¨ à¦Ĺ
ÙĬ Ø¡
à¦²à¦¬ à¦¶à¦¤
à¦ªà¦ķ à¦ķ
Ùħ Ùĩ
Ùħ Ø³
Ùħ Ø§ÙĨ
à¦§à¦¨ à¦Ł
à¦¬à¦¬ à¦ķ
Ġà¦īà¦¤ à¦²
à¦ıà¦¸ à¦ĩà¦Ł
à¦ıà¦¸ à¦ıà¦®à¦ª
à¦ķà¦¤ à¦¦
Ġà§¬ à§§à§©
Ġà§¬ à§¨à§«
Ġà§¬ à§¬à§¦
Ġà§¬ à§Ńà§¬
Ġà¦Ĩà¦ĩà¦¨ à¦Ĺ
Ġà¦Ĩà¦ĩà¦¨ à¦¸à¦®
Ġà¦ħà¦¤ à¦¦
Ġà¦ħà¦¤ à¦ªà¦°
Ġ= -
à¦°à¦ª à¦¸
Ġà§Ń à§ªà§¬
à¦Ĩà¦® à¦®
ĠØ§ÙĦ ÙĬ
ĠØ§ÙĦ Øº
Ġà¦Ŀ à¦·
Ġ0 13
Ø± Ø©
Ġà§® à§ªà§¦
Ġà§¯ à§®à§¦
Ġà§¯ à§¯à§®
Ġà§¯ à§¯à§«
Ġà§§à§¦ à§«à§¯
Ġà§§à§¯ à§§
Ġà§§à§¯ à§§à§Ń
Ġà§§à§¯ à§¨à§ª
Ġà§§à§¯ à§§à§¦
Ġà§§à§¯ à§§à§«
Ġà§§à§¯ à§©à§©
Ġà¦«à¦² à¦Ĺ
Ġà§¦ à§©à§§
à¦¿- >>
Ġà¦Ĩà¦¤ à¦²
à¦¸à¦ķ à¦¸à¦¹
Ġ{ }
à¦ıà¦ĩ à¦¤
à¦«à¦¤ à¦°à¦ķ
Ġà¦¶à¦¤ à¦ªà¦¥
Ġà¦ıà¦¨ à¦Ĩà¦ĩà¦ı
à¦ªà¦¦ à¦Ł
Ġà¦Ĺà¦£ à¦°
à¦¿à¦ĥ ,
à¦Ĩà¦° à¦ı
à¦Ĩà¦° à¦ıà¦¸à¦ıà¦¸
Ġà¦Ĩà¦Łà¦ķ à¦¦
à§§à§¯ à§©à§ª
à§§à§¯ à§¬à§«
Ġ) =
à¦ķà¦¨ à¦Ń
Ġà¦Ĳ à¦Ĺ
à¦°à¦Ĺ à¦Ł
à¦¿' '
Ø³ ÙĦ
Ġà§§à§¨ à§§à§¬
à¦ĩà¦« à¦¯
à¦ıà¦® à¦«
Ġà§§à§« à§¦à§¦à§¦
ĠÙĪ ÙĦ
ĠÙĪ ÙĨ
ĠÙĪ Ùĥ
Ġà§§à§§ à§¨à§¯à§§
Ø¯ Ùħ
à¦ķà¦¸ à¦ľ
à¦¦à¦ª à¦¸à¦°à¦£
à¦ĩà¦Ń à¦ļ
Ġà§§à§ª à§¨à§¬
à¦Ĺà¦£ à¦§
à¦ıà¦ķ à¦ªà¦°
à¦°à¦Ł à¦¸
Ġà¦ıà¦® à¦Ĩà¦°
Ġà¦ıà¦® à¦ıà¦¸à¦¸
Ġà¦ıà¦® à¦ĵà¦ª
Ġà¦ľà¦² à¦Ļ
à¦Ĩà¦ĩ à¦ıà¦«à¦Ĩà¦ĩà¦¸
à§¨à§§ à§ª
à¦Ī à¦¸
09 001
Ġà§§à§® à§¦à§¦
Ġà§§à§® à§«à§¦
Ġà§§à§® à§¬à§¦
Ġà¦Ĺà¦° à¦°
Ġà§©à§¦ à§¨
Ġà§©à§¦ à§®
Ġ19 20
Ġ19 57
Ġ19 44
Ġ19 55
Ġ19 58
Ġ19 78
Ġ19 64
Ġ19 86
Ġ19 76
Ġ19 89
Ġ19 83
24 4
Ùĥ ÙĪÙĨ
Ġà¦ıà¦¡ à¦®à¦£
Ġà¦¬à¦ĩ à¦¸à¦®
à¦Ĩà¦ľ à¦ĩ
Ø§ÙĦ Ø£
19 59
19 71
Ġà§¨à§« à§Ń
Ġ18 50
Ġ18 60
Ġâ Ĥ¹
Ġ14 28
Ġ14 27
Ġ14 69
à§§à§Ń à§ª
---- -
Ġ15 08
Ġ15 93
à¦¸à¦¤ à¦¸
Ġà¦ħà¦¶ à¦°
Ġ& _=
à§¨à§ª à§ªà§¬
Ġà¦¶à¦¹ à¦°à¦¶
Ġ16 00
Ġ16 18
Ġ16 80
Ġ16 50
Ġ16 63
Ġ17 50
Ġ17 47
Ġ17 55
Ġ17 77
Ġ17 95
Ġ17 71
Ġ17 75
Ġ17 91
à§§à§¦ à§§à§§
à§®à§¦ à§§
Ùģ ÙĤ
à¦ķà¦°à¦£ à¦ķ
à¦ķà¦°à¦£ à¦Ĺ
à¦ķà¦°à¦£ à¦Ĺà¦¤
àª ®
àª Ń
Ġà§«à§¦ à§¨
Ġà¦¨à¦ľà¦° à¦¬à¦¨
Ġà§¨à§¨ à§¨
Ġà§¨à§¨ à§¬
à¦¾) :
à¦¡à¦¨ à¦ıà¦°
à¦°à¦®à¦¨ à¦®
à§§à§¨ à§¨à§ªà§¬
27 23
âĸ Ħ
30 à§¦
à§§à§« à§«
à§§à§« à§¬
Ġà¦°à¦¸ à¦Ĺ
à§§à§§ à§¨à§ª
Ġà§¨à§¯ à§®
à² ª
ĠÙĬ Ø´
à¦ıà¦ĩà¦ļ à¦¬
à¦ıà¦ĩà¦ļ à¦ıà¦«
25 7
à§¨à§¨ à§¯à§ª
)} (
=== ""
35 3
35 9
à¸ ¸
à¸ Ī
Ġà¦°à¦Ļ à¦Ĺ
à¦°à¦ľà¦¨ à¦¨à¦ķ
à¦Ĺà¦ķ à¦¥
36 1
36 8
36 9
46 6
à¦¿! '
à§®à§®à§¦ à§§à§«à§§
à§®à§®à§¦ à§¨à§ªà§ªà§¬
37 6
37 01
à¦ķà¦Ĺ à¦®à¦¨
à§¨à§¬ à§¨
à§¨à§¬ à§«
Ġà¦Ĩà¦ĩà¦¸ à¦¸à¦¹
à¦«à¦¸ à¦«
ĠØŃ ÙĤ
ĠØŃ ÙģØ¸
ĠØ¥ ÙĨ
47 1
38 1
39 0
39 6
à§¨à§Ń à§¯
Ø§ÙĨ Øª
Ġ:// -.///
à§ĭ? ?
Ġà¦²à¦Ĺ à¦Ł
Ġà¦²à¦Ĺ à¦ª
?= '
à¤° à¤ķ
ĠØµ ØŃÙĬØŃ
\' +
à¦¾... "
69 1
68 9
Ġà® ¨
Ġà® ĩ
à¦¶à¦¦ à¦Ń
Ġà§©à§Ń à§Ń
Ġà§®à§¦ à§ª
Ġà¦¬à¦¸à¦¤ à¦ĺà¦°à¦¸à¦¹
Ġ.... .....
à§ĭà¦Ĥ ,
'+ )[
à§Ńà§Ń à§¦
à¦¦à¦°à¦¬à¦¨ à¦ķ
à¦Ĩà¦ķ à¦¬à¦°
à§©à§Ń à§ª
Ġà§ªà§ª à§¨
}} }
ĠØ¬ Ø§Ø¡
à§«à§ª à§¨
Ġà§ªà§¯ à§®
Ġà¦¸à¦«à¦²à¦¤ à¦®
à¦Ľà¦¦ à¦ĸà¦¬à¦°
Ġà§«à§¯ à§«
à§ªà§¯ à§«
à¦ħà¦ª à¦Ľà¦¨
à¦ħà¦ª à¦ļà¦¯
à¦ħà¦ª à¦¹à¦°à¦£
Ġà§«à§Ń à§§à§Ń
Øº ÙĬ
Ġà§«à§¬ à§¯
Ġà§«à§¬ à§®
Ġà¦¶à¦ª à¦¥à¦¬
Ġ$(". --
Ġà¦Ĩà¦ĩà¦ľ à¦ķ
Ġà§®à§® à§§
Ġà¦īà¦ĩ à¦ĺ
Ġà§Ńà§¬ à§§à§ª
Ġà§¬à§¬ à§ª
******** ****
Ġà§¯à§¬ à§¨
à§§à§¨à§§ à§¬à§¬
à¦®à¦ĩà¦¨ à¦īà¦¦
Ġ<> (
Ġà¦ķà¦¸ à¦°à¦¤
().( ".
ĠÙĢ Ú
à§¯à§« à§§à§ªà§¯
à§¯à§« à§§à§¨à§¨à§ªà§¬
ĠØ§ÙĦÙħ Ø¹
Ġ017 17
ĠØ¹ÙĨ Ø¯
à§ģ. !!
Ð» Ð¸
Ġà¦ķà¦¦ à¦®à¦¬
Ġà§Ńà§¯ à§Ń
Ġà¦ľà¦Ĺà§İ à¦ľ
Ġà§¦à§§à§® à§©à§¬
,"" ),
</> <
à¦®à¦¸à¦¨ à¦¦
à¦¤à¦¬à¦° à¦°
Ġà¦ĺà¦· à¦²
Ġ://../ ?=
147 147
ĠÛ ²
Ġ://... //
(= '',
800 000
Ġ~ (
ÙĪØ¨ Ø©
Ġà¥¤= }}
à¦¶à¦¬à¦¨ à¦²à¦¤
Ġà¦¤à¦« à¦¶
à¤ľ à¤¨
à¸²à¸ Ļ
ÃĹ ÃĹ
ĠÚ© ÛĴ
à¦ıà¦¸à¦Ĩà¦° à¦ıà¦®
157 153
Ġ.('__ '+)[
;++ ){
.("") );
ĠÏ Ĩ
à¸£ à¸°
!!!! !!!!
Ġ'&= ',
Ġà§¦à§§à§Ńà§§à§¬ à§®à§¦à§¦à§¦à§¦
âĹķ âĸĪâĸĪ
à¸ģ à¸¥
åı ¯
Ġà¦¶à¦°à¦¨ à¦ĸ
ÙĬØ³ ÙĬØ©
Ġ'. '
Ġà¦ķà¦°à¦® à¦ľà¦²
à¦¾.. ?
à¦Ĩà¦°à¦ıà¦« à¦ıà¦²
)})}} )();
Ġà¦¥à¦° à¦¥à¦°
Ġà§©à§§à§¯ à§«
Ġà§¨à§§à§Ń à§ªà§®à§©
Ġà¦®à¦Ł à¦°à¦¶
Ġà¦ľà¦¬à¦°à¦¦ à¦ĸà¦²à¦ķ
ĠÌĪ à¦¾
à¦Į à¦Į
Ġà§§à§®à§® à§¨à§¦
âĺºï¸ıâĺºï¸ı âĺºï¸ıâĺºï¸ı
Ġà¦ĵà¦²à¦Ł à¦ª
Ġà§¬à§©à§¬ à§ª
çº ¸
è¯ ´
Ġà¦¬à¦°à¦¬ à¦Ł
Ġà§¦à§§à§Ńà§§à§« à§¨à§«à§«à§Ń
à§§à§¯à§ª à§¨à§¨à§¯à§ª
à¦¡à¦īà¦ĩ à¦¥
Ġ.('://.// ?='
ĠØ§ÙĦØ£Ø° Ø§ÙĨ
ĠØ£Ø® Ø¨Ø±
Ġ+=''+ []+'';
à¦Łà¦®à¦¹ à¦²à¦¬
Ġ(,, )
Ġ@./ @.
]+( \-
à¦¦à¦ī à¦¦à¦²
Ġ&_= &='
à§®à§®à§¦à§§à§«à§§ à§§à§¯à§ªà§¨à§¨à§¯à§ª
à§®à§®à§¦à§¨à§ªà§ªà§¬ à§§à§¨à§§à§¬à§¬
à§¯à§«à§§à§ªà§¯ à§®à§®
157153 147147
Ġà§¦à§§à§Ńà§§à§¬à§®à§¦à§¦à§¦à§¦ à§®
Ġà§¦à§§à§Ńà§§à§«à§¨à§«à§«à§Ń à§¬à§«
! =.(
" ...
" ),(.).("").(
" ),=.(""),=.(""
# -").((){(".").(":(:)").()}).((){(".").(":(:)").(
$ ;
$ ++
$ ":"
' (
' \
' ),.
' ),().(
' ),="
( .-
( !==
( ("#
( .().(":")){.(
( (){("#
( .("{}")){
) ),(
) )}}
) ").((){
) /,"/"+
) ),.&&.("",
+ "",
, .
, =(
, ++
, _:
, ("#
, ..);
, .)+"
, ..$.$
, .()}
, )+"...
, =.(/<\[^>]*>/,
- ]
- à¦¿
- ",
- ");
- /-
- ..);.(
. }}
. =(){
. &&.(
. =(,){
. &&"/"==
. ),("#
/ ..
/ ';
/ ")+
/ [^[\]]+(?=])/
0 40
0 42
0 505
3 30
3 23
3 44
4 21
6 20
6 47
7 24
7 35
7 79
9 63
9 84
: ,:"
; --
; >=
; =..
; ";=(
; .à¥¤à¥¤(
; .("").(
< ([^
= +
= )}
= [],
= "#_
> ?"":
> ..$.$
> ;++){
? ...
? .[
? -=
? ..:
? +='
@ .)
[ =""
[ (,
] =
] .)
] ..$:
] ),().(".-").(
_ //
_ ,:
_ &&(=.(
{ .$
{ -:
{ =}
{ ("#").()}
} ..(
} ),().(
} +='
} ),("#
¦ ģ
· à²£
Ø Ł
Û ±
å ī
æ ĭ
è ĩ
è ¦ģ
é ¢
é Ģ
é Ľ
é ĥ½
Ġ ^
Ġ ä¸Ńæĸĩ
Ġ Ã¦
Ġ ×¢
Ġ à¹Ħà¸Ĺà¸¢
Ġ à·Ħ
Ġ ................................................
Ġ î¢ĵ
à¦¾ à§ĩ,
à¦¾ ()
à¦° à¦Ĩ
à¦° à¦Ĩà¦¨à¦ķ
à§į Ö´
à¦¿ ----
à¦¿ .....
à¦¨ à¦¶à¦ķ
à¦¨ à¦¶à¦°
à¦¨ à¦Īà¦®
à¦¨ à¦Ĺà¦¤à¦Ń
à¦¯ à¦Ŀ
à¦¯ à¦²à¦¯
à¦¯ à¦¶à¦°
à¦¤ à¦¬à¦¨
à¦¤ à¦ķà¦Ł
à¦¤ à¦ªà¦£
à¦¤ à¦ĵà¦¬
à¦¤ Åĵ
à¦ķ à¦ī
à¦ķ à¦ķà¦Ł
à¦ķ à¦¶à¦ķ
à¦ķ à¦¸à¦ķ
à¦ķ à¦®à¦¯
à¦² à¦¤à¦°
à¦² à¦Ĺà¦²
à¦² à¦¹à¦ķ
à¦¬ à¦ĩà¦ķ
à¦¬ à¦ĩà¦¤
à¦¬ à¦§à¦°
à¦® à¦¤à¦¨
à¦® à¦¶à¦ķ
à§ģ +
à¦¸ à¦·
à¦¸ à¦Łà¦¨
à¦¸ à¦ľà¦®
Ġà¦ķ à¦¸à¦°
Ġà¦ķ à¦ĩà¦ĵ
Ġà¦¸ à¦²à¦Ń
Ġà¦¸ à¦²à¦«
à¦¦ à¦¡
à¦¦ à¦®à¦¨
à¦¦ à¦°à¦¸à¦¹
Ġà¦¬ à¦¤à¦°
Ġà¦¬ à¦ĩà¦ķ
à§ĭ à§į
à§ĭ ),
à¦Ł à¦²à¦Ł
à¦Ł à¦Ńà¦°
à¦Ł à¦Ĩà¦īà¦Ł
à§Ģ [
à§Ģ à§į
Ġà¦Ĩ à¦ĵ
Ġà¦Ĩ à¦°à¦£
Ġà¦Ĩ à¦Łà¦¬
Ġà¦® à¦ĵ
Ġà¦® à¦°à¦¨
Ġà¦® à¦ĸà¦²
Ġà¦® à¦ĩà¦¦
à¦¶ à¦ľà¦¨
à¦¶ à¦°à¦¹
à¦¶ à¦®à¦¤
à¦¶ à¦Ĺà¦£
à¦¶ à¦ıà¦¶
à¦ĩ à¦·
à¦ĩ à¦ĸà¦²
à¦ĩ à¦Ĩà¦°à¦¡
à¦Ĺ à¦ĩà¦²
à¦Ĺ à§İà¦²
Ġà¦¨ à¦ĸà¦¸
à¦¹ à¦ļà¦°
Ġà¦¹ à¦°à¦°
Ġà¦¹ à¦°à¦ķà¦¤
à¦· à¦®à¦¨
à¦· à¦°à¦ľ
à¦· à¦Ĺà¦£
Ġà¦¦ à¦¶à¦¬
à¦Ľ à¦¸
à¦¡ à¦ı
à¦¡ à¦¬à¦²
à¦¡ à¦ħà¦¨
à¦¼à§ĩ "
Ġà¦ħ à¦ħ
Ġà¦ħ à¦¯à¦¤
Ġà¦ħ à¦Ĺà¦¨
Ġà¦¤ à¦ķà¦¦
Ġà¦¤ à¦¹à¦¸
à¦§ à¦°à¦¤
Ġà¦ľ à¦¤
Ġà¦ľ à¦®à¦¬
à¦Ĥ !
à¦ļ à¦ĺ
à¦ļ à¦ķà¦²
à¦¥ à¦ĵà¦¯
Ġà¦° à¦¸à¦®
Ġà¦° à¦ľà¦®
à¦Ń à¦ļ
à¦Ń à¦²à¦¬
à¦£ à¦ļà¦¨
à¦ĵ à¦²à¦¨
à¦ĵ à¦ĩà¦¦
à¦ĵ à¦¨à¦²
Ġ( ==
Ġ( {:
Ġ( Â°
Ġ( ".",.$).(
Ġà¦ļ à¦·
Ġà¦Ń à¦²à¦ķ
Ġà¦Ń à¦²à¦¤
Ġà¦Ń à¦²à¦®
Ġà¦ĵ à¦Ļ
Ġà¦ĵ à¦°à¦¶
Ġà¦ī à¦Łà¦®
Ġà¦ī à¦ĩà¦Ĺ
à¥¤ \/
Ġà¦ĩ à¦°à¦°
Ġà¦ªà¦° à¦ľà¦Ĺà¦¤
à¦« à¦£
à¦« à¦ľà¦ĸ
à§Ĥ !
à§Ĥ ...
à¦ĥ "
à¦ĥ à¦ĥ-
Ġà¦¥ à¦ĩ
Ġà¦¥ à¦¤à¦®à¦¤
à¦ī à¦¬à¦¨
à¦ī à¦¸à¦ķ
à¦ī à¦ªà¦ķà¦¥
à¦¬à¦° à¦Ń
à¦¬à¦° à¦¸à¦¹
à§§ à§§à§¯
à¦ł à¦Ĺ
Ġà¦Ĩà¦® à¦¸
à¦°à¦ķ à¦ĸà¦£
Ġà¦Ľ à¦Ĺ
Ġà¦Ľ à¦ĵà¦¯
Ġà¦Ľ à¦ĩà¦²
à¦ı à¦Ļ
à¦ı à¦°à¦®à¦§
Ġà§¨ à§¨à§ª
à§¨ à§¯à§¯
Ġà¦Ł à¦²à¦¸
à¦Ĩ à¦·
à¦Ĩ à¦ĩà¦²
à¦Ĩ à¦¨à¦¬
à¦Ĩ à¦ķà¦¸
à¦Ĩ à¦ªà¦Ł
à¦Ĩ à¦§à¦Ł
à¦ŀ à¦¨
.. ,:
.. )}
.. });
.. )}}
.. >=
.. ?.(
.. ={:"",:
.. [(,
à¦°à¦£ à¦Ľ
Ùİ ÙĶ
Ġà¦Ĩà¦° à¦¹
à¦ľà¦¨ à¦Ĺà¦£à¦ķ
à¦¾à¦ģ !
Ġà¦ıà¦ĩ à¦¯
Ġ' ...
Ġ' //
à¦¤à¦° à¦ªà¦¶
à§Į à¦ĥ
Ġ: ,
Ġ: {:
à¦°à¦® à¦§à¦°
à¦ĩà¦¨ à¦ª
à§¯ à§¦à§§
à¦¿à¦Ĥ ',
Ġà¦īà¦ª à¦ķà¦¨
à§« à§®à§¦
à§« à§¬à§§
à§© à§¯à§¯
à¦¾, ,,
à¦°à¦¬ à¦ĩ
à¦°à¦¬ à¦¦à¦²
à¦°à¦¸ à¦¨à¦ķ
Ġ. ----
Ġ. =(){
Ġ. $.("
Ġà¦Ĩà¦Ĺ à¦®
Ġà¦¹à¦² à¦«
à¦ĺ à¦ľ
à¦ĺ Åĵ
Ġà¦īà¦¦ à¦¬
à¦ĩà¦² à¦¬
à¦ĩà¦² à¦ª
à¦ĩà¦² à¦¹
à¦¸à¦² à¦ĸ
à¦¸à¦² à¦®à¦¨
à¦²à¦ķ à¦¤
à¦²à¦ķ à¦Ĺ
à¦²à¦ķ à¦ĵ
Ġ, =..;(
Ġà¦ķà¦® à¦¸
Ġà¦ķà¦® à¦«
à¦¦à¦¨ à¦¦
à¦²à¦¨ à¦¸
à¦ħ à¦¹à¦¨
à¦ħ à¦ĺà¦Łà¦¨
à¦ħ à¦ªà¦ª
à¦¸à¦® à¦£
Ġ" ...
Ġ" )};
Ġ" ),().(".-").(
Ġ" ,:,:,:,:,:,:
à¦¤à¦¨ à¦ľà¦¨
à¦¤à¦¨ à¦¸à¦¹
à¦Łà¦¨ à¦ľ
Ġà§© à§§à§§
Ġà§© à§¨à§®
Ġà§© à§ªà§©
Ġà§© à§¨à§Ń
Ġà§© à§ªà§¦
à¦¿, ...
à¦¿, ,,
... ',
... "),
... "}
... ;>;++){(
Ġà¦¸à¦¹ à¦ľà¦¸
Ġà¦ķà¦¥ à¦ª
Ġà¦¬à¦° à¦ĩ
Ġà¦¬à¦¨ à¦ķà¦°
à¦®à¦¤ à¦ĵ
à¦¤à¦¬ à¦¡
Ġà¦ħà¦° à¦ļ
ÙĴ ØĮ
à¦ĩà¦Ł à¦¦
.( ()
.( ""),.
Ġà¦¸à¦° à¦ª
Ġà§« à§Ńà§§
Ġà§« à§¬à§§
Ġà§« à§©à§¨
Ġà§« à§«à§®
Ġà§« à§ªà§¨
); -
); .$.(
); .$.(".").(
); $(".-").(
Ġà¦ıà¦Ł à¦®
Ġà§ª à§§à§®
Ġà§ª à§¨à§¨
Ġà§ª à§¯à§¯
à¦¸à¦¹ à¦ľà¦ª
à¦¹à¦¤ à¦¦à¦°
Ġà¦Ĩà¦ķ à¦°à¦®
à¦°à¦¥à¦® à¦¸
ÙĨ Ø§Ø¦
à¦¨à¦¬ à¦¹
à¦¨à¦¬ à¦ķà¦²
-- ").(
-- '>.</>
à¦Łà¦ķ à¦¥
ÙĬ Øµ
Ġà¦¸à¦¨ à¦ľà¦¬
à¦¸à¦° à¦¬à¦°
Ġà¦īà¦¨ à¦ªà¦ŀ
à§¦à§¦ à§¨
à¦¤à¦ķ à¦¹
à¦¤à¦ķ à¦¥
Ġ+ +
à¦§à¦¨ à¦¸à¦®
à¦ķà¦¤ à¦Ł
Ġ() [
ĠØ§ Ø¬
ĠØ§ Ùģ
ĠØ§ Ø´
ĠØ§ ÙĪØ±
Ġà§¬ à§¨à§§
Ġà§¬ à§¨à§ª
Ġà§¬ à§¨à§¯
Ġà§¬ à§©à§Ń
Ġà§¬ à§¯à§ª
à¦īà¦ľ à¦®
Ġ= (){
Ġ= ".
Ġ= à¥¤à¥¤
Ġ= ;(
Ġ= .,=
Ġ= $(".-").(
Ġ= (){(
Ġà§Ń à§¨à§¯
Ġà§Ń à§¨à§Ń
Ġà§Ń à§©à§¯
Ġà§Ń à§ªà§ª
Ġ} {
Ġ} ).().(
Ġ} )})}
à¦¶à¦ķ à¦¸à¦¹
), >
), ""===..
), +='
), .$.("").(
), /[^[\]]+(?=])/
Ġ3 500
).( "
).( "").(
).( ),().(
).( ).();.(
).( ),(.).("").(
).( (""===.?..+"//"+..:.)+"
).( ),.>
à¦ıà¦¨ à¦Ĩà¦°à¦¬
Ġà¦Ŀ à¦°à¦Ľ
Ġ0 25
Ø± ÙĨØ§Ø´
Ġà§® à§§à§«
à¦®à¦¸ à¦Ń
Ġà¦ħà¦ªà¦° à¦ªà¦ķ
Ġà¦ĩà¦ī à¦¯
Ġà¦ħà¦ª à¦¦
Ġà§§à§¯ à§¦à§§
Ġà§§à§¯ à§¦à§¯
à¦¬à¦ª à¦¶
Ġ{ \
Ġ... (
Ġà¦¶à¦¤ à¦Ĺ
Ġ[ ""
Ġà¦ıà¦¨ à¦ıà¦²à¦¡
ÙĪ ÙĬØ©
Ġà¦Ĺà¦£ à¦ľà¦®
Ġà¦Ĺà¦£ à¦ªà¦¦à¦¤
"" "),
"" };
"" !==[
"" &&.>
"" )})}})();
à¦·à¦¤ à¦¸
à¦Ĩà¦° à¦ıà¦¨à¦¬
à§§à§¯ à§¦
à§§à§¯ à§ªà§©
à§§à§¯ à§¦à§«
à§§à§¯ à§©à§©
à§§à§¯ à§¬à§§
à§§à§¯ à§«à§ª
à§§à§¯ à§ªà§ª
à§§à§¯ à§«à§§
à§§à§¯ à§®à§¬
à¦«à¦² à¦¸
à¦¨à¦¦ à¦¶à¦ķ
à¦ĩà¦¡ à¦®à¦¨
à¦ĩà¦ľ à¦Ĺ
à¦¯à¦¤ à¦¤
Øª ÙĦ
Øª ÙĨ
à¦ķà¦¨ à¦«
Ġà¦ªà¦¥ à¦¯
à¦°à¦®à¦£ à¦ľà¦¨
Ø³ ÙĪØ±Ø©
à¦²à¦Ĺ à¦¨
à¦²à¦Ĺ à¦®
== .(,
== ){(
== "://
à¦ıà¦® à¦Ĩà¦°à¦¸
ĠÙĪ ÙħÙĨ
Ġà¦Ī à¦¡
Ø¯ ÙĬØ©
à¦ķà¦¸ à¦¤à¦²
Ġà¦¬à¦¹ à¦¨à¦¯
à¦®à¦Ĺ à¦ľ
à¦°à¦ĩ à¦·
Ġà§§à§ª à§©à§«
à¦Ĺà¦£ à¦¹à¦¤
10 20
Ġà¦¹à¦ķ à¦¸à¦¹
à¦īà¦² à¦¦
Ġà¦ıà¦® à¦Ł
Ġà¦ıà¦® à¦Ĩà¦ĩà¦ıà¦¸
Ġà¦ıà¦® à¦Ĩà¦°à¦ª
Ġà¦ıà¦® à¦Ĩà¦°à¦Ĩà¦ĩ
Ġà¦ľà¦² à¦Ń
à¦°à¦« à¦Ł
12 00
09 38
() &&
Ġ.. //
à¦ļà¦ķ à¦Ĺ
Ġ_ ,,
Ġà§©à§¦ à§«
Ġ19 09
Ġ19 21
Ġ19 24
Ġ19 18
Ġ19 29
Ġ19 40
Ġ19 35
Ġ19 46
Ġ19 67
Ġ19 48
Ġ19 41
Ġ19 07
Ġ19 03
Ġ19 82
Ġà¦ħà¦² à¦Ł
Ġà¦Ĩà¦²à¦® à¦¸à¦¹
Ġ? ..$:""
Ġ? ..$:"","$"
à¦ķà¦ķ à¦¥
Ġà¦¬à¦ĩ à¦ĸ
à¦Ĩà¦ľ à¦®à¦²
", (){
", +"");
", );$(".-").(
Ø§ÙĦ Ùĥ
Ø§ÙĦ Ø´
Ø§ÙĦ Ø²
Ġà§¨à§§ à§§
ĠØ£ ÙĬ
Ġà§¨à§« à§®
18 008
Ġà¦ªà¦² à¦²
Ġ! ").(
Ġ! ")}
à§ĩ' '
Ġ18 30
Ġ18 99
Ġ18 23
Ġ18 67
Ġ18 47
Ġ18 34
Ġ18 59
Ġ18 61
Ġ18 78
Ġ18 54
Ġ18 72
15 163
Ġ14 15
Ġ14 36
Ġ14 45
Ġ14 68
Ġ14 01
Ġ14 62
Ġ14 98
à§§à§Ń à§§à§®à§§à§¯
à¦¬à¦¹ à¦¨à¦ķ
'); .("-
à¥Ģ ,
à¥Ģ .
Ġà¦®à¦ľ à¦¹
Ġà¦ĩà¦¸ à¦¸à¦¸
Ġ15 67
Ġ15 55
Ġ15 88
Ġ15 68
Ġ15 01
Ġ15 66
Ġ# ,
Ġ# ----
Ġ# -").((){(".").(":(:)").()}).((){(".").(":(:)").(
ÙĤ ÙĬÙĤ
à§¨à§ª à§¨à§«
à§§à§® à§¯à§§
ĠØ¨ Ùĩ
ĠØ¨ Ø£
ĠØ¨ Ø§Ø¨
ĠØ¨ ÙĦØº
à¦ıà¦« à¦ıà¦®
Ġ16 22
Ġ16 10
Ġ16 17
Ġ16 25
Ġ16 49
Ġ17 00
Ġ17 15
Ġ17 70
Ġ17 61
Ġ17 79
Ġ17 69
Ġ17 05
Ġ17 97
Ġ17 76
Ġ17 74
.) (
.) ]
.) &&(
Ġ24 77
à§®à§¦ à§¬
Ġà§¨à§© à§©
Ġà§¨à§© à§¬
28 30
à¦ıà¦² à¦Ĩà¦°
à¦¬à¦¹à¦¨ à¦®
Ġà¦ħà¦® à¦°à¦¨
àª ²
Ġà§¨à§Ń à§¬
Ġ'' :
Ġà§¨à§¬ à§«
à§§à§¨ à§¦à§¦
Ġà¦¨à¦Ĺà¦° à¦ª
], =[]..$.(
80 3
27 9
à¦Ĺà¦¦ à¦¬à¦¨
Ġà¦ıà¦ĩà¦ļ à¦ıà¦®
à¦ªà¦¥ à¦Ł
à¦ªà¦¥ à¦Ń
', :
%%%% -%%%%%%%%%%%%%%%%%%%%%%%%%%%%%%%%
,, =..
à¦·à¦¨ à¦ª
ĠÙĦ Ùĩ
,: .
,: "",:
,: "://
,: ""===?"":
,: "#_
,: _,:
,: ..});
,: ""};
à² ·à²£
": "",:
": "")+
": ""===?"
": "",=""===[
": ""===?"":""===?"":
": (='',
25 6
99 96
à§§à§¬ à§Ń
à§§à§¬ à§§à§Ńà§§à§®à§§à§¯
ĠØ¹ÙĦ ÙĬ
à§§à§ª à§¦
à§§à§ª à§«
à§§à§ª à§Ń
à§§à§ª à§¬
à§§à§ª à§ªà§¦
à§§à§ª à§©à§¬
à§§à§ª à§ªà§¨
à§¨à§® à§¨à§¦
à§¨à§¦à§¨à§§ à§¨à§¨à§¨à§©
à§©à§¦ à§©à§§
23 40
à¦¶à¦¤ à¦Ń
26 8
Ġà§ªà§¦ à§©
Ġà§ªà§¦ à§Ń
)} ,=
)} ),(
)} ,:(){
)} ((
=== ?'
=== &&(=
ĠØ¹ÙĦÙĬÙĩ Ø§
à§ĩ... ?
à¦īà¦¸ à¦¡
Ġà¦¤à¦¤ à¦ĸ
57 7
").( [
").( ):
").( ),=
").( ),=(
").( ..);
à° ¦
à° ¨
à§ĩà¥¤ '
à§¨à§« à§¨
36 0
46 0
à¦¿! "
'' ){
'' ++'
". ").();
". "),=.(
à¥¤à¥¤ à¥¤
à¥¤à¥¤ ..)&&.$.(".").(),.$.(".").(),
37 0
37 02
à¦®à¦°à¦£ à¦ķ
à§¨à§¬ à§®
à§¨à§¬ à§¦à§¦
à§¨à§¬ à§¨à§Ń
').( ),
').( )}
/, "")
70 6
Ġ@ *
Ġ26 10
Ġ$('. ').({
){ }
){ ++
){ =""
à¦¨à¦¡ à¦«à¦¸
ĠØ¥ Ø°Ø§
à§¦à§¬ à§¬à§¦
49 21
49 68
[] ://
[] .$
[] .[].){
45 4
=.( "",
=.( {:
à¦¯à¦Łà¦¨ à¦ª
Ġà¦¯à¦¶ à¦°à¦¤
88 00
à¦¬à¦Ľà¦° à¦ľ
&= --",
&= &-="+
Ġà§¬à§¦ à§ª
Ġà§¬à§¦ à§®
Ġà§©à§© à§«
Ġà¦¸à¦« à¦²à¦ķ
Ġà¦¦à¦¶ à¦¦
à¦¡à¦Ń à¦¨
?= &-="+
Ġà¦Ĭ à¦¨
Ġà¦ıà¦« à¦ª
à¦¹à¦¹ à¦¹
..( "",
59 4
59 8
/\ /,"")
Ġà§ªà§« à§¨
"# ";
"# ",:
Ġà§©à§« à§¬
=( '
=( .[
=( .+"
+" -");
+" &=--",
Ġà§©à§¬ à§¯
Ġà§¨à§¦à§§à§¨ à§¨à§¦à§§à§©
ÙĪÙĨ Ø§ÙĦ
ÙĪÙĨ ÙĬØ³ÙĬØ©
Ġà§Ńà§¦ à§©
Ġà§©à§Ń à§§
Ġà§©à§Ń à§¬
""=== ?!
""=== ?"":"
)( ""===..
Ġà§¦à§§à§Ń à§§à§¦
Ġà§¦à§§à§Ń à§§à§§à§Ń
:( ""
:( ).(".-
"); =(.[
Ġ-- >
'+ .+
'+ +"",
ĠØ§ÙĦØªØ± ÙĥÙĬØ©
"", .$).(
"", =..;(
Ġà¦®à§İà¦¸ à¦ľ
Ġà§ªà§© à§Ń
à¦¸à¦Ĺ à¦¢
"- "
"- ",+"");
&&( =().(
&&( -=
&&( ":(
&&( !==[
&&( ).(),().(
94 9996
Ġ._ "),=.(""),=.(""
Ġà¦ľà¦¹ à¦°à¦¤
à§Ńà§Ń à§Ńà§Ńà§Ń
Ġà§©à§ª à§¯
Ġà§ªà§® à§«
Ġà§ªà§® à§Ń
,= (){
,= .;
,= ..$.(
,= [],=[],=
,= ...;>;++){(
") ),().(
") !=-
") )}((
),( ".-
),( ..à¥¤à¥¤
Ġà¤¹ à¤®
Ġà§ªà§¬ à§«
Ġà§ªà§¬ à§©
à¦¤à¦ļ à¦°à¦¬
ĠØ§ÙĦØ£ ÙĪ
Ġà§«à§® à§¯à§«
Ġà§«à§® à§¯à§«à§¬
.() ),=(
.() &&(=().(
{: ===[
{: ..,:
Ġà§©à§¯ à§¨
"+ (.===!
"+ (..?'
"+ ([$]!==[
"+ (.-
Ġà§ªà§¯ à§Ń
à¦Ĳ à¦ļ
?( "
==== ===
Ġà§«à§¯ à§¨
),.( )};
),.( (""===.?..+"//"+..:.)+"
Ø§Ùħ Ø©
., _:
à§«à§Ń à§¦
à§«à§Ń à§¬
Ø¢ ÙĬ
Ġ{{ .}}
à¹ į
Ø§Ø¯ Ùĩ
Øº Ø©
à§Ńà§« à§¨
à§Ńà§« à§©
++ "":"")+
++ ,..
Ġà° ª
".").( (){
".").( "");
".").( {:===à¥¤à¥¤""===à¥¤à¥¤
Ġ.- ,
à¦ħà¦« à¦¬
""); =.(/
""); (.==""){(.().(":")){.(
""); ("#").()}
"), .$
"), =.-
.$ .('
.$ ..(/\
.$ =();
}); ((){("#
Ġà§¦à§§à§¯ à§Ńà§¯
Ġ$(". -").((){
Ġà¦Łà¦² à¦®à¦²
.,: "
/// ?-="+.+"&=&=--",
/// ?=--&=
"",: ===à¥¤à¥¤
"",: .,:!
"",: .,:.,:!
Ġà§¯à§¬ à§Ń
à¦ĭ à¦·
.()); (()
?"": '
Ġ.-- {
Ġ(. ).("
,,,, ,=[],=[],=
Ġà¤ª à¤¤
(. ).('
à¦ıà¦¸à¦Ĩà¦ĩ à¦ıà¦¸
Ġ[] )=
Ġ[] +[]
à¦°à¦¬à¦£ à¦¶à¦ķ
Ġ$("# --").(
().( {:===à¥¤à¥¤""===à¥¤à¥¤
().( "");(.==""){(.().(":")){.(
Ġ'; ';
!= .){
!= .);
!= ..à¥¤à¥¤
.+ ..>=
.+ )},=
..$ :(""
..$ ,=..$.(
à¦ħà¦® à¦°à¦¨
""+ (.===!
<= >
>= ..){
}, "");
}, =(,){
}, ..=(){
),= ..[(,
,:,: ,:(){
Ġà¦Ĩà¦¦à¦® à¦ļà¦°
="" }(
!== !
!== ?'
!== &&().(),().(
"=== à¥¤à¥¤
"=== ?!
"=== ?"":"
"=== ..)&&.$.(".").(),.$.(".").(),
=().( "
=().( "");=.(/
?: "")+"
âĺ İ
Ø§Ùģ Ø¹
.[ ..]
.[] ..("
.&&( "
.&&( '
.&&( =.(
ĠØº ÙĬØ±
Ġà§¦à§§à§® à§§à§Ń
Ġ(- >
ĠÙĪØ§ÙĦ ÙĨ
': "")+
': "")+"
),() ),.(),.(
,"" )};
,"" ):.(
======== ===
æĸ °
""===.. ?+='
.$.( ..)}
"").( [
"").( {:===[
à¦£à¦Ĺ à¦¨à¦¨
..+" $
")} (.("{}")){
")} ).().();.(
")} ,=(){
à¦ħà¦¡ à¦Ļ
Ġ(){ ()}}
"; .à¥¤à¥¤(
"; .$.('
ĠØ§ÙĦØ¥ ÙĨØ¯
ĠØ§ÙĦØ¥ Ø³Ø¨
108 949996
Ġ://../ --.
).().( )}}}
).().( .,.,(){..()})}}{(.==""){(.().(":")){.(
Ġ=( );(
Ġ=( .(""));
){( "#").(
387 2723
?((),()): ""==?((),()):
Ġà¦ķà¦¨à¦ķ à¦¦
Ġ").( ),().(
Ġ").( ,)+"...
Ġ").( .),("#
[], =().("");=.(/
]) ?[
.,:.,: .,:!
.,:.,: .,_:
.,:.,: "",:.,:!
Ġâĺ ŀ
Ġà¦¡à¦ľà¦¨ à¦ĸ
$= -
);( <
);( .("")
ÙĪØ³ ÙĪØ¹Ø©
ÙĪØ³ ÙĨÙĬØ©
)}), .$.(".").(
)}), .$.(".
017 76
]à¥¤à¥¤ ""===[
]à¥¤à¥¤ ""!==[
{} ,=,=
Ġà§§à§¦à§¬ à§«à§«
(.. ===""
à§¨à§ªà§ª à§¨à§¨
à¦ıà¦¸à¦ı à¦²à¦Ń
ĠØ§ÙĦØ¯ ÙĬÙĨ
&&.( ).(.()
&&.( ".").((){
?'' ++"":"")+
})} )})}
})} {.$
})} ),(".-
Ġ': "");
Ġ=().( "-"),=().("-");
?((),()):() ?((),()):""==?((),()):
Ġà¦¬à¦ĸ à¦¶
ãģ Ĺ
ĠØ§ÙĦØ¨ ÙĪØ³ÙĨÙĬØ©
ĠÚ© Ø§
à¦Ĩà¦ĩà¦ı à¦ıà¦«
),(".").( (){
.$.(".").( ),(..à¥¤à¥¤
à¦¿.) -
"-"); =.("",
.à¥¤à¥¤ .,=
à¦¸à¦«à¦² à¦Ń
""!= ?((),()):()?((),()):()
Ø³ÙĨ Ø©
à¦Ĩà¦ĩà¦ıà¦® à¦ıà¦«
à¦¸à¦ķà¦° à¦°
à¦¦à¦ĸ à¦²à¦ķ
Ġà§§à§¨à§© à§ªà§«à§¬à§Ńà§®à§¯
-" }),().(
-" })})})}
à¦ıà¦ı à¦ı
Ġà¦Ŀà¦ķ à¦®à¦ķ
))} .$.(..)}
700 097
é« ĺ
--", ).(),.>
Ġ$("#-").( (){
Ġ='://.// --'>.</>
;> $;
!=.("..")?'':"")+ ""+([$]===[
!=.("..")?'':"")+ ""+(.===!
}( >
}( "_
ÙĨØª Ø±ÙĨØ§Ø´
})}} ,=(
Ġ.").( '
Ġ.").( )),(
Ġ.((){ (
"",(){ $(
=[] .[$]
=[] .[].;}(
Ġ'+ ([$]===[
ä¹ Ł
".-").( '
".-").( ".").("");
,,,,,,,, ){(
,,,,,,,, )}(
à¹Ģ à¸¥
~~ ~
Ġà§¦à§¯à§¬ à§§à§¨à§¨
Ġà§¦à§¯à§¬ à§§à§§à§¬
]?"": [
]?"": "",=""===[
.){ =[].[$]
]à¥¤à¥¤""===.. ?"
]à¥¤à¥¤""===.. ?'
]à¥¤à¥¤""===.. ?:"")+'
Ġà¦¦à¦ĸ à¦²à¦¬
///"+ (.===!
>. _&&(=.(
Ġà¦ļà¦Łà¦ķ à¦¦
Ġ=":// ..//
",: .,:
",: ,:"",:"",:
===. &&.(".").((){
,_= /),(
.).( .,.,(){..()})}}{
.).( ".").();
(( ),()),.(),.(
Ġ-:# ;
=> {
Ġ----- -
..à¥¤à¥¤ "
..à¥¤à¥¤ (("#
..&& .$.(".
..&& ..&&"
.)+" ?-="+.+"&=&=--",
""===?"": ""===?"":"
)(""== [].[$]
&=&=--", (){
&=&=--", ,"")}
?"":"/-/"+ .)+"?-="+.+"&=&=--",
?..+"//"+..:..)+" ///?=--&=
"} (.).('
.., );.$.(
,=,= ;.à¥¤à¥¤(
-, #-").((){(".").(":(:)").()}).((){(".").(":(:)").(
},:(){ },:(){
..=(){ =.({:
Ġ=.( ().().(
Ġ=.( /(
Ġ.(, )})}}();
Ġ.(, ))})}}
],= .[
],= ..$.(
å® ¶
à¦ľà¦ªà¦° à¦Ĺà¦£
(' [=""
Ġ"+ +"
Ġ"+ ..+"
à²°à² ķ
"!== ..&&"
"!== ..à¥¤à¥¤(("#
"!== ..&&..&&"
._ +"-");
à¤ĩ à¤µ
304 0938
").(), .&&('
)+" )",
ÙĤØ± Ø£
,:.,:.,: "",:!
,:.,:.,: "#",:
,:.,:.,: .,:.,:"",:.,:!
/,""); (!==
,=.. ;";=(
"),= ..$,=..$.(
..$.$ à¥¤à¥¤..)&&.$.(".").(),.$.(".").(),
.[]. &&"/"==
""==?((),()):()&& ""!=?((),()):()&&
,"")} ()}
,"")} ,""):.(
Ġ=("", (.+"
Ġ=("", .()),=(
Ġ=("", .());(()
Ġ=().("-"),=().("-"),=().( "-"),=().("-");
..$:"" ;
[],=[],= [],=
;>;++)(""== [].[].){
,_=/): (=
?"":"/-/"+..)+" ?-=
>]+) >)
"").(/"/, """),
å° ±
Ġ,,,,,, =().("
Ġ)? ..$:(""
Ġ)? ..$:"";
,..() !=.(
ÙĨØ³ ÙĬØ©
Ġ=[] ;(
Ġ=[] ..,=
===?"": })}),(".-
à¥¤à¥¤(. =[],
&=// --'
)}),$(". -
ØŃÙĦ Ø©
Ġ=(),=.( ".
Ġ=(),=.( "[
Ġà¦²à¦ĸà¦¨ à¦ī
Ġ=; ..={:"",:
Ġ=; .$=();
Ġ=.(" /")+
)]} ',:
Ġ((){ .=(,){
Ġ((){ ..=(){=.({:
,:"",:"",: "",:.,:.,:!
){= -
.> .&&(=.(
à¦¨à¦¸à¦ª à¦Ł
Ġà¦ıà¦²à¦ı à¦²à¦¬
Ġ=.. >..$.$
Ġ=.. !==!
).();.( ".-").('
\- /,"/"+
]+ \-/,"/"+
Ġ,,,,,,,,, ,,=..
Ġ,,,,,,,,, ,,,,,=[],=[],=
Ø±Ø¶ ÙĬ
Ġ$("#").( '
/--. ",:.,:
,.. ={:"",:
]:( ).(".-
]:( '+.+"
_à¥¤ _à¥¤à¥¤
}{ -=
}{ =""}(
..){ =.(
Ġ'++ +"
Ġ'++ ""+([$]===[
Ġ.") ),=
Ġ.") ).(),(.).("").(
Ġ"++ ",
Ġ"++ "":"")+(..
Ġ=.; =.(/<\[^>]*>/,
Ġ=.; =[]..$
),$(". ---
).(.() ))}}
""),. >._&&(=.(
==.. ).((""===.?..+"//"+..:.)+"
==.. ?("
],: [
],: ,:,:,:,:,:,:
,:.,: "
(){("# _"
".",.$).( {:"",:".
[].[$] .){=[].[$]
Ġ://.... /
,=/),( .+"
,=/),( ".",.$).({:"",:".
")+ ([$]!==[
"+(""===.. ?"
"+(""===.. ?'
ä¸º ä»Ģä¹Ī
Ġà²® à²¤
),=.(""); ()&&
Ġ[]?[] ..$:""
Ġ[]?[] ..$:"","$"
""==?((),()): ((),()),.(),.(
};=.({},, );
};=.({},, ),.((""===.?..+"//"+..:.)+"
";= ..$.(
";=( ""
").((){( ",
").((){( ).();.(".-").('
),.&&.("", ..("",
""!=?((),()):()&& ""!=?((),()):()?((),()):()
Ġ,,=( ().(".
Ġ,,=( .).(".").();
]à¥¤à¥¤""===..à¥¤à¥¤. ?"":"
]à¥¤à¥¤""===..à¥¤à¥¤. ?"":'
.,.,(){..()}).().( .,.,(){..()})}}{(.==""){(.().(":")){.(
.,.,(){..()}).().( .).(.,.,(){..()})}}{
..);.( (..===""
)+"... "),=..$,=..$.(
"":"")+(.. ?:"")+"
,=..;>;++)(""== .[].){=
,=..;>;++)(""== .[].&&"/"==
.[].){= .[]..("
""==?((),()):()&&""==?((),()):()&& ""==?((),()):()&&""!=?((),()):()&&
?"":"/-/"+..)+"?-="+..+" &=&-="+
?"":"/-/"+..)+"?-="+..+" &=&=--",,"")}
+=(.. >
+=(.. ===?'
Ġà§¦à§§à§®à§ªà§§à§«à§¨à§§à§« à§¨à§¨
Ġà§¦à§§à§®à§ªà§§à§«à§¨à§§à§« à§¨à§©
Ġ=(.);( .(""),.
),(".").({:,:})}).((){(".").(":(:)").().("" )})}
),(".").({:,:})}).((){(".").(":(:)").().("" )}),.$.(".").(
[^[\]]+(?=])/ ),/[^[\]]+(?=])/
å¿ ĥ
Ġà¦Ĩà¦ī à¦¶à¦Ĺ
Ġà¦ıà¦ĩà¦¸ à¦ıà¦¸à¦¸
'+().( "")+"
ÙĥØªØ±ÙĪÙĨ ÙĬ
Ġ$("#__ ").(
Ġ=().().();().( ".-").(".").("");
+=" ..."}
.("", ),.&&.("",..("",
Ġ========= */
"++ "").({:===[
é» Ħ
1312 3872723
)&&( ,,,,,,,,)}(
,=.( "."),=.(
,._ )+"..."),=..$,=..$.(
å¦ Ī
Ġ================= ===========
://.- ./
à³ĩ à²Ĥ
à§§à§¨à§§à§© à§§à§ªà§§à§«
.("-- ")!=-
ĠØ§ÙĦÙģØ± ÙĨØ³ÙĬØ©
ĠÑĢ ÐµÐ´
}}, );
"","")} ),(".").((){
.=.( {},
]..$ ,..()!=.(
ïĢ ł
ĠØ§ÙĦØ¬Ùħ Ø¹Ø©
à²¸ à²°
à§¨à§®à§¨à§¯ à§©à§¦à§©à§§
"-").( "
ĠØ§ÙĦÙħØ¤ ÙħÙĨ
!==){ ="
"",(){.()} ))}.$.(..)}
..//.") ?..:
"--- ")),().(
æ² ¡
à¦¸à¦ıà¦¨ à¦ıà¦ķ
Ġà¦ıà¦ıà¦¸à¦ĩ à¦ıà¦®
Ġ)= .$..(/\
1959 20
à§§à§¦à§§à§§ à§§à§¨à§§à§©à§§à§ªà§§à§«
]+(\- à¥¤\/
$++ )(""==[].[$]
'),. ="#_
'),().( ".").({:===à¥¤à¥¤""===à¥¤à¥¤
(.().(":")){.( ).().()}}}
)/,"/"+ ..+"$
)),.&&.("", .+)},=
,++ );(
,_: .,:.,:.,_:
,("# "++"").({:===[
,..); +="..."}
,.)+" ..."),
,..$.$ -..);.(
,.()} ,..={:"",:
,=.(/<\[^>]*>/, "").(/"/,"""),
-] "),=.-
-", :!
.=(){ .=.({},
.&&"/"== [].[$].){=[].[$]
;-- ){
;=.. ){}
;.("").( '
<([^ >]+)>)
=)} )),
>?"": "",
].) ?.[
]..$: "#";
]),().(".-").( '
{=} +=(..>
{("#").()} });((){("#
}..( );
}),("# -,
Ġà¦¨à¦ĸà¦¸ à¦ľ
Ġ(".",.$).( {:..,:
..)}} ,"")};
..?.( (""===..?..+"//"+..:..)+"///"+(..===!
Ġ,=..;( !==){="
Ġ")}; ..?.((""===..?..+"//"+..:..)+"///"+(..===!
Ġ"),().(".-").( "---")),().(
);.$.(".").( {:"",:".
Ġ=à¥¤à¥¤ {},=,=
Ġ=;( "#--
Ġ=$(".-").( "-");=.("",
Ġ=(){( ++,..
Ġ}).().( "")})}})();
Ġ})})} )();
),""===.. )(""===..
Ġ["" ]
""&&.> ..){=.(
==.(, .)&&(
==){( ,++);(
Ġ_,, =(.+"
",);$(".-").( "-",+"");
Ġ!").( ..)}},"")};
Ġ!")} ,"")}()}
');.("- ").((){().();.(".-").('
Ġ#-").((){(".").(":(:)").()}).((){(".").(":(:)").( )}),(
à§¨à§ªà§¨à§« à§¨à§¬à§¨à§Ń
,:"",: ,:"://
,:""===?"": "",:===à¥¤à¥¤
,:"#_ ",:,:"",:"",:
,:..}); {
,:""}; ..=(){
":"",: ""===?!
":"")+ "":"")+(..?:"")+"
":""===?"":""===?"": ""===?"":""===?"":"
":(='', +='
à§§à§¬à§§à§Ńà§§à§®à§§à§¯ à§¨à§¦à§¨à§§à§¨à§¨à§¨à§©
").(): .&&("
").(),= [],=().("");=.(/
").(),=( '
").(..); .$.("").(
){++ }{-=
){="" }{=""}(
[].$ .;
/\/,"") );-
+"&=--", ,"")},""):.(
Ġà§¨à§¦à§§à§¨à§¨à§¦à§§à§© à§¨à§¦à§§à§ªà§¨à§¦à§§à§«à§¨à§¦à§§à§¬à§¨à§¦à§§à§Ńà§¨à§¦à§§à§®à§¨à§¦à§§à§¯à§¨à§¦à§¨à§¦à§¨à§¦à§¨à§§
'+.+ '
'++"", ""===..?+='
"",.$).( ),.$.("").(
&&(":( "+(.-
Ġ._"),=.(""),=.("" ),=.("");()&&
,=.; >;++){
"))}(( "",.$).(),.$.("").(
Ġà§«à§®à§¯à§« à§¨à§®à§¨à§¦
Ġà§«à§®à§¯à§«à§¬ à§©à§Ńà§¯
.()&&(=().( ".-
"");("#").()} {("#").()}});((){("#
"),.$ .());
///?-="+.+"&=&=--", ,"");
Ġ[])= [].$.;
().("");(.==""){(.().(":")){.( .,.,(){..()}).().(.,.,(){..()})}}{(.==""){(.().(":")){.(
!=.); =('
!=..à¥¤à¥¤ .)(
.+..>= ..$.$à¥¤à¥¤..)&&.$.(".").(),.$.(".").(),
>=..){ (.+"
},=(,){ .("",),.&&.("",..("",
,:,:,:(){ },:(){},:(){
!==&&().(),().( (
"===..)&&.$.(".").(),.$.(".").(), ..&&.$.(".
.[..] =)})),
':"")+ ''++'
':"")+" '++"
")}).().();.( ".-
Ġ(){()}} ();
";.à¥¤à¥¤( .$.(".").(),(..à¥¤à¥¤
ĠØ§ÙĦØ¥ÙĨØ¯ ÙĪÙĨÙĬØ³ÙĬØ©
ĠØ§ÙĦØ¥Ø³Ø¨ Ø§ÙĨÙĬØ©
108949996 3040938
).().(.,.,(){..()})}}{(.==""){(.().(":")){.( .,.,(){..()}).().(.).(.,.,(){..()})}}{
Ġ=();( .("--")!=-
){("#").( "");("#").()}{("#").()}});((){("#
Ġ").(),().( "
Ġ").(,)+"... ";=..$.(
Ġ").(.),("# --",).(),.>
);(.("") ==){(,++);(
&&.().(.() ))}
?''++"":"")+ '
})}{.$ .("
Ġ=().("-"),=().("-"); ().({:===à¥¤à¥¤""===à¥¤à¥¤
?((),()):()?((),()):""==?((),()): ""==?((),()):((),()),.(),.(
.à¥¤à¥¤.,= $("#--
Ġà§§à§¨à§©à§ªà§«à§¬à§Ńà§®à§¯ à§§à§¦à§§à§§à§§à§¨à§§à§©à§§à§ªà§§à§«
-"}),().( "").([
;>$; $++)(""==[].[$]
}("_ ",);$(".-").("-",+"");
ÙĨØªØ±ÙĨØ§Ø´ ÙĪÙĨØ§ÙĦ
})}},=( ,,,,,,,,){(
Ġ.").()),( .+..>=..$.$à¥¤à¥¤..)&&.$.(".").(),.$.(".").(),
Ġà§¦à§¯à§¬à§§à§¨à§¨ à§¨à§ªà§ªà§¨à§¨
Ġà§¦à§¯à§¬à§§à§§à§¬ à§Ńà§Ńà§Ńà§Ńà§Ń
,_=/),( .+"
?"":"/-/"+.)+"?-="+.+"&=&=--", (){
?..+"//"+..:..)+"///?=--&= ",(){
..,);.$.( ..);.((..===""
,=,=;.à¥¤à¥¤( .('
-,#-").((){(".").(":(:)").()}).((){(".").(":(:)").( )}),.$.(".
Ġ=.(().().( /\/,""));-
Ġ=.(/( <([^>]+)>)
Ġ.(,))})}} )();
('[="" ]:('+.+"
"!==..à¥¤à¥¤(("# -,#-").((){(".").(":(:)").()}).((){(".").(":(:)").()}),.$.(".
)+")", (.+"
,:.,:.,:"#",: .,:.,:!
/,"");(!== ""&&.>..){=.(
,=..;";=( =="://
Ġ=("",.()),=( );(.("")==){(,++);(
Ġ=("",.());(() >)
;>;++)(""==[].[].){ =[].[].;}(
à¥¤à¥¤(.=[], ('[=""]:('+.+"
Ġ=(),=.("[ -]"),=.-
Ġ=;.$=(); .=(){.=.({},
Ġ=..>..$.$ ?
]+\-/,"/"+ ._+"-");
Ġ,,,,,,,,,,,=.. [],=[],=[],=
Ġ,,,,,,,,,,,,,,=[],=[],= "",=..;(
Ġ"++"":"")+(.. ?:"")+'
Ġ=.;=.(/<\[^>]*>/, ""),.>._&&(=.(
Ġ=.;=[]..$ ,=.(/<\[^>]*>/,"").(/"/,"""),
).(.()))}} (.+"
==..).((""===.?..+"//"+..:.)+" ///?-="+.+"&=&=--",,"");
],:,:,:,:,:,:,: .,:"
(){("#_" !=.){
")+([$]!==[ +
};=.({},,),.((""===.?..+"//"+..:.)+" ///"+(.===!
""!=?((),()):()&&""!=?((),()):()?((),()):() ?((),()):()?((),()):""==?((),()):""==?((),()):((),()),.(),.(
Ġ,,=(().(". "),.$.());
,=..;>;++)(""==.[].){= .[].;}(
,=..;>;++)(""==.[].&&"/"== .[].){=.[]..("
""==?((),()):()&&""==?((),()):()&&""==?((),()):()&&""!=?((),()):()&& ""!=?((),()):()&&""!=?((),()):()?((),()):()?((),()):()?((),()):""==?((),()):""==?((),()):((),()),.(),.(
?"":"/-/"+..)+"?-="+..+"&=&-="+ +"&=--",,"")},""):.(
?"":"/-/"+..)+"?-="+..+"&=&=--",,"")} ,.()},..={:"",:
Ġ=(.);(.(""),. à¥¤à¥¤(.=[],('[=""]:('+.+"
),(".").({:,:})}).((){(".").(":(:)").().("")}),.$.(".").( "",(){.()}))}.$.(..)}
[^[\]]+(?=])/),/[^[\]]+(?=])/ .()&&(=().(".-
Ġ=().().();().(".-").(".").(""); ().("");(.==""){(.().(":")){.(.,.,(){..()}).().(.,.,(){..()})}}{(.==""){(.().(":")){.(
)&&(,,,,,,,,)}( >=..){(.+"
,=.("."),=.( "-").("
]..$,..()!=.( )&&(,,,,,,,,)}(>=..){(.+"
..//.")?..: .(/\/[
Ġ)=.$..(/\ /[
]+(\-à¥¤\/ )/,"/"+..+"$
'),.="#_ ");
(.().(":")){.().().()}}} }..();
)),.&&.("",.+)},= (){("#_"!=.){
,..);+="..."} {=}+=(..>
,.)+"..."), =[]..$.(
,..$.$-..);.( (""===..?..+"//"+..:..)+"///"+(..===!
.&&"/"==[].[$].){=[].[$] ..("
]..$:"#"; +=(..===?'
Ġ(".",.$).({:..,: ".
Ġ"),().(".-").("---")),().( "","")}),(".").((){
Ġ=à¥¤à¥¤{},=,= .à¥¤à¥¤.,=$("#--
Ġ=$(".-").("-");=.("", "");
Ġ=(){(++,.. )(
),""===..)(""===.. ){
==.(,.)&&( .[..]=)})),
Ġ!").(..)}},"")}; .()};
Ġ#-").((){(".").(":(:)").()}).((){(".").(":(:)").()}),( ".
à§¨à§ªà§¨à§«à§¨à§¬à§¨à§Ń à§¨à§®à§¨à§¯à§©à§¦à§©à§§
,:""===?"":"",:===à¥¤à¥¤ "
,:"#_",:,:"",:"",: "",:!
à§§à§¬à§§à§Ńà§§à§®à§§à§¯à§¨à§¦à§¨à§§à§¨à§¨à§¨à§© à§¨à§ªà§¨à§«à§¨à§¬à§¨à§Ńà§¨à§®à§¨à§¯à§©à§¦à§©à§§
").(),=[],=().("");=.(/ [^[\]]+(?=])/),/[^[\]]+(?=])/.()&&(=().(".-
){=""}{=""}( ===
Ġ._"),=.(""),=.(""),=.("");()&& ""==?((),()):()&&""==?((),()):()&&""==?((),()):()&&""!=?((),()):()&&""!=?((),()):()&&""!=?((),()):()?((),()):()?((),()):()?((),()):""==?((),()):""==?((),()):((),()),.(),.(
},=(,){.("",),.&&.("",..("", )),.&&.("",.+)},=(){("#_"!=.){
,:,:,:(){},:(){},:(){ }},);
";.à¥¤à¥¤(.$.(".").(),(..à¥¤à¥¤ ..à¥¤à¥¤"
1089499963040938 15163
).().(.,.,(){..()})}}{(.==""){(.().(":")){.(.,.,(){..()}).().(.).(.,.,(){..()})}}{ (.().(":")){.().().()}}}}..();
){("#").("");("#").()}{("#").()}});((){("# ").((){(",
Ġà§§à§¨à§©à§ªà§«à§¬à§Ńà§®à§¯à§§à§¦à§§à§§à§§à§¨à§§à§©à§§à§ªà§§à§« à§§à§¬à§§à§Ńà§§à§®à§§à§¯à§¨à§¦à§¨à§§à§¨à§¨à§¨à§©à§¨à§ªà§¨à§«à§¨à§¬à§¨à§Ńà§¨à§®à§¨à§¯à§©à§¦à§©à§§
;>$;$++)(""==[].[$] .&&"/"==[].[$].){=[].[$]..("
Ġ.").()),(.+..>=..$.$à¥¤à¥¤..)&&.$.(".").(),.$.(".").(), "
..,);.$.(..);.((..==="" ?..+"//"+..:..)+"///?=--&=",(){
Ġ=.(/(<([^>]+)>) /,"");(!==""&&.>..){=.(
Ġ=;.$=();.=(){.=.({}, ..,);.$.(..);.((..===""?..+"//"+..:..)+"///?=--&=",(){
Ġ=.;=[]..$,=.(/<\[^>]*>/,"").(/"/,"""), .>.&&(=.(
?"":"/-/"+..)+"?-="+..+"&=&-="++"&=--",,"")},""):.( (""===..?..+"//"+..:..)+"///"+(..===!
?"":"/-/"+..)+"?-="+..+"&=&=--",,"")},.()},..={:"",: .,:.,:.,:!
Ġ=(.);(.(""),.à¥¤à¥¤(.=[],('[=""]:('+.+" )").((){
Ġ=().().();().(".-").(".").("");().("");(.==""){(.().(":")){.(.,.,(){..()}).().(.,.,(){..()})}}{(.==""){(.().(":")){.( ).().(.,.,(){..()})}}{(.==""){(.().(":")){.(.,.,(){..()}).().(.).(.,.,(){..()})}}{(.().(":")){.().().()}}}}..();
Ġ._"),=.(""),=.(""),=.("");()&&""==?((),()):()&&""==?((),()):()&&""==?((),()):()&&""!=?((),()):()&&""!=?((),()):()&&""!=?((),()):()?((),()):()?((),()):()?((),()):""==?((),()):""==?((),()):((),()),.(),.( ),.()};
# :
% ()
' )}
( .,
) !
* ;
- à§ĩ
- ://../
. à¥¤
. ).().().('-'+.);
0 46
0 125
3 13
3 17
3 14
3 37
3 290
4 23
5 25
8 50
8 000
9 78
< !-
= \'
[ _
] );
Â ģ
Ù ¾
Û ´
æ ¯
æ ·
æ Į
ç ²
ç Ļ
ç Ł¥
è µ
è ģ
è Ĥ
é Ĵ
é ĸ
é Ļ
Ġ t
Ġ à¨
Ġ Î±
ł à¸²à¸
à¦° à¦ħ
à¦° à¦ıà¦ķ
à¦° à¦¥à¦²
à¦° à¦Ĩà¦ª
à¦° à¦ıà¦ĸ
à¦° à¦īà¦ªà¦°
à¦¿ à§ĥ
à¦¿ ....
à¦¨ à¦ĩà¦²
à¦¨ à¦²à¦ķ
à¦¨ à¦¤à¦¨
à¦¨ à¦°à¦¨
à¦¨ à¦ªà¦ķ
à¦¨ à¦®à¦Ĺ
à¦¨ à¦¬à¦°à¦£
à¦¨ à¦Ŀà¦°
à¦¨ à¦ıà¦ľ
à¦¯ à¦¤à¦°
à¦¯ à¦¦à¦°
à¦¯ à¦¦à¦ª
à¦¯ à¦ªà¦ķà¦Ń
à¦ķ à¦ħ
à¦ķ à¦ĺà¦°à¦Ĺ
à¦² à¦£
à¦² à¦¶à¦¨
à¦² à¦ĸà¦¨
à¦² à¦°à¦¬
à¦¬ à¦«
à¦¬ à¦®à¦¹
à¦¬ à¦īà¦¯
à¦¼ à¦ģ
à¦¼ "-
à¦® à¦ľà¦¨
à¦® à¦ļà¦ķ
à¦® à¦¥à¦ķà¦°
à¦¸ à¦°à¦¤à¦ķ
à¦¸ à§İà¦¸à¦Ļ
à¦¸ à¦¹à¦®à¦¤
Ġà¦¸ à¦°à¦®
Ġà¦¸ à¦²à¦¤
à¦¦ à¦¬à¦°
à¦¦ à¦¬à¦¨
à¦¦ à¦ªà¦¦
à§ĭ ....
à§ĭ Â¤
Ġà¦ª à¦¯à¦°
à¦Ł à¦¬à¦¨
à¦Ł à¦ĺ
à¦Ł à¦°à¦¨
à¦Ł à¦¯à¦¨
à¦Ł à¦ªà¦°à¦¬à¦°
à¦Ł à¦ıà¦ķà¦¸
à¦ª à¦ªà¦°
à¦ª à¦ĩà¦²
à§Ģ ----
à§Ģ à¥¤à¥¤
Ġà¦Ĩ à¦¬à¦¸
Ġà¦Ĩ à¦¥à¦¬
Ġà¦® à¦¬à¦Ļ
à¦ľ à¦«
à¦ľ à¦«à¦«à¦°
à¦ĩ à¦°à¦¬
à¦ĩ à¦®à¦ª
à¦ĩ à¦ıà¦¸à¦ª
à¦Ĺ à¦ªà¦¥
à¦Ĺ à¦°à¦¦à¦¤
Ġà¦¨ à¦Ľ
Ġà¦¨ à¦®à¦²
Ġà¦¨ à¦²à¦¦
à¦¹ à¦¡
à¦¹ à¦ķà¦¸
Ġà¦¹ à¦Ĺ
à¦· à¦«
à¦· à¦ļà¦¨
à¦· à¦²à¦¤
à¦¡ à¦§
à¦¡ à¦¹à¦ķ
Ġà¦ħ à¦ĩ
Ġà¦ħ à¦ľà¦¨
Ġà¦ħ à¦¸à¦²
Ġà¦ħ à¦ķà¦Ł
Ġà¦ħ à¦ĵà¦¨à¦¬
Ġà¦¤ à¦®à¦¸
à¦§ à¦¨à¦¯
à¦§ à¦¹à¦¸
à¦§ à¦®à¦¯
Ġà¦ľ à¦ĸ
Ġà¦ľ à¦²à¦¯
à¦Ĥ "
à¦ļ à¦ļ
à¦ļ à¦ĸ
à¦ļ à¦ŀ
à¦¥ à¦¸à¦ķ
à¦ĸ à¦°à¦¤
à¦ĸ à¦°à¦ķ
à¦ĸ à¦¤à¦®
à¦ĸ à¦¢
Ġà¦° à¦¨à¦¬
Ġà¦° à¦¸à¦ķ
Ġà¦° à¦ľà¦ķ
à¦Ń à¦¤
à¦Ń à¦ľ
à¦Ń à¦Ń
à¦Ń à¦°à¦£
à¦Ń à¦²à¦Ń
à¦£ à¦Ľ
Ġà¦¶ à¦°à¦®
à¦ĵ à¦¨à¦ķ
à¦ĵ à¦ĩà¦¤
à¦ĵ à¦ıà¦²
Ġ( ..
Ġ( "://
Ġà¦Ĺ à¦®à¦£
Ġà¦Ĺ à¦«à¦«
Ġà¦ļ à¦®à¦¨
Ġà¦ļ à¦°à¦¸
Ġà¦ļ à¦ĩà¦²
Ġà¦ļ à¦¨à¦®à¦¨
Ġà¦Ń à¦ĩà¦°
Ġà¦Ń à¦²à¦Ń
Ġà¦ĵ à¦§
Ġà¦ĵ à¦¥
Ġà¦ĵ à¦ıà¦®
Ġà¦ī à¦Ń
Ġà¦ī à¦ĩà¦Ł
Ġà¦ī à¦¨à¦¬
à§¦ à§§à§©
à§¦ à§©à§¦
à§¦ à§¨à§¨à§©
Ġà¦ĩ à¦·
Ġà¦ĩ à¦£
Ġà¦ĩ à¦¹à¦°
Ġà¦ĩ à¦ıà¦¸à¦ı
Ġà¦ªà¦° à¦£
Ġà¦ªà¦° à¦ŀ
à¦« à¦¥
à¦« à¦ĵ
Ġà¦² à¦ĸ
Ġà¦² à¦¬à¦¸
Ġà¦² à¦ĩà¦¤
à§Ĥ à¦ĥ
Ġà¦ıà¦ķ à¦¤à¦²
Ġà¦ıà¦ķ à¦ĺà¦£
Ġà¦¸à¦® à¦ħà¦§
à¦ī à¦°à¦®
à¦ī à¦®à¦¦
à¦ī à¦ıà¦®
à¦ī à¦Ľà¦¤
Ġà¦« à¦ķà¦²
à¦°à¦¤ à¦Ń
à¦¬à¦° à¦Ļ
à¦ł à¦ĵ
à¦ł à¦ľà¦¨
à¦°à¦ķ à¦¯
à¦°à¦ķ à¦¸à¦¹
Ġà¦Ľ à¦ĩà¦¯
à¦ı à¦°à¦ķ
à¦ı à¦ĩà¦°
à¦ı à¦¤à¦Ł
à¦ı à¦ıà¦ª
Ġà¦Ł à¦«
à¦Ĩ à¦°à¦¤
à¦Ĩ à¦¤à¦°
à¦Ĩ à¦°à¦¶
à¦Ĩ à¦«à¦¤
Ġà¦¬à¦² à¦Ĺ
à¦¬à¦¨ à¦ľ
à¦¬à¦¨ à¦²à¦¤
à¦¬à¦¨ à¦Ńà¦°
à¦ŀ à¦ķ
à¦ŀ à¦ľà¦¨
Ġ2 à§¦à§¨
Ġà¦¡ à¦ªà¦²
à¦®à¦¨ à¦Ĺ
à¦°à¦£ à¦¸à¦®
à¦ªà¦¨ à¦Ł
Ùİ Ûļ
Ġà¦Ĩà¦° à¦ıà¦®à¦ľ
à¦ľà¦¨ à¦®
à¦ľà¦¨ à¦¬à¦²
à¦ľà¦¨ à¦Ĺà¦¨
Ġà¦ıà¦ĩ à¦ķ
Ġ' "
Ġ' ()
à§Į "
Ġà¦Ĩà¦¬ à¦ķ
Ġà¦Ĩà¦¬ à¦¡
Ġ: "
Ġ: !;
à¦°à¦® à¦Ĺ
à¦ķà¦° à¦ĵ
à¦ĩà¦¨ à¦ľ
à§¯ à§¨à§¯
à¦¿à¦Ĥ ]
à§ª à§¦à§¦à§¦
à§İ à¦¤
à§İ à¦¥
Ġà¦®à¦¨ à¦°
Ġà¦®à¦¨ à¦ĵ
Ġà¦®à¦¨ à¦¹à¦ĵà¦¯
à¦ĥ) ,
ÙĦ Ø·
Ġà¦Ĩà¦¸ à¦¨à¦Ĺ
à§® à§¯à§¯
à§® à§¯à§§
à§Ń à§§à§ª
à§Ń à§©à§¦
à§Ń à§¨à§©à§¬
Ġ. à¥¤à¥¤
à§¬ à§©à§¦
à§¬ à§¯à§ª
Ġà¦¹à¦² à¦®
à¦ĺ à¦¬à¦¬
à¦īà¦¨ à¦ĵ
à¦ĩà¦² à¦Łà¦¦
à¦¦à¦° à¦ĸ
à¦ļà¦¨ à¦®
à¦ļà¦¨ à¦Ł
à¦¦à¦¨ à¦īà¦ªà¦ķà¦¥
à¦²à¦¨ à¦¬
à¦²à¦¨ à¦Ĺ
à¦²à¦¨ à¦¸à¦¹
à¦ħ à¦¬à¦¨
à¦ħ à¦¸à¦¨
à¦ħ à¦¬à¦¦
à¦ķà¦² à¦¹
Ġà¦¹à¦¤ à¦ļ
Ġ" .."
à¦¤à¦¨ à¦ĩ
Ġà§© à§¨à§ª
Ġà§© à§§à§ª
à¤ ħ
à¦¿, ,
à¦¯à¦¬ à¦¤
Ġà¦®à¦¹ à¦¨
Ġà¦¬à¦¨ à¦§à¦ķ
à¦¤à¦¬ à¦²
à¦¤à¦¬ à¦¦à¦²
à¦Ŀ à¦¨
à¦Ŀ à¦²à¦ķ
à¦¬à¦² à¦Ł
à¦°à¦¨ à¦¨
à¦°à¦¨ à¦Ĺ
Ø§ ÙĬØ©
Ġà¦ħà¦¬ à¦Ĺ
Ġà¦¬à¦Ľà¦° à¦ĸ
à¦ĩà¦Ł à¦ĵ
à¦¼, '
.( '.-').(
.( '.-
Ġà¦¸à¦° à¦«
Ġà§« à§¨à§§
Ġà§« à§¨à§¯
Ġà§« à§®à§®
à¦¯à¦® à¦¬
Ġà¦®à¦¤ à¦ĵ
Ġà§ª à§¨à§¬
Ġà§ª à§ªà§«
à¦¸à¦¹ à¦Ĺ
à¦ĩà¦ķ à¦¨
Ġà¦¢ à¦Ļ
Ġà¦ıà¦¸ à¦Ĩà¦°
Ġà¦ıà¦¸ à¦ıà¦®à¦¸
Ġà¦ıà¦² à¦Ĩà¦ĩà¦¸
Ġà¦ıà¦² à¦ıà¦®à¦ľ
à¦¨à¦¬ à¦ĩ
à¦®à¦° à¦²
à¦®à¦° à¦Ł
Ġà¦ĸà¦¬à¦° à¦«
Ġà¦ĸà¦¬à¦° à¦¸à¦®
Ġà¦ĩà¦¨ à¦·
ÙĬ Ø®
ÙĬ Ø§Ø±
ÙĬ ÙĪØ³Ùģ
Ġà¦ķà¦² à¦®à¦¬
à¦·à¦ķ à¦¬à¦¨
à¦·à¦ķ à¦¦à¦¨
à¦¾- à¦¾
Ġà¦¦à¦² à¦Ľ
à¦§à¦¨ à¦¹
à¦§à¦¨ à¦¡
Ġà¦ħà¦¸ à¦¸
à¦ıà¦¸ à¦ıà¦ĩà¦ļ
à¦ıà¦¸ à¦ıà¦®à¦ĩ
à¦¬à¦ķ à¦¹
à¦¬à¦ķ à¦¥
à¦¬à¦ķ à¦Ĺà¦£
Ġà¦Ĩà¦¦ à¦ª
Ġà§¬ à§§à§Ń
Ġà§¬ à§¦à§Ń
Ġà§¬ à§¬à§§
Ġà§¬ à§©à§¯
Ġà§¬ à§Ńà§«
à§¨à§¦ à§©à§¦
Ġ/ ,
Ġ/ =
Ġ/ ***
Ùĩ Ø§Ø¯
Ġà§Ń à§©à§¦
Ġà§Ń à§¦à§¬
Ġà§Ń à§©à§¬
Ġà¦Ĩà¦¯ à¦¯
ĠØ§ÙĦ Ùĩ
Ġ} ).().().(
Ġà¦Ŀ à¦¨à¦Ŀ
Ġà§® à§¨à§ª
Ġà§® à§§à§§
Ġà§® à§¨à§®
Ġà§® à§¨à§Ń
Ġà§® à§Ńà§Ń
Ġà§® à§©à§®
00 7
00 90
Ġà§¯ à§¬à§¦
Ġà§¯ à§ªà§¨
Ġà§¯ à§«à§§
Ġà¦ħà¦ª à¦ľ
Ġà¦ħà¦ª à¦²à¦ķ
Ġà§§à§¯ à§§à§ª
Ġà§§à§¯ à§¦à§Ń
Ġà§¦ à§¦à§¦à§¦
à¦Ĺà¦² à¦®
Ġà¦Ĩà¦¤ à¦¸à¦¬
Ġà¦Ĺà¦² à¦¸
à¦®à¦ª à¦²
Ġà¦ıà¦ķà¦ľà¦¨ à¦¸à¦¹
__ "
__ ]
Ġà¦ıà¦¨ à¦ĩà¦Ĩà¦ĩà¦Ĩà¦°
à¦ªà¦¦ à¦ĩ
ÙĪ Ø§Ø¨
ÙĪ Ø·
Ġà¦Ĺà¦£ à¦¡
à¦ĸà¦² à¦Ń
à¦Ĩà¦° à¦ĩà¦īà¦°
à§§à§¯ à§¨à§§
à§§à§¯ à§§à§Ń
à§§à§¯ à§§à§¨
à§§à§¯ à§§à§¬
à§§à§¯ à§«à§¦
à§§à§¯ à§¨à§¬
à§§à§¯ à§¦à§§
à§§à§¯ à§¦à§¨
à§§à§¯ à§ªà§«
à§§à§¯ à§©à§¯
à§§à§¯ à§©à§®
à§§à§¯ à§«à§Ń
à§§à§¯ à§«à§¯
à§§à§¯ à§¬à§¬
à§§à§¯ à§¬à§Ń
à¦Łà¦° à¦ĩ
à¦¹à¦¨ à¦ĵ
Ġà¦Ĩà¦¹à¦® à¦¦à¦¨à¦Ĺà¦°
à¦ĩà¦ľ à¦¤
à¦ħà¦¨ à¦®
à¦·à¦¦ à¦¸à¦®
Øª ØŃ
à¦°à¦Ĺ à¦¡
à¦°à¦®à¦£ à¦Ł
à¦°à¦®à¦£ à¦Ĺ
à¦°à¦®à¦£ à¦¸à¦ļ
Ġà¤ Ľ
Ġ2020 87
Ø³ Ø®
à¦¬à¦¦ à¦²à¦Ĺ
à¦²à¦Ĺ à¦£à¦ķ
== &&(
Ġà¦Ĩà¦ª à¦¸à¦¹
à§ĩ? )
Ġà¦Ī à¦·à§İ
à§ĭ, ,,
Ġà§§à§§ à§«à§Ń
Ø¯ Ø©
Ġà¦§à¦°à¦¨ à¦ĩ
%% -%%%%%%%%%%%%%%%%%%%%%%%%%%%%%%%%
à§ģ' -
à¦ĩà¦Ń à¦Ł
Ġà§§à§ª à§¨à§Ń
à¦Ĺà¦£ à¦¦
à¦Ĺà¦£ à¦Ł
à¦Ĺà¦£ à¦ħà¦¨à¦¶à¦¨
Ø¹ Øª
à¦§à¦¬ à¦Ĺ
à¦§à¦¬ à¦Ĺà¦¡
à¦ıà¦ķ à¦¥
10 17
10 16
Ġà¦ıà¦® à¦ĵ
Ġà¦ıà¦® à¦ıà¦ľ
Ġà¦ıà¦® à¦ıà¦®à¦Ĩà¦°
Ġà¦ľà¦² à¦Ł
Ġà¦ľà¦² à¦ĺ
Ġà¦ľà¦² à¦§à¦°
Ġà¦ľà¦² à¦ļà¦°
à¦Ĺà¦® à¦ŀ
à¦Ĩà¦ĩ à¦¸à¦ķ
à¦Ĩà¦ĩ à¦ĩà¦ī
à§¨à§§ à§¨
à§¨à§§ à§¬
à¦ĩà¦¤ à¦²
Ġà§§à§¬ à§«à§«à§«
Ġà§§à§® à§®à§«
Ġà§§à§® à§¯à§Ń
à¦°à¦ªà¦° à¦¶
Ġà§§à§Ń à§§à§¦
à¦°à¦ĸ à¦°à¦¤
11 11
à¦ªà¦¸ à¦ĵ
à¦ļà¦ķ à¦£
Ġ_ @.
à® ¨
Ġ19 12
Ġ19 11
Ġ19 13
Ġ19 17
Ġ19 14
Ġ19 30
Ġ19 26
Ġ19 33
Ġ19 38
Ġ19 31
Ġ19 32
Ġ19 42
Ġ19 34
Ġ19 56
Ġ19 54
Ġ19 01
Ġ19 05
Ġ19 63
Ġ19 66
Ġ19 04
Ġ19 73
à¦²à¦ª à¦¥à¦®à¦¨
Ġà¦¯à¦¤ à¦ĸ
Ġà¦¯à¦¤ Åĵ
à¦·à¦® à¦Ń
Ùĥ ÙĦ
Ġ? -
Ø§ÙĦ Ø±
Ø§ÙĦ Ø©
ĠØ£ ØŃØ¯
Ġà¦ªà¦² à¦ĵà¦¯
Ġ! )
ĠÙħ Ø³
ĠÙħ ÙĦØ§ØŃØ¸
Ġ18 22
Ġ18 12
Ġ18 28
Ġ18 80
Ġ18 29
Ġ18 35
Ġ18 36
Ġ18 37
Ġ18 33
Ġ18 49
Ġ18 38
Ġ18 31
Ġ18 55
Ġ18 43
Ġ18 52
Ġ18 64
Ġ18 68
Ġ18 90
Ġ18 77
Ġ18 81
Ġ18 03
Ġ18 95
Ġ18 92
Ġ18 87
Ġ18 93
Ġ18 04
Ġ18 62
Ġ18 91
Ġ18 96
Ġ18 73
Ġ18 98
Ġ14 00
Ġ14 22
Ġ14 18
Ġ14 14
Ġ14 80
Ġ14 50
Ġ14 57
Ġ14 46
Ġ14 37
Ġ14 47
Ġ14 31
Ġ14 55
Ġ14 56
Ġ14 61
Ġ14 53
Ġ14 08
Ġ14 95
Ġ14 63
Ġ14 82
Ġ14 94
Ġ14 04
Ġ14 91
à§§à§Ń à§¯
à§§à§Ń à§¬à§®
à¦¬à¦¹ à¦¨à¦®à¦¨
'); .((){
Ġ15 12
Ġ15 09
Ġ15 21
Ġ15 11
Ġ15 24
Ġ15 18
Ġ15 15
Ġ15 14
Ġ15 16
Ġ15 40
Ġ15 35
Ġ15 02
Ġ15 45
Ġ15 52
Ġ15 54
Ġ15 07
Ġ15 77
Ġ15 65
Ġ15 72
Ġ15 53
Ġ15 62
Ġ15 84
Ġ15 91
Ġ15 76
Ġ15 89
à¦¶à¦Ĺ à¦Ļ
ÙĤ Øµ
Ġ& ;
à§¨à§ª à§ªà§©
ĠÙģ Ø£
ĠÙģ Ø¶
ĠÙģ ÙĬÙĩØ§
Ġà¦Ĺà¦łà¦¨ à¦¸à¦¹
à§§à§® à§¬
à§§à§® à§¯à§¯
ĠØ¨ ÙĥØ±
à¦ıà¦« à¦ľ
16 86
Ġ16 20
Ġ16 09
Ġ16 19
Ġ16 13
Ġ16 27
Ġ16 02
Ġ16 70
Ġ16 33
Ġ16 45
Ġ16 88
Ġ16 61
Ġ16 41
Ġ16 06
Ġ16 69
Ġ16 68
Ġ16 90
Ġ16 65
Ġ16 08
Ġ16 87
Ġ16 04
Ġ16 85
Ġ16 74
Ġ16 83
Ġ17 20
Ġ17 10
Ġ17 19
Ġ17 18
Ġ17 17
Ġ17 80
Ġ17 40
Ġ17 25
Ġ17 57
Ġ17 36
Ġ17 67
Ġ17 48
Ġ17 49
Ġ17 38
Ġ17 60
Ġ17 58
Ġ17 56
Ġ17 41
Ġ17 78
Ġ17 06
Ġ17 07
Ġ17 90
Ġ17 65
Ġ17 03
Ġ17 63
Ġ17 66
Ġ17 93
Ġ17 62
Ġà¦Ĩà¦§ à¦Ł
à¦¨à¦Ĺ à¦¡
à§®à§¦ à§¯
Ġà¦ĵà¦ł à¦¬
28 7
28 99
Ġà¦Īà¦¦ à¦¯
Ġà¦Īà¦¦ à¦Ĺà¦¡
Ġà§«à§¦ à§§
Ġà§«à§¦ à§Ń
à¦Ĺà¦¡ à¦¹à¦°
à¦Łà¦® à¦Ł
à¦Łà¦® à¦¡
à¦¾) </><
Øµ Ø§Ø±
Û¡ Ûļ
80 5
27 882
Ġà¦· à¦£
à¦ªà¦¥ à¦¶
à¦ªà¦¥ à¦ļ
Ġ; }
29 1
29 39
à§§à§« à§Ńà§«
à§ĩ! )
à² ¶
ĠÙĬ Ø³Ø¬Ø¯
ĠÙĬ ÙĨØ¨
à¦ıà¦ĩà¦ļ à¦ĵ
à¦ıà¦ĩà¦ļ à¦ıà¦²
99 2
99 6
ĠØ¹ÙĦ Ùħ
à§§à§ª à§®
'. ').();
'. ').('');
à§¨à§¨ à§¯
à´ ¤
à´ ¨
23 8
26 2
Ġà¦¨à¦¨ à¦«
)} .('.-').(
Ġà¦°à¦Ļ à¦¬
50 7
ĠÙĤ Ø±Ø£
à¦¦à¦® à¦ķà¦²
à¦¬à¦ľ à¦Ĺà§İà¦²
Ġà¦īà¦¡ à¦¬
(){ .(
36 4
Ġà¦ĩà¦¨à¦¸ à¦®à¦¨
à§®à§®à§¦ à§®
à¦¨à¦¹ à¦ĵà¦¯
'' )})}}();
67 8
à§ĩ) :
Ø® Ø°
Ġà§§à§¦à§¦ à§§
à¤¾ ,
à¤¾ ...
37 7
37 8
37 30
à¦¹à¦°à¦£ à¦¸à¦¹
à§Ģ' ?
){ ().(
33 2
Ġ__ ():
à¦¬à¦ľà¦¨ à¦¬
à§¦à§¬ à§¦
Ġà¦Ĺà¦¨ à¦Ĺà¦¨
à§¨à§© à§Ńà§¨
à¦¬à¦® à¦ŀ
à¦¬à¦® à¦¹à¦²
45 13
à¦īà¦ª à¦¸à¦°
à¦¬à¦°à¦£ à¦Ł
ĠØ± Ø¬
à§¨à§Ń à§§
à§¨à§Ń à§ª
Ġà¦Ĩà¦ĸ à¦ļ
60 8
à¦¬à¦Ľà¦° à¦Ł
Ġà§¬à§¦ à§¨
Ġà¦Ĩà¦Ł à¦¦
Ġà§©à§© à§¬
Ġà§©à§© à§¦à§¦
Ġà¤¸ à¤¨
ĠØ³ ÙħØ¹
58 68
Ġà¦ıà¦« à¦ıà¦ķ
'- ')
52 12
Ġà¦Ķ à¦ľ
Ġà¦Ķ à¦°à¦¸
à¤° à¤²
à¦°à¦¸à¦¨ à¦ķà¦²
Ġà¦«à¦¸à¦² à¦ĩ
Ġà¦ıà¦°à¦ķà¦® à¦Ł
Ġà¦ıà¦°à¦ķà¦® à¦Ń
Ø´ Ø±Ùĥ
Ġà¦ĵà¦ľà¦¨ à¦ĵ
à¦¼' :
à¦¾... '
à§ªà§¦ à§¨
à§Ģ? '
Ġà§¯à§® à§¨
Ġà§©à§« à§¯
Ġà§©à§« à§Ń
69 3
Ġà§©à§¬ à§ª
''); .().(
Ġà§©à§Ń à§©
Ġà§¦à§§à§Ń à§§à§¯
Ġà§¦à§§à§Ń à§§à§¨à§§
Ġà§¦à§§à§Ń à§®à§¬
Ġ.(' ',
Ġà¦ĩà¦īà¦ıà¦¨ à¦¡
Ġà¦ĩà¦īà¦ıà¦¨ à¦ıà¦ĩà¦ļà¦¸
Ġà¦¬à¦¦ à¦Ń
86 48
................ ........
Ð° Ð»
à¦°à¦¡ à¦ĵà¦¯
ĠðŁ İ
Ġà§ªà§© à§¬
à¶ ©
à¶ ´
à¦Ĺà¦¸ à¦ĩ
à¤µ à¤¸
à¤® à¤¨
à¤® à¤¤
04 15
Ġ$().( ()
Ġà¦ĩà¦īà¦ıà¦¨à¦ĵ à¦¸à¦¹
à¦ıà¦°à¦ªà¦° à¦ĵ
à¦¼à¦¾à¦Ĥ ,
à§©à§Ń à§©
à§©à§¯ à§§
à§©à§¬ à§¬
ĠØ§ÙĦØ£ Ø³
ĠØ§ÙĦØ£ ØŃ
à§©à§® à§ªà§¬
Ġà§©à§¯ à§«
Ġà§©à§¯ à§Ń
][ _
][ /_
Ġà§¬à§ª à§¯
Ġà¦ħà¦¬à¦¨ à¦®à¦¨
Ġà§«à§¯ à§®
Ġà§«à§¯ à§Ń
à¦Ĺà¦ª à§İ
ä¸ ļ
Ġà² ¹
à¤¹ à¤²
à§«à§Ń à§«
Ø¢ Ø¦
://..// _
.- {:
Ġà§«à§¬ à§¨
Ġà§«à§¬ à§ª
Ġà¦¬à¦¦à¦° à¦ª
Ġà§«à§« à§¨
à¦¤à¦¸ à¦ĩ
Ġà¦¸à§İ à¦¬
Ġà§§à§¨à§¦ à§ª
Ġà¦Ĺà¦¦ à¦Ĺà¦¦
à¦¦à¦ªà¦¤ à¦¨
à¤¤ à¤°
Ġà¦ĩà¦īà¦ľ à¦²
Ġà§Ńà§¬ à§¨
Ġà§¯à§¬ à§¬
ĠØ§ÙĦØ³ Ø¬Ø¯
Ġà¦°à¦¹à¦®à¦¤ à¦Ĺà¦ŀ
Ġà´ ª
Ġà¦¾ à¦Ĥ
ĠØ§ÙĦÙħ Ø±
Ġ017 10
Ġ017 210
à¦Ĭ à¦¨
à¦Ĭ à¦ªà¦¸à¦®
Ø§Ùĩ ÙĬÙħ
áĢ º
áĢ Ķ
à¦īà¦ªà¦° à¦¨
Ġà§Ńà§® à§¨
Ġà§Ńà§® à§©
âĢ ¬
Ø§Ø¹ Ø©
Ġà¦ĩà¦¡ à¦Łà¦ķ
/. ")
Åĵ à¦¹
$(". -
à¦ıà¦¸à¦ıà¦® à¦ıà¦®
Ġà¶ ħ
Ġà¶ ľ
Ġ="" >
à¦¾à¦Ĥ- '
Ù±ÙĦ ÙĨ
Ġ://... /--.
Ġà¦ıà¦ıà¦® à¦ıà¦ĩà¦ļ
à¦·à¦· à¦§à¦¨à¦¡
-' >.</>
Ġ"' "
Ø¨ÙĬ Ø§Ø¡
-------------------------------- ----------------
Ġà¦ıà¦¬à¦Ľà¦° à¦ĵ
ĠØ§ÙĦØ¹ ÙĦÙħ
à¸²à¸ §
à¦ĩà¦ĩ à¦ĩ
ä½ ľ
à¦¸à¦ªà¦¨ à¦¸
ä» ¥
ĠØ§ÙĦÙģ Ø¬Ø±
Ø¹ÙĦ ÙĪÙħ
Ġà¦¶à¦² à§İà¦ľ
Ġ='://.// -'>.</>
âĶĢ âĹķâĸĪâĸĪ
ðŁĺ ¥
à¸£ à¸²à¸
à§Ńà§¦à§¦ à§Ńà§Ńà§Ń
ä¸į åĲ
ÙĬÙĥ Ùħ
Ġ').( ,(){
è¿ ĺ
Ġ=":// .-.//
Ġà¦ªà¦ļà¦¨ à¦¶
âľ į
à¦¦à¦ĸà¦² à¦¦
<> <>
ĠÌĦ à§ĩ
(.== ){().(
Ġà¸ ª
Ġà¦ıà¦¹à¦¨ à¦ĵ
à¸µ à¹Ī
Ġà®ª à®Ł
ÙĢÙĢ ÙĢ
Ġà¦®à¦ĸ à¦®à¦²
ÙĬÙģ Ø©
å° ı
ĠØ§ÙĦØ¬ ÙĨØ§Ø¦
ĠÙĬØ¹ ØªØ±
&=// -'
æī «
æī Ģ
'.-').( '.').('');
à§®à§®à§¦à§§à§Ń à§§à§§à§¨à§ª
ĠØªØ± Ú©ÛĮ
'-'+ .).().().('-'+.);
Ġà§®à§©à§©à§¨à§¯ à§¨à§¨
Ġà§®à§©à§©à§¨à§¯ à§«à§®
Ġà§®à§©à§©à§¨à§¯ à§®à§§
Ġ$("#_").( '\
().().( '');.().(
à®µ à®ļ
à§¯à§«à§¬ à§Ńà§¨à§©à§¬
Ġà¤¯ à¤¹
Ġà¦Ĩà¦ĩà¦ĵ à¦ıà¦«
à§¨à§¨à§Ń à§¯à§ª
ðŁĻ Ħ
%%%%%%%%%%%% %%
'+().( '-')
ÙĥØªØ±ÙĪÙĨ ÙĬØ©
Ġ$("#__ ").();
Ġ=().().();().( '.-').('.').('');
Ġà§İ à¦¸
).().().('-'+.); .('.-
å½ ĵ
745 9
ËĪ É
à¸ģà¸²à¸ £
åĴ Į
569 298
ðŁĳı ðŁĳı
Ġ///_ /-//
.__. ---
Ġà¦¹à¦ĩà¦¹ à¦ĩ
ĠØŃÙģØ¸ Ùĩ
Ġ................................................ ......
ãģĹ ãģ
')} ).().().('-'+.);.('.-
éĴ ±
Ġ(":// ../-//
Ġ2à§¦à§¨ 1
Ġ'() '
Ġ}).().().( '')})}}();
Ġà¦Ŀà¦¨à¦Ŀ à¦¨
');.((){ (.==){().(
ĠÙĬÙĨØ¨ ØºÙĬ
)}.('.-').( '
ĠØ§ÙĦØ³Ø¬Ø¯ Ø©
Ġ017210 27882
Ġ="://.-.// //
ĠØ§ÙĦØ¬ÙĨØ§Ø¦ Ø²
à§®à§®à§¦à§§à§Ńà§§à§§à§¨à§ª à§®à§®à§¦à§®
().().('');.().( '-'+.).().().('-'+.);
'+().('-') +'
Ġ=().().();().('.-').('.').(''); ().().('');.().('-'+.).().().('-'+.);
');.((){(.==){().( )}.('.-').('
! :
! ?
! ...
" '
" ),.(
$ {}
% (
& ;
' à¥¤à¥¤
' ),.(
' )}}
' _');
( ),
) ];
, %
, ''
- )
- à¦¾
. _);
/ ',
0 30
1 128
3 25
4 15
4 40
4 31
5 20
5 26
5 39
6 24
6 43
6 63
8 09
8 55
8 97
9 12
9 23
9 54
9 69
9 77
: ').(
= {}
@ -.
\ .)
\ .à¥¤
_ }
h a
o à¦ķ
} )
¢ Ù
£ áł
§ ðŁĩ
© Ù
Î ¿
Ø ķ
â ģ
å ¨
å ¾
å ģ
æ °
æ Ħ
æ İ
æ Ķ
ç ¤
ç ¥
è ¡
è ĭ
Ġ à§ĭ
Ġ ç¹ģ
Ġ ç¹ģé«Ķä¸Ńæĸĩ
Ġ áł
Ġ á®
Ġ à¹ģ
Ġ áĥ¥áĥĲáĥłáĥĹáĥ£áĥļáĥĺ
ħ °
Ļ ¥
ł ï¸ı
à¦¾ //://./
à¦° à¦ī
à¦° à¦Ľà¦¨
à¦° à¦ħà¦²
à§ĩ à§ĭ
à¦¿ à¥¥
à¦¨ à¦īà¦¨
à¦¨ à¦¸à¦ķ
à¦¨ à¦Ĺà¦¨
à¦¨ à¦īà¦¤
à¦¯ à¦²à¦ķ
à¦¯ à¦Ńà¦°
à¦¤ à¦¸à¦¬
à¦¤ à¦²à¦¬
à¦¤ à¦¸à¦ķ
à¦ķ à¦¸à¦ª
à¦ķ à¦¨à¦Ł
à¦ķ à¦¢
à¦ķ à¦¡à¦¨
à¦ķ à§İà¦¸à¦ķ
à¦ķ à¦¸à¦®à¦¸
à¦² à¦¬à¦¸
à¦² à¦¦à¦°
à¦² à¦Ĺà¦¤
à¦² à¦ªà¦ķ
à¦² à¦ªà¦Ł
à¦² à¦«à¦Ł
à¦² à¦ļà¦¤
à¦¬ à¦®à¦°
à¦¬ à¦ĩà¦¬
à¦® à¦ĸà¦¨
à¦® à¦°à¦¸
à¦® à¦¸à¦²
à¦® à¦²à¦¨
à¦® à¦°à¦¦
à§ģ à¦¿
à¦¸ à¦°à¦¬
à¦¸ à¦¦à¦¨
à¦¸ à¦ħ
Ġà¦ķ à¦·à¦¤
Ġà¦ķ à¦īà¦ķ
Ġà¦ķ à¦ĵà¦¨
Ġà¦ķ à¦¦à¦¬
Ġà¦¸ à¦¶à¦¬
Ġà¦¸ à¦ĩà¦Ľ
Ġà¦¸ à¦²à¦Ļ
à¦¦ à¦§
à¦¦ à¦Ļ
à¦¦ à¦¹à¦°
à¦¦ à¦ħà¦¨
à¦¦ à¦«à¦°
Ġà¦¬ à¦¬à¦²
Ġà¦¬ oà¦ķ
à§ĭ à¦¾
à§ĭ .....
à§ĭ ......
Ġà¦ª à¦īà¦·
à¦Ł à¦¥
à¦Ł à¦²à¦¬
à¦Ł à¦°à¦ª
à¦Ł à¦²à¦Ĺ
à¦Ł à¦¡à¦²
à¦ª à¦¸à¦ķ
à¦ª à¦¬à¦¤
à§Ģ _
à§Ģ à¦¾
à§Ģ ''
Ġà¦Ĩ à¦Ĩà¦¹
Ġà¦® à¦Ľ
Ġà¦® à¦ĺ
Ġà¦® à¦Ĺà¦°
Ġà¦® à¦Ĺà¦¡
Ġà¦® à¦Ĺà¦¦
Ġà¦® à¦®à¦®
à¦ľ à¦°à¦¸
à¦ľ à¦²à¦¤
à¦ľ à¦¬à¦ĩ
à¦¶ à¦ĸà¦¨
à¦¶ à¦¤à¦¬
à¦¶ à¦²à¦¯
à¦¶ à¦²à¦¬
à¦¶ à¦¤à¦ķ
à¦¶ à¦ªà¦²
à¦ĩ à¦ļà¦¨
à¦ĩ à¦¸à¦ķ
à¦ĩ à¦Ĩà¦°
à¦ĩ à¦¥à¦¨
à¦Ĺ à¦§
à¦Ĺ à¦°à¦¤
à¦Ĺ à¦°à¦¸
à¦Ĺ à¦¨à¦¨
à¦Ĺ à¦ľà¦ķ
Ġà¦¨ à¦¬à¦ª
Ġà¦¨ à¦°à¦«
Ġà¦ı à¦¦à¦¨
Ġà¦ı à¦ıà¦¨
Ġà¦ı à¦Ĩà¦°
Ġà¦ı à¦¥à¦¨
à¦¹ à¦¬à¦²
à¦¹ à¦ķà¦¨
à¦¹ à¦ĩà¦¬
Ġà¦¹ à¦°à¦ķ
Ġà¦¹ à¦ķà¦¦
Ġà¦¹ à¦ĩà¦¸
à¦· à¦¤à¦ķ
à¦· à¦°à¦Ł
à¦· à¦Ĺà¦£à¦ķ
Ġà¦¦ à¦¹à¦¨
Ġà¦¦ à¦ĩà¦ĵà¦¯
à¦Ľ à¦«
à¦Ľ à¦ķà¦ĩ
à¦¡ à¦ıà¦®
à¦¡ à¦ªà¦Ł
à¦¡ à¦²à¦ª
à¦¡ à¦ķà¦ª
à¦¡ à¦¬à¦¡
Ġà¦ķà¦° à¦¬à¦¨
à¦¼à¦¾ [
Ġà¦ħ à¦°à¦¨
Ġà¦ħ à¦Ĺà¦®
Ġà¦ħ à¦ĵà¦°
Ġà¦ħ à¦°à¦¸à¦¨
Ġà¦¤ à¦Ł
Ġà¦¤ à¦ŀ
Ġà¦¤ à¦Ľà¦°
Ġà¦¤ à¦¦à¦¸
à¦§ à¦ľà¦¨
à¦§ à¦ĺ
Ġà¦ľ à¦£
à¦ļ à¦°à¦£à¦ķ
Ġà§ ĥ
à¦ĸ à¦°à¦¨à¦Ĺà¦°
Ġà¦° à¦ĩà¦ľ
Ġà¦° à¦Ĺà¦°à¦Ĺ
à¦Ń à¦£
à¦Ń à¦ĵà¦¯
à¦Ń à¦¨à¦¦
à¦£ à¦°à¦ķ
à¦£ à¦¢
à¦£ à¦īà¦¡
Ġà¦¶ à¦·
Ġà¦¶ à¦ł
Ġà¦¶ à¦ĵà¦ķ
à¦ĵ à¦°à¦¬
à¦ĵ à¦Ŀ
à¦ĵ à¦ĩà¦¸
Ġà¦¯ à§İà¦¸
Ġ( /
Ġ( _);
Ġ( ,,,,
Ġ( /)
Ġà¦Ĺ à¦Ł
Ġà¦Ĺ à¦°à¦ľ
Ġà¦Ĺ à¦®à¦Ĺ
Ġà¦ļ à¦ļ
Ġà¦ļ à¦°à¦¦
Ġà¦Ń à¦·
Ġà¦Ń à¦§
Ġà¦Ń à¦°à¦²
Ġà¦ĵ à¦°à¦¸
Ġà¦ĵ à¦ķà¦¸
Ġà¦ĵ à¦Łà¦®
Ġà¦ĵ à¦ıà¦¸à¦¬
Ġà¦ĵ à¦ıà¦®à¦Ĩà¦°
Ġà¦ī à¦¯à¦¬
Ġà¦ī à¦ľà¦®
Ġà¦ī à¦¹à¦¹
à§¦ à§¨à§¨
à¥¤ [
Ġà¦ĩ à¦ªà¦¸
à¦« à¦²à¦¤
à¦« à¦¸à¦¹
à¦« à¦ľà¦°
Ġà¦² à¦Ĺà¦¨
Ġà¦² à¦ĵà¦¹
à§Ĥ à§Ĥ
à§ĥ à¦¼
Ġà¦¹à¦¯ à¦°
Ġà¦ıà¦ķ à¦¶à¦¨
à¦ī à¦ªà¦¤
à¦ī à¦Ĩà¦ĩ
à¦ī à¦ķà¦®
Ġà¦ĸ à¦Ł
Ġà¦ĸ à¦Ļ
Ġà¦ĸ à¦ŀ
Ġà¦ĸ à¦¬à¦°à¦¤
à¦°à¦¤ à¦¯
à¦¬à¦° à¦¸
à¦¬à¦° à¦«à¦¸
à¦ł à¦²
à¦ł à¦ļ
à¦ł à¦ĸà¦¡
Ġà¦Ĩà¦® à¦®
Ġà¦Ĩà¦® à¦°à¦£
à¦Ļ à¦¸
à¦Ļ à¦ľ
à¦Ļ à¦¡
à¦°à¦ķ à¦ĺ
Ġà¦Ľ à¦ĩ
Ġà¦Ľ à¦®à¦Ľ
à¦ı à¦¹
à¦ı à¦¦à¦²
à¦ı à¦ĺà¦Łà¦¨
à¦ı à¦¡à¦®
à¦ı à¦ıà¦®à¦ıà¦¸
à¦ı à¦ıà¦ĩà¦ļà¦Ĩà¦°
Ġà¦ľà¦¨ à¦°
à§¨ à§¯à§¯à§¯
Ġà¦¬à¦² à¦ĵ
à¦¬à¦¨ à¦¶
à¦¬à¦¨ à¦Ń
à¦¬à¦¨ à¦°à¦¹à¦¸
.. ?
.. ).
.. /-/
Ġà¥¤ "
Ġà¥¤ .
Ġà¥¤ ...
Ġà¦¡ à¦¬à¦²à¦®
à¦°à¦£ à¦¸
à¦°à¦£ à¦ªà¦¤
à¦°à¦£ à¦¬à¦ķ
Ùİ .
Ġà¦Ĩà¦° à¦¨
Ġà¦Ĩà¦° à¦¬à¦°
Ġà¦Ĩà¦° à¦ıà¦¨à¦¬
à¦ªà¦° à¦²
Ġà¦§ à¦¬à¦¨
à¦ľà¦¨ à¦¸à¦®
à¦¾à¦ģ "
Ġà¦ĺ à¦°à¦¦
Ġà¦ıà¦ĩ à¦ĩ
à¦°à¦¹ à¦ĩ
à§ĩ, -
Ġà§¨à§¦ à§©à§§
Ġ: ').();
à¦°à¦® à¦¶à¦ķ
à¦°à¦® à¦ĺà¦¨
à¦°à¦® à¦¶à¦ĩ
à¦ķà¦° à¦ĩ
à§¯ à§§à§¯à§ªà§©
à§Ī ,
Ġ- !
Ġ- ="
à¦¶à¦¨ à¦Ń
à§ª à§¯à§¯
à§ª à§¦à§§
Ġà¦īà¦ª à¦ªà¦¤
Ġà¦īà¦ª à¦¢
à§İ à¦¸à¦¹
à§« à§¨à§§
à§« à§¯à§¯
à§« à§ªà§«
Ġà¦®à¦¨ à¦®à¦¤
à¦ĸà¦¨ à¦¦
ÙĦ ÙĬÙħØ§ÙĨ
Ġà¦Ĩà¦¸ à¦®à¦¤
à§® à§¨à§¨
à§® à§«à§ª
à§® à§«à§®
à§® à§¯à§¯à§¯
à§© à§§à§Ńà§¬
à¦°à¦¸ à¦°à¦¤
à§Ń à§§à§©
Ġà¦ıà¦° à¦°
Ġà¦ıà¦° à¦ª
Ġ. #
à§¬ à§§à§¯
à§¬ à§ªà§¯
Ġà¦Ĩà¦Ĺ à¦¡
à¦ĺ à¦ł
à¦ĺ à¦¤à¦°
à¦ĺ à¦¨à¦ķ
à¦ĺ à¦¬à¦ª
Ġà¦§à¦° à¦ĸ
à¦īà¦¨ à¦¶
à¦ªà¦¤ à¦®
à¦²à¦ķ à¦Ĺà¦£
à¦ļà¦¨ à¦Ńà¦Ļ
à¦²à¦¨ à¦ĩ
à¦¦à¦ķ à¦¯
à¦¦à¦ķ à¦Ĺà¦£
à¦·à¦£ à¦ľà¦¨
à¦ħ à¦°à¦ķ
à¦ħ à¦¸à¦®à¦¯
à¦ķà¦² à¦ľ
Ġà¦Ĩà¦¨ à¦ª
Ġà¦Ĩà¦¨ à¦Ĩà¦®
Ġà¦Ĩà¦¨ à¦ħà¦«
à¦¤à¦¨ à¦ĸ
à¦Łà¦¨ à¦Ń
à¦Łà¦¨ à¦°à¦¸
Ġà§© à§«à§«
Ġà§© à§ªà§®
à¦°à¦¦ à¦¯
... ,
Ġà¦¸à¦¹ à¦¦
ÙĲ )
ÙĲ .
Ġà¦®à¦¹ à¦¬
Ġà¦¬à¦° à¦ľ
Ġà¦¬à¦¨ à¦®
Ġà¦¬à¦¨ à¦Ł
à¦¨à¦¤ à¦ĵ
à¦Ŀ à¦¬à¦¯
à¦Ŀ à¦Ĺà¦¡
à¦¬à¦² à¦°
à¦¬à¦² à¦ª
à¦¬à¦² à¦Ń
Ġà§¨à§¦à§¨ à§Ń
Ġà¦¬à¦Ľà¦° à¦ª
à¦¯à¦ķ à¦®à¦ª
à¦¯à¦ķ à¦¥à¦¨
à¦®à¦² à¦¯
à¦®à¦² à¦¬
.( );
.( "-"),
Ġà¦¸à¦° à¦ĸ
Ġà¦¸à¦° à¦ľà¦®
Ġà§« à§§à§¨
Ġà§« à§©à§«
Ġà§« à§ªà§¦
Ġà§« à§ªà§®
Ġà§« à§©à§Ń
à¦¯à¦® à¦ŀ
à¦ķà¦Ł à¦¸à¦¹
Ġà¦ıà¦Ł à¦°
Ġà¦ıà¦Ł à¦²
Ġà§ª à§¨à§¯
Ġà§ª à§©à§©
Ġà§ª à§Ńà§§
à¦¸à¦¹ à¦¨
à¦¸à¦¹ à¦ª
Ġà¦Ĩà¦ķ à¦·
Ġà¦ıà¦¸ à¦ķà¦°
Ġà¦ıà¦¸ à¦ıà¦¸à¦ıà¦«
à¦¤à¦® à¦°
à¦¤à¦® à¦¸
ÙĨ ÛĮ
ÙĨ Ø¸
ÙĨ ÙħÙĦ
ÙĨ Ø§ÙħÙĬØ©
Ġà¦ıà¦² à¦Ĺ
Ġà¦ıà¦² à¦Ń
Ġà¦ıà¦² à¦«
Ġà¦ıà¦² à¦ıà¦®à¦ıà¦¸
Ġà¦¨à¦¤ à¦ľ
Ġà¦ĸà¦¬à¦° à¦®
Ġà¦ĸà¦¬à¦° à¦ĵ
Ġà¦ĩà¦¨ à¦Ľ
à¦ĩà¦° à¦«
à¦¯à¦¨ à¦¶à¦¨
ÙĬ Ø¬
ÙĬ Ø§ÙĨ
ÙĬ Ø´
à¦²à¦¬ à¦¶
Ġà¦ķà¦² à¦Ł
Ġà¦ķà¦² à¦°à¦¬
à¦¸à¦° à¦¡
à¦§à¦¨ à¦ĩ
à¦ķà¦¤ à¦²
à¦ķà¦¤ à¦ªà¦²
ĠØ§ Øº
Ġà§¬ à§§à§®
Ġà§¬ à§§à§«
Ġà§¬ à§§à§§
Ġà§¬ à§©à§«
Ġà§¬ à§ªà§®
Ġà§¬ à§«à§¬
Ġà§¬ à§«à§ª
Ġà§¬ à§Ńà§®
à§¨à§¦ à§§
à§¨à§¦ à§«
à§¨à§¦ à§©
Ġà¦īà¦ªà¦ľ à¦²
Ġà¦ħà¦¬à¦¸ à¦°à¦Ń
à¦°à¦ª à¦¯
à¦°à¦ª à¦ŀ
Ùĩ Ø±
Ùĩ Ø§Ø±Ø©
Ġà§Ń à§§à§«
Ġà§Ń à§¨à§©
Ġà§Ń à§¦à§¨
Ġà§Ń à§¬à§§
Ġà§Ń à§®à§¬
à¦¨à¦®à¦¨ à¦·
ĠØ§ÙĦ Ø§Ø³Øª
Ġ3 000
à¦¨à¦¨ à¦ķ
à¦ķà¦¬ à¦¦
).( )}),$(".
à¦ıà¦¨ à¦ĩà¦Ĩà¦ĩà¦Ĩà¦°
Ġà¦Ŀ à¦°à¦¬
Ġ0 00
Ø± Ùħ
Ø± ÙĬØ©
Ġà§® à§¨à§¦
Ġà§® à§¨à§§
Ġà§® à§¦à§Ń
Ġà§® à§¬à§§
Ġà§® à§©à§¯
Ġà§® à§ªà§§
Ġà§® à§Ńà§©
Ġà§® à§¯à§®
Ġà§® à§¯à§ª
Ġà§® à§¯à§«
Ġà§® à§¬à§®
à¦ļà¦² à¦°à¦¤
à¦ļà¦² à¦¸à¦¹
à¦®à¦¸ à¦ĵ
Ġà¦¬à¦¸ à¦ı
Ġà§¯ à§¨à§¦
Ġà§¯ à§§à§¨
Ġà§¯ à§§à§§
Ġà§¯ à§¨à§¬
Ġà§¯ à§¦à§§
Ġà§¯ à§¦à§¯
Ġà§§à§¦ à§§à§¦
Ġà¦ħà¦ª à¦£
Ġà§§à§¯ à§§à§§
Ġà§§à§¯ à§¨à§¨
Ġà¦«à¦² à¦ĩ
à¦¨à¦ķ à¦¨
à¦¨à¦ķ à¦¯
à¦°à¦Ń à¦°
à¦Ĺà¦² à¦°
à¦Ĺà¦² à¦ĵ
à¦Ĺà¦² à¦ľà¦¨à¦ķ
Ġà¦Ĩà¦¤ Åĵ
à¦¸à¦ķ à¦Ĺà¦£
Ġà¦Ĺà¦² à¦²
Ġà¦Ĺà¦² à¦¦à¦ĺà¦°
20 24
20 25
20 210
Ġà¦ıà¦¤ à¦¦à¦¸
à¦®à¦¬ à¦¯
__ ()
à¦Ĩà¦¨ à¦¹
à¦¬à¦¤ à¦ª
à¦ıà¦ĩ à¦°à¦ķà¦®
à¦°à¦¹à¦£ à¦¸à¦¹
à¦«à¦¤ à¦ª
ÙİÙĳ ØĮ
Ġ[ .
Ġ[ ://..//
Ġà¦ıà¦¨ à¦ĵ
Ġà¦ıà¦¨ à¦ıà¦¸à¦Ĩà¦ĩ
Ø¨ Ùĩ
Ø¨ Ø§Ø¯
ÙĪ Ø§ÙĦ
ÙĪ ÙĬØ±
ÙĪ Úº
à¦·à¦¤ à¦Ĺ
à¦Ĩà¦° à¦ıà¦®à¦ª
Ġà¦¬à¦ķ à¦¸
à§§à§¯ à§§
à§§à§¯ à§§à§®
à§§à§¯ à§¨à§¯
à§§à§¯ à§©à§Ń
à§§à§¯ à§«à§¬
à§§à§¯ à§ªà§¨
Ġà¦īà§İ à¦ķà¦Ł
à¦¥à¦¨ à¦ĵ
Øª Ø§ØŃ
Øª ÙĩØ§
Ġà¦Ĳ à¦°
Ġà¦Ĳ à¦¯
Ġà¦Ĳ à¦ķà¦¤
à¦ĩà¦® à¦ľ
à¦ĩà¦® à¦Ĺ
à¦°à¦Ĺ à¦£à¦ķ
Ġà¤ Ī
à¦¿' :
à¦¶à¦® à¦¶
Ġà¦ļà¦Ł à¦ļà¦Ł
22 20
22 8800
à¦¾à¦ĥ ,
à¦ĩà¦« à¦«
== **
Ġà¦ıà¦Ĺ à¦ľ
à¦ıà¦® à¦ĵà¦¯
à¦ıà¦® à¦ıà¦®à¦ıà¦¸
à¦ıà¦® à¦Ĩà¦°à¦ª
Ġà§§à§« à§«à§«
ĠÙĪ Ø¥
à§ĩ? !
Ġà¦Ī à¦¹
à§ĭ, "
à§ĭ, '
Ø¯ ÙĪÙĨ
à¦Ńà¦¬ à¦ĩ
Ġà§§à§ª à§¨à§ª
à¦Ĺà¦£ à¦ĵ
à¦¦à¦² à¦®à¦¤
à¦¦à¦² à¦¬à¦²
Ġà¦Ĺà¦¡ à¦¸
à¦ıà¦ķ à¦ĩà¦¸
à¦ıà¦ķ à¦ĸà¦£
Ġà¦¹à¦ķ à¦ļà¦ķ
Ġà¦ıà¦® à¦ľ
Ġà¦ĩà¦® à¦ľ
Ġà¦ķà¦¨ à¦ķà¦°
à¦ľà¦² à¦īà¦¡
à¦ľà¦² à¦¤à¦°à¦Ļ
à¦Ĩà¦ĩ à¦¤
à¦Ĩà¦ĩ à¦ıà¦¸à¦¬
à¦Ĩà¦ĩ à¦Ĩà¦ĩà¦Ł
à¦Ĩà¦ĩ à¦ĩà¦īà¦¸
à¦Ĩà¦ĩ à¦ĵà¦ıà¦¸
à§¨à§§ à§¦
12 69
à¦Ī à¦¯
() +"
Ġà¦¶à¦¹à¦° à¦ľ
Ġà§§à§¬ à§©à§¯
Ġà§§à§® à§¨à§¬
Ġà§§à§® à§©à§¯
Ġà§§à§® à§«à§ª
Ġà§§à§® à§«à§Ń
Ġà§§à§® à§«à§¨
Ġà§§à§® à§¬à§ª
à¦°à¦ĸ à¦£
11 30
à¦¹à¦¬ à¦¹
Ġà¦¦à¦° à¦¦à¦°
Ġà¦¸à¦ļ à¦ķ
à¦Ĺà¦łà¦¨ à¦¤à¦¨
Ġ.. @.
Ġà§©à§¦ à§Ń
Ġ19 22
Ġ19 10
Ġ19 15
Ġ19 16
Ġ19 28
Ġ19 27
Ġ19 02
Ġ19 36
Ġ19 47
Ġ19 39
Ġ19 43
Ġ19 52
Ġ19 06
Ġ19 51
Ġ19 53
Ġ19 08
Ġ19 85
24 9
Ùĥ Ø©
Ġ? )
Ġ? ????
à¦²à¦¸ à¦«
", =
Ø§ÙĦ Ø¨
Ø§ÙĦ ØŃ
Ġà§¨à§§ à§¦à§¦
19 23
19 41
19 90
19 96
19 83
18 09
ĠÙħ ÙĦ
ĠÙħ ÛĮÚº
ĠÙħ Ø§ÙĦÙĥ
Ġ18 20
Ġ18 10
Ġ18 09
Ġ18 21
Ġ18 11
Ġ18 24
Ġ18 19
Ġ18 18
Ġ18 15
Ġ18 13
Ġ18 17
Ġ18 14
Ġ18 16
Ġ18 27
Ġ18 40
Ġ18 25
Ġ18 26
Ġ18 02
Ġ18 46
Ġ18 44
Ġ18 48
Ġ18 45
Ġ18 39
Ġ18 88
Ġ18 32
Ġ18 42
Ġ18 58
Ġ18 56
Ġ18 41
Ġ18 06
Ġ18 79
Ġ18 69
Ġ18 07
Ġ18 65
Ġ18 01
Ġ18 51
Ġ18 53
Ġ18 08
Ġ18 05
Ġ18 63
Ġ18 86
Ġ18 82
Ġ18 71
Ġ18 94
Ġ18 97
Ġ18 75
Ġ18 84
Ġ18 85
Ġ18 76
Ġ18 74
Ġ18 89
Ġ18 83
15 59
15 81
Ġ14 20
Ġ14 10
Ġ14 12
Ġ14 09
Ġ14 21
Ġ14 11
Ġ14 24
Ġ14 19
Ġ14 13
Ġ14 17
Ġ14 16
Ġ14 30
Ġ14 25
Ġ14 99
Ġ14 23
Ġ14 26
Ġ14 35
Ġ14 02
Ġ14 67
Ġ14 44
Ġ14 70
Ġ14 33
Ġ14 48
Ġ14 49
Ġ14 88
Ġ14 32
Ġ14 60
Ġ14 58
Ġ14 52
Ġ14 34
Ġ14 59
Ġ14 78
Ġ14 54
Ġ14 06
Ġ14 79
Ġ14 07
Ġ14 64
Ġ14 90
Ġ14 77
Ġ14 65
Ġ14 81
Ġ14 03
Ġ14 51
Ġ14 72
Ġ14 92
Ġ14 05
Ġ14 86
Ġ14 71
Ġ14 87
Ġ14 93
Ġ14 97
Ġ14 75
Ġ14 84
Ġ14 96
Ġ14 85
Ġ14 73
Ġ14 76
Ġ14 74
Ġ14 89
Ġ14 83
ĠØ§ÙĦÙĦ ØºØ©
Ġà¦®à¦ľ à¦®à¦ª
Ġà¦īà¦ĩà¦ķ à¦ıà¦¨
Ġà¦ļà¦ķ à¦®à¦ķ
---- ---
Ġà¦Ĩà¦ĩ à¦ıà¦²
Ġ15 22
Ġ15 10
Ġ15 19
Ġ15 13
Ġ15 17
Ġ15 28
Ġ15 80
Ġ15 27
Ġ15 29
Ġ15 30
Ġ15 25
Ġ15 99
Ġ15 23
Ġ15 26
Ġ15 50
Ġ15 57
Ġ15 36
Ġ15 46
Ġ15 37
Ġ15 44
Ġ15 70
Ġ15 33
Ġ15 49
Ġ15 47
Ġ15 38
Ġ15 31
Ġ15 39
Ġ15 32
Ġ15 60
Ġ15 42
Ġ15 43
Ġ15 58
Ġ15 34
Ġ15 56
Ġ15 59
Ġ15 61
Ġ15 41
Ġ15 78
Ġ15 06
Ġ15 79
Ġ15 69
Ġ15 64
Ġ15 90
Ġ15 81
Ġ15 03
Ġ15 51
Ġ15 95
Ġ15 05
Ġ15 63
Ġ15 86
Ġ15 82
Ġ15 71
Ġ15 87
Ġ15 94
Ġ15 97
Ġ15 04
Ġ15 75
Ġ15 96
Ġ15 85
Ġ15 73
Ġ15 74
Ġ15 98
Ġ15 83
à¦Łà¦¸ à¦¸à¦¹
à§ĩà¦ĥ "
à§ĩà¦ĥ à¦ĥ
Ġ// $().(
ÙĤ Ø§Øª
à§¨à§ª à§¨
13 00
13 14
13 01
ĠÙģ ÙĦ
ĠÙģ Ø±
ĠÙģ ÙĬÙĩ
ĠÙģ Ø¥ÙĨ
17 1
17 9
Ġà¦Ĺà¦łà¦¨ à¦Ĺà¦¤
à§§à§® à§«
à§§à§® à§®
à§§à§® à§¦à§¦
à§§à§® à§ªà§®
à¦ıà¦« à¦ķ
16 30
16 40
Ġ16 12
Ġ16 21
Ġ16 11
Ġ16 15
Ġ16 14
Ġ16 16
Ġ16 29
Ġ16 30
Ġ16 40
Ġ16 99
Ġ16 23
Ġ16 26
Ġ16 35
Ġ16 57
Ġ16 36
Ġ16 46
Ġ16 67
Ġ16 37
Ġ16 44
Ġ16 48
Ġ16 38
Ġ16 31
Ġ16 39
Ġ16 55
Ġ16 32
Ġ16 42
Ġ16 43
Ġ16 58
Ġ16 52
Ġ16 34
Ġ16 56
Ġ16 59
Ġ16 78
Ġ16 54
Ġ16 79
Ġ16 07
Ġ16 64
Ġ16 77
Ġ16 81
Ġ16 01
Ġ16 03
Ġ16 51
Ġ16 72
Ġ16 53
Ġ16 95
Ġ16 92
Ġ16 05
Ġ16 66
Ġ16 82
Ġ16 71
Ġ16 93
Ġ16 94
Ġ16 97
Ġ16 62
Ġ16 75
Ġ16 91
Ġ16 96
Ġ16 73
Ġ16 76
Ġ16 98
Ġ16 89
à¦¶à¦² à¦Ĺà¦¤à¦Ń
Ġ17 22
Ġ17 12
Ġ17 09
Ġ17 21
Ġ17 11
Ġ17 24
Ġ17 13
Ġ17 14
Ġ17 16
Ġ17 27
Ġ17 29
Ġ17 30
Ġ17 99
Ġ17 23
Ġ17 26
Ġ17 35
Ġ17 02
Ġ17 46
Ġ17 37
Ġ17 44
Ġ17 33
Ġ17 45
Ġ17 31
Ġ17 39
Ġ17 88
Ġ17 32
Ġ17 42
Ġ17 43
Ġ17 52
Ġ17 34
Ġ17 54
Ġ17 81
Ġ17 01
Ġ17 51
Ġ17 72
Ġ17 08
Ġ17 92
Ġ17 86
Ġ17 82
Ġ17 87
Ġ17 04
Ġ17 84
Ġ17 96
Ġ17 85
Ġ17 73
Ġ17 98
Ġ17 89
Ġ17 83
à¦ĩà¦ī à¦ıà¦¸à¦¡
à¦¯à¦ª à¦¥
à¦¨à¦Ĺ à§İ
à§§à§¦ à§Ń
à§§à§¦ à§«à§¦
à§®à§¦ à§©
Ġà§¨à§© à§¨
Ġà§¨à§© à§Ńà§¬
Ġà¦ĵà¦ł à¦¤
Ġà¦ĵà¦ł à¦Ľ
à¦īà¦¡ à¦«
28 35
à¦ıà¦² à¦ĩà¦¡
à¦ıà¦² à¦Ĩà¦°à¦¬
Ùģ Ø§Ø¡
Ùģ Ø¶ÙĦ
à¦ķà¦°à¦£ à¦¸
à¦¬à¦¹à¦¨ à¦ĵ
à¦¶à¦° à§İ
à¦ľà¦¬ à¦ļ
à¦¾? !
à¦«à¦Ł à¦ª
à¦ªà¦² à¦¡
à§§à§¨ à§¯
à§§à§¨ à§¬à§¦
Øµ ØŃ
Øµ ÙĪØ±
à¦ľà¦ķ à¦Ĺ
à¦¨à¦² à¦ľ
27 32
27 61
Ġà¦ªà¦¦à¦ķ à¦¸à¦¹
à¦ªà¦¥ à¦¹
Ġà¦¦à¦°à¦ķ à¦·
29 2
29 3
29 7
Ġà§¨à§¯ à§§à§¦
ĠÙĬ Ø§
ĠÙĬ Ø±
ĠÙĬ ÙĪÙħ
ĠÙĬ ÙĤÙĪÙĦ
ĠÙĬ ÙĤØ±Ø£
": ").(
à¦ıà¦ĩà¦ļ à¦ĩ
Ġà¦°à¦ķà¦® à¦Ń
99 3
Ġà¦ķà¦· à¦Ľ
à§§à§¬ à§¯à§ª
à§§à§© à§¬à§¨
à§§à§ª à§ªà§©
à§§à§ª à§©à§«
à§§à§ª à§©à§Ń
à§§à§ª à§©à§¯
à§§à§ª à§¦à§¬à§¬à§¦
à§¨à§® à§Ń
à¦Ĩà¦Ĺ à¦°à¦¤à¦²
à§¨à§¨ à§©à§©
à§¦à§¦à§¦ à§Ńà§§à§¦
à¦ķà¦¶à¦¨ à¦Ł
à¦ķà¦¶à¦¨ à¦Ĺ
Ġà§ªà§¦ à§ª
35 4
Ġ] ;
à§ĩ... !!!
à¸ Ĥ
à¸ į
à¸ ŀ
à¸ Ħà¸
à¦Ĩà¦ĩà¦¨ à¦Ĺà¦¤
Ġà¦īà§İà¦¸à¦¬ à¦Ĺ
à§İà¦¸à¦ķ à¦ĵ
Ġà¦ĩà¦° à¦ĵà¦¯
57 1
à¦ķà¦ª à¦Ĺ
à¦¿! )
'' ).('
67 1
67 2761
". ---
Ġ27 32
Ġà§§à§¦à§¦ à§Ń
37 2
à¦®à¦°à¦£ à¦ľ
à¦¹à¦°à¦£ à¦Ł
à¦¹à¦°à¦£ à¦Ĺ
Ø° Ø§Ø¨
Ġ$('. ').();
Ġ$('. :').(
2021 11
ĠØ¥ ÙĨØªØ±ÙĨØ§Ø´ÙĪÙĨØ§ÙĦ
à§¦à§Ń à§¬à§§
48 7
&& .('
[] []
à¦Łà¦« à¦¡
à¦Łà¦« à¦®à¦°
38 5
Ø¶ Ø§Ø¡
!! !!!
39 8
ðŁ ħ°
55 3
ĠØ± Ø£
Ø§ÙĨ Ø§
Ø§ÙĨ Ùĩ
Ġà¦Ńà¦Ł à¦Ńà¦Ł
). -
). ;
60 6
60 7
Ġà¦ħà¦¸à¦® à¦¬à¦¯
&= /-
Ġà§©à§© à§¨
à§¯à§¬ à§¨
43 4
Ġà¤¸ à¤®
Ġà¤¸ à¤Ĺ
Ġà¦¸à¦« à¦°à¦¨
à§©à§« à§§
à§©à§« à§ªà§Ń
ĠØ³ ÙĨ
ĠØ³ ÙĦÙĬÙħØ§ÙĨ
58 4
Ġà¦Ĭ à¦¨à¦¬
'- '
Ø§Ø ¸
à¤° à¤¸
à¤° à¤§
ĠØµ ÙĦ
ĠØµ ÙĦØ§Ø©
Ġà¦Ĩà¦ļà¦°à¦£ à¦Ĺ
Ġà¦Ĩà¦ļà¦°à¦£ à¦Ĺà¦¤
Ġà¦¸à¦¦ à¦ĩ
Ġà¦¸à¦¦ à¦Ĺà¦¤
56 1
56 4
59 0
Ġà¤® à¤¨
Ġà¦ľà¦Ĺà¦¤ à¦Ł
Ġà§¯à§® à§¯
Ġà§ªà§« à§¯
Ġà§©à§« à§©
69 0
69 6
à§¦à§¨ à§¨à§ª
ĠØ§ÙĦØª ÙĬ
à§®à§® à§®
68 6
à§©à§© à§Ń
Ġà® ¹
à¤¦ à¤¯
Ø¹Ø± Ùģ
à§ªà§® à§¨à§Ń
à¦¼! "
Ġà§©à§Ń à§ª
Ġà§©à§Ń à§®
Ġà§©à§Ń à§¯à§«
Ġà§¦à§§à§Ń à§¬
Ġà§¦à§§à§Ń à§¨à§ª
Ġà§¦à§§à§Ń à§§à§ª
Ġà§¦à§§à§Ń à§«à§¦
Ġà§¦à§§à§Ń à§©à§§
à¦¾" =
à¤¨ à¤ķ
à¤¨ à¤®
à§ªà§Ń à§¬
à· Ŀ
Ð° Ð½
'+ ()+"
ĠØ§ÙĦØªØ± Ø¬ÙħØ§Øª
Ġà¦Ĺà¦ł à¦¨à¦ķ
ĠðŁ ¥
Ġ+= '';
Ġà§ªà§© à§¯
Ġà§ªà§© à§ªà§«
Ġà¦ķà¦®à¦¨ à¦°
Ġà§Ńà§« à§¨
Ñģ ÑĤ
Ġ._ )}}
à¦¯à¦ľ à¦Ĺà¦¤
200 1
200 2
ÙĪØ§ Ø¬
Ġà§ªà§® à§¯
Ġà§ªà§® à§©
à¦Ĩà¦« à¦ľ
Ø§Ø± ÙĬØ©
04 00
Ġ$().( (){
Ġ$().( "",);
Ġà§©à§® à§¨
Ġà§©à§® à§¯à§®
/- ),
à¤¯ à¤°à¤²
à¦Ĩà¦¶ à¦Ļ
à§¦à§© à§¨
à¦ħà¦¬ à¦¤à¦ķ
Ġà§ªà§¬ à§¨
ĠÙĨ ÙĪØ±
ĠÙĨ Ø´Ø±
à¦¥à¦ª à¦ŀ
Ġà§ªà§ª à§¯
ĠØ§ÙĦØ£ Ø¯
à§©à§® à§©à§©à§¦
Ġà§«à§® à§¯
à§ģà¦Ĥ -
à¦ľà¦¹ à¦°à¦¤
ĠÙĩ ÙĬ
à§«à§¬ à§¬à§¬
Ġà§ªà§¯ à§§
Ġà§ªà§¯ à§¨
Ġà§ªà§¯ à§©
Ġà¦¨à¦ķà¦¶ à¦¬à¦¨
Ġà§ªà§Ń à§®
Ġà§ªà§Ń à§¦à§¦
Ġà§ªà§Ń à§¨à§®
Ġ31 12
ĠÙ±ÙĦ Ø²
à¦®à¦°à¦¤ à¦¦
à¦Ĳ à¦¦
2020 2021
ÑĢ Ð°
à¦ķà¦Ĩà¦ª à¦¸à¦¹
à§ªà§§ à§§à§Ń
Ġà§«à§¯ à§©
Ġà¦īà¦ĩà¦² à¦ķ
Ġà¦«à¦²à¦¨ à¦ĵ
Ġ://.. /-.
ä¸ »
ä¸ ĭ
Ġàª «
à¦ĩà¦®à¦¸ à¦ķ
à§ĭ! '
Ġà§«à§Ń à§ª
://..// /.
Ġà§¬à§« à§¨
Øº Ø§ÙĦÙĬØ©
Ġà§«à§¬ à§©
Ġ$ {}
ÙĬÙħ Ø©
à¦īà¦ĩà¦¨ à¦¡
à§Ńà§« à§§à§ª
Ġà° ķ
Ġà¦¸à§İ à¦Ń
Ġà§¬à§® à§§
Ġà§¬à§® à§¬
à¦¤à¦°à¦ķ à¦¨
ĠØ« Ùħ
://../ .?=
Ġà¦Ĩà¦ĩà¦ıà¦¸ à¦ıà¦¸à¦ıà¦¨
Ġ:- /
2019 20202021
Ġà§¦à§§à§¯ à§§à§¬à§®à§¬
à§«à§¯ à§©
à§«à§¯ à§§à§©à§¬à§¨
Ġ://./ -
à¦Łà¦ĸ à¦Ł
Ġà¦īà¦ĩ à¦Ļ
Ġà¦īà¦ĩ à¦¥à¦¡
Ġà§Ńà§Ń à§ª
Ġà¦ħà¦¬à¦¤à¦°à¦£ à¦ķ
Ġà§¯à§¬ à§«
)] ()
)] ='
à§§à§¨à§§ à§ªà§©
Ġ(. @.)
à§Ńà§© à§¨à§«à§¦
Ġà¤ª à¤¹à¤²
à¦ķà¦¡à¦ĩà¦¨ à¦ĩ
ĠðŁĺ ®
Ġà¦®à¦ĩà¦¨ à¦īà¦¦
ĠØ§ÙĦÙħ Ø³
Ġ017 49
Ġà§¬à§Ń à§ª
Ð½ Ð°
Ð½ Ðµ
Ġ=' ://./
à¦Ĭ à¦¯
{{ (.,
Ġà§Ńà§¯ à§©
Ġà§Ńà§® à§¯
Ġà§Ńà§® à§Ń
ĠØ§ÙĦØ± ØŃÙħ
à§ĭ... "
ĠÙĪØ§ÙĦ Ø³
ĠÙĪØ§ÙĦ Ø¹
ÙĬÙĦ Ø©
à§° à¦£
640 66
Ġà¦ķà¦¤à¦ķ à¦¥
}; ',':${
à§®à§Ń à§©à§¯à§§
Ġà¤¬ à¤¹
à¤ª à¤°
à§ģà§ģ à§ģ
ĠØ¢ ÙĬ
ĠØ§ÙĦØ¥ ÙĦ
ĠØ§ÙĦØ¥ Ø³ÙĦØ§Ùħ
Ġà¶ ±
Ġà¶ ´
){( .("")
æľ Ģ
à§¯à§Ń à§«à§ª
Ġ"- "
017 1269
Ġ"' ";
ĠØ§ÙĦØ´ Ø±
Ġà¤ħ à¤ª
&&.( ""
à§¨à§¦à§¦à§¬ à§¦à§¬
ĠØ§ÙĦØ¹ Ø¨Ø§Ø¯
2018 201920202021
Ġà¦¸à¦¹à¦® à¦°à¦£
à¦¨à¦Ĺà¦¦ à¦¬à¦¨
ØµØ± Ø©
à¸¢ à¸£
âĺħ âĺħ
ĠØ§ÙĦØ¨ ÙĤØ±Ø©
ĠÚ© Ø§ÙģØ±
æĺ Ł
88017 89
88017 1128
äº ĭ
äº İ
Ġà¦ıà¦ĩà¦°à¦ķà¦® à¦ĩ
Ġ=$( ),=
ĠØ§ÙĦÙģ ÙĬØª
ĠØ§ÙĦÙģ Ø§Ø±Ø³
âĹ Ĩ
Ġ$("#-").( '.-').(
ĠØ§ÙĦØ· ÙĩØ§Ø±Ø©
Ġ019 70
Ġ019 68
2017 2018201920202021
à³Ĩ à²Ĥ
/-- /
Â¦ à¦¾
.("") [
ä¹ ĭ
Ġ49 21
à§Ńà§¦à§¦ à§§
[[ :
ÙĬØª Ø´
ĠðŁĳ ī
Ġ=":// ./
Ġà¦ıà¦®à¦ıà¦¸ à¦ıà¦¨
à®² à®µà®ļ
Ġ$('#-').( "");
æĪĳ ä»¬
<> {{
áł ¡
áł £áł
å® ŀ
à¦¨à¦ĩà¦ī à¦¯
Ġ356 8
à´ķ àµ¾
******************************** ********************************
******************************** ************
Ġà¦ħà¦ķà¦ªà¦Ł à¦¤
Ġà¦ıà¦®à¦Ĩà¦ĩ à¦ĩà¦īà¦Ĩà¦ĩ
ĠÙĩØ° Ø§
ÙĪÙĤ Ø©
,""),=( ,""),
../ .../
Ġà§¦à§§à§« à§«à§Ń
ĠðŁĵ ĸ
âĺĳ ï¸ı
ÙįÙĳ ØĮ
------------ -
$("#---- ").(),
ĠØ§ÙĦØ° ÙĬ
ĠØ§ÙĦØ° ÙĬÙĨ
188 157153147147
à¦¾.... .....
à¦¿à§ģ ÌĪà¦¾
=.(); =.(
à§§à§¨à§ª à§«à§¦
à¹ģ à¸¥
Û±Û µ
Û±Û ·
à§©à§¬à§¦ à§®à§ªà§ª
Ġà¦ıà¦¨à¦ıà¦¸ à¦ĩà¦ī
139 5868
Ġà®ħ à®®
Ġ$("#_").( )
à§¯à§§à§® à§¯à§¦à§¦
018 19
Ġà§¬à§¨à§© à§®à§¬
Ġà§¦à§¨à§¦ à§§
Ġà§¦à§¨à§¦ à§®
Ġà§¦à§§à§© à§¦à§¦
Ġà§¦à§§à§Ńà§§à§® à§¨à§¦à§¦à§¬à§¦à§¬
Ġ$("#").( '',
???????? ????????
å¹ ´
Ġà²ħ à²¶
à§©à§§à§© à§§à§¨
à§¨à§¨à§© à§©à§«à§ªà§Ń
à¹Ĥ à¸
Ġ().( ('
Ġ========= ==**
217 188157153147147
"++ ",=
å· ¥
æĿ ¥
ðŁ¤Ķ ðŁ¤Ķ
âŀ ¤
å¼ ł
åĨ ħ
ç§ į
ĠÙĪÙĩ ÙĪ
646 44
à§ªà§§à§® à§¨à§¯à§¯à§¯
ðŁĴ Ĳ
éĩ į
Ġà¹Ģà¸ §
Ġà¦ļà¦°à¦Ń à¦¦
à§©à§¯à§¬ à§Ń
ÙĪØ« ÙĪÙĤØ©
ðŁĮ į
à¹ĥ à¸«
)}),$("#---- ").((){
),.("{}") &&.(""
611 371
Ġà¦¹à¦°à¦¦ à¦®
Ġ:').( "");
Ġà¦ıà¦®à¦Ĩà¦° à¦ıà¦¨à¦ı
Ġà®ĩ à®²à®µà®ļ
ĠØ£Ø®Ø¨Ø± ÙĨØ§
620 54
{-: ;
èĩ ª
é¢ ĺ
Ġ.---- {-:;
Ġà§¬à§©à§Ń à§ªà§Ń
"",(){$( "").(
)]}',: '${
Ġ$("#__").( ._);
://.-./ ?=
æ· «
Ġà¦ľà¦ĸ à¦®à¦ķ
à§®à§¯à§¯ à§¯à§Ńà§«à§ª
Ġ/*** =======
==&&( ="
à§§à§Ńà§¬à§® à§ªà§Ń
2939 29
3730 85
8648 52
0415 864852
à§©à§¬à§¬ à§§à§¦à§©
Ġà²¹ à²³
à¦ıà¦¸à¦ıà¦®à¦ıà¦® à¦ĩà¦īà¦°
æī« é»Ħ
7459 50
624 361
§ðŁĩ ©
âģ Ħ
Ġ(,,,, ){(.("")
Ġà¦Ĺà¦®à¦Ĺ à¦®
Ġà¦Ľà¦®à¦Ľ à¦®
à§¯à§§à§¯à§ªà§© à§ªà§§à§®à§¨à§¯à§¯à§¯
à§®à§¯à§¯à§¯ à§Ńà§«à§¨
Ġ//$().( '_');
1640 745950
à§§à§¬à§¯à§ª à§¨à§«
à§¨à§¨à§©à§© à§®à§Ńà§©à§¯à§§
Ġ$('.:').( '-');
à§©à§®à§©à§©à§¦ à§©
Ġà§¦à§§à§¯à§§à§¬à§®à§¬ à§«à§¬à§¬à§¬
)]=' ${
0171269 2220
ĠØ§ÙĦÙģÙĬØª ÙĨØ§ÙħÙĬØ©
ĠØ§ÙĦÙģØ§Ø±Ø³ ÙĬØ©
1395868 1640745950
à§¯à§§à§®à§¯à§¦à§¦ à§¦à§¦à§¦à§Ńà§§à§¦
à§¨à§¨à§©à§©à§«à§ªà§Ń à§¨à§¨
Ġ===========** */
! à¥¤à¥¤
" !
" )}}
" $":"
( "
( âĪĴ
) à¦ĥ
* -
- /.
/ ;
0 28
0 60
0 194
3 24
3 35
3 195
4 12
4 13
4 29
4 36
4 207
5 15
5 17
5 23
5 33
5 45
5 88
6 80
6 27
6 31
7 37
7 32
7 999
8 38
8 79
9 19
9 16
9 29
9 67
9 55
9 65
: +
: .@.
= \
= à¥¤
= ))
[ +
[ ="
_ ">
e n
r e
w ha
{ _}
} ]
¥ ¿
¨ Ù
© à¸²
« ĸ
¹ ä»¬
Â §
Î Ń
Ð ¶
Ñ Ī
Ù ¡Ù
Ú ¯
Û ·
Û ŀ
â Ļ¥
å Ĥ
å ĭ
å ĳ
å ł
å «ĸ
æ µ
æ Ń
ç ī
è ·
è ĥ
è ī
è ¥¿
é £
é ª
é ģ
é Ĥ
é ľ
Ġ Ð°
Ġ ç®Ģ
Ġ ...............
Ġ ÉĻ
Ġ ç®Ģä½ĵä¸Ńæĸĩ
Ġ áĢĻ
Ġ ä¸ºä»Ģä¹Ī
ĥ ðŁĺ
Ī æ³ķ
ı ¾
Ĵ ï¸ı
ķ çº¸
ĸ çķ
à¦¾ =
à¦° à¦ł
à¦° à¦īà¦ľ
à¦° à¦ħà¦¨
à¦° à¦Ĩà¦°à¦ĵ
à¦° à¦ıà¦ĩà¦¡
à§ĩ à§ģ
à§ĩ );
à§ĩ .......
à§ĩ ÌĪ
à§į ^
à¦¿ ()
à¦¿ ......
à¦¨ à¦°à¦¦
à¦¨ à¦²à¦¤
à¦¨ à¦¸à¦°
à¦¨ à¦®à¦¸
à¦¨ à¦ıà¦ķ
à¦¨ à¦ĩà¦īà¦°
à¦¨ à¦¬à¦¸à¦¤
à¦¯ à¦°à¦¶
à¦¯ à¦¶à¦ķ
à¦¯ à§İà¦ķ
à¦¯ à¦Ĺà¦¤à¦Ń
à¦¤ à¦¸à¦¤
à¦¤ à¦¥à¦²
à¦¤ à¦¬à¦°à¦£
à¦¤ à¦®à¦¤à¦²
à¦ķ à¦Ŀ
à¦ķ à¦ªà¦¦
à¦ķ à¦§à¦°
à¦ķ à¦ļà¦°
à¦² à¦·
à¦² à¦Łà¦ķ
à¦² à¦®à¦¦
à¦² à¦ªà¦¦
à¦¬ à¦·
à¦¬ à¦¥
à¦¬ à¦Łà¦ķ
à¦¼ /-
à¦® à¦Ĺà¦°
à¦® à¦¸à¦°
à¦® à¦Łà¦°
à¦® à¦ľà¦¯
à¦® à¦Īà¦¦
à¦® à¦ĵà¦¨
à¦® à¦«à¦¸
à¦® à¦¸à¦¨à¦ķ
à§ģ [
à§ģ ?"
à¦¸ à¦Ĺà¦¤
à¦¸ à¦Łà¦ķ
à¦¸ à¦ĩà¦«
à¦¸ à¦ĺà¦°
à¦¸ à¦Ĺà¦¡
Ġà¦ķ à¦¨à¦¬
Ġà¦ķ à¦¨à¦°
Ġà¦¸ à¦§
Ġà¦¸ à¦¦à¦¨
Ġà¦¸ à¦°à¦¨
Ġà¦¸ à¦ĩà¦¬
Ġà¦¸ à¦²à¦®
Ġà¦¸ à¦ĵà¦¤
Ġà¦¸ à§İà¦ª
Ġà¦¸ à¦¦à¦²à¦¬à¦²
à¦¦ à¦°à¦®
à¦¦ à¦¤à¦¬
à¦¦ à¦Ĺà¦¤
à¦¦ à¦ļà¦¯
à¦¦ à¦Ĺà¦£à¦®
à¦¦ à§İà¦¬
à¦¦ à¦«à¦¤à¦°à¦ķ
Ġà¦¬ à¦Łà¦¤
Ġà¦¬ à¦°à¦¹à¦ķ
à¦Ł à¦°à¦²
à¦Ł à¦Ĩà¦°
à¦Ł à¦ļà¦ķ
à¦Ł à¦¬à¦¯
à¦Ł à¦Łà¦²
à¦Ł à¦ĵà¦°
à¦ª à¦®à¦£
à¦ª à¦°à¦ķà¦®
à§Ģ *
à§Ģ ==
Ġà¦Ĩ à¦£
Ġà¦Ĩ à¦Ŀ
Ġà¦Ĩ à¦Łà¦Ĺ
Ġà¦Ĩ à¦§à¦¬
Ġà¦Ĩ à¦ĵà¦ķ
Ġà¦Ĩ à¦īà¦Łà¦°
Ġà¦® à¦ķà¦Ł
Ġà¦® à¦ĩà¦°
Ġà¦® à¦®à¦¦
Ġà¦® à¦°à¦£à¦ķ
à¦ľ à¦ķà¦ķ
à¦ľ à¦¬à¦°à¦¦à¦¸
à¦¶ à¦¬à¦²
à¦¶ à¦ķà¦Ł
à¦¶ à¦Ńà¦Ļ
à¦ĩ à¦£
à¦ĩ à¦°à¦¶
à¦ĩ à¦Ĩà¦ĩ
à¦Ĺ à¦ªà¦°
à¦Ĺ à¦®à¦¤
à¦Ĺ à¦¸à¦°
à¦Ĺ à¦¹à¦¸
à¦Ĺ à¦¨à¦¦
à¦Ĺ à¦¹à¦¨
à¦Ĺ à¦ĩà¦¨à¦¸
à¦Ĺ à¦¶à¦Ļ
Ġà¦¨ à¦«
Ġà¦¨ à¦°à¦¨
Ġà¦¨ à¦¹à¦°
Ġà¦¨ à¦¬à¦ķ
Ġà¦¨ à¦²à¦ĸ
Ġà¦¨ à¦¦à¦¨à¦¦
Ġà¦ı à¦ı
Ġà¦ı à¦ıà¦¸
Ġà¦ı à¦ĵà¦Ł
Ġà¦ı à¦īà¦ĩà¦¨
Ġà¦ı à¦ªà¦¸à¦Ł
à¦¹ à¦®à¦¨
à¦¹ à¦ľà¦¨
à¦¹ à¦²à¦¯
à¦¹ à¦²à¦¬
à¦¹ à¦ĺà¦¡
Ġà¦¹ à¦Ľ
à¦· e
à¦· à¦ªà¦¤
à¦· à¦¨à¦¤
à¦· à¦¨à¦¬
à¦· à¦¦à¦¸
à¦· à¦®à¦¯
à¦· à¦¨à¦Ń
à¦· à¦ªà¦ŀ
Ġà¦¦ à¦¹
Ġà¦¦ à¦®à¦¯
à¦Ľ à¦®à¦¤
à¦¡ à¦ľà¦¨
à¦¡ à¦¸à¦ķ
à¦¡ à¦¹à¦¸
à¦¼à§ĩ à¥¥
Ġà¦ķà¦° à¦¯
Ġà¦ķà¦° à¦Ł
Ġà¦ķà¦° à¦«
Ġà¦ķà¦° à¦®à¦°
Ġà¦ķà¦° à¦£à¦ķ
à¦¼à¦¾ à§į
Ġà¦ħ à¦ĵà¦¯
Ġà¦ħ à¦īà¦°
Ġà¦¤ à¦¸
Ġà¦¤ à¦°à¦£
Ġà¦¤ à¦¸à¦¦
Ġà¦¤ à¦ĵà¦°
à¦§ à¦¬à¦°
à¦§ à¦¶à¦ķ
Ġà¦ľ à¦¬à¦¬
Ġà¦ľ à¦°à¦ª
Ġà¦ľ à¦ĩà¦¶
à¦Ĥ .
à¦ļ à¦«
à¦ļ à¦ķà¦¬
à¦ļ à¦ªà¦¦
à¦ļ à¦ķà¦¨
Ġà§ °
à¦¥ à¦¶
à¦¥ à¦ĸ
à¦¥ à¦°à¦¸
à¦¥ à¦²à¦¬
à¦¥ à¦¨à¦ķ
à¦¥ à¦²à¦¸
à¦¥ à¦¶à¦Ł
à¦¥ à¦²à¦ªà¦¥
à¦¥ à¦¬à¦²à¦¯
à¦¥ à¦°à¦ĸà¦£
à¦ĸ à¦¤à¦¨
à¦Ń à¦°à¦Ń
à¦£ à¦¬à¦°
à¦£ à¦§à¦°
Ġà¦¶ à¦¬à¦¦
à¦ĵ à¦¹à¦¨
à¦ĵ à¦ĩà¦¬
à¦ĵ à¦ĩà¦¶
à¦ĵ à¦¹à¦°à¦ª
Ġà¦¯ à¦ª
Ġà¦¯ à¦¬à¦¨
Ġ( !!
Ġ( "")
Ġ( à§³
Ġ( %)
Ġà¦Ĺ à§İà¦¬
Ġà¦Ĺ à¦Ĺà¦£à¦¬
Ġà¦Ĺ à¦ĵà¦¹à¦°à¦ª
Ġà¦ļ à¦Ļ
Ġà¦ļ à¦®à¦¸
Ġà¦ļ à¦®à¦ļ
Ġà¦Ń à¦°à¦ķ
Ġà¦Ń à¦°à¦¬
Ġà¦ĵ à¦¹à¦®
Ġà¦ĵ à¦Łà¦¸
Ġà¦ī à¦ĩà¦¯
Ġà¦ī à¦Ĺà¦¡
à§¦ à§¨à§Ń
à¥¤ ''
Ġà¦ĩ à¦Ĺà¦°
Ġà¦ĩ à¦ķà¦¤
Ġà¦ĩ à¦Ĺà¦²
Ġà¦ĩ à¦¸à¦ķ
Ġà¦ĩ à¦ķà¦®
Ġà¦ĩ à¦Łà¦¸
Ġà¦ĩ à¦ıà¦®à¦ıà¦¸
Ġà¦ªà¦° à¦¹
à¦« à¦¬
à¦« à¦¶
à¦« à¦²à¦¬
à¦« à¦¤à¦ķ
Ġà¦² à¦¹à¦°
Ġà¦ıà¦ķ à¦°à¦¤
Ġà¦¸à¦® à¦ľ
Ġà¦¸à¦® à¦°à¦¨
Ġà¦¸à¦® à¦°à¦ķà¦¨
à¦ī à¦ĩà¦Ł
à¦ī à¦²à¦¬
à¦ī à¦Ĺà¦²
à¦ī à¦ĩà¦¡
à¦ī à¦¤à¦²
à¦ī à¦ªà¦®
à¦ī à¦ĩà¦ľà¦¡
à¦ī à¦¬à¦¸à¦¹
à¦ī à¦ıà¦®à¦ĵ
à¦ī à§İà¦ªà¦¤
à¦ī à§İà¦°
Ġà¦ĸ à¦ķ
Ġà¦ĸ à¦°à¦¬
Ġà¦ĸ à¦°à¦¨
Ġà¦ĸ à¦Łà¦ĸà¦Ł
Ġà¦« à¦ĵà¦ľ
à¦°à¦¤ à¦ĩ
à¦°à¦¤ à¦ªà¦ķ
à¦°à¦¤ Åĵà¦¤
à¦¬à¦° à¦¯à¦ĸ
à§§ à§§à§¯à§¯
à¦ł à¦ľ
à¦ł à¦ķà¦Ł
à¦ł à¦ħà¦ªà¦°
à¦ł à¦®à¦¹à¦²
Ġà¦Ĩà¦® à¦²à¦¯
à¦Ļ à¦¯
à¦°à¦ķ à¦¸
à¦°à¦ķ à¦¥
à¦°à¦ķ à¦¦à¦®
à¦ı à¦®à¦°
à¦ı à¦ıà¦«
Ġà¦ľà¦¨ à¦ļ
Ġà¦ľà¦¨ à¦ªà¦°
Ġà¦ľà¦¨ à¦¸à¦¨à¦ķ
Ġà¦Ł à¦ªà¦Ł
Ġà¦Ł à¦ªà¦²
à¦Ĩ à¦²à¦Ĺ
à¦Ĩ à¦¹à¦ķ
à¦Ĩ à¦Łà¦²
à¦Ĩ à¦«à¦¨
à¦Ĩ à¦¶à¦¯
à¦Ĩ à¦¹à¦¹
à¦Ĩ à¦īà¦¯
à¦Ĩ à¦Łà¦ķà¦°
à¦Ĩ à¦¹à¦¹à¦¹à¦¹
Ġà¦¬à¦² à¦ĸ
à¦¬à¦¨ à¦¡
à¦¬à¦¨ à¦°à¦ķ
à¦¬à¦¨ à¦¶à¦ķ
à¦¬à¦¨ à¦ļà¦°
à¦¬à¦¨ à¦ķà¦¥
Ġà¦¡ à¦ľ
à¦®à¦¨ à¦¯
à¦®à¦¨ à¦ĵ
à¦°à¦£ à¦¨
à¦ªà¦¨ à¦®
à¦ªà¦¨ à¦¸à¦°à¦¶
Ùİ )
Ùİ ,
Ġà¦Ĩà¦° à¦ıà¦¸à¦ıà¦«
à¦ªà¦° à¦¸
à¦ľà¦¨ à¦¯
à¦¾à¦ģ ...
Ġà¦ıà¦ĩ à¦¸à¦ķà¦²
Ġà¦ıà¦ĩ à¦§à¦°à¦£
à¦¼à¦¿ "
à¦¼à¦¿ /
à¦¼à¦¿ _
à¦¼à¦¿ à¦¾
à¦¼à¦¿ ),
à¦¼à¦¿ ',
à¦¼à¦¿ à¦Ĥ-
Ġ' );
à¦¤à¦° à¦ĸ
Ġ1 à§¨
Ġà¦Ĩà¦² à¦¨
Ġà¦Ĩà¦² à¦®à¦ª
à¦¬à¦¸ à¦°
à¦¬à¦¸ à¦²
à¦°à¦¹ à¦Ńà¦°
à§ĩ, ,,
Ġà§¨à§¦ à§©à§«
Ġà¦Ĩà¦¬ à¦²
Ġà¦Ĩà¦¬ à¦ĵà¦¯
Ġ: ()
à¦ķà¦° à¦¸
à¦ķà¦° à¦¶
à¦ķà¦° à¦¸à¦®
à¦ĩà¦¨ à¦¨
à¦ĩà¦¨ à¦°à¦¬
à¦ĩà¦¨ à¦¸à¦Ĺ
à¦¿à¦Ĥ _
à¦¿à¦Ĥ à¥¤
à¦¿à¦Ĥ ...
à¦¿à¦Ĥ ),
à§ª à§§à§¯
à§ª à§§à§©
à§İ à¦Ĺ
à§İ à¦¬à¦°
à§İ à§İ
à§İ à¦ªà¦²
à§« à§ªà§¦
à§« à§¯à§¬à§¨
Ġà¦®à¦¨ à¦ĸ
à¦ĸà¦¨ à¦ķ
à¦ĸà¦¨ à¦¶
à¦ĸà¦¨ à¦§
Ġà¦ķà¦°à¦¤ à¦²
ĠØ Ł
Ġà¦Ĩà¦¸ à¦ª
Ġà¦Ĩà¦¸ à¦¨à¦¬
à§® à§©à§®
à§® à§§à§®à§¯
à§© à§®à§¦
à§© à§§à§¨
à§© à§«à§¦
à§© à§¨à§¬
à§© à§ªà§§
à§© à§§à§¦à§ª
à¦°à¦¸ à¦ķ
à¦°à¦¸ à¦¸
à¦°à¦¸ à¦®à¦¯
à§Ń à§¦à§¬
à§Ń à§Ńà§§à§§à§Ń
à§Ń à§¨à§¬à§¯
Ġà¦ıà¦° à¦²
à§¬ à§§à§Ń
à§¬ à§¦à§Ń
à§¬ à§¦à§¬
à§¬ à§¦à§¨
à§¬ à§¨à§¦à§ª
Ġà¦Ĩà¦Ĺ à¦ª
Ġà¦Ĩà¦Ĺ à¦®à¦£
Ġà¦ħà¦Ń à¦¦
à¦īà¦¨ à¦¹à¦²
à¦ĩà¦² à¦¸à¦®
à¦ĩà¦² à¦ħà¦°
à¦ªà¦¤ à¦²
à¦²à¦ķ à¦°à¦£
Ġ, )
à¦¦à¦° à¦ª
à¦ļà¦¨ à¦¬
à¦ļà¦¨ à¦¤à¦¨
à¦¦à¦¨ à¦¸
à¦²à¦¨ à¦ĸ
à¦²à¦¨ à¦ķà¦ķ
à¦¦à¦ķ à¦¤
à¦·à¦£ à¦¯
à¦ħ à¦ªà¦¶
à¦¼à§ĭ ?
Ġ" ></>
Ġà¦Ĩà¦¨ à¦Ł
à¦¤à¦¨ à¦ªà¦¥à¦ļ
Ġà§© à§§à§¬
Ġà§© à§§à§¬à§¬
à¤ ¢
à¤ Ŀ
à¦°à¦¦ à¦ª
à¦¸à¦¬ à¦®
à¦¸à¦¬ à¦¦
ÙĲ -
ÙĲ Ûĸ
Ġà¦®à¦¹ à¦«
Ġà¦®à¦¹ à¦²à¦Ł
Ġà¦¬à¦° à¦¯à¦ĸ
Ġà¦¬à¦° à¦ĩà¦¤à¦²
à¦®à¦¤ à¦®
à¦®à¦¤ à¦ĩ
à¦®à¦¤ à¦¸à¦®
à¦®à¦¤ à¦īà¦²
à¦°à¦§ à¦¨
à¦°à¦§ à¦°à¦ª
ĠÙ ¾ÚļØª
ĠÙ ¢Ù
à¦¯à¦ķ à¦£
à¦°à¦¶ à¦¯
ÙĴ .
à¦²à¦¤ à¦Ĺ
Ġà§« à§§à§Ń
Ġà§« à§§à§©
Ġà§« à§¨à§©
Ġà§« à§ªà§«
à¦Ĺà¦° à¦ªà¦¥
à¦¯à¦® à¦ĵ
Ġà¦Ĩà¦ľ à¦®à¦¦
Ġà¦®à¦¤ à¦®à¦¦
Ġà¦®à¦¤ à¦®à¦Ĺ
à¦¼à§Ģ !
à¦¼à§Ģ [
à¦¼à§Ģ &=
); .('',
Ùı -
Ġà§ª à§¨à§§
à¦¸à¦¹ à¦ķà¦°
Ġà¦Ĩà¦ķ à¦¬
Ġà¦Ĩà¦ķ à¦¦
Ġà¦Ĩà¦ķ à¦®à¦²à¦ķ
Ġà¦ıà¦¸ à¦Ń
Ġà¦ıà¦¸ à¦ıà¦²à¦ıà¦¸
à¦¤à¦® à¦¬
à¦¤à¦® à¦ª
à¦¤à¦® à¦¹
ÙĨ ÙĩØ§
Ġà¦ıà¦² à¦®
Ġà¦ıà¦² à¦Ĩà¦°
à¦¸à¦¨ à¦ĩ
à¦¸à¦¨ à¦Ĺà¦°
à¦¨à¦¬ à¦Ł
à¦¨à¦¬ à¦Ľà¦°
à¦¨à¦¬ à¦¶à¦°
à¦®à¦° à¦ª
Ġà¦ĸà¦¬à¦° à¦°
Ġà¦ĸà¦¬à¦° à¦ª
-- "]
à¦Łà¦ķ à¦¸à¦¹
Ġà¦ĩà¦¨ à¦¸à¦ª
ÙĬ Ø§
à¦²à¦¬ à¦¬
Ġà¦ķà¦² à¦²
à¦·à¦ķ à¦¶
à¦¸à¦° à¦ĺà¦°
à¦¾- à§ģ
à¦¤à¦ķ à¦®
Ġà¦¦à¦² à¦Ń
Ùħ ÙĬØ±
Ùħ Ø§Ùħ
Ùħ ÙĬØ¹
Ġ+ ,
à¦¹à¦° à¦°à¦®
à¦§à¦¨ à¦ĵ
Ġà¦īà¦¤ à¦ª
Ġà¦ħà¦¸ à¦¤à¦°
Ġà¦ħà¦¸ à¦¤à¦¤
à¦ıà¦¸ à¦ĩà¦ĵ
à¦ıà¦¸ à¦ıà¦¡
à¦¬à¦ķ à¦ĵ
Ġ() )
Ġà¦Ĩà¦¦ à¦²à¦¤
Ġà¦Ĩà¦¦ à¦®à¦ķ
Ġà§¬ à§§à§¯
Ġà§¬ à§¨à§®
Ġà§¬ à§¦à§¬
Ġà§¬ à§«à§«
Ġà§¬ à§ªà§«
Ġà§¬ à§Ńà§§
Ġà§¬ à§©à§®
Ġà¦ł à¦Ĺ
Ġà¦ł à¦®à¦ķ
à¦īà¦ľ à¦īà¦ĩà¦ķ
à§¨à§¦ à§ªà§§
Ġà¦ıà¦®à¦¨ à¦¤à¦°
Ġà¦ħà¦¬à¦¸ à¦¹
Ġ= \'
à¦°à¦ª à¦¦
Ġà§Ń à§®à§¦
Ġà§Ń à§¨à§«
Ġà§Ń à§«à§«
Ġà§Ń à§¦à§«
Ġà§Ń à§¯à§®
Ġà§Ń à§¯à§¦
à¦Ĩà¦® à¦ª
à¦Ĩà¦® à¦°à¦£
à¦Ĩà¦® à¦²à¦¨
à¦Ĩà¦® à¦ľà¦¨à¦¤
ĠØ§ÙĦ ÙĪ
Ùĳ ÙĹ
à¦ıà¦¨ à¦ıà¦°
à¦ıà¦¨ à¦ıà¦²
à¦ıà¦¨ à¦ıà¦ĩà¦ļà¦ıà¦¸
Ġ0 09
Ġ0 80
Ġ0 130
Ġ0 248
Ø± ÙĪØ§
Ø± Ø§Ø¡
Ġà§® à§§à§¨
Ġà§® à§§à§©
Ġà§® à§¨à§¬
Ġà§® à§¨à§©
Ġà§® à§¯à§¬
Ġà§® à§®à§®
Ġà§® à§¬à§¦
Ġà§® à§«à§¬
Ġà§® à§«à§ª
Ġà§® à§©à§¨
Ġà§® à§¬à§ª
Ġà§® à§¯à§¨
à¦ļà¦² à¦ĵ
à¦®à¦¸ à¦¦
Ġà§¯ à§§à§¯
Ġà§¯ à§§à§®
Ġà§¯ à§¯à§¬
Ġà§¯ à§ªà§¦
Ġà§¯ à§¦à§«
Ġà§¯ à§©à§¯
Ġà¦īà¦ł à¦¬à¦¸
Ġà¦ĩà¦ī à¦¹
Ġà§§à§¦ à§§à§©
Ġà§§à§¯ à§¨à§Ń
à¦¨à¦ķ à¦°à¦£
Ġà§¦ à§¨à§ªà§Ń
à¦°à¦ĵ à¦ªà¦°
à¦¹à¦² à¦ª
à¦¨à¦Ł à¦ĸà¦Ł
à¦®à¦ª à¦¦
Ġà¦ıà¦¤ à¦ľà¦¨
__ :
à¦ĩà¦¸ à¦«
à¦ĩà¦¸ à¦ĵà¦¯
à¦Ĩà¦¨ à¦ª
à¦ıà¦ĩ à¦¦
à¦ıà¦ĩ à¦¡à¦¸
Ġ[ :
Ġ[ ;
Ġà¦ıà¦¨ à¦ĩà¦¸
Ġà¦ıà¦¨ à¦Ĩà¦°à¦ıà¦¸
Ø¨ ÙĦ
Ø¨ Ø§
Ø¨ Ø¹
ÙĪ ÙĬ
ÙĪ Ø©
ÙĪ Ø§ÙĨ
Ġà¦Ĺà¦£ à¦¸à¦Ļ
à¦¹à¦¸ à¦ĵ
à¦Ĩà¦° à¦Ĩà¦ĩà¦¯
à¦Ĩà¦° à¦Ĩà¦ĩà¦ıà¦¸
Ġà¦ĵà¦ĩ à¦Ĺ
à§§à§¯ à§¦à§¦
à§§à§¯ à§§à§©
à§§à§¯ à§¨à§¨
à§§à§¯ à§©à§«
à§§à§¯ à§«à§«
à§§à§¯ à§ªà§¦
à¦Łà¦Ĺ à¦£
à¦«à¦² à¦Ĺ
à¦¹à¦¨ à¦²
à¦¹à¦¨ à¦ĩ
à¦ĩà¦¡ à¦ĵà¦¯
à¦ĩà¦ľ à¦ª
Ġà¦īà§İ à¦¯
Ġà¦Ńà¦° à¦Ľ
à¦ķà¦¨ à¦°
à¦ķà¦¨ à¦¡
Ġà¦Ĳ à¦ĩ
Ġà¦ªà¦¥ à¦¨à¦ķà¦¶
à¦ĩà¦® à¦¸à¦¬
à¦°à¦®à¦£ à¦¯
à¦¿' à¥¤à¥¤
à¦°à¦ľ à¦ª
à¦¶à¦® à¦£
Ġà§§à§¨ à§§à§Ń
à¦²à¦Ĺ à¦°à¦¬
22 59
à¦Ĺà¦¨ à¦ĵà¦¯
à¦¾à¦ĥ ...
à¦ĩà¦« à¦ĵ
à¦ıà¦® à¦ıà¦°
à¦ıà¦® à¦ıà¦¸à¦¸
Ġà§§à§« à§§à§«
ĠÙĪ ÙĬ
ĠÙĪ Ø¹
ĠÙĪ ÙĦØ§
ĠÙĪ ÙĩÙħ
ĠÙĪ Ø§ØŃ
ĠÙĪ ÙħØ§
Ġà¦¨à¦¬ à¦ªà¦¤
Ġà¦¨à¦¬ à¦ķà¦²
Ġà¦Ī à¦¯
Ø¯ Øª
Ø¯ Ø¹
Ø¯ ÙĬØ«
à¦ķà¦¸ à¦Ł
à¦ķà¦¸ à¦ĵ
ĠØ¹ Ø±
Ġà¦¬à¦¹ à¦£
à¦¨à¦° à¦Ł
Ġà¦§à¦°à¦¨ à¦Ĺ
Ġà§§à§ª à§¨à§§
Ġà§§à§ª à§©à§ª
à¦Ĺà¦£ à¦ľ
à¦Ĺà¦£ à¦«
à¦Ĺà¦£ à¦¸à¦®
à¦Ĺà¦£ à¦ħà¦¬à¦¸
à¦¦à¦² à¦ĩ
Ġ.( '');
à¦ıà¦ķ à¦ª
à¦ıà¦ķ à¦ľ
à¦ıà¦ķ à¦®à¦¤
Ġà¦Ĩà¦¹ à¦°à¦¨
à¦īà¦² à¦®à¦¡
Ġà¦ıà¦® à¦ĩà¦ī
Ġà¦ıà¦® à¦ıà¦ĩà¦ļ
Ġà¦ľà¦² à¦Ľ
Ġà¦ľà¦² à¦¹à¦¸
Ġà¦Ĩà¦« à¦¶
Ġà¦Ĩà¦« à¦Ľ
à¦Ĩà¦ĩ à¦ļ
à¦Ĩà¦ĩ à¦ıà¦²
à§¨à§§ à§§
à§¨à§§ à§ªà§¬
à§¨à§§ à§ªà§«
Ġà¦ķà¦¤ à¦²
Ġà¦ķà¦¤ à¦ķà¦Ł
Ġà¦ķà¦¤ à¦ľà¦¨à¦ķ
à¦¸à¦¦ à¦¯
12 17
12 14
à¦Ī à¦¨à¦¦
à§ĩ- "
Ġà§§à§¬ à§§à§§
Ġà§§à§¬ à§«à§¦
Ġà§§à§¬ à§©à§¨
Ġà§§à§¬ à§¬à§¬
Ġà§§à§® à§¨à§§
Ġà§§à§® à§¨à§®
Ġà§§à§® à§©à§¦
Ġà§§à§® à§®à§®
Ġà§§à§® à§©à§§
Ġà§§à§® à§Ńà§¬
Ġà§§à§® à§¯à§®
Ġà§§à§® à§Ńà§¦
Ġà§§à§® à§¬à§®
Ġà§§à§® à§®à§Ń
Ġà§§à§® à§¬à§©
Ġà§§à§® à§®à§©
Ġà§§à§Ń à§Ńà§®
Ġà§§à§Ń à§Ńà§¨
11 59
Ġà¦ľà¦¬ à¦ľà¦¬
Ġà§§à§© à§ªà§¦
à¦ķà¦® à¦ªà¦ķ
à¦Ĺà¦łà¦¨ à¦®
Ġà¦¸à¦¹à¦ľ à¦ª
24 22
24 0400
Ùĥ Ø§Ùħ
Ùĥ ÙħØ©
Ġà¦«à¦° à¦°
Ġà¦¬à¦ĩ à¦ıà¦°
à¦Ĩà¦ľ à¦¹
Ø§ÙĦ Ø¹
Ġà§¨à§§ à§¬à§¦
Ġs c
19 99
19 04
ĠØ£ Ø°
18 25
Ġ! (){
ĠÙħ Øª
ĠÙħ Ø¬
ĠÙħ ÙĪØ³
à¦ĸà¦ķ à¦·
à¦ĸà¦ķ à¦ĵ
à§§à§Ń à§Ń
à§§à§Ń à§«à§«
à§§à§Ń à§¬à§¯
'); });
à¥Ģ à¤Ĥ
à¦ªà¦£ à¦¤
Ġà¦ĺà¦¨ à¦ĺ
à¦¬à¦ĩ à¦īà¦¨
Ġà¦¤à¦° à¦²à¦¤
---- .
Ġà¦Ĩà¦ĩ à¦¶
Ġà¦Ĩà¦ĩ à¦ĵà¦¨
Ġà¦Ĩà¦ĩ à¦ıà¦²à¦ĵ
ØŃ ÙĤ
ØŃ ÙĬÙħ
ÙĤ ØªØ±
ÙĤ Ø§ÙħØ©
13 63
Ġà¦ĩà¦² à¦¹
ĠÙģ Ø³Ø¬Ø¯
à§§à§® à§§
à§§à§® à§¨à§¨
à§§à§® à§¬à§¦
à§§à§® à§¬à§®
ĠØ¨ Ø§ÙĦÙĦÙĩ
14 94
à¦ıà¦« à¦ĩ
à¦¦à¦¶ à¦ľà¦¨
à¦ĩà¦ī à¦¡
à¦ĩà¦ī à¦ıà¦ĩ
à¦ĩà¦ī à¦ıà¦¸à¦¬
à¦¨à¦Ĺ à¦ľà¦ĺà¦¨
à§§à§¦ à§¨à§§à§©
Ġà¦®à¦Ļ à¦²
à§®à§¦ à§ªà§«
à§®à§¦ à§¯à§¦
à¦¤à¦¦ à¦¬
à¦ľà¦¤ à¦ĸ
à¦īà¦¡ à¦¨
Ùģ ÙĬÙĨ
àª Ŀ
Ġà§«à§¦ à§¯
Ġà§«à§¦ à§ª
Ġà§«à§¦ à§¬
Ġà¦ĭ à¦£à¦¨
à¦ľà¦¬ à¦ľ
Ġà§¨à§¬ à§¦à§¦
Ġà§¨à§® à§§
à§§à§¨ à§§à§¯
Ġà¦¬à¦¦à¦² à¦ª
Ġà¦¨à¦Ĺà¦° à¦Ł
Øµ ÙĪÙĦ
Ġà¦ķà¦²à¦ķ à¦²
80 4
Ġà¦Ńà¦¬à¦¨ à¦ķ
à¦Ĺà¦¦ à¦Ĺ
à¥į ...
Ġà¦ıà¦ĩà¦ļ à¦ıà¦¸à¦¬
à¦ªà¦¥ à¦¯
à¦¥à¦ķ à¦·
Ġ; ;;
à¦ķà¦ľà¦¨ à¦ĩ
%%%% %%-%%%%%%%%%%%%%%%%%%%%%%%%%%%%%%%%
29 12
30 1
30 6
à§§à§§ à§¦à§¦
ĠÙĦ ÙĩÙħ
ĠÙĦ ÙĬØ³
à¦²à¦« à¦ķ
Ġà§¨à§¯ à§¨
à¦ķà¦¶ à¦¤
Ġà¦Ĩà¦ļ à¦¡
ĠÙĬ ØŃÙĬ
à¦ĵà¦° à¦¡
Ġà¦Ĩà¦¹à¦®à¦¦ à¦¸à¦¹
40 6
99 4
à§§à§¬ à§©à§¯
à§§à§¬ à§¯à§¦
à§§à§© à§¨
à§§à§© à§¨à§«
à§§à§© à§¬à§§
à§§à§© à§¨à§©à§Ńà§¨
à§§à§ª à§¨à§¯à§¨
à§§à§ª à§§à§®à§ªà§®
à§¨à§® à§®
à§¨à§® à§¬
à§¨à§® à§ªà§Ń
à§©à§¦ à§ª
à§©à§¦ à§«
à§©à§¦ à§Ń
à´ ª
à´ °
23 1363
à¦ķà¦¶à¦¨ à¦ķ
à¦ķà¦¶à¦¨ à¦ĵ
à¦ķà¦¶à¦¨ à¦¸à¦¹
Ġà¦¤à¦² à¦ł
35 1
35 89
35 272
à¸ ¶
à¸ ¹
à¸ ĸ
Ġà¦ĭà¦£ à¦ª
Ġà¦ĭà¦£ à¦ĸ
Ġà¦¸à¦«à¦² à¦°
Ġà¦°à¦Ļ à¦ķ
Ġà¦°à¦Ļ à¦§à¦¨
à¦īà¦¸ à¦Ĺ
à¦°à¦ľà¦¨ à¦ĩ
ĠÙĤ ØªÙĦ
Ġà¦Īà¦¶ à¦ª
à¦¤à¦Ń à¦Ļ
à° ª
à° ®
à§¨à§« à§§
à§¨à§« à§¯
à§¯à§¯ à§¬
36 7
Ġ30 50
Ġà¦¨à¦ĵ à¦ª
à§®à§®à§¦ à§§
67 0
67 3
67 4
67 7
67 36
67 55
à¥¤à¥¤ '
Ġ25 80
37 82
à§«à§¦ à§§
à§«à§¦ à§©
à§«à§¦ à§§à§©
à§«à§¦ à§®à§ªà§Ń
Ġ29 21
Ġ29 58
Ġ-: )
:// ....
___ ,
Ġà¦®à¦£ à¦ª
à¦¹à¦°à¦£ à¦ĵ
Ø° ÙĦÙĥ
Ġ@ ,
à§¨à§¯ à§¦
33 8
ĠØŃ Ø§ÙĦ
ĠØŃ Øµ
à§ªà§© à§§
à§ªà§© à§«
à§ªà§© à§«à§©
Ġà¦ıà¦ľ à¦¹
à§¦à§Ń à§¬à§ª
Ġ__ @.
à§¦à§¬ à§Ń
à§¦à§¬ à§¬à§Ń
à§¦à§¬ à§«à§®à§®
49 4
Ġà¦ħà¦¸à¦¹ à¦¨à¦¶
Ġà¦Ĺà¦¨ à¦§
ĠØª Ùħ
à± ĩ
à¦¬à¦® à¦Ļ
[] ;
45 6
à¦īà¦ª à¦¬
à¦īà¦ª à¦Ĺ
Ġà¦¹à¦¯à¦°à¦¤ à¦ľ
38 42
à¦¯à¦Łà¦¨ à¦¬
à¦¯à¦Łà¦¨ à¦¸
à¤ķ à¤¤
--- '
--- '>.</>
55 4
55 5
ĠØ± Ùĥ
à§¨à§Ń à§§à§¨à§¬à§¦
88 1314
Ġà§¬à§¦ à§«
43 12
Ġà¦ĩà¦Ń à¦²
Ġà¤¸ à¤¬
à§İà¦ª à¦Ĺ
à¦¸à¦« à¦¡
à¦¸à¦« à¦°à¦¸
à§©à§« à§¨
à§©à§« à§¨à§¬à§¦à§¦
ĠØ³ ÙĪ
ĠØ³ ÙĦÙħ
ĠØ³ Ø§Øª
à¦¡à¦Ń à¦¸
Ġà¦Ĭ à¦¨à¦¸à¦¤
34 1
34 46
34 231363
Ġ"" ]
Ġà¦Ĩà¦ļà¦°à¦£ à¦ĵ
Ġ@. /.
Ġà¤® à¤¹
à¦īà¦® à¦®à¦®
Ġà¦ľà¦Ĺà¦¤ à¦¸
\' ++
61 10
78 3
à¤² à¤¨
à§ªà§¦ à§¯
à§ªà§¦ à§«à§®
Ġà§¯à§® à§§
Ġà§ªà§« à§®
"# -
Ġà§©à§« à§§
Ġà§©à§« à§®
Ġà§©à§« à§®à§¬
Ġà¦¦à¦®à¦¨ à¦ª
79 4
79 8
79 709
Ġà§©à§¬ à§Ń
ĠØ§ÙĦØª ÙĪØ¨Ø©
07 2
07 00
à§®à§® à§«à§«
68 5
68 116
à¦¦à¦¤ à¦Ĺ
à§ªà§¬ à§¦
90 11
à§¦à§¯ à§®
ÙĬÙĨ Ø§
ÙĬÙĨ Ø©
à§ªà§® à§¯
à§ªà§® à§¬à§§
à§ªà§® à§©à§®à§ªà§¬
72 0090
Ġà§¯à§¦ à§®
à¦¯à¦Łà¦ķ à¦ķ
à¦¾à¥¤ :
Ġà§¦à§§à§Ń à§¨à§¨
Ġà§¦à§§à§Ń à§¯à§¯
Ġà§¦à§§à§Ń à§«à§®
Ġà§¦à§§à§Ń à§ªà§ªà§®
Ġà§¦à§§à§Ń à§§à§®à§§à§¯
Ġà§¦à§§à§Ń à§§à§¦à§®
Ġà§¦à§§à§Ń à§§à§¨à§¦à§«
Ġà§¦à§§à§Ń à§©à§§à§¦à§ª
95 6755
à¦¼à¦¾' !
"); .(
ÛĮ ØŃ
ÙĦØ§ Ùģ
Ġ-- ,
Ġà¦Ĺà¦ł à¦£
à¦ĩà¦ĵ à¦¸à¦¹
à¦¬à¦Ł à¦¯
"- ")}
200 4
à§Ńà§Ń à§«à§¯à§¬à§¨
à§Ńà§Ń à§§à§Ńà§¬à§¯
à§Ńà§Ń à§«à§¦à§§à§©
à§Ńà§Ń à§¦à§Ńà§¬à§ª
97 3
Ø· ÙĪÙĬØ±
Ġà§©à§® à§§
Ġà§©à§® à§ª
/- )
/- ///
/- /.
à¤¯ à¤¨
Ġà¦ĩà¦īà¦ıà¦¨à¦ĵ à¦ķ
ĠØ§ÙĦÙĨ Ø§Ø´
ĠØ§ÙĦÙĨ ØŃÙĦ
Ġà§ªà§¬ à§ª
Ġà§ªà§¬ à§¬
ĠÙĨ Ø¹Ùħ
73 00
à¦¤à¦ļ à¦°à¦¦
ĠØ§ÙĦØ£ ÙĦØ¨
Ġà§©à§¯ à§®
Ġà¦¦à¦«à¦¤à¦° à¦ĵ
Ġà¦ħà¦ļ à¦ŀ
Ġà§®à§ªà§© à§¨à§¦
ĠÙĩ ÙĪ
ĠØ¬ ÙĨ
ĠØ¬ ÙħÙĬØ¹
à§«à§¬ à§ªà§®à§©à§®à§ªà§¬
Ġà¤ķ à¤¥
Ġà§ªà§Ń à§¬
ĠÙ±ÙĦ ÙĨ
ĠÙ±ÙĦ Ø±
ĠÙ±ÙĦ Ø¯
ĠÙ±ÙĦ Øµ
Ġà§¬à§ª à§ªà§¦à§¦
Ġà§«à§¯ à§§
à¦Ĩà¦¹ à¦¤à¦°
à§«à§® à§¨à§¬
Ġà¦īà¦ĩà¦² à¦¸
ä¸ ĸçķ
à§ªà§¯ à§©
à§ªà§¯ à§Ń
à¦Ŀà¦² à¦®à¦²
à§«à§Ń à§¨
Ø¢ Øª
à¦ħà¦ª à¦¶à¦ķ
Ø§Ø¯ Ø±
Ġà§¬à§« à§§
Ġà§¬à§« à§©
Øº ÙĬØ±
ÙĬÙħ Ø§
Ġà¦®à¦« à¦®à¦¦
---------------- ---
]] <
Ġà¦Ĩà¦ĩà¦ıà¦¸ à¦ķ
Ġà¦Ĩà¦ĩà¦ıà¦¸ à¦Ĩà¦ĩ
Ġà§¦à§§à§¯ à§§à§©à§¨à§«
à§«à§© à§®à§¦à§ªà§«
880 2
880 13
.?= --
Ġà§Ńà§Ń à§¦
Ġà§Ńà§Ń à§®
Ġà§Ńà§Ń à§¬à§Ń
Ġà§Ńà§Ń à§¦à§¦à§¯
Ġà§Ńà§Ń à§ªà§®à§¬à§§
Ġà§Ńà§¬ à§«à§¦à§¦
)}} ();
Ġà§¬à§¬ à§«
Ġà§¬à§¬ à§®
Ġà§¬à§¬ à§©
Ġà§¬à§¬ à§¬
Ġà¦ħà¦®à¦° à¦ľ
Ġà¦ľà¦Ĺ à§İà¦ķ
Ġà¦ľà¦Ĺ à§İà¦ª
Ġà§¯à§¬ à§¯
à¦¸à¦ĵ à¦ľ
Ġ(. _
à§Ńà§¬ à§¬
à§Ńà§¬ à§§à§®à§¯à§§
à§Ńà§© à§ªà§®
Ð¾ Ðº
Ð¾ Ñģ
Ġà¦Łà¦® à¦Łà¦®
à¦¤à¦ĸà¦¨ à¦ĵ
à§¯à§® à§§
Ġà§¦à§Ńà§¨à§§ à§Ńà§Ńà§©à§«à§¯à§¨
Ġà§¦à§Ńà§¨à§§ à§Ńà§Ńà§¦
Ġà¦ıà¦ķà¦¶ à¦Ń
Ġà¦¸à¦¯ à¦¤à¦¨
à§Ńà§® à§©à§ª
ĠØ§ÙĦÙħ ÙĨ
ĠØ§ÙĦÙħ Øµ
ĠØ§ÙĦÙħ Ø³Øª
ĠØ§ÙĦÙħ ØŃØª
Ġ017 92
Ġ017 779
Ġà§¬à§Ń à§¯
ĠØ§ÙĦØµ ÙĪÙħ
120 6
Ð½ Ñĭ
à¦¨à¦« à¦®
à§®à§¬ à§¦à§¬à§¬à§Ń
à¦²à¦ªà¦¥ à¦Ł
="" ></>
à§«à§¦à§¦ à§§à§©à§¯
áĢ ¼
600 8
à§Ńà§¦ à§§à§¬à§¯à§¦
Ġà¦ľà¦Ĺà§İ à¦Ł
Ġà¦°à¦¤à¦¨ à¦ķ
Ġà¦ĩà¦īà¦ıà¦¸ à¦ıà¦°
Ø§Ø¦ ÙĦ
Ġà§¦à§§à§® à§§à§ª
Ġà§¦à§§à§® à§«à§¬à§ªà§®à§©à§®à§ªà§¬
à¦ľà¦ĵ à¦¶à¦¨
Ġ(- )-
à¦Ĩà¦ĩà¦ıà¦¸ à¦ĩà¦ī
ĠÙĪØ§ÙĦ Ø³ÙĨØ©
à¦Ĩà¦ļ à¦®à¦ķ
à¦¯à¦®à¦¤ à¦¥
Ġà§®à§Ń à§ª
ĠÙħÙĨ Ùĩ
à¦®à¦« à¦²à¦ķ
Ġà§®à§¬ à§©
ĠØ§ÙĦÙĤ ÙĬ
Ġ...... "
à¦¸à¦¦à¦° à¦ª
à§¦à§§à§Ń à§§à§§
à§¦à§§à§Ń à§«à§¦à§¦à§§à§©à§¯
Ġà§®à§¯ à§Ń
à¦¼/ --
Ġà¦¬à¦°à¦ķ à¦¤à¦®à¦¯
ĠØ¢ Ø¨
ĠØ¢ Ø¯
ĠØ¢ ÙĬØ©
Ġ://../ ---.
à¦²à¦¬à¦¨ à¦®à¦¹
Ġà¦ķà¦¨à¦ķ à¦¸
ÙĹ Ûĸ
123 45
Ġà¦¶à¦¶ à¦§à¦°
à§Ńà§¯ à§§à§«
Ġà¦ıà¦ıà¦® à¦Ĩà¦°
à¦¦à¦®à¦¤ à¦Ĺ
Ġ://..// -
Ġà¤ħ à¤°
à¦ĩà¦īà¦ıà¦¨ à¦¡
à¦ĩà¦īà¦ıà¦¨ à¦ıà¦ĩà¦ļà¦¸
à¦ĵà¦ĵ à¦ĵ
Ġà¦ªà¦¦à¦¬ à¦ŀ
ØŃÙħ ÙĬØ¯
ãģ §
à¦ıà¦¨à¦ıà¦¨ à¦Ĩà¦°à¦¸
Ġ46 25
Ġà¤¨ à¤¹
829 556
à¦ıà¦®à¦Ĩà¦° à¦ıà¦®
æĺ İ
æĹ ł
Ġ(.) .
à§§à§§à§¦ à§¨à§¯
à§«à§«à§¦ à§¬à§®
Ġà¦¬à¦°à¦ķà¦¤ à¦īà¦²
Ġ=" _">
ðŁĳ ĩ
âĹ Ī
à¦Ĩà¦¸à¦¨ à¦¬
à¦ĸà¦Ĺ à¦¹
Ġà§¦à§§à§Ńà§§à§§ à§§à§ªà§§à§®à§ªà§®
Ġ". "
2016 20172018201920202021
Ø±Ùĥ Ø§Øª
Ġ='://.// ---'>.</>
Ġ(' [="
ðŁĺ ª
ðŁĺ ģ
ĠÑĤ Ð°Ð»
2022 2023
à¸± à¹ī
à°¿ à°Ĥ
å¤ ļ
Ġà¦ļà¦®à¦¤ à¦ķ
à¤¼ à¥Ģ
à§Ńà§§à§§à§Ń à§¨
à¦īà¦ªà¦¸ à¦ļ
Ġ39 49
à¦ıà¦®à¦ĵ à¦ıà¦«
à¦ıà¦®à¦ĵ à¦ıà¦ĩà¦ļ
ä¹ ¦
103 99
Ġ018 17
Ġ018 2830
à¦ĩà¦ı à¦ıà¦²à¦ľ
Ġà¦Ĩà¦¹à¦¹à¦¹ à¦¹à¦¹
Ġà¦®à¦°à¦® à¦¦
à§¬à§¦à§¦ à§§
à§ĩ.. ?
âĹķ âĸĦ
Ġà¦¨à¦¬à¦¦ à¦®
ÙĨØ¯ ÛĮ
âĢ²âĢ² }]
Ġ=":// .//
Â¬ à¦¾,
Ġà¦ķà¦ĵ à¦¸à¦°
Ġà§¦à§§à§¬ à§Ńà§ªà§Ń
Ø¯Ø« ÙĨÙĬ
à¦¬à¦¦à¦° à¦ĸ
)})} )}}();
âĸĪâĸĪ âĸĪ
âĸĪâĸĪ âĹķâĶĢâĶĢ
,=,= ,=,=
Ġ........ ...
å® ¹
à¦ļà¦°à¦® à¦ªà¦¨
Ġ016 79709
Ġ016 829556
ĠÛ±Û ¸
(' ^
à§ªà§®à§© à§§à§®à§¦
à§ªà§®à§© à§§à§ªà§¯
à§ªà§®à§© à§§à§®à§®à§¬
ĠÛģ ÙĪ
à¤ĩ à¤¸
144 20
ïģ ¶
@., .
446 180
Ġà¦ıà¦ķà¦Ŀ à¦²à¦ķ
Ġ.-").( (,){
Ġà¦īà¦ªà¦¶ à¦¹à¦ķ
à¦ıà¦¸à¦ıà¦¨ à¦ıà¦²
ĠÙĪÙħ ÙĪØ§
&=// ---'
ĠØªØ± Ø¬ÙħØ§Øª
'-'); .('',
Ġ=(),=.( '-');.('',
112 14
Û² Û¹
Ġà¦īà¦«à¦« à¦«
ÙĪØ¬ Ùĩ
Ġ914 05
à§®à§§à§Ń à§¦à§ª
Ġ559 897
Ġà¦ıà¦¨à¦ıà¦¸ à¦ĵ
ĠÛ±Û³Û¹Û µ
Ġ655 35272
à¦ıà¦«à¦Ĩà¦ĩ à¦ĩà¦ī
Ġà¦§à¦¬à¦² à¦§
ĠÙĥØª Ø¨
Ġà§¦à§§à§Ńà§§à§® à§§à§¬à§¨
Ġ[{ "$":"
Ð¾ÑĢ Ñĭ
åİ »
åİ ķçº¸
èĢ Į
à§¬à§«à§¦ à§Ń
0990 3
à§Ńà§Ńà§¬ à§¨à§ªà§Ń
à§Ńà§Ńà§¬ à§¨à§§à§Ń
Ġà¦¤à§İ à¦¸à¦®
Ġà¦Ĩà¦°à¦ıà¦¸ à¦ıà¦ĩà¦ļà¦ıà¦¸
Ġ1548 9
ðŁĩ §ðŁĩ©
Ġà§¦à§§à§Ńà§§à§© à§©à§Ńà§©
âĸ¬âĸ¬ âĸ¬âĸ¬
åº Ķ
à¦Ĩà¦°à¦Ĩà¦° à¦Ĩà¦°à¦¸
à¦Ĩà¦ĩà¦Ĩà¦ĩ à¦ĩà¦īà¦¸
à¸Ľ à¸£à¸°
çĶ ¨
Ġà¦ľà¦¹à¦° à¦²
../// .?=--
à§§à§«à§® à§ªà§¯
çĪ¸ å¦Ī
å¥ ¹ä»¬
å¯ ¹
æĥ ³
çİ °
ĠÙħØ³ÙĦÙħ Ø§ÙĨ
................................................................ ................................................................
{{# }}
ĠØ§ÙĦØ¨Ø± ÙĬØ¯
ïģ¬ ïĢł
éĹ ®
ÙĤÙĬ ÙĬÙħ
ĠØ¨Ø¯ Ø¡
à§Ńà§Ńà§«à§ª à§§à§¨
à§Ńà§Ńà§«à§ª à§¯à§¦
à§Ńà§Ńà§«à§® à§§à§¬
à§Ńà§Ńà§«à§® à§Ńà§©
à§Ńà§¬à§¦à§¬ à§§à§©
à§Ńà§¬à§¦à§¬ à§¨à§©
Ġà§¦à§§à§¯à§§à§Ńà§©à§©à§© à§¨à§«à§©
Ġà§¦à§§à§¯à§§à§Ńà§©à§©à§© à§¨à§«à§¨
Î¼ à¦®
åĩ º
åŃ Ĺ
Ġà§¬à§¨à§« à§Ńà§®à§¯
368 675
ĠÛ² Û²
040 22
Ġ(== ''){
ÙĤÙĬÙĤ Ø©
Ġà§¦à§§à§Ńà§§à§§à§Ń à§®à§§à§Ńà§¦à§ª
$=- $=
Ġ="://..// //
ç² ¾
èģ Į
łà¸²à¸ ©à¸²
à¦²à¦ĸà¦¨ à¦ī
Ġà¦īà¦Ń à¦ļà¦°
à§¦à§§à§© à§¯à§§
à§¦à§©à§¦ à§®à§¦à§¯
(){.( '-'
Ġà§¦à§§à§Ńà§§à§¨à§§ à§¦à§§à§©à§¯à§§
Ġà§¦à§§à§Ńà§®à§¬ à§¨à§Ńà§§à§¨à§¬à§¦
Ġ01710 368675
ä¸įåĲ Īæ³ķ
å¾ Ī
æ° ĳ
ç¥ ŀ
Ġà§ĥ à§ĩ
2024 2025
Ġà¦ıà¦¤à¦¦à¦¸ à¦¤
Ġà¤Ī à¤¦
1630 720090
ĠØ³ÙĨ ÙĨ
Ġà§¦à§§à§Ńà§¨à§ª à§Ńà§¦à§§à§¬à§¯à§¦
à§Ńà§«à§§à§ª à§«à§ª
ĠØ§ÙĦØ±ØŃÙħ ÙĨ
Ġà¤ħà¤ª à¤¨
Ġ="://./ "]
Ġà§¦à§§à§«à§«à§Ń à§§à§¬à§©à§¯
å·¥ ä½ľ
0194 3589
919 68116
wha t
è¥¿ æĸ¹
éģ ĵ
Ġ(!! )
à§Ńà§Ńà§§à§§à§Ń à§¯
ĠÙ¾ÚļØª ÙĪ
);.('', (){.('-'
--"] ').('
Ġ009 65
Ġ0130 2259
Ġ0248 956755
à§¨à§§à§ªà§¬ à§¯à§«
1159 3782
Ġ!(){ ..=(){
ĠÙĬØŃÙĬ Ùī
à§«à§¦à§®à§ªà§Ń à§Ń
à§ªà§©à§«à§© à§¯à§¯
34231363 11593782
Ġà§¦à§§à§Ńà§ªà§ªà§® à§«à§«à§¦à§¬à§®
[...]
