{"<|endoftext|>":0,"!":1,"\"":2,"#":3,"$":4,"%":5,"&":6,"'":7,"(":8,")":9,"*":10,"+":11,",":12,"-":13,".":14,"/":15,"0":16,"1":17,"2":18,"3":19,"4":20,"5":21,"6":22,"7":23,"8":24,"9":25,":":26,";":27,"<":28,"=":29,">":30,"?":31,"@":32,"A":33,"B":34,"C":35,"D":36,"E":37,"F":38,"G":39,"H":40,"I":41,"J":42,"K":43,"L":44,"M":45,"N":46,"O":47,"P":48,"Q":49,"R":50,"S":51,"T":52,"U":53,"V":54,"W":55,"X":56,"Y":57,"Z":58,"[":59,"\\":60,"]":61,"^":62,"_":63,"`":64,"a":65,"b":66,"c":67,"d":68,"e":69,"f":70,"g":71,"h":72,"i":73,"j":74,"k":75,"l":76,"m":77,"n":78,"o":79,"p":80,"q":81,"r":82,"s":83,"t":84,"u":85,"v":86,"w":87,"x":88,"y":89,"z":90,"{":91,"|":92,"}":93,"~":94,"¡":95,"¢":96,"£":97,"¤":98,"¥":99,"¦":100,"§":101,"¨":102,"©":103,"ª":104,"«":105,"¬":106,"®":107,"¯":108,"°":109,"±":110,"²":111,"³":112,"´":113,"µ":114,"¶":115,"·":116,"¸":117,"¹":118,"º":119,"»":120,"¼":121,"½":122,"¾":123,"¿":124,"À":125,"Á":126,"Â":127,"Ã":128,"Ä":129,"Å":130,"Æ":131,"Ç":132,"È":133,"É":134,"Ê":135,"Ë":136,"Ì":137,"Í":138,"Î":139,"Ï":140,"Ð":141,"Ñ":142,"Ò":143,"Ó":144,"Ô":145,"Õ":146,"Ö":147,"×":148,"Ø":149,"Ù":150,"Ú":151,"Û":152,"Ü":153,"Ý":154,"Þ":155,"ß":156,"à":157,"á":158,"â":159,"ã":160,"ä":161,"å":162,"æ":163,"ç":164,"è":165,"é":166,"ê":167,"ë":168,"ì":169,"í":170,"î":171,"ï":172,"ð":173,"ñ":174,"ò":175,"ó":176,"ô":177,"õ":178,"ö":179,"÷":180,"ø":181,"ù":182,"ú":183,"û":184,"ü":185,"ý":186,"þ":187,"ÿ":188,"Ā":189,"ā":190,"Ă":191,"ă":192,"Ą":193,"ą":194,"Ć":195,"ć":196,"Ĉ":197,"ĉ":198,"Ċ":199,"ċ":200,"Č":201,"č":202,"Ď":203,"ď":204,"Đ":205,"đ":206,"Ē":207,"ē":208,"Ĕ":209,"ĕ":210,"Ė":211,"ė":212,"Ę":213,"ę":214,"Ě":215,"ě":216,"Ĝ":217,"ĝ":218,"Ğ":219,"ğ":220,"Ġ":221,"ġ":222,"Ģ":223,"ģ":224,"Ĥ":225,"ĥ":226,"Ħ":227,"ħ":228,"Ĩ":229,"ĩ":230,"Ī":231,"ī":232,"Ĭ":233,"ĭ":234,"Į":235,"į":236,"İ":237,"ı":238,"Ĳ":239,"ĳ":240,"Ĵ":241,"ĵ":242,"Ķ":243,"ķ":244,"ĸ":245,"Ĺ":246,"ĺ":247,"Ļ":248,"ļ":249,"Ľ":250,"ľ":251,"Ŀ":252,"ŀ":253,"Ł":254,"ł":255,"Ń":256,"à¦":257,"à§":258,"Ġà¦":259,"à¦¾":260,"à¦°":261,"à§ĩ":262,"à§į":263,"à¦¿":264,"à¦¨":265,"à¦¯":266,"à¦¤":267,"à¦ķ":268,"à¦²":269,"à¦¬":270,"à¦¼":271,"à¦®":272,"à§ģ":273,"à¦¸":274,"Ġà¦ķ":275,"Ġà¦¸":276,"à¦¦":277,"Ġà¦¬":278,"à§ĭ":279,"Ġà¦ª":280,"à¦Ł":281,"à¦ª":282,"à§Ģ":283,"Ġà¦Ĩ":284,"Ġà¦®":285,"à¦ľ":286,"à¦¶":287,"à¦ĩ":288,"à¦Ĺ":289,"Ġà¦¨":290,"Ġà¦ı":291,"à¦¹":292,"Ġà¦¹":293,"à¦·":294,"Ġà¦¦":295,"à¦Ľ":296,"à¦¡":297,"à¦¼à§ĩ":298,"Ġà¦ķà¦°":299,"à¦¼à¦¾":300,"Ġà¦ħ":301,"Ġà¦¤":302,"à¦§":303,"Ġà¦ľ":304,"à¦Ĥ":305,"à¦ļ":306,"Ġà§":307,"à¦¥":308,"à¦ĸ":309,"Ġà¦°":310,"à¦Ń":311,"à¦£":312,"Ġà¦¶":313,"à¦ĵ":314,"Ġà¦¯":315,"Ġ(":316,"Ġà¦Ĺ":317,"Ġà¦ļ":318,"Ġà¦Ń":319,"Ġà¦ĵ":320,"Ġà¦ī":321,"à¥":322,"à§¦":323,"à¥¤":324,"Ġà¦ĩ":325,"Ġà¦ªà¦°":326,"à¦«":327,"Ġà¦²":328,"à§Ĥ":329,"à¦ĥ":330,"Ġà¦¥":331,"à§ĥ":332,"Ġà¦¹à¦¯":333,"Ġà¦ıà¦ķ":334,"Ġà¦¸à¦®":335,"à¦ī":336,"Ġà¦ĸ":337,"Ġà¦«":338,"à¦°à¦¤":339,"à¦¬à¦°":340,"à§§":341,"à¦ł":342,"Ġà¦Ĩà¦®":343,"à¦Ļ":344,"à¦ģ":345,"à¦°à¦ķ":346,"Ġà¦ħà¦¨":347,"Ġà¦Ľ":348,"à¦ı":349,"Ġà§¨":350,"Ġà¦ľà¦¨":351,"à§¨":352,"Ġà¦Ł":353,"à¦¾à¦Ĥ":354,"à¦Ĩ":355,"Ġà¦¬à¦²":356,"à¦ĵà¦¯":357,"à¦¬à¦¨":358,"à¦ŀ":359,"Ġ2":360,"Ġà§§":361,"..":362,"Ġà¥¤":363,"Ġà¦¡":364,"à¦®à¦¨":365,"à¦°à¦£":366,"à¦ªà¦¨":367,"Ġà¦ıà¦¬":368,"Ùİ":369,"Ġà¦Ĩà¦°":370,"à¦ªà¦°":371,"Ġà¦§":372,"à¦ľà¦¨":373,"à¦¾à¦ģ":374,"Ġà¦ĺ":375,"Ġà¥¤à¥¤":376,"Ġà¦ıà¦ĩ":377,"Ġ20":378,"à¦¼à¦¿":379,"Ġ'":380,"à¦¤à¦°":381,"Ġ1":382,"Ġà¦Ĩà¦²":383,"à¦¬à¦¸":384,"à§Į":385,"à¦°à¦¹":386,"à§ĩ,":387,"Ġà§¨à§¦":388,"Ġà¦ıà¦ķà¦Ł":389,"Ġà¦Ĩà¦¬":390,"Ġ:":391,"à¦°à¦®":392,"à¦ķà¦°":393,"à¦ĩà¦¨":394,"à§¯":395,"à§Ī":396,"Ġ-":397,"à¦¿à¦Ĥ":398,"à¦¶à¦¨":399,"à§ª":400,"Ġà¦īà¦ª":401,"Ġà¦¹à¦¬":402,"à§İ":403,"à§«":404,"Ġà¦®à¦¨":405,"à¦ĸà¦¨":406,"Ġà¦ķà¦°à¦¤":407,"à¦ĥ)":408,"ÙĦ":409,"ĠØ":410,"Ġà¦Ĩà¦¸":411,"à§®":412,"à§©":413,"Ġà¦Ĩà¦ªà¦¨":414,"à¦¾,":415,"à¦°à¦¬":416,"à¦°à¦¸":417,"à§Ń":418,"Ġà¦ıà¦°":419,"Ġ.":420,"à§¬":421,"Ġà¦Ĩà¦Ĺ":422,"Ġà¦¹à¦²":423,"à¦ĺ":424,"Ġà¦ħà¦Ń":425,"Ġà¦§à¦°":426,"Ġà¦īà¦¦":427,"à¦īà¦¨":428,"Ġ201":429,"à¦ĩà¦²":430,"Ġà¦¸à¦¬":431,"Ġà¦¸à¦®à¦¯":432,"à¦ªà¦¤":433,"à¦¸à¦²":434,"à¦²à¦ķ":435,"Ġà¦ĩà¦¬à¦¨":436,"Ġ,":437,"Ġà¦®à¦§":438,"à¦¦à¦°":439,"Ġà¦ķà¦®":440,"à¦ļà¦¨":441,"à¦¦à¦¨":442,"à¦²à¦¨":443,"à¦¦à¦ķ":444,"à¦·à¦£":445,"à¦ħ":446,"à¦¸à¦®":447,"Ġà¦ªà¦¡":448,"à¦ķà¦²":449,"à¦¹à¦®":450,"Ġà¦¹à¦¤":451,"à¦¼à§ĭ":452,"Ġ\"":453,"Ġà¦Ĩà¦¨":454,"à¦¤à¦¨":455,"à¦Łà¦¨":456,"Ġà§©":457,"à¤":458,"à¦°à¦¦":459,"à¦¿,":460,"...":461,"Ġà¦¸à¦¹":462,"à¦¯à¦¬":463,"à¦¸à¦¬":464,"Ġà¦ķà¦¥":465,"Ġà¦ļà¦²":466,"à¦Ľà¦°":467,"ÙĲ":468,"Ġà¦®à¦¹":469,"Ġà¦¬à¦°":470,"Ġ202":471,"Ġà¦¬à¦¨":472,"à¦®à¦¤":473,"à¦¤à¦¬":474,"à¦·à¦¯":475,"Ġà¦¸à¦°à¦ķ":476,"à¦¨à¦¤":477,"à¦°à¦¯":478,"à¦Ŀ":479,"à¦¬à¦²":480,"Ġà§¨à§¦à§¨":481,"à¦°à¦¨":482,"à¦°à¦§":483,"Ø§":484,"Ġà¦ħà¦¬":485,"Ġà¦¬à¦Ľà¦°":486,"ĠÙ":487,"Ġà¦ħà¦°":488,"Ġà¦¸à¦Ļ":489,"à¦¯à¦ķ":490,"à¦°à¦¶":491,"à¦®à¦²":492,"à¦²à¦¯":493,"ÙĴ":494,"Ġà¦Ĩà¦Ľ":495,"à¦ĩà¦Ł":496,"à¦¼,":497,"à¦¥à¦®":498,".(":499,"à¦²à¦¤":500,"Ġà¦¸à¦°":501,"Ġà§«":502,"Ġà¦ĵà¦¯":503,"à¦Ĺà¦°":504,"à¦¯à¦®":505,"Ġà¦Ĩà¦ľ":506,"Ġà¦®à¦¤":507,"à¦Ĺà¦ŀ":508,"à¦ķà¦Ł":509,"à¦¼à§Ģ":510,");":511,"Ġà¦Ĩà¦®à¦°":512,"Ġà¦ıà¦Ł":513,"Ġà¦¹à¦ļ":514,"Ùı":515,"Ġà§ª":516,"à¦¯à¦¬à¦¸":517,"à¦¸à¦¹":518,"à¦ĩà¦ķ":519,"Ġà¦¢":520,"à¦¹à¦¤":521,"Ġà¦Ĩà¦ķ":522,"Ġà¦ıà¦¸":523,"Ġà¦ĩà¦¸à¦²":524,"à¦¤à¦®":525,"à¦°à¦¥à¦®":526,"Ġà¦ħà¦§":527,"ÙĨ":528,"Ġà§¨à§¦à§¨à§§":529,"à¦Ĺà¦¤":530,"Ġà¦ıà¦²":531,"Ġà¦ıà¦ĸà¦¨":532,"Ġà¦¨à¦¤":533,"Ġ2021":534,"à¦¸à¦¨":535,"à¦¾à¦ĥ)":536,"à¦¨à¦¬":537,"à¦®à¦°":538,"Ġà¦ĸà¦¬à¦°":539,"--":540,"à¦Łà¦ķ":541,"Ġà¦¤à¦¬":542,"Ġà¦ĩà¦¨":543,"Ġà¦ķà¦°à¦Ľ":544,"Ġà¦¨à¦¯":545,"à¦ĩà¦°":546,"à¦¯à¦¨":547,"ÙĬ":548,"à¦²à¦¬":549,"Ġà¦°à¦¯":550,"à¦ªà¦ķ":551,"Ġà¦ķà¦²":552,"à¦·à¦ķ":553,"à¦¯à¦¬à¦¹":554,"Ġà¦¸à¦¨":555,"à¦¸à¦°":556,"Ġà§¨à§¦à§§":557,"Ġà¦īà¦¨":558,"à§¦à§¦":559,"à¦¾-":560,"à¦¤à¦ķ":561,"Ġà¦ķà¦°à¦²":562,"Ġà¦ķà¦°à¦¬":563,"à¦®à¦¦":564,"Ġà¦¦à¦²":565,"Ùħ":566,"à¦ĩà¦¯":567,"à¦¨à¦¯":568,"Ġ+":569,"Ġà¦¸à¦Ń":570,"à¦¹à¦°":571,"à¦§à¦¨":572,"à¦¬à¦¬":573,"Ġà¦īà¦¤":574,"Ġà¦ħà¦¸":575,"à¦ıà¦¸":576,"Ġà¦Ĩà¦°à¦ĵ":577,"à¦¬à¦ķ":578,"à¦ķà¦¤":579,"Ġ()":580,"Ġà¦Ĩà¦¦":581,"ĠØ§":582,"Ġà§¬":583,"Ġà¦ĩà¦īà¦¨":584,"Ġà¦°à¦¹à¦®":585,"Ġà¦ł":586,"à¦īà¦ľ":587,"Ġà¦²à¦ķ":588,"Ġà¦¬à¦¡":589,"Ġà¦Ĩà¦ĩà¦¨":590,"à§¨à§¦":591,"Ġà¦ıà¦®à¦¨":592,"Ġà¦īà¦ªà¦ľ":593,"Ġà¦¤à¦¥":594,"Ġ/":595,"Ġà¦ħà¦¤":596,"Ġà¦¯à¦¦":597,"Ġà¦ħà¦¬à¦¸":598,"Ġ=":599,"à¦°à¦ļ":600,"Ġà¦ħà¦«":601,"à¦°à¦ª":602,"Ùĩ":603,"Ġà§Ń":604,"Ġà¦ĺà¦Łà¦¨":605,"à§İà¦¸":606,"à¦Ĩà¦®":607,"Ġà¦Ĩà¦¯":608,"à¦¨à¦®à¦¨":609,"Ġà¦ªà¦¦":610,"ĠØ§ÙĦ":611,"à¦ĸà¦¤":612,"Ġà¦Ĩà¦¶":613,"à¦¦à¦¸":614,"Ġ}":615,"à¦¶à¦ķ":616,"),":617,"à¦¸à¦ª":618,"Ġ3":619,"Ġà¦¹à¦ĵà¦¯":620,"à¦¨à¦¨":621,"à¦ķà¦¬":622,"à¦ľà¦¶":623,"Ùĳ":624,"à§ģà¦ģ":625,"Ġà¦ĩà¦¤":626,").(":627,"à¦ıà¦¨":628,"Ġà¦Ŀ":629,"Ġ0":630,"à¦°à¦²":631,"Ø±":632,"Ġà¦ħà¦ķ":633,"Ġà§®":634,"00":635,"à¦®à¦ķ":636,"à¦¾'":637,"à¦ļà¦²":638,"à¦®à¦¸":639,"Ġà¦¬à¦¸":640,"Ġà¦ħà¦ªà¦°":641,"Ġà¦¸à¦¦à¦¸":642,"Ġà§¯":643,"Ġà¦īà¦ł":644,"Ġà¦ĩà¦ī":645,"Ġà§§à§¦":646,"Ġà¦¶à¦°":647,"Ġà¦ħà¦ª":648,"Ġà§§à§¯":649,"Ġà¦«à¦²":650,"à¦¨à¦ķ":651,"Ġà¦¨à¦Ń":652,"à¦°à¦Ń":653,"Ġà§¦":654,"à¦¿-":655,"à¦ķà¦¦":656,"à¦Ĺà¦²":657,"Ġà¦Ĩà¦¤":658,"Ġà¦¬à¦²à¦²":659,"Ġà¦Ĺà¦¤":660,"à¦°à¦ĵ":661,"à¦¬à¦ª":662,"à¦¹à¦²":663,"Ġà¦°à¦ķ":664,"à¦¸à¦ķ":665,"Ġà¦Ĺà¦²":666,"20":667,"à§Ģ,":668,"à¦¨à¦Ł":669,"Ġà¦Ľà¦¬":670,"Ġà¦ķà¦¬":671,"à¦®à¦ª":672,"Ġà¦¸à¦ķ":673,"Ġà¦ıà¦ķà¦ľà¦¨":674,"Ġà¦ıà¦¤":675,"à¦®à¦¬":676,"__":677,"Ġà¦īà¦ļ":678,"à¦ĩà¦¸":679,"à¦Ĩà¦¨":680,"Ġ{":681,"à¦ıà¦°":682,"Ġà¦¸à¦®à¦¸":683,"à¦¬à¦¤":684,"Ġ...":685,"à¦ıà¦ĩ":686,"à¦°à¦¹à¦£":687,"Ġ5":688,"Ġà¦¤à¦ĸà¦¨":689,"Ġà¦Ĩà¦ĵà¦¯":690,"à¦«à¦¤":691,"Ġà¦ķà¦¯":692,"ÙİÙĳ":693,"Ġà¦īà¦ªà¦°":694,"Ġ4":695,"à¦¼à§ģ":696,"Ġà¦¶à¦¤":697,"Ġ[":698,"Ġà¦ıà¦¨":699,"Ø¨":700,"à¦ªà¦¦":701,"ÙĪ":702,"Ġà¦¶à¦¨":703,"Ġà¦Ĺà¦£":704,"\"\"":705,"à¦·à¦¤":706,"à¦¿à¦ĥ":707,"à¦ĸà¦²":708,"à¦¹à¦¸":709,"à¦łà¦¨":710,"à¦®à¦¯":711,"à¦Ľà¦¨":712,"à¦Ĩà¦°":713,"Ġà¦ľà¦®":714,"Ġà¦Ĩà¦¬à¦¦":715,"Ġà¦¸à¦ķà¦²":716,"Ġà¦ĵà¦ĩ":717,"Ġà¦ĩà¦¯":718,"Ġà¦ĺà¦°":719,"Ġà¦¬à¦ķ":720,"Ġà¦īà¦²":721,"Ġà¦Ĩà¦Łà¦ķ":722,"à§§à§¯":723,"à¦¨à¦¸":724,"à¦Łà¦Ĺ":725,"à¦«à¦²":726,"à¦¨à¦¦":727,"Ġ)":728,"à¦Łà¦°":729,"à¦¹à¦¨":730,"Ġà¦Ĩà¦¹à¦®":731,"Ġà§¨à§ª":732,"à¦ĩà¦¡":733,"à¦ĩà¦ľ":734,"Ġà¦īà§İ":735,"Ġà¦ľà¦¯":736,"Ġà¦¸à¦¤":737,"à¦¯à¦¤":738,"Ġà¦Ńà¦°":739,"à¦¥à¦¨":740,"à¦®à¦ķà¦°":741,"à¦ħà¦¨":742,"à¦·à¦¦":743,"Ġà¦ĺà¦Ł":744,"Øª":745,"à¦ķà¦¨":746,"Ġà¦Ĳ":747,"Ġà¦ªà¦¥":748,"à¦ĩà¦®":749,"à¦°à¦Ĺ":750,"à¦°à¦®à¦£":751,"Ġ8":752,"Ġà¤":753,"à¦ĩà¦¬":754,"à¦¿'":755,"....":756,"Ġ2020":757,"Ġ6":758,"Ø³":759,"à¦īà¦Ł":760,"à¦¬à¦¦":761,"à¦°à¦ľ":762,"à¦¶à¦®":763,"Ġà¦ļà¦Ł":764,"Ġà§§à§¨":765,"Ġ9":766,"à¦²à¦Ĺ":767,"22":768,"à¦Ĺà¦¨":769,"à¦ıà¦¨à¦ª":770,"à¦¾à¦ĥ":771,"à¦ĩà¦«":772,"==":773,"Ġà¦¦à¦ķ":774,"Ġà¦ıà¦Ĺ":775,"Ġà¦ıà¦ĸ":776,"à¦ıà¦®":777,"Ġà¦¬à¦Ļ":778,"Ġà§§à§«":779,"Ġà¦Ĩà¦ª":780,"à¦¬à¦¶":781,"ĠÙĪ":782,"Ġà¦¨à¦¬":783,"à§ĩ?":784,"Ġà¦Ī":785,"à¦Ĩà¦ªà¦¨":786,"Ġà¦¯à¦ĸà¦¨":787,"Ġ10":788,"à§ĭ,":789,"Ġà¦¬à¦¯":790,"à¦¨à¦ĵ":791,"Ġà§§à§§":792,"Ġà¦ªà¦ķ":793,"Ø¯":794,"Ġà¦ľà¦°":795,"//":796,"à¦ķà¦¸":797,"à¦ľà¦¯":798,"ĠØ¹":799,"Ġ7":800,"à¦Ĺà¦¬à¦¨":801,"à¦¦à¦ª":802,"Ġ11":803,"à§ĩà¦ģ":804,"à¦ľà¦°":805,"Ġà¦¬à¦¹":806,"à¦¨à¦°":807,"Ġà¦§à¦°à¦¨":808,"à¦Ĩà¦²":809,"à¦Ńà¦¬":810,"Ġà¦¸à¦¦à¦°":811,"à¦®à¦Ĺ":812,"à§ĭà¦ģ":813,"à¦°à¦ĩ":814,"à¦«à¦°":815,"%%":816,"à¦¯à¦¦":817,"à¦¤à¦°à¦£":818,"Ġà¦ĵà¦ªà¦°":819,"à§ģ'":820,"à¦ĩà¦Ń":821,"Ġà§§à§ª":822,"à¦Ĺà¦£":823,"Ġà¦īà¦ªà¦¸":824,"à¦·à¦®à¦¤":825,"à¦¾.":826,"à§ĭà¦ĥ":827,"Ø¹":828,"à¦¦à¦²":829,"Ġ.(":830,"Ġà¦Ĺà¦¡":831,"à¦§à¦¬":832,"à¦ıà¦ķ":833,"à¦°à¦Ł":834,"Ġà¦Ĩà¦¹":835,"10":836,"à¦¢":837,"Ġà¦¨à¦®":838,"Ġà¦¹à¦ķ":839,"Ġà§¨à§¦à§¦":840,"à¦īà¦²":841,"Ġ2019":842,"Ġ12":843,"Ġà¦¸à¦¡":844,"Ġà¦ıà¦®":845,"Ġà¦ĩà¦®":846,"$(":847,"Ġà¦ľà¦²":848,"Ġà¦°à¦¬":849,"Ġà¦ªà¦¤":850,"Ġà¦ķà¦¨":851,"à¦Ĺà¦®":852,"Ġà¦Ĩà¦«":853,"Ġà¦ıà¦¸à¦¬":854,"Ġà¦ħà¦¬à¦¶":855,"à¦ľà¦²":856,"Ġà¦Ĩà¦Ĺà¦¸":857,"à¦°à¦«":858,"à§ģ,":859,"à¦ļà¦¯":860,"à¦Ĩà¦ĩ":861,"à¦īà¦¦":862,"à¦¥à¦¬":863,"Ġà¦¶à¦ķ":864,"Ġà¦ħà¦¨à¦²":865,"à§¨à§§":866,"Ġà¦ķà¦¤":867,"Ġ2018":868,"à¦¸à¦¦":869,"à¦ĩà¦¤":870,"12":871,"à¦ĺà¦°":872,"à¦Ī":873,"à§ĭ.":874,"Ø©":875,"à¦ªà¦Ł":876,"à¦¼à¦¾,":877,"09":878,"à§İà¦ķ":879,"à¦¤à¦²":880,"à¦łà¦ķ":881,"Ġà§į":882,"Ġà¦¬à¦²à¦¤":883,"à§ĩ-":884,"à¦ľà¦¸":885,"()":886,"Ġi":887,"Ġà¦ħà¦Ĺ":888,"Ġà¦ķà¦ĸà¦¨":889,"Ġà¦¶à¦¹à¦°":890,"à¦¿)":891,"Ġ13":892,"Ġà§§à§¬":893,"à¦¨à¦Ĺà¦°":894,"Ġà§§à§®":895,"à¦°à¦ªà¦°":896,"Ġà¦Ĩà¦¸à¦²":897,"Ġà¦Ĺà¦°":898,"à¦ķà¦Ń":899,"à¦°à¦ķà¦²":900,"21":901,"Ġà§§à§Ń":902,"à¦¯à¦ĩ":903,"à¦°à¦ĸ":904,"11":905,"Ġà§¨à§¦à§¨à§¦":906,"Ġà¦®à¦°":907,"à¦¨à¦Ń":908,"Ġà¦ıà¦ķà¦ĩ":909,"Ġ+'":910,"Ġà¦¨à¦¦":911,"Ġà¦ľà¦¬":912,"à¦¹à¦¬":913,"à¦ªà¦¸":914,"à¦¯à¦¸":915,"Ġà¦ĺà¦£":916,"Ùī":917,"Ġ2017":918,"Ġà¦¸à¦¬à¦ļ":919,"Ġà¦¦à¦°":920,"Ġà¦Ńà¦¯":921,"à¦ŀà¦ª":922,"Ġà¦¸à¦ļ":923,"Ġà¦ªà¦¶":924,"Ġà§§à§©":925,"à¦§à¦¤":926,"à¦¸à¦°à¦ķ":927,"à¦ķà¦®":928,"à¦Ĺà¦łà¦¨":929,"Ġ..":930,"Ġà¦¸à¦¹à¦ľ":931,"Ġà¦¸à¦ª":932,"Ġà¦ļà¦²à¦Ľ":933,"à¦ľà¦®":934,"à¦ļà¦ķ":935,"à¦²à¦®":936,"Ġ_":937,"à¦¯à¦°":938,"Ġà§©à§¦":939,"Ġà¦Ĺà¦¬":940,"à®":941,"Ġ19":942,"Ġà¦ħà¦²":943,"à¦ĵà¦²":944,"Ġà¦ĩà¦īà¦ª":945,"Ġ$(":946,"à¦²à¦ª":947,"Ġà¦Ĩà¦¸à¦Ľ":948,"Ġà¦ļà¦°":949,"Ġà¦¹à¦¨":950,"à¦ľà¦¨à¦ķ":951,"24":952,"Ġà¦¯à¦¤":953,"à¦·à¦®":954,"Ùĥ":955,"Ġà¦«à¦°":956,"Ġà¦Ĩà¦²à¦®":957,"Ġ?":958,"Ġà¦ıà¦ª":959,"Ġà¦ıà¦ķà¦¦":960,"Ġà¦¬à¦²à¦Ľ":961,"Ġà¦ıà¦¡":962,"à¦ķà¦ķ":963,"à¦¨à¦®":964,"à¦²à¦¸":965,"Ġà¦¬à¦ĩ":966,"à¦Ĩà¦ľ":967,"à¦²à¦Ń":968,"\",":969,"Ø§ÙĦ":970,"Ġ2016":971,"Ġà¦¶à¦¬":972,"à¦¤à¦¤":973,"Ġà¦Ľà¦¡":974,"Ġà§¨à§§":975,"Ġs":976,"19":977,"ĠØ£":978,"Ġà§¨à§«":979,"Ġà¦ķà¦ł":980,"Ġà¦®à¦¸":981,"Ġà¦ıà¦¦":982,"18":983,"à¦¯à¦¯":984,"à¦¼à§į":985,"Ġà¦ªà¦²":986,"Ġ!":987,"ĠÙħ":988,"à§ĩ'":989,"Ġà¦ªà¦£":990,"Ġ18":991,"Ġâ":992,"Ġà¦¯à¦¥":993,"à¦§à¦°":994,"à¦ªà¦¡":995,"15":996,"à¦¯à¦®à¦¨":997,"à¦ĸà¦ķ":998,"Ġ14":999,"ĠØ§ÙĦÙĦ":1000,"à§§à§Ń":1001,"à¦¬à¦¹":1002,"');":1003,"à¥Ģ":1004,"Ġà¦®à¦ľ":1005,"à¦ªà¦£":1006,"Ġà¦īà¦ĩà¦ķ":1007,"Ġà¦ĺà¦¨":1008,"Ġà¦Ĩà¦¹à¦¤":1009,"Ġà¦ļà¦ķ":1010,"à¦°à¦°":1011,"à¦ĺà¦Łà¦¨":1012,"à¦¬à¦ĩ":1013,"Ġà¦¤à¦°":1014,"à¦®à¦¹":1015,"Ġ*":1016,"à§Įà¦ģ":1017,"à¦ľà¦§":1018,"Ġà¦ĩà¦¸":1019,"----":1020,"Ġà¦īà¦ªà¦ķ":1021,"Ġà¦Ĩà¦ĩ":1022,"à¦ıà¦¸à¦¸":1023,"à¦°à¦Ľ":1024,"Ġà¦īà§İà¦ª":1025,"Ġ15":1026,"Ġà¦ªà¦Ľà¦¨":1027,"Ġà¦Ĩà¦ľà¦ķ":1028,"à¦¶à¦Ĺ":1029,"à¦¸à¦¤":1030,"ØŃ":1031,"Ġà¦ľà¦¡":1032,"Ġ#":1033,"à¦Łà¦¸":1034,"à§ĩà¦ĥ":1035,"à¦¬à¦Ĺà¦ŀ":1036,"Ġà¦ħà¦¶":1037,"à¦ļà¦°":1038,"Ġà¦¡à¦²":1039,"Ġ//":1040,"Ġà¦ıà¦°à¦ªà¦°":1041,"ÙĤ":1042,"à¦ĩà¦¦":1043,"à¦¸à¦Ł":1044,"à¦¯à¦ķà¦°":1045,"Ġ&":1046,"Ġà¦¸à¦¹à¦¯":1047,"à§¨à§ª":1048,"Ġà¦¤à¦¦à¦¨":1049,"Ġà¦ħà¦ŀ":1050,"Ġà¦¶à¦¹":1051,"Ġà¦ħà¦¥à¦¬":1052,"13":1053,"à¦¬à¦¯":1054,"Ġà¦ĩà¦²":1055,"ĠÙģ":1056,"17":1057,"Ġà¦Ĺà¦łà¦¨":1058,"à§§à§®":1059,"ĠØ¨":1060,"14":1061,"à¦ıà¦«":1062,"Ġà¦ıà¦Ľ":1063,"à¦°à¦Ĩà¦¨":1064,"16":1065,"Ġ16":1066,"à¦¶à¦²":1067,"Ġà¦ľà¦¨à¦ª":1068,"Ġ17":1069,"à¦¦à¦¶":1070,"Ġà¦Ĩà¦§":1071,"à¦ĩà¦ī":1072,"à¦¸à¦®à¦¯":1073,"à¦¯à¦ª":1074,"à¦ĸà¦¬":1075,"Ġà¦īà¦®":1076,"à¦¿?":1077,"à¦Ĺà¦²à¦¬":1078,"à¦¨à¦Ĺ":1079,".)":1080,"à¦®à¦§":1081,"Ġ24":1082,"à¦¾!":1083,"à§§à§¦":1084,"Ġà¦®à¦Ļ":1085,"à¦ļà¦Ł":1086,"Ġ2015":1087,"Ġà¦ĵà¦°":1088,"à§®à§¦":1089,"Ġà¦§à¦¨":1090,"Ġc":1091,"Ġà§¨à§©":1092,"à¦¤à¦¦":1093,"à¦ľà¦¤":1094,"Ġ});":1095,"à§ģà¦ĥ":1096,"Ġà¦ĵà¦ł":1097,"Ø¬":1098,"à¦¶à¦¬":1099,"à¦īà¦¡":1100,"28":1101,"Ġà¦ıà¦®à¦ª":1102,"à¦ıà¦²":1103,"à¦²à¦¦":1104,"à¦®à¦£":1105,"à¦ĸà¦Ľ":1106,"Ġà¦Īà¦¦":1107,"à¦¸à¦Ń":1108,"Ùģ":1109,"Ġà¦®à¦¡":1110,"à¦ķà¦°à¦£":1111,"Ġà¦īà¦ªà¦²à¦ķ":1112,"à¦ľà¦ª":1113,"à¦¬à¦¹à¦¨":1114,"Ġà¦ħà¦®":1115,"à¦ŀà¦¤":1116,"àª":1117,"Ġà¦®à¦¯":1118,"Ġà§«à§¦":1119,"Ġà¦ĭ":1120,"à¦¥à¦²":1121,").();":1122,"Ġà§¨à§Ń":1123,"à¦¶à¦°":1124,"Ġà¦¸à¦®à¦°":1125,"Ġ''":1126,"Ġà¦ķà¦ķ":1127,"Ġà¦¨à¦ľà¦°":1128,"Ġà¦²à¦ķà¦¡":1129,"à¦°à¦ªà¦¤":1130,"à¦Ĺà¦¡":1131,"Ġà§¨à§¨":1132,"à¦ľà¦¬":1133,"à¦ĵà¦¤":1134,"à¦Ĺà¦¬":1135,"Ġà¦ªà¦°à¦¬à¦°":1136,"Ġà§¨à§¬":1137,"à¦Łà¦®":1138,"à¦¾)":1139,"à¦²à¦Ł":1140,"à¦¡à¦¨":1141,"à¦¾?":1142,"à¦«à¦Ł":1143,"âĨ":1144,"à¦¯à¦¤à¦®":1145,"à¦ħà¦°":1146,"@.":1147,"à¦¶à¦Ł":1148,"à¦£à¦¤":1149,"à¦°à¦¸à¦Ń":1150,"à¦°à¦ķà¦®":1151,"Ġà¦Ĩà¦¨à¦¨":1152,"à¦ªà¦²":1153,"Ġà§¨à§®":1154,"ĠØ§ÙĦÙĦÙĩ":1155,"à¦°à¦®à¦¨":1156,"à¦¡à¦²":1157,"à§§à§¨":1158,"Ġà¦¬à¦¦à¦²":1159,"à¦¹à¦ķ":1160,"Ġà¦ªà¦¯":1161,"Ġà¦®à¦¸à¦ľ":1162,"à¦¯à¦¥":1163,"Ġà¦¨à¦Ĺà¦°":1164,"Øµ":1165,"Ġà¦¸à¦ł":1166,"],":1167,"à¥¥":1168,"à¦®à¦ļ":1169,"Û¡":1170,"Ġà¦ķà¦²à¦ķ":1171,"à¦ľà¦ķ":1172,"à¦¨à¦²":1173,"80":1174,"à¦īà¦¤":1175,"Ġà¦Ńà¦¬à¦¨":1176,"à§Ģ-":1177,"Ġu":1178,"27":1179,"Ġà¦¸à¦¤à¦°":1180,"à¦Ĺà¦¦":1181,"Ġà¦ĩà¦ļ":1182,"Ġà¦ıà¦ĸà¦¨à¦ĵ":1183,"à¦Ĩà¦¬":1184,"Ġà¦ªà¦¦à¦ķ":1185,"à¥į":1186,"Ġà¦ıà¦ĩà¦ļ":1187,"Ġà¦·":1188,"Ġà¦ķà¦ª":1189,"à¦ªà¦¥":1190,"à¦ıà¦¬":1191,"à¦²à¦²":1192,"',":1193,"à¦ĸà¦°":1194,"Ġ\"\\":1195,"Ġà¦¦à¦°à¦ķ":1196,"à¦¥à¦ķ":1197,"Ġ;":1198,"âĸ":1199,"à¦ķà¦ľà¦¨":1200,"à¦ĩà¦Ĺ":1201,"à¦£à¦®":1202,"%%%%":1203,"à¦¤à¦¥":1204,"29":1205,"30":1206,"Ġà¦Ĩà¦¸à¦¨":1207,"Ġà¦Ĩà¦¸à¦¤":1208,"âĨĳ":1209,"Ġà¦ħà¦ľ":1210,"Ġà¦ĵà¦®":1211,"à¦īà¦°":1212,"à§§à§«":1213,"Ġà¦Ĩà¦¸à¦¬":1214,"Ø£":1215,"à§ģ-":1216,"Ġà¥¥":1217,"Ġà¦°à¦¸":1218,"à§ĩ!":1219,"à¦Ŀà¦¤":1220,",,":1221,"à¦¿.":1222,"à¦·à¦°":1223,"Ġà¦Ĩà¦°à¦¬":1224,"ÙĬÙĩ":1225,"à¦·à¦¨":1226,"à§§à§§":1227,"Ġà¦ªà¦ŀ":1228,"ĠÙĦ":1229,"à¦²à¦«":1230,"Ġà§¨à§¯":1231,"à¦Ńà¦°":1232,"à¦ķà¦¶":1233,"Ġà¦Ĩà¦ļ":1234,"à¦£à¦¨":1235,"Ġà¦ıà¦Ń":1236,",:":1237,"à²":1238,"**":1239,"à¦¸à¦ļ":1240,"Ġà¦Ĩà¦ªà¦¡":1241,"Â©":1242,"à¦Łà¦²":1243,"à¦¬à¦Ļ":1244,"Ġà¦ļà¦²à¦¤":1245,"ĠÙĬ":1246,"à¦ĵà¦°":1247,"à¦§à¦ķ":1248,"à¦¼à¦ĥ":1249,"Ġà¦ľà¦¨à¦Ĺà¦£":1250,"\":":1251,"Ġà¦Ĳà¦¤":1252,"à¦ıà¦ĩà¦ļ":1253,"Ġà¦Ĩà¦¹à¦®à¦¦":1254,"40":1255,"à¦Īà¦¦":1256,"25":1257,"Ġà¦°à¦ķà¦®":1258,"Ġ2014":1259,"99":1260,"Ġà¦ķà¦·":1261,"à¤¿":1262,"à§§à§¬":1263,"Ġà§¨à§¦à§§à§¯":1264,"à§§à§©":1265,"ĠØ¹ÙĦ":1266,"Ġ2012":1267,"à§§à§ª":1268,"Ġà¦Ńà¦¬":1269,"à¦ĩà¦ª":1270,"Ġ2013":1271,"à¦°à¦¬à¦°":1272,"à¦¸à¦²à¦®":1273,"ÙĦÙħ":1274,"à¦Łà¦¬":1275,"Ġà¦¦à¦«":1276,"à¦¼-":1277,"Ġà¦ħà¦Ļ":1278,"à§¨à§®":1279,"'.":1280,"à¦Ĩà¦Ĺ":1281,"à¦°à¦¸à¦Ļ":1282,"à§¨à§¦à§¨à§§":1283,"Ġà¦Ĩà¦¡":1284,"à§¨à§¨":1285,"Ġà¦¦à¦ĸà¦²":1286,"........":1287,"Ġà¦²à¦¡":1288,"à¦ıà¦ķà¦Ł":1289,"à§©à§¦":1290,"à§¦à§¦à§¦":1291,"Ġà¦ļà¦²à¦ļ":1292,"à´":1293,"Ġà¦Ĩà¦ĵà¦¤":1294,"Ġà¦°à¦¹":1295,"à¦ĩà¦«à¦¸":1296,"à¦²à¦ľ":1297,"Ġà¦Ĩà¦«à¦Ĺ":1298,"ØĮ":1299,"Ġà¦ĸà¦°à¦ļ":1300,"à¦¨à¦ľ":1301,"Ġà¦ļà¦¤":1302,"à¦īà¦ķ":1303,"à¦ªà¦¶":1304,"23":1305,"à¦¶à¦¤":1306,"26":1307,"âĸº":1308,"à¦ķà¦¶à¦¨":1309,"Ġà¦¨à¦¨":1310,"Ġ::":1311,"Ġà¦ıà¦ķà¦¬":1312,"Ġà§ªà§¦":1313,"\"\":":1314,"Ġà¦¤à¦²":1315,"Ġà¦ļà¦¨":1316,")}":1317,"Ùį":1318,"===":1319,"à¦²à¦Ľ":1320,"35":1321,"Ġà¦īà§İà¦¸":1322,"à¦ĩà¦¹":1323,"à¦¥à¦°":1324,"Ġà¦ĩà¦īà¦°":1325,"à¦īà¦¬":1326,"Ġà¦Ľà¦¯":1327,"ĠØ¹ÙĦÙĬÙĩ":1328,"Ġà¦ıà¦¶":1329,"Ġ]":1330,"à§ĩ...":1331,"à¦Ĩà¦®à¦°":1332,"Ġà¦īà¦¦à¦¯":1333,"Ġà¦īà¦ªà¦¹":1334,"à¸":1335,"ÙĦÙī":1336,"à¦Ĩà¦ĩà¦¨":1337,"Ġà¦ĭà¦£":1338,"à¦°à¦¦à¦°":1339,"Ġà¦¸à¦«à¦²":1340,"à¦ĩà¦¨à¦¬":1341,"Ġà¦¸à¦¹à¦ķ":1342,"Ġà¦°à¦Ļ":1343,"à¦īà¦¸":1344,"Ġà¦¤à¦¤":1345,"Ġà¦īà§İà¦¸à¦¬":1346,"à§İà¦¸à¦ķ":1347,"Ġ<":1348,"à¦®à¦ľ":1349,"Ø³ÙĦÙħ":1350,"à¥ĩ":1351,"Ġà¦ĩà¦°":1352,"Ġà¦īà¦łà¦²":1353,"à¦°à¦ľà¦¨":1354,"Ġà¦®à¦ŀ":1355,"Ġà¦ıà¦ķà¦®":1356,"50":1357,"à§ĭ-":1358,"à¦²à¦°":1359,"ĠÙĤ":1360,"57":1361,"à¦ĵà¦®":1362,"ĠÙĪØ³ÙĦÙħ":1363,"à¦¦à¦®":1364,"à¦¹à¦ľ":1365,"à¦¬à¦ľ":1366,"à¦Ńà¦¯":1367,"à¦·à¦ľ":1368,"Ġà¦ĵà¦¬":1369,"Ġà¦ıà¦®à¦¨à¦ķ":1370,"à¦¨à¦ª":1371,"02":1372,"à¦®à¦¨à¦¸":1373,"Ġg":1374,"à¦¦à¦¯":1375,"à¦ĸà¦¬à¦°":1376,"Ġà¦ľà¦Ļ":1377,"Ġà¦¸à¦°à¦¬à¦°":1378,"Ġà¦Ĺà¦Ń":1379,"à¦ħà¦Ń":1380,"à¦¤à¦ª":1381,"\").(":1382,"Ġà§¨à§¦à§§à§®":1383,"Ġà¦īà¦¡":1384,"à¦¸à¦¡":1385,"à¦ĩà¦¸à¦²":1386,"Ġ>":1387,"Ġà¦Īà¦¶":1388,"à¦¤à¦Ń":1389,"à°":1390,"à§ĩà¥¤":1391,"à¦Ĩà¦°à¦ĵ":1392,"à¦¬à¦§":1393,"à¦Ĺà¦ķ":1394,"à¦¶à¦¸":1395,"à§¨à§«":1396,"à¦īà¦¨à¦²":1397,"à¦¸à¦Ļ":1398,"(){":1399,"à§¯à§¯":1400,"à¯":1401,"Ġà¦°à¦ļà¦¨":1402,"36":1403,"à¦ķà¦ª":1404,"à¦Łà¦¬à¦²":1405,"Ġà¦Ĩà¦ĺ":1406,"à¦¼à§ĩ,":1407,"à¦Łà¦¤":1408,"à¦Łà¦Ł":1409,"Ġà¦ĩà¦¨à¦¸":1410,"Ġ30":1411,"à¦¦à¦£":1412,"46":1413,"à§ĩ.":1414,"à§Ģà¦ĥ":1415,"à¦¿!":1416,"Ġà¦¨à¦ĵ":1417,"à¦ıà¦Ł":1418,"à§®à§®à§¦":1419,"à¦¨à¦¹":1420,"''":1421,"à¦¬à¦¤à¦¨":1422,"Ġà¦¬à¦²à¦¬":1423,"Ġo":1424,"à¦ĩà¦Ľ":1425,"à¦ĵà¦¨":1426,"Ġà§§à§¯à§Ń":1427,"à¦¨à¦¬à¦¨":1428,"67":1429,"\".":1430,"à§ĩ)":1431,"Ġà¦ľà¦¨à¦ķ":1432,"à¦ļà¦®":1433,"Ø®":1434,"Ġà¦ĵà¦·":1435,"Ġ27":1436,"à¦ķà¦ļ":1437,"Ġà¦ĵà¦Ń":1438,"à¦¨à¦¬à¦¬à¦¨":1439,"à¦®à¦¡":1440,"Ø«":1441,"Ġà¦°à¦ĩà¦²":1442,"Ġà§§à§¦à§¦":1443,"à¦¼?":1444,"Ġà¦¸à¦ŀ":1445,"Ġà¦¹à¦°":1446,"à¥¤à¥¤":1447,"à¦®à¦¶":1448,"à¦®à¦¬à¦Ļ":1449,"à¦Łà¦ª":1450,"à¦¡à¦¸":1451,"Ġà§¨à§¦à§§à§Ń":1452,"Ġà¦¹à¦¸":1453,"Ġ25":1454,"Ġà¦¹à¦ł":1455,"à¤¾":1456,"à¦¨à¦¶":1457,"Ġà§¨à§¦à§§à§¬":1458,"37":1459,"Ġà¦ªà¦¬":1460,"à¦¥à¦ļ":1461,"à§«à§¦":1462,"Ġ29":1463,"Ġ-:":1464,"à¦®à¦°à¦£":1465,"Ġà¦Ĩà¦¦à¦°":1466,"Ġà¦Ĩà¦®à¦²":1467,"44":1468,"Ġà¦¸à¦«à¦°":1469,"://":1470,"à¦®à¦Ł":1471,"___":1472,"à¦ķà¦Ĺ":1473,"à§¨à§¬":1474,"à¦°à¦¸à¦¹":1475,"Ġà¦®à¦£":1476,"Ġ28":1477,"à¦®à¦¹à¦¤":1478,"Ġà¦Ĩà¦ĩà¦¸":1479,"à¦¥à¦¤":1480,"').(":1481,"Ġà¦¬à¦Ĺ":1482,"à¦ľà¦Ł":1483,"Ġà¦ĩà¦ŀ":1484,"à¦·à¦ķà¦¦":1485,"à¦ķà¦¡":1486,"ÙĲÙĳ":1487,"/,":1488,"Ġà¦īà¦ķ":1489,"Ġà¦Ĩà¦ŀ":1490,"à¦¹à¦°à¦£":1491,"Ġà¦Ĺà¦¤à¦ķ":1492,"Ġà¦ªà¦°à¦°":1493,"à¦ªà¦·":1494,"Ġ(+":1495,"Ģ¢":1496,"à¦¾à§ĩ":1497,"Ġà¦ĩà¦¬":1498,"Ġà¦ķà¦£":1499,"70":1500,"Ø°":1501,"Ġ@":1502,"Ġà¦¸à¦®à¦¨":1503,"Ġ26":1504,"Ġ$('.":1505,"Ġà¦¯à¦¨":1506,"à¦ıà¦¦":1507,"à¦«à¦¸":1508,"à§Ģ'":1509,"Ġà¦ľà¦¨à¦¸":1510,"à¦°à¦Ĺà¦ŀ":1511,"à§¨à§¯":1512,"){":1513,"à¦¨à¦¡":1514,"33":1515,"à¦¨à¦ĩ":1516,"à¦ªà¦®":1517,"ĠØŃ":1518,"à¦Łà¦°à¦¸":1519,"Ġà¦§à¦°à¦£":1520,"à§ªà§©":1521,"à¦ĺà¦¨":1522,"Ġà§©à§§":1523,"Ġà¦īà¦¬":1524,"Ġà¦ħà¦¥à¦ļ":1525,"à¦Ľà¦¡":1526,"2021":1527,"';":1528,"Ġà¦īà¦ªà¦¨":1529,"Ġà¦ıà¦ľ":1530,"Ġà¦ļà¦°à¦®":1531,"Ġà¦¨à¦¡":1532,"Ġà¦ªà¦ł":1533,"ĠØ¥":1534,"à¦°à¦¬à¦¨":1535,"à§¦à§Ń":1536,"Ġà¦ªà¦Ł":1537,"48":1538,"Ġà§¨à§¦à§§à§«":1539,"Ġà¦ħà¦¦":1540,"Ġ__":1541,"000":1542,"&&":1543,"à¦¬à¦ľà¦¨":1544,"Ġà¦¦à¦¶à¦®":1545,"Ġà¦®à¦®à¦¤":1546,"Ġà¦°à¦¶":1547,"à§¦à§¬":1548,"Ġà¦ĸà¦¨":1549,"49":1550,"Ġà¦ħà¦¡":1551,"Ġà¦ļà¦²à¦¬":1552,"Ġà¦ħà¦¸à¦¹":1553,"Ġà¦Ĺà¦¨":1554,"Ġà¦īà¦°":1555,"à§¨à§©":1556,"ĠØª":1557,"47":1558,"Ġà¦ħà¦Ł":1559,"à¦®à¦Ĺà¦ŀ":1560,"à±":1561,"\",\"\":":1562,"à¦¡à¦®":1563,"Ġà¦¨à¦ĵà¦Ĺ":1564,"à¦¬à¦®":1565,"[]":1566,"à«":1567,"à¦Łà¦«":1568,"45":1569,"à¦Ĺà¦ľ":1570,"à¦īà¦ª":1571,"à¦ħà¦ķ":1572,"à¦¹à¦«":1573,"Ġà¦¹à¦¯à¦°à¦¤":1574,"Ġà¦Ĺà¦°à¦®":1575,"=.(":1576,"Ġà¦¨à¦°":1577,"à¦¬à¦°à¦£":1578,"à¦Ńà¦ķ":1579,"Ġà¦Ĩà¦ķà¦°":1580,"38":1581,"à¦¯à¦Łà¦¨":1582,"à¦ķà¦Ľ":1583,"Ġà¦ķà¦®à¦²":1584,"à¤ķ":1585,"à¦¬à¦¡":1586,"à¦®à¦Ļ":1587,"Ġà¦īà¦Ńà¦¯":1588,"Ġà¦¬à¦ľ":1589,"à¦¸à¦°à¦£":1590,"à¦Ĩà¦ª":1591,"31":1592,"Ġ+''":1593,"Ø¶":1594,"!!":1595,"39":1596,"ðŁ":1597,"Ġà¦īà¦ľ":1598,"Ġà¦īà¦ªà¦¦":1599,"à¦ķà¦¯":1600,"Ġà¦«à¦°à¦®":1601,"---":1602,"à¦¼à¦¾-":1603,"Ġà¦¯à¦¶":1604,"55":1605,"à¦¸à¦¸":1606,"ĠØ±":1607,"à§¨à§Ń":1608,"88":1609,"à¦¨à¦ļ":1610,"Ġà¦ħà¦¬à¦¦":1611,"Ġà§¨à§¦à§§à§ª":1612,"Ø§Ø¨":1613,"Ġà¦¬à¦¸à¦¬":1614,"Ø§ÙĨ":1615,"Ġà¦°à¦«":1616,"Ġà¦Ńà¦Ł":1617,"32":1618,"à¦¦à¦¦":1619,"Ġà¦¦à¦¶à¦ķ":1620,").":1621,"à¦¬à¦¬à¦°":1622,"à¦Ĩà¦¯":1623,"Ġ2011":1624,"Ġà¦Ĳà¦ķ":1625,"Ġà¦Ĩà¦ĸ":1626,"Ġà¦īà¦ªà¦¯":1627,"à¦§à¦®":1628,"à¦ļà¦¤":1629,"Ġà¦¸à¦¬à¦ķ":1630,"à¦¡à¦ķ":1631,"Ġ://":1632,"60":1633,"à¦ľà¦¦":1634,"Ġà¦ħà¦¸à¦®":1635,"à¦ĩà¦¨à¦®":1636,"à¦¤à¦ľ":1637,"à¦¬à¦Ľà¦°":1638,"à¦«à¦¨":1639,"Ġ/*":1640,"à¦£à¦ķ":1641,"à¦¬à¦²à¦®":1642,"à¦¦à¦Ł":1643,"&=":1644,"42":1645,"Ġà¦®à¦°à¦¦":1646,"à¦¿à¦ģ":1647,"à¦£à¦¬":1648,"à¦ĵà¦¸":1649,"à¦°à¦£à¦¤":1650,"à¦²à¦ĵà¦¯":1651,"Ġà¦ľà¦Ł":1652,"à¦¼à¦Ĥ":1653,"à¦¥à¦Ĺ":1654,"Ġà§¬à§¦":1655,"à¦¼à§Ĥ":1656,"Ġà¦Ĩà¦Ł":1657,"à¦Ĩà¦¦":1658,"Ġà§©à§©":1659,"à§ĭ?":1660,"Ġà¦ıà¦¯":1661,"Ġ..,":1662,"à¦ľà¦Ĺ":1663,"à¦¶à¦¯":1664,"Ġà¦Ĩà¦ĩà¦¨à¦ľ":1665,"à¦¤à¦«":1666,"Ġà¦ķà¦ĸà¦¨à¦ĵ":1667,"à¦Ĩà¦ľà¦ķ":1668,"à§¯à§¬":1669,"Ġà¦ĵà¦¦":1670,"Ġà¦Ĩà¦Ļ":1671,"43":1672,"Ġà¦ĩà¦Ń":1673,"Ġà¦ĵà¦ª":1674,"à¦¡à¦¬":1675,"--------":1676,"Ġà¤¸":1677,"à¦Ĩà¦¤":1678,"\",\"":1679,"à¦ħà¦¨à¦²":1680,"ØµÙĦÙī":1681,"à§İà¦ª":1682,"Ġà¦ħà¦¨à¦¨":1683,"Ġà¦¸à¦«":1684,"Ġà¦Ĩà¦ĩà¦¡":1685,"à¤¸":1686,"à¦¤à¦®à¦¨":1687,"à¦¸à¦«":1688,"à§¨à§¦à§¦":1689,"à§©à§«":1690,"à¦¯à¦Ĺ":1691,"à¦ªà¦ª":1692,"ĠØ³":1693,"à¦ķà¦¥":1694,"Ġà¦¦à¦¶":1695,"Ġà¦«à¦ĸà¦°":1696,"Ġà¦Ĩà¦¶à¦Ļ":1697,"Ġ21":1698,"Ġà¦ķà¦¤à¦Ł":1699,"à¦Łà¦ĵà¦¯":1700,"ĠâĢ¢":1701,"Ġ//--":1702,"à¦®à¦£à¦¬":1703,"Ġà¦Ĩà¦īà¦Ł":1704,"Ġà¦ĵà¦¸":1705,"à¦¶à¦ª":1706,"Ġà¦ľà¦¨à¦ķà¦¨":1707,"à¦¬à¦Ĺ":1708,"à¦¤à¦ķà¦°à¦£":1709,"à¦ĺà¦¦":1710,"à¦£à¦Ĺà¦ŀ":1711,"Ġà¦ķà¦¨à¦¸":1712,"Ġà¦Ĺà¦£à¦®":1713,"Ġà¦°à¦ª":1714,"Ġà¦«à¦ľà¦²":1715,"Ġà¦īà¦ªà¦¸à¦°":1716,"ÙĬØ©":1717,"%%%%%%%%":1718,"à¦²à¦¸à¦¹":1719,"à¦¡à¦Ń":1720,"Ġà¦ĩà¦ķà¦¬":1721,"Ġà¦²à¦Ĺ":1722,"58":1723,"à¦¬à¦£":1724,"à¯į":1725,"à§¨à§¦à§§à§¯":1726,"à¦¯à¦Ł":1727,"Ġà¦Ĩà¦®à¦¦":1728,"Ġà¦®à¦¦":1729,"à¦¬à¦¸à¦®à¦¯":1730,"?=":1731,"Ġà¦¨à¦·":1732,"Ġà¦Ĭ":1733,"Ġà¦ıà¦«":1734,"Ġà¦¦à¦°à¦ľ":1735,"à¦ħà¦ªà¦°":1736,"à¦ıà¦Ľ":1737,"'-":1738,"52":1739,"Ġà¦Ķ":1740,"Ø§Ø":1741,"à¤°":1742,"à¦¹à¦¹":1743,"Ġà¦¦à¦¤":1744,"Ġ100":1745,"à§«à§«":1746,"ĠØµ":1747,"à¦°à¦¸à¦¨":1748,"à¤Ĥ":1749,"à§ĩ;":1750,"à¦Ńà¦¬à¦¤":1751,"Ġà¦Ĩà¦¤à¦Ļ":1752,"Ġà¦ıà¦ĩà¦ļà¦ıà¦¸à¦¸":1753,"34":1754,"Ġà¦®à¦¤à¦¬":1755,"Ġà¦Ĩà¦®à¦¨":1756,"à¦°à¦¥à¦®à¦¬":1757,"Ġà¦īà¦łà¦¤":1758,"Ġ+\"":1759,"à¨":1760,"Ġà¦«à¦Ł":1761,"à¦Ŀà¦¡":1762,"à§¨à§¦à§¨à§¦":1763,"Ġ+'.(":1764,"à¦¼à§Ģ,":1765,"([":1766,"à¦Ĺà¦Ľ":1767,"Ġà¦¶à¦«":1768,"Ġà¦«à¦¸à¦²":1769,"..(":1770,"Ġà§¨à§¦à§§à§©":1771,"à¦ıà¦ĸà¦¨":1772,"Ġ\"\"":1773,"Ġà¦Ĺà¦£à¦¤à¦¨":1774,"Ġà¦ªà¦¨":1775,"Ġà¦ıà¦°à¦ķà¦®":1776,"à¦¹à¦¯":1777,"à¦ħà¦¸":1778,"Ġ50":1779,"Ġà¦Ĩà¦ļà¦°à¦£":1780,"à¦°à¦Ĺà¦¤":1781,"Ġ22":1782,"Ġà¦¸à¦¦":1783,"Ġà¦¸à¦¬à¦¸à¦®à¦¯":1784,"Ġà¦ĩà¦¸à¦°":1785,"à¦°à¦¥":1786,"Ġà¦¦à¦ª":1787,"Ġ@.":1788,"56":1789,"Ġà¦ıà¦ľà¦¨":1790,"Ġ2010":1791,"à¦¾.)":1792,"59":1793,"Ø´":1794,"à¦ªà¦°à¦¬à¦°":1795,"Ġà¤®":1796,"à¦īà¦®":1797,"Ġà§¨à§¦à§¦à§¯":1798,"à¦¶à¦«":1799,"Ġà¦Ĩà¦¬à¦¹":1800,"Ġà¦Ŀà¦¡":1801,"à¦ĵà¦ª":1802,"Ġà¦ĵà¦ľà¦¨":1803,"Ġà¦ľà¦Ĺà¦¤":1804,"Ġ(,":1805,"Ġà¦¹à¦ľ":1806,"à§¦à§§":1807,"Ġà¦Ĩà¦¨à¦¤":1808,"\\'":1809,"Ġà¦¨à¦°à¦¸":1810,"Ġà¦¸à¦®à¦ķ":1811,"à¦¸à¦¸à¦®":1812,"Ġ.(\"":1813,"61":1814,"à¦²à¦Ļ":1815,"ÙıÙĳ":1816,"/\\":1817,"41":1818,"à¦ķà¦Ĺà¦ŀ":1819,"Ġà¦Ĩà¦¨à¦¸":1820,"Ġà¦ĩà¦īà¦Ł":1821,"78":1822,"à¦¼'":1823,"Ġ23":1824,"à¤²":1825,"à¦¾...":1826,"à¦Ĺà¦Ĺ":1827,"Ġà¦ļà¦²à¦®":1828,"à¦·à¦ķà¦°":1829,"Ġà¦¦à¦£":1830,"Ġà¦ļà¦¡":1831,"à§ªà§¦":1832,"54":1833,"Ġà¦ħà¦¬à¦°":1834,"Ġà§¨à§¦à§§à§¦":1835,"06":1836,"Ġà§§à§¯à§¯":1837,"à¦¦à¦¬":1838,"Ġà¦¦à¦¯":1839,"à¦Ľà¦¬":1840,"ÙĮ":1841,"à§Ģ?":1842,"Ġ.();":1843,"Ġà¦Ĩà¦²à¦®à¦Ĺ":1844,"Ġà§¯à§®":1845,"ĠÙĥ":1846,"Ġà§ªà§«":1847,"ĠÂ":1848,"\"#":1849,"à¦ľà¦Ĺà¦ŀ":1850,"à¦¶à¦¨à¦¸à¦®":1851,"à¦¾]":1852,"à¦Łà¦¦":1853,"à¦īà¦¯":1854,"Ġà§©à§«":1855,"Ġà¦Ĩà¦ĩà¦ª":1856,"à¦ĩà¦¦à¦¹":1857,"Ġà¦ªà¦¦à¦¤":1858,"Ġà¦¤à¦®":1859,").();'":1860,"):":1861,"Ġà¦·à¦¡":1862,"à¦¡à¦ª":1863,"à¦¬à¦Ń":1864,"Ġà¦¦à¦®à¦¨":1865,"79":1866,"=(":1867,"à¦£à¦Ń":1868,"Ġà¦Ĩà¦¹à¦¬":1869,"Ġà¦ĩà¦®à¦°":1870,"://..":1871,"69":1872,"Ùĭ":1873,"à¦¤à¦Ł":1874,"Ġà¦Ńà¦ķ":1875,"Ġà¦ķà¦®à¦ª":1876,"+\"":1877,"320":1878,"Ġà§©à§¬":1879,"à§¦à§¨":1880,"Ġà¦ħà¦¬à¦¹":1881,"Ø²":1882,"Ġà¦ķà¦ļ":1883,"Ġà¦°à¦¹à¦¸":1884,"à¦Ĩà¦¸":1885,"à¦²à¦Ĺà¦ŀ":1886,"ĠØ§ÙĦØª":1887,"07":1888,"à¦¤à¦¨à¦¤":1889,"Ġà¦Ĭà¦°":1890,"64":1891,"à§®à§®":1892,"Ġà§¨à§¦à§§à§¨":1893,"Ġ#>":1894,"68":1895,"Ġà¦¶à¦Ļ":1896,"à¦Łà¦Ľ":1897,"à§¦à§«":1898,"ÙĪÙĨ":1899,"Ġà¦®à¦¹à¦²":1900,"à¦ªà¦Ĺ":1901,"à¦īà¦¶à¦¨":1902,"à¦ıà¦®à¦ª":1903,"à¦¦à¦¤":1904,"Ġà¦¬à¦ĩà¦Ł":1905,"à§ªà§¬":1906,"90":1907,"à¦ıà¦ª":1908,"à§©à§©":1909,"77":1910,"à¦¨à¦¸à¦¹":1911,"à¦²à¦¶":1912,"à¦Łà¦«à¦°":1913,"Ġà¦ķà¦°à¦ª":1914,"à§¦à§¯":1915,"Ġà®":1916,"65":1917,"à§ĭ'":1918,"à¦ĸà¦¯":1919,"Ġà¦²à¦¨":1920,"81":1921,"::":1922,"à¦Ĩà¦¬à¦¦":1923,"Ġà¦ķà¦¨à¦Ł":1924,"à¦ĵà¦¡":1925,"à¤¦":1926,"à¦²à¦®à¦¨":1927,"à¦¶à¦¦":1928,"Ø¹Ø±":1929,"01":1930,"Ġà¦¬à¦ĩà¦¯":1931,"Ġà¦«à¦¯":1932,"Ġà§Ńà§¦":1933,"Ġà¦²à¦®":1934,"Ġà¦ªà¦°à¦®":1935,"à¦·à¦§":1936,"03":1937,"à¦®à¦®":1938,"Ġà¦ıà¦¸à¦ıà¦¸à¦¸":1939,"ÙĬÙĨ":1940,"à¦¯à¦¬à¦§":1941,"51":1942,"Ġà¦¤à§İà¦ķ":1943,"à¦ļà¦¬":1944,"Ġà¦¡à¦ķ":1945,"à§ªà§®":1946,"Ġà¦¸à¦¬à¦ľ":1947,"à¦Ĩà¦ªà¦¡":1948,"72":1949,"à¦¼!":1950,"Ġà¦¦à¦®":1951,"Ġà§¦à§Ń":1952,"à¦¹à¦¬à¦§":1953,"'');":1954,"Ġà¦Ĩà¦¬à¦°":1955,"Ġà¦Ĩà¦ªà¦¤":1956,"Ġà§©à§Ń":1957,"à¦¨à¦¬à¦¤":1958,"Ġà§¦à§¨":1959,"\"\"===":1960,"à¦īà¦ļ":1961,"53":1962,"à¦¾;":1963,"à¦¨à¦ľà¦¨":1964,"à¦¶à¦ĩ":1965,"à¦ªà¦¯":1966,"Ġà¦Ĩà¦¹à¦¸":1967,"Ġà¦¨à¦ľ":1968,"Ġà¦²à¦ľ":1969,"Ø¬Ùħ":1970,"Ġà§¯à§¦":1971,"Ġà§®à§¦":1972,"Ġà¦ıà¦¸à¦®à¦¯":1973,")(":1974,"à¦¨à¦ªà¦¤":1975,"à¦¯à¦Łà¦ķ":1976,"à¦¿à¦Ĥ,":1977,"Ġà§©à§¨":1978,"Ġà§¨à§¦à§§à§§":1979,"Ġà§¦à§§":1980,"Ġà¦ļà¦®":1981,"08":1982,"à¦¾à¥¤":1983,"Ġà¦ķà¦¡":1984,"à§¬à§¦":1985,"Ġà§¦à§§à§Ń":1986,"(\\'":1987,"\\+":1988,"Ðº":1989,"à¦¾\"":1990,"à¦ħà¦¤":1991,"ĠÂ©":1992,"Ġà¦ľà¦²à¦¬":1993,"95":1994,"à¬":1995,"à¦ļà¦Ĺà¦¡":1996,"Ġà¦§à¦°à¦¤":1997,"Ġà¦ķà¦°à¦£":1998,"à§ªà§«":1999,"****":2000,"92":2001,"à¦¼à¦¾'":2002,"à¦¬à¦¤à¦²":2003,"Ġ.('":2004,"Ġà¦ĩà¦īà¦ıà¦¨":2005,"Ġà¦Ķà¦·à¦§":2006,"..(()":2007,"Ġà¦¬à¦¸à¦¤":2008,"Ġà¦ĩà¦īà¦¸":2009,"05":2010,"à¦¾/":2011,"Ġà¦ķà¦Ł":2012,"à¤¨":2013,"63":2014,"Ġà¦¬à¦¦":2015,":(":2016,"à¦ĺà¦Ł":2017,"\");":2018,"86":2019,"ÛĮ":2020,"Ġà¦ĵà¦ķ":2021,"Ġ....":2022,"à¦¤à¦¦à¦¨":2023,"Ġà¦ħà¦¯":2024,"Ġà¦Ĩà¦²à¦¹":2025,"................":2026,"Ġà¦ªà¦ľ":2027,"à¦°à¦¹à¦¨":2028,"./":2029,"à§ªà§Ń":2030,"ÙĦØ§":2031,"66":2032,"à·":2033,"à¦ķà¦ĩ":2034,"à¦¦à¦°à¦¬":2035,"Ð°":2036,"à¦°à¦·":2037,"Ġà¦ľà¦¨à¦Ĺ":2038,"à§ĭà¦Ĥ":2039,"Ġà¦ªà¦°à¦ĵ":2040,"Ġ--":2041,"'+":2042,"82":2043,"ĠØ§ÙĦØªØ±":2044,"Ġà¦īà¦¸":2045,"Ġà¦Ĩà¦¸à¦°":2046,"Ġà¦ķà¦²à¦®":2047,"Ġà¦Ĩà¦¶à¦°":2048,"Ġà§§à§¯à§®":2049,"à¦°à¦¡":2050,"Ġà¦Ĺà¦ł":2051,"\"\",":2052,"ĠðŁ":2053,"Ġà¦®à§İà¦¸":2054,"à§¦à§ª":2055,"Ġà¦ĸà¦¤":2056,"Ġà¦īà¦ªà¦Ń":2057,"à¦ĩà¦ĵ":2058,"Ġ+=":2059,"à¦®à¦Ľ":2060,"à¦Ĩà¦ĩà¦¡":2061,"Ġ60":2062,"71":2063,"*/":2064,"Ġà¦¬à¦Ł":2065,"Ġà¦ĩà¦ľ":2066,"87":2067,"à¦Ńà¦¨":2068,"Ġà¦ķà¦¬à¦°":2069,"Ġà¦¨à¦ķà¦²":2070,"Ġà§ªà§©":2071,"Ġà¦¹à¦Ł":2072,"Ġà¦¸à¦¨à¦¦":2073,"Ġii":2074,"Ġsi":2075,"Ġà¦®à¦²":2076,"à¦ĩà¦ļ":2077,"Ġà¦²à¦ŀ":2078,"à¦ıà¦¤":2079,"Ġà¦ķà¦«":2080,"Ġà¦ķà¦®à¦¨":2081,"à§Ńà§§":2082,"2222":2083,"93":2084,"Ġà§Ńà§«":2085,"Ġà§¦à§¯":2086,"à¦¸à¦Ĺ":2087,"à¦¬à¦Ł":2088,"à¦ªà¦¬":2089,"Ġ90":2090,"Ġ+'([":2091,").'":2092,"Ġ+'.().();'":2093,"\"-":2094,"à§Ģ)":2095,"Ġà¦ĩà¦ķ":2096,"à¦ľà¦¨à¦ª":2097,"à¦Īà¦®":2098,"±ÙĦ":2099,"à¦®à¦¸à¦®":2100,"Ġà¦°à¦®":2101,"à¦¼à¦¿,":2102,"Ġà¦ħà¦¬à¦®":2103,"&&(":2104,"94":2105,"à¦¯à¦ĵ":2106,"à¦Łà¦¸à¦ħ":2107,"à¶":2108,"Ġà¦ĵà¦Ł":2109,"Ñģ":2110,"Ġà¦ıà¦ķà¦¸à¦Ļ":2111,"Ġ._":2112,"Ù°":2113,"à¦¯à¦ľ":2114,"à¦Ĺà¦¸":2115,"200":2116,"à¦ĩà¦īà¦¨":2117,"à¦ıà¦®à¦ıà¦¸":2118,"Ġà¦ľà¦¹":2119,"Ø¥":2120,"à¤µ":2121,"Ġà¦¨à¦Ĺà¦¦":2122,"à§Ńà§Ń":2123,"ÙĪØ§":2124,"à¦°à¦ĵà¦¯":2125,"à¦¼)":2126,"Ġà¦Łà¦¨":2127,"Ġà§©à§ª":2128,"à¦°à¦ļà¦²":2129,"97":2130,"Ø·":2131,"à¥ĭ":2132,"à¦¸à¦ĵà¦¯":2133,"à¦ªà¦Ĺà¦ŀ":2134,"à¦Ĺà¦Ł":2135,"à¦Ĺà¦ł":2136,"Ġà¦¶à¦¯":2137,"à¦ħà¦§":2138,"Ġà§ªà§®":2139,"Ġ(!":2140,"Ġà¦ıà¦ķà¦¸":2141,"Ġà§«à§¦à§¦":2142,"Ġà§¦à§ª":2143,"Ġà¦Īà¦®":2144,"à¦²à¦¹":2145,"à¦¦à¦Ĺ":2146,"à¦Łà¦¸à¦®":2147,"Ġà¦«à¦¤":2148,"à¤®":2149,"à§¦à§®":2150,"à¦Ĩà¦«":2151,"Ġà¦ıà¦°à¦ĩ":2152,"Ø§Ø±":2153,"04":2154,"Ġ);":2155,"Ġà¦Ĺà¦Ļ":2156,"Ġà¦ĩà¦¹":2157,"à¦¾à¦ģ,":2158,"à¦°à¦¦à¦²":2159,"Ġ$().(":2160,"à¦¿...":2161,"à¦¤à¦ĩ":2162,"Ġà¦¸à¦ľ":2163,"à¦¦à¦«":2164,"Ġà¦ıà¦ķà¦ķ":2165,"\"\")":2166,"'#":2167,"à¦¤à¦Ĺ":2168,"à¦²à¦ļ":2169,"Ġà¦ļà¦®à¦ķ":2170,"à¦¦à¦°à¦¬à¦¨":2171,"à¦ĩà¦ľà¦¡":2172,"').();":2173,"à§¬à§§":2174,"62":2175,"à¦¯à¦¶":2176,"à¦²à¦ĺ":2177,"Ġà§¦à§®":2178,"75":2179,"à¦²à¦¥":2180,"Ġà¦¬à¦¹à¦¨":2181,"Ġà§©à§®":2182,"Ġà¦Ĩà¦ľà¦®":2183,",=":2184,"Ġà¦¸à¦²":2185,"Ġà¦¤à¦°à¦«":2186,"/-":2187,"à¦ĩà¦ĵà¦¯":2188,"à¦ļà¦¡":2189,"à¤¯":2190,"Ġà¦Ĩà¦ľà¦ĵ":2191,"à¦²à¦¡":2192,"à¦Ĩà¦ķ":2193,"...]":2194,"ĠØµÙĦÙī":2195,"Ġà¦ĩà¦īà¦ıà¦¨à¦ĵ":2196,"à³":2197,"Ġà¦®à¦¶":2198,"Ġà¦ĵà¦¨":2199,"Ġà¦ıà¦ķà¦¤":2200,"Ġà¦ħà¦¬à¦ķ":2201,"à¦¯à¦Ń":2202,"à¦¬à¦Ľ":2203,"à¦ıà¦°à¦ªà¦°":2204,"84":2205,"à¦¼à¦¾à¦Ĥ":2206,"Ġà¦īà¦¸à¦®":2207,"à¦ıà¦¸à¦¬":2208,"91":2209,"ĠØ§ÙĦÙĨ":2210,"Ġà¦¯à¦®":2211,"Ġà¦¸à¦®à¦Ĺ":2212,"\")":2213,"Ġà¦Ĩà¦ĩà¦Ł":2214,"à¦Ĩà¦¶":2215,"),(":2216,"à§§à§¯à§¯":2217,"à¦ĵà¦¬":2218,"à§¦à§©":2219,"à¦°à¦§à¦°":2220,"96":2221,"Ġà¤¹":2222,"à¦ľà¦Ľ":2223,"à¤¡":2224,"Ġà¦ħà¦ªà¦¸":2225,"Ġ\"\";":2226,"à¦ħà¦¬":2227,"Ġà¦ħà¦¬à¦¸à¦°":2228,"Ġà¦īà¦łà¦Ľ":2229,"à¦¿/":2230,"Ġà¦ķà¦¨à¦«":2231,"à¦Ńà¦ľà¦¨à¦ķ":2232,"à§©à§Ń":2233,"à¦Ĩà¦ĩà¦ª":2234,"728":2235,"85":2236,"à¦ªà¦ļ":2237,"Ġà¦ľà¦¨à¦¤":2238,"à§©à§§":2239,"à«Ģ":2240,"à¦®à¦ĩ":2241,"à§ģà§į":2242,"Ġà¦Ĩà¦Ń":2243,"Ġà¦ªà¦°à¦ĩ":2244,"à§©à§¯":2245,"à§©à§¬":2246,"Ġà§ªà§¬":2247,"à¦Łà¦ķà¦®":2248,"à¦¬à¦¦à¦²":2249,"ĠÙĨ":2250,"::>":2251,"73":2252,"à¦¥à¦ª":2253,"Ġà¦ıà¦®à¦¨à¦Ł":2254,"Ġ[...]":2255,"à¦¤à¦ļ":2256,"à¦ĵà¦¦":2257,"Ġà¦ªà¦°à¦Ĺà¦¨":2258,"Ġà¦ĸà¦²":2259,"à¦Ĩà¦°à¦¸":2260,"à¦¶à¦ĸ":2261,"à¦°à¦¬à¦²":2262,"Ġà§ªà§ª":2263,"à¦ķà¦²à¦ķ":2264,"à¦¼à¥¤":2265,"Ø§Ø³":2266,"ĠØ§ÙĦØ£":2267,"76":2268,"à¦¨à¦¸à¦®":2269,"Ġà¦Ńà¦Ļ":2270,"à¦¬à¦¨à¦¯":2271,"à¦ıà¦®à¦¨":2272,"à§©à§®":2273,"Ġà§«à§®":2274,"}}":2275,"à¦īà¦ĩ":2276,"Ġà¦¸à¦¬à¦ĩ":2277,"Ġà¦ĩà¦¨à¦«":2278,"Ġà¦Ŀà¦°":2279,"Ġà§¦à§©":2280,"Ġà¦¦à¦²à¦ķ":2281,"à¦ħà¦¬à¦¶":2282,".()":2283,"Ġà§¦à§¬":2284,"Ġà¦¤à¦ĸà¦¨à¦ĩ":2285,"à¦¦à¦«à¦¤à¦°":2286,"{:":2287,"Ġà§©à§¦à§¦":2288,"Ġ<#":2289,"74":2290,"à¦¨à¦¶à¦¨":2291,"Ġà¦ĵà¦®à¦°":2292,"98":2293,"à¥Ĥ":2294,"Ġà¦²à¦Ļ":2295,"Ġà§©à§¯":2296,"à¦ĵà¦Ł":2297,"\"+":2298,"?\"":2299,"Ġà¦ľà¦¨à¦¨":2300,"ÙĬØ±":2301,"Ġà§¨à§¦à§¦à§®":2302,"Ġà¦¦à¦«à¦¤à¦°":2303,"Ġà¦Ĩà¦ĩà¦¯":2304,"à¦·à¦Ń":2305,"Ġà¦ħà¦ļ":2306,"Ġà¦Ńà¦¦":2307,"à¦¬à¦ļ":2308,"à¦ĩà¦¸à¦¬":2309,"Ġà§®à§ªà§©":2310,"à§ģà¦Ĥ":2311,"à¦Ńà¦Ļ":2312,"Ġà¦¶à¦ªà¦¥":2313,"Ġà¦Ĺà¦£à¦ªà¦°":2314,"Ø§Ø¡":2315,"Ġà¦¹à¦ĩà¦²":2316,"Ġà¦Ľà¦ķ":2317,"Ġà¦ļà¦®à§İà¦ķ":2318,"Ġà¦Ĺà¦ľ":2319,"à±ģ":2320,"Ġà§¯à§®à§¨à§ª":2321,"à¦Ĩà¦ĵà¦¯":2322,"Ġà¦Ĩà¦¹à¦²":2323,"Ø¹Ø±Ø¨":2324,"à¦ľà¦¹":2325,"à¦Ļà¦ļ":2326,"Ġà¦ıà¦ĩà¦Ł":2327,"ĠÙĩ":2328,"];":2329,"ĠØ¬":2330,"à¦Łà¦Ń":2331,"à¦·à¦Ł":2332,"à¦Ľà¦²":2333,"Ø§Øª":2334,".('":2335,"Ġà¦¬à¦¸à¦²":2336,"à¦ªà¦ŀ":2337,"à¦ľà¦¡":2338,"à§«à§¬":2339,"89":2340,"][":2341,"à§«à§ª":2342,"Ġà§ªà§¯":2343,"Ġà¦¸à¦«à¦²à¦¤":2344,"Ø¹Ø±Ø¨ÙĬØ©":2345,"??":2346,"Ġà¦ıà¦°à¦¶":2347,"à¦ħà¦Ł":2348,"Ġà§«à§¨":2349,"Ġà¦¦à¦²à¦Ł":2350,"83":2351,"à¦§à¦Ń":2352,"à¦¤à¦¬à¦¤":2353,"à¦ķà¦ľ":2354,"Ġà¦¹à¦ĩ":2355,"Ġà¦«à¦ķ":2356,"Ġà¦§à¦°à¦²":2357,"à¦¯à§İ":2358,"à¦°à¦¸à¦°":2359,"Ġà¦ħà¦ªà¦¹à¦°à¦£":2360,"Ġà¦®à¦ķ":2361,"à¦¥à¦®à¦¨":2362,"à¦īà¦¥":2363,"à§©à§¨":2364,"Ġà¦īà§İà¦ķ":2365,"Ġà¤ķ":2366,"Ġà¦¨à¦ķà¦¶":2367,"Ġà§ªà§Ń":2368,"Ġ31":2369,"Ġà§¦à§«":2370,"à¦ĩà¦¶":2371,"Ġà¦ªà¦°à¦ªà¦°":2372,"à¦°à¦£à¦¯":2373,"Ġà¦®à¦¨à¦¸":2374,"Ġ\");":2375,"ĠÙ±ÙĦ":2376,"Ġà§§à§¯à§Ńà§§":2377,":)":2378,"?!":2379,"Ġï":2380,"Ġà¦®à¦¤à¦¨":2381,"à¦·à¦ª":2382,"Ġà¦ıà¦ķà¦¸à¦®à¦¯":2383,"Ġ*/":2384,"Ġà¦Ĩà¦ĩà¦¨à¦¶":2385,"Ġà¦ħà¦ªà¦¶à¦¨":2386,")-":2387,"à¦¾),":2388,"à¦¨à¦Ľ":2389,"à¦ĩà¦ľà¦¨":2390,"à¦·à¦¸":2391,"à®¿":2392,"à¦īà¦ªà¦ľ":2393,"à¦ıà¦ĸ":2394,"Ġ---":2395,"à§İà¦¸à¦¬":2396,"Ġà¦¸à¦°à¦ŀ":2397,"à¦¸à¦ķà¦²":2398,"Ġà¦ħà¦¹":2399,"à¦®à¦°à¦¤":2400,"Ġà¦Ĩà¦ĸà¦¤":2401,"à§İà¦ªà¦°":2402,"Ġà§¬à§ª":2403,"Ġà¦¯à¦¤à¦Ł":2404,"à§ĩ\"":2405,"à¦ĸà¦®":2406,"à¦Ĳ":2407,"à¦¬à¦ªà¦¨":2408,"Ġà¦ħà¦·":2409,"2020":2410,"?(":2411,"Ġà¦¹à¦ĩà¦¤":2412,"à¦Ľà¦¦":2413,"Ġà¦ħà¦¬à¦¨":2414,"Ġà¦īà¦ªà¦²à¦¬":2415,"Ġ**":2416,"))":2417,"à©":2418,"Ġà§¨à§¦à§¨à§¨":2419,"à¦°à¦ļà¦£":2420,"Ġà¦īà¦łà¦¬":2421,"Ġà¦²à¦¬à¦£":2422,"====":2423,"Ġuu":2424,"ÑĢ":2425,"à¦¯à¦¹":2426,"à¦ķà¦Ĩà¦ª":2427,"Ġà¦ĵà¦¸à¦®":2428,"à¦°à¦®à¦¶":2429,"Ġà§®à§«":2430,"à¦Ľà¦¤":2431,"à¦°à¦ķà¦°":2432,"à§ªà§§":2433,"Ġà§ªà§¨":2434,"Ġà¦Ĩà¦¶à¦ª":2435,"à¦¼;":2436,"Ġà¦ĩà¦Ļ":2437,"Ġà¦ĩà¦«à¦¤":2438,"à¦Ĩà¦ĩà¦¸":2439,"Ġà¦īà¦ĩà¦¨":2440,"à¦īà¦ĩà¦¯":2441,"Ġà¤«":2442,"à¦ľà¦²à¦ª":2443,"Ġà¦¸à¦«à¦Ł":2444,"à¦£à¦¹":2445,"Ġà¦ªà¦°à¦ķ":2446,"à¦ıà¦ķà¦¦":2447,"/'":2448,"à¦ĸà¦¸":2449,"Ġà¦«à¦ľ":2450,"Ġà§«à§¯":2451,"Ġà¦Ĩà¦ĩà¦¨à¦®à¦¨":2452,"Ġà¦ħà¦ªà¦Ł":2453,"Ġà¦ıà¦¤à¦Ł":2454,"Ġà§ªà§§":2455,"à¦ıà¦¨à¦ľ":2456,"Ġà§§à§ªà§¨à§®":2457,"à¦Ĩà¦¹":2458,"à§«à§®":2459,"Ġà§§à§¯à§¬":2460,"ÙĪÙĦ":2461,"Ġ'';":2462,"à¦Ĺà¦ª":2463,"Ġà¦īà¦ĩà¦²":2464,"Ġà¦«à¦²à¦¨":2465,"à¦°à¦¤à¦ķ":2466,"à¦Ĩà¦°à¦Ł":2467,"Ġ://..":2468,"ä¸":2469,"Ġà¦°à¦¨":2470,"Ġà¦ĩà¦¦":2471,"Ġà¦ıà¦ķà¦°":2472,"à¦¬à¦¸à¦®":2473,"]).'":2474,"Ġà²":2475,"Ġà¦¡à¦Łà¦ķà¦®":2476,"),.(":2477,"à¦ĩà¦īà¦ª":2478,"___:(":2479,"à¦¡à¦°":2480,"à¦®à¦¨à¦Ĺà¦°":2481,"à§ªà§¯":2482,"Ġà¦ĩà¦¨à¦ķ":2483,"Ġà¦ıà¦ķà¦¦à¦®":2484,"à¦¤à¦°à¦¬à¦Ļ":2485,"à¦¨à¦¸à¦Ń":2486,"Ġ&&":2487,"Ġà¦¬à¦¶":2488,"Ġà¦²à¦¤":2489,"Ġà¦ħà¦ªà¦®":2490,"à¦°à¦¹à¦£à¦ķ":2491,"à²¨":2492,"à¦Ĩà¦Ĺà¦¸":2493,"îł":2494,"Ġà¦īà¦·":2495,"Ġà¦Ĩà¦Ĺà¦®à¦¨":2496,"ĠØ§ÙĦØ¹Ø±Ø¨ÙĬØ©":2497,"Ġà¦¬à¦¸à¦¨":2498,"à¦£à¦°":2499,"Ġà¦¶à¦¤à¦ķ":2500,"Ð¸":2501,"à¦¿à¥¤":2502,"à¦¡à¦Ł":2503,"à¦ļà¦¶":2504,"à§ªà§¨":2505,"à¦Ŀà¦²":2506,"Ġàª":2507,"Ġà¦ªà¦¤à¦¨":2508,"à§Ģ!":2509,"ĠØ´":2510,"à¦Ĺà¦¤à¦Ń":2511,"Ġà¦Ĩà¦ªà¦²":2512,"à¦ĩà¦®à¦¸":2513,"Ġà¦ľà¦¸":2514,"Ġà¦ĵà¦²":2515,"à¦ħà¦¬à¦¸":2516,"à¤¹":2517,"Ġà¤µ":2518,"à¦°à¦ªà¦°à¦ĵ":2519,"à¦ķà¦«":2520,"Ġà¦¹à¦ĩà¦¬":2521,"Ø§Ùħ":2522,"à§¨à§¦à§§à§®":2523,"),=.(":2524,".,":2525,"à¦¿;":2526,"à§ĭ!":2527,"Ġà§¨à§¦à§¦à§¦":2528,"à§«à§Ń":2529,".(/\\":2530,"à¦¥à¦¬à¦Ľà¦°":2531,"Ø¢":2532,"Ġà¦¸à¦¶à¦¸":2533,"Ġà¦¬à¦ŀ":2534,"à¦£à¦¦":2535,"à¦ħà¦ª":2536,"Ġà§«à§Ń":2537,"://..//":2538,"Ġà¦ħà¦ªà¦¬":2539,".-":2540,"Ĺı":2541,"Ġà¦ļà¦²à¦²":2542,"à¦¿\"":2543,"Ġà¦¨à¦¬à¦¨":2544,"à¦Ļà¦¨":2545,"Ġ};":2546,"Ġ{{":2547,"Ġà¦ıà¦¨à¦ľ":2548,"à¦¡à¦Ĺ":2549,"Ġà¦ĩà¦¸à¦®":2550,"à¦ŀà¦°":2551,"à¦¦à¦¨à¦Ĺà¦°":2552,"Ġà¦ıà¦ĸà¦¨à¦ĩ":2553,"%%%%%%%%%%%%%%%%":2554,"à¦ľà¦Ń":2555,"à¦¹à¦ķà¦¦":2556,"Ġ.,":2557,"à¦²à¦ķà¦Ń":2558,"Ø¬ÙħØ©":2559,"à¹":2560,"à¦¼.":2561,"à¦ĵà¦¹":2562,"Ġ(@":2563,"à¦°à¦¬à¦£à¦¤":2564,"à¦¸à¦®à¦¸":2565,"Ġà§¨à§¦à§¦à§Ń":2566,"à¦²à¦ĩ":2567,"à¦²à¦ĸ":2568,"à¦Ńà¦°à¦¶":2569,"à¦ĵà¦ĩ":2570,"Ø§Ø¯":2571,"à¦ıà¦¸à¦ª":2572,"Ġà¦īà¦ªà¦ķà¦°à¦£":2573,"Ġà¦¨à¦¥":2574,"Ġà¦ĵà¦ĸ":2575,"Ġà¦¸à¦®à¦¬":2576,"à§©à§ª":2577,"Ġà¦ķà¦®à¦ªà¦ķ":2578,"Ġà§¬à§«":2579,"Ġà¦ıà¦¤à¦¦":2580,"à¦Īà¦¨":2581,"Ġà¦¬à¦ī":2582,"à¦¦à¦¨à¦ķ":2583,"Ġà¦¬à¦°à¦ĸ":2584,"Øº":2585,"Ġà¦ħà¦¬à¦²à¦®":2586,"Ġà§«à§¬":2587,")();":2588,"à¦®à¦ĵ":2589,"Ġà¦¨à¦°à¦®":2590,"à§Ĥà¦ģ":2591,"468":2592,"Ġà¦¸à¦«à¦Łà¦ĵà¦¯":2593,"Ġ(__":2594,"Ġà¦Ńà¦°à¦¸":2595,"Ġà¦¸à¦ķà¦²à¦ķ":2596,"ĠØ§ÙĦØªØ±Ø¬ÙħØ©":2597,"Ġ$":2598,"à¦®à¦ŀ":2599,"Ġà¦¬à¦¦à¦°":2600,"à¦£à¦¬à¦Ļ":2601,"à¦ªà¦¨à¦Ĺà¦°":2602,"Ġà§«à§«":2603,"ÙĬÙħ":2604,"ÙįØĮ":2605,"Ġà¦®à¦«":2606,"Ġà¦¤à¦¸à¦²":2607,"Ġà¦ıà¦ĩà¦¸à¦¬":2608,"à¦®à¦ĺà¦Ł":2609,"Ġà¦¶à¦°à¦£":2610,"Ġà¦ĩà¦Ł":2611,"à¦ıà¦¡":2612,"Ġà¦Łà¦ª":2613,"à¦īà¦ľà¦¬":2614,"Ġà§§à§«à§¦":2615,",){":2616,"?'":2617,"à¦¹à¦ķà¦°":2618,"Ġà¦¤à¦¦":2619,"Ġà¦¤à¦¹à¦¬":2620,"Ġà¦°à¦ŀ":2621,"à¦īà¦ĩà¦¨":2622,"Ġà¦¬à¦°à¦Ĺ":2623,"Ġà§«à§ª":2624,").(/":2625,"à¦¨à¦ľà¦Ł":2626,"à¦¤à¦¸":2627,"__');":2628,"à¦°à¦«à¦°à¦®":2629,"ĠâĨ":2630,"à¦ĩà¦īà¦°":2631,"Ġ});\"":2632,"à¤¿à¤Ĥ":2633,"Ġ+\"..(()":2634,"à¦¤à¦¶":2635,"à¦¹à¦ĩà¦¯":2636,"à¦ļà¦²à¦¤":2637,"Ġà¦¶à¦ª":2638,"à§Ńà§«":2639,"Ġ880":2640,"ÙĥØª":2641,"Ġà¦¨à¦Ĺ":2642,"à¦¬à¦ķà¦ķ":2643,"à¦ķà¦¸à¦ĩ":2644,"++":2645,"_);":2646,"Ġà°":2647,"Ġà¦¨à¦ķ":2648,"à¦īà¦ĩà¦ķ":2649,"à¦¬à¦°à¦¦":2650,"à¦ıà¦ĩà¦ļà¦ıà¦¸à¦¸":2651,"Ġà¦¡à¦Ł":2652,"à¦ĩà¦²à¦Ł":2653,"Ġ01":2654,"à¦ıà¦ķà¦ľà¦¨":2655,"Ġà§¨à§§à§®":2656,"Ġà¦¸à§İ":2657,"Ġà¦Ĩà¦ĩà¦Ń":2658,"à¦¥à¦¸":2659,"Ġ02":2660,"Ġ..;":2661,"Ġà¦ıà¦¡à¦ľ":2662,"\".\").(":2663,"Ġ),":2664,"Ġà¦¤à¦¨":2665,"Ġà¦ľà¦ĸà¦®":2666,"à¦Ńà¦¬à¦¨":2667,"Ġ.-":2668,"à¦ħà¦«":2669,"Ġ=>":2670,"\"\");":2671,"Ġ88":2672,"Ġgi":2673,"à¦Ĺà¦ªà¦¤":2674,"à¦¹à¦¦":2675,"Ġà¦¡à¦¬":2676,"Ġà¦ĭà¦¤":2677,"ĠÂ®":2678,"Ġà¦¸à¦ļà¦²":2679,"Ġà¦¨à¦ĩ":2680,"Ġà¦ļà¦¯":2681,"Ġà¦ĵà¦¡":2682,"à¦°à¦¨à¦Ĺà¦°":2683,"Ġà¦«à¦¨":2684,"Ġà§¨à§¦à§¦à§§":2685,"277":2686,"à¦Ŀà¦¬":2687,"Ġà¦·à¦·":2688,"----------------":2689,"Ġà¦°à¦¤":2690,"à¥ģ":2691,"Ġà§§à§¨à§¦":2692,"Ġà§¬à§®":2693,"Ġà§§à§Ńà§¨":2694,"à¦ªà¦ľ":2695,"à¦ªà¦¶à¦¨":2696,"à¦Ĥ-":2697,"à¦°à¦¹à¦°":2698,"à³į":2699,"Ġà¦ıà¦ķà¦¥":2700,"à¦ĩà¦¨à¦¸":2701,"Ġ==":2702,"Ġà§¨à§¦à§¦à§¨":2703,"Ġà§¨à§¦à§¦à§«":2704,"\"),":2705,"]]":2706,"à¦¥à¦ķà¦¦":2707,"à§«à§¨":2708,"Ġà§«à§§":2709,"à®®":2710,"à¦¤à¦°à¦ķ":2711,"à¦Ĺà¦²à¦ķ":2712,"à¦¹à§İ":2713,"Ġà¦Ĺà¦¦":2714,"Ġà¦Ĺà¦Ńà¦°":2715,"ĠØ«":2716,"à¦¨à¦¤à¦®":2717,"://../":2718,".$":2719,"});":2720,"à¦¬à¦°à¦¤":2721,"à¦ĩà¦ĸ":2722,"à¦§à¦Ł":2723,"à¦ĸà¦£":2724,"à¦°à¦¹à¦£à¦¯":2725,"ĠâĿ":2726,"Ġa":2727,"à¦¯à¦ĸà¦¨":2728,"Ġà¦®à¦®":2729,"Ġà¦°à¦®à¦ľ":2730,"à¦¯à¦¬à¦¦":2731,"Ġà¦¸à¦°à¦²":2732,"à¦°à¦ļà¦°":2733,"Ġ_()":2734,"Ġà¦Ĩà¦ĩà¦ıà¦¸":2735,"à¦ĵà¦«":2736,"à¦Ĩà¦°à¦¬":2737,"à¦°à¦¦à¦¤":2738,"à§¨à§¦à§§à§Ń":2739,"Ġ[[":2740,"ĠâĨĴ":2741,"à¦Ĺà¦¬à¦°":2742,"Ġ03":2743,"Ġà¦Īà¦¸":2744,"Ġà¦ħà¦¬à¦¨à¦¤":2745,"à¦¦à¦ªà¦¤":2746,"Ġ('#":2747,"à¦ĥ-":2748,"Ġ'/'":2749,"Ġ:-":2750,"2019":2751,"Ġâĩ":2752,"$/,":2753,"à¦ľà¦Ļ":2754,"à¦īà§İà¦ª":2755,"à¦¬à¦¨à¦ķ":2756,"Ġà§«à§©":2757,"--');":2758,"à¦ıà¦¸à¦ĩ":2759,"Ġà§¦à§§à§¯":2760,"Ġ__.(":2761,"à¦¼...":2762,"à¦¦à¦°à¦ķ":2763,"à§ªà§ª":2764,"à§«à§©":2765,"Ġà¦¬à¦°à¦«":2766,"Ġ})();":2767,"Ġà¦ĺà¦Łà¦¤":2768,"Ġ.(/\\":2769,"Ġ$(\".":2770,"Ġ!=":2771,"ÙĥØªØ§Ø¨":2772,"(?!":2773,"\\''":2774,"\\(\\'":2775,"\\:)":2776,"^\\+":2777,"âĢ¢":2778,"Ġà¦Ĩà¦ĩà¦ľ":2779,"à¦¼à¦¾)":2780,"Ġà¦ľà¦ľ":2781,"Ġ(\\''":2782,"Ġà¦īà¦¹":2783,"à¥¤\\+":2784,"Ġà¦Ĩà¦ĩà¦¨à¦Ĺà¦¤":2785,"Ġà§Ńà§§":2786,"Ġ_[]":2787,"Ġ'').(/":2788,"(\\'/,":2789,".(/\\\\(\\'":2790,"Ġ(__.)":2791,"Ġ('#--');":2792,"$/,'');":2793,"Ġ__.(_);":2794,"Ġ.(/\\(\\'/,":2795,"(?!\\:)":2796,"^\\+à¥¤\\+":2797,"Ġ_[].(/\\\\(\\'":2798,"Ġ'').(/^\\+à¥¤\\+":2799,"(?!\\:)/,":2800,"Ġ_[].(/\\\\(\\'(?!\\:)/,":2801,"Ġ'').(/^\\+à¥¤\\+$/,'');":2802,"Ġà¦ķà¦Ń":2803,"à¦§à¦°à¦¨":2804,"Ġà¦ıà¦¸à¦Ĩà¦ĩ":2805,"ĠâĩĦ":2806,"à¦²à¦ĵ":2807,"Ġà¦Łà¦²":2808,"à§«à§¯":2809,"à¦®à¦¤à¦ª":2810,"à¦¶à¦ķà¦¦":2811,"Ġà§®à§®":2812,"Ġ$('.__":2813,"Ġà¦ªà¦²à¦ķ":2814,"Ġà¦®à¦°à¦¹":2815,"\").();":2816,"à¦²à¦Łà¦¨":2817,"Ġà¦ķà¦Ļ":2818,"à¦¦à¦īà¦²":2819,"Ġ_:":2820,"à¦°à¦ŀ":2821,"Ġà¦ķà¦¬à¦²":2822,"Ġà¦¬à¦ĩà¦®":2823,"à¦Ĺà¦ĩ":2824,"Ġà¦°à¦«à¦¤":2825,"Ġà¦Ńà¦Ĺà¦¬":2826,"à¤¤":2827,"à¦·à¦ķà¦ķ":2828,"Ġ09":2829,"Ġà¦Ĺà¦£à¦¤":2830,"Ġ://./":2831,"à¦ľà¦ķà¦°":2832,"Ġà¦¹à¦ĩà¦¯":2833,"Ġà¦§à¦¸":2834,"à¤ļ":2835,"à¦¹à¦¤à¦¦":2836,"Ġ.._":2837,"880":2838,"Ġà¦¦à¦°à¦¬":2839,"Ġà¦īà¦ĸ":2840,"Ġà¦ĩà¦īà¦ľ":2841,"Ġà¦Ĩà¦¸à¦®":2842,"Ġ45":2843,"-:":2844,".?=":2845,"à¦Łà¦ĸ":2846,"Ġà¦ĩà¦®à¦¨":2847,"Ġà¦Ľà¦¨":2848,"Ġà¦Łà¦ķ":2849,"à¦ľà¦¨à¦¶":2850,"Ġà§Ńà§¨":2851,"à®ķ":2852,"à§İà¦ªà¦°à¦¤":2853,"à§ĩà¦Ĥ":2854,"à¦ļà¦¸":2855,"Ġà¦īà¦ĩ":2856,"Ġà¦¸à¦®à¦¤":2857,"à¦Ĩà¦īà¦Ł":2858,"Ġà¦Ĩà¦ľà¦ĩ":2859,"Ġà§¬à§¯à§¯":2860,"Ġà§Ńà§Ń":2861,"Ġà§Ńà§¬":2862,"Ġ.()":2863,")}}":2864,"à¦°à¦Ļ":2865,"à¦Ĺà¦¤à¦®":2866,"Ġà¦ıà¦ķà¦¦à¦²":2867,"Ġà¦ķà¦®à¦°":2868,"Ġà¦ķà¦®à¦¬":2869,"à¦²à¦¨à¦ķ":2870,".,:":2871,"à¦Ľà¦Ł":2872,"à¦§à¦¸à¦®":2873,"Ġà¦ĸà¦£":2874,"Ġà§¬à§¬":2875,"Ġà¦ĺà¦Łà¦Ľ":2876,"Ġ.(()":2877,"Ġ});*/":2878,"ÑģÐº":2879,"Ġ.;":2880,"Ġà§Ńà§¯à§¬":2881,"Ġà§¯à§¦à§Ń":2882,"///":2883,"Ġà¦ıà¦¡à¦Ń":2884,"707":2885,"à¦¬à¦ķà¦¦":2886,"********":2887,"à¦Ĩà¦«à¦Ĺ":2888,"Ġà¦ħà¦®à¦°":2889,"à¦ĵà¦ļ":2890,"à¦Ļà¦²":2891,"à¦°à¦£à¦ķ":2892,"Ġ.\");":2893,"à¦¦à¦¨à¦¶":2894,"Ġà¦ħà¦¬à¦¤à¦°à¦£":2895,"Ġ/*.(":2896,"Ġà¦¹à¦ľà¦°à¦¤":2897,"à¦ķà¦ĵ":2898,"Ġà¦ľà¦Ĺ":2899,"à¦£à¦ª":2900,"Ġà¦Ńà¦Ĺ":2901,"Ġà¦ĵà¦¹":2902,"Ġà¦¸à¦®à¦Ŀ":2903,"Ġà¦Łà¦¸":2904,"à§«à§§":2905,"à¦ħà¦²":2906,"\"\",:":2907,"îłĥ":2908,"Â®":2909,"Ġà¦ľà¦Ĺà¦¦":2910,"Ġà¦²à¦°":2911,"Ġà¦Ĩà¦¸à¦ĵà¦¯":2912,"Ġà¦ķà¦®à¦¤":2913,"à¦²à¦¤à¦²":2914,"Ġà¦ĩà¦¨à¦ļ":2915,"Ġà§¯à§¬":2916,"Ġà¦īà¦°à¦ĵà¦¯":2917,"à¦°à¦¥à¦®à¦¤":2918,"à¦ĭ":2919,"à¦ľà¦ĵà¦¯":2920,"à¦£à¦¯":2921,"Ġà¦ĵà¦°à¦«":2922,"ĠØ§ÙĦØ³":2923,"Ġ06":2924,"____":2925,"à¦ĩà¦¸à¦Ļ":2926,"à¦²à¦ªà¦®":2927,".());":2928,")]":2929,"à¦°à¦ĺ":2930,"à¦¦à¦Ĺà¦ŀ":2931,"à¦ľà¦¨à¦ķà¦¨":2932,"à±Ĩ":2933,"?\"\":":2934,"à¦®à¦Ń":2935,"Ġà¦ªà¦ª":2936,"à¦ĩà¦īà¦Ł":2937,"à¦§à¦¦":2938,"Ġà¦ĩà¦¸à¦¹":2939,"à¦¸à¦ĵ":2940,"à¦¶à¦¸à¦¹":2941,"Ġà¦°à¦ļ":2942,"ĠØ®":2943,"à¦¯à¦Łà¦ķà¦¦":2944,"Ġe":2945,"à¦¶à¦ľ":2946,"Ġà¦Ĺà¦®":2947,"à§§à§¨à§§":2948,"Ġ.--":2949,"à¦·à¦ķà¦¤":2950,"Ġà§Ńà§ª":2951,"Ġà¦ĺà¦Łà¦²":2952,"Ġà§©à§©à§®à§¦":2953,"ĠÌ":2954,"à¦¸à¦¯":2955,"Ġ(.":2956,"à¦īà§İà¦¸à¦¬":2957,"Ġà¦Ĩà¦¨à¦²":2958,"21707":2959,",,,,":2960,"2222277":2961,"222221707":2962,"222227780":2963,"à¦Ĺà¦«":2964,"à¦īà¦ıà¦ĩà¦ļ":2965,"à¦Ĩà¦§":2966,"Ġà§¬à§§":2967,"Ġ05":2968,"Ġ'')":2969,"à¦°à¦ļà¦¨":2970,"à¦£à¦«":2971,"Ġà¦ħà¦¬à¦¤":2972,"Ġà¦Ĩà¦ķà¦¸":2973,"à¦ªà¦Łà¦ª":2974,"Ġà¦¨à¦ľà¦°à¦¦":2975,"500":2976,"à¦Ľà¦ª":2977,"Ġà¦ªà¦°à¦¦":2978,"à¦¬à¦°à¦Ĺà¦ŀ":2979,"à§Ńà§¬":2980,"Ġà¦¬à¦®":2981,"Ġà¦Ĩà¦ĩà¦²":2982,"à¦Ĩà¦ĩà¦ľ":2983,"Ġ:#":2984,"à¦ıà¦¸à¦ľ":2985,"Ġà¦Ŀà¦Ĺà¦¡":2986,"Ġà¦¬à¦ķà¦°":2987,"Ġ120":2988,"à§Ńà§©":2989,"Ð¾":2990,"Ġà§³":2991,"à¦īà¦«":2992,"Ġà¦Ĩà¦°à¦®":2993,"Ġà¦Ĩà¦²à¦¬":2994,"Ġà¦Ĺà¦£à¦¨":2995,"Ġà¦ıà¦®à¦¡":2996,"100":2997,"à¦¿),":2998,"à¦¼à¦¾Â®":2999,"Ġà¦īà¦Ĺ":3000,"Ġà¦Łà¦®":3001,"à¦Ĩà¦¸à¦²":3002,"ÙİÙ°":3003,"Ġà¦ķà¦¨à¦Ń":3004,"Ġ(@)":3005,"à¦¼à¦¾Â®,":3006,"Ġà¦¸à¦¸":3007,"à¦¶à¦¹":3008,"Ġà¦īà¦®à¦°":3009,"à¦¬à¦²à¦¤":3010,"Ġà¦¶à¦¤à¦Ń":3011,"Ġà¤ª":3012,"Ġà§¯à§®à§¨à§ªà§¦à§¬":3013,"à¦¤à¦ĸà¦¨":3014,"Ġà¦ªà¦°à¦¸":3015,"à§¯à§®":3016,"à¦īà¦ľà¦Ł":3017,"3540":3018,"Ġà§¦à§Ńà§¨à§§":3019,"(.":3020,"à¦®à¦ĩà¦¨":3021,"Ġà¦°à¦¹à¦®à¦¤":3022,"à®´":3023,"Ġà¦²à¦Ĺà¦ĩà¦¨":3024,"à¦·à¦¬":3025,"à¦ĸà¦ª":3026,".....":3027,"à¦Ŀà¦ĸ":3028,"Ġà§Ńà§©":3029,"Ġ{'":3030,"à¦ıà¦®à¦ĩ":3031,"Ġ+'..(()":3032,"'.___:(":3033,"573540":3034,"67573540":3035,"Ġ+\".('":3036,"Ġ+'.();":3037,"});'":3038,".());\"":3039,"Ġ+\".('/":3040,"Ġà¦Ĩà¦ĩà¦ķ":3041,"Ġà¦°à¦ĵ":3042,"Ġà¦ıà¦ķà¦¶":3043,"à¦īà¦ĸ":3044,"Ġà¦Ĩà¦ķà¦¬à¦°":3045,"Ġà¦Ĺà¦£à¦¸":3046,"à¦īà¦ıà¦ĩà¦ļà¦ĵ":3047,"-\").(":3048,"Ġà´":3049,"Ġà¦¸à¦¯":3050,"à¦Łà¦ĵ":3051,"Ġà¦¤à¦«à¦¸":3052,"Ġà¦ľà¦Ĺà¦¨":3053,"à¦ļà¦°à¦£":3054,"à¦Ĺà¦¤à¦ķ":3055,"à¦ıà¦¸à¦ıà¦«":3056,"Ġ04":3057,"Ġ08":3058,"Ġà¦ĩà¦īà¦ķ":3059,"à¦¬à¦¹à¦£":3060,"Ġ<>":3061,"ÑģÐºÐ¸":3062,"à§Ńà§®":3063,"à¦ıà¦¸à¦Ĩà¦ĩ":3064,").((){":3065,"à¦ıà¦¨à¦¸":3066,"Ġ[]":3067,"à¦®à¦¸à¦®à¦°":3068,"à¦¥à¦¦":3069,"Ġà§ªà§¦à§¦":3070,"Ġà¦ıà¦®à¦¨à¦ĩ":3071,"Ġà¦īà§İà¦ªà¦¤":3072,"ĠÂ·":3073,"Ú©":3074,"Ġà¦ķà¦¸":3075,"Ġà¦°à¦ĵà¦¨":3076,"à¦°à¦¬à¦£":3077,"Ġ2022":3078,"à¦ķà¦Łà¦ķ":3079,"à¦®à¦ķà¦°à¦£":3080,"Ġ$(\"#":3081,"àª°":3082,"().(":3083,"¤à®®":3084,"à¦¬à¦¦à¦¨":3085,"à¦Ńà¦¸":3086,"Ġà¦¸à¦®à¦®":3087,"à¦łà¦ķà¦¦":3088,"à¦¼à¦¿à¦Ĥ":3089,"Ġ';":3090,"Ġà¦Ĩà¦¬à¦¶":3091,"à§Ńà§¨":3092,"Ġ07":3093,"Ġou":3094,"à¦ķà¦¡à¦ĩà¦¨":3095,"300":3096,"à¦ļà¦ľà¦¨":3097,"à§§à§¨à§¦":3098,"Ġà¦¸à¦¹à¦ķà¦°":3099,"à¦¯à¦®à¦¯":3100,"Ġà§¨à§¦à§¦à§©":3101,"Ġà¦ķà¦ĸà¦¨à¦ĩ":3102,"Ġà¦¯à¦¤à¦ĩ":3103,"Ø§ÙĦØª":3104,"!=":3105,"'\":":3106,"à¦¤à¦ĵ":3107,"Ġà¦¦à¦¸":3108,"Ġà¦ĩà¦¬à¦°":3109,"à§¯à§¦":3110,"Ġà§¨à§¦à§¦à§ª":3111,"à¦ķà¦¸à¦¹":3112,"à¦¸à¦ıà¦ķ":3113,"à¦ªà¦ķà¦²":3114,"Ġà¦ıà¦®à¦¬":3115,"à¦·à¦ĩ":3116,"à¦«à¦ĵà¦¯":3117,"à¦ıà¦¸à¦®à¦¯":3118,"Ġà¦¦à¦²à¦Ĺ":3119,"Ġà¦Ĺà¦£à¦ª":3120,"à¦ķà¦¸à¦Ń":3121,"à¦ıà¦ķà¦ĩ":3122,"à°²":3123,"ĠðŁĺ":3124,"<#":3125,"Ø¸":3126,"à¦£à¦ľà¦¯":3127,"à¦Ĩà¦ĩà¦Ł":3128,"ÙİØĮ":3129,"Ġà¦ĺà¦¡":3130,"à§¯à§ª":3131,"Ġà¦®à¦¨à¦ľ":3132,"ĠØ²":3133,"Ġ.\"":3134,"à¦¾',":3135,"Â°":3136,"à¦¯à¦ľà¦¨à¦ķ":3137,"à¦ķà¦¹":3138,"Ġà¦Ĺà¦¯":3139,"Ġà¦ªà¦°à¦¤":3140,"ĠÙĢ":3141,"Ġà§¨à§¦à§¦à§¬":3142,"Ġ130":3143,"Ġ$().('":3144,".+":3145,"Ġà¦®à¦ĩà¦¨":3146,"à¦¶à¦¹à¦°":3147,"Ġà¦īà¦ªà¦®à¦¹":3148,"Ġà¦ħà¦¬à¦§":3149,"Ġà¦Ĩà¦ľà¦¹":3150,"à¦ķà¦Łà¦²":3151,"Ġà¦¨à¦¬à¦ľ":3152,"à¦¸à¦Ńà¦¬à¦¨":3153,"Ġà¦ıà¦ĩà¦ļà¦¡":3154,"Ġà¦¾":3155,"à¦ķà¦®à¦¤":3156,"à¦§à¦¹à¦¯":3157,"à¦ŀà¦¦":3158,"Ġà¦īà§İà¦¸à¦°":3159,"à¦¬à¦ĩà¦¯":3160,"Ġà¦¹à¦ľà¦®":3161,"Ġà¦¦à¦¶à¦Ł":3162,"Ġà¦ķà¦°à¦¦":3163,"Ġà¦²à¦Ł":3164,"à¦ĺà¦®":3165,"à¦ħà¦¶":3166,"Ġ>>":3167,"à¦ľà¦īà¦¦":3168,"à¦·à¦Ĺ":3169,"à¦¼à¦¾à¦ĥ":3170,"à¦Ńà¦®":3171,"à¦°à¦®à¦§":3172,"Ġà¦Ĩà¦¨à¦¬":3173,".(,":3174,"Ġà¦Ĺà¦£à¦¹à¦¤":3175,"à¦²à¦Ĺà¦¸":3176,"Ġà¦¨à¦¬à¦®":3177,"àª¾":3178,"à¦¨à¦·":3179,"Ġà¦®à¦Īà¦¨":3180,"à¦§à¦ķà¦¤":3181,"Ġà¦Łà¦Ļ":3182,"..$":3183,"à§¯à§«":3184,"à¦¿à¦Ĥ-":3185,"Ġà¦ıà¦¸à¦ª":3186,"Ġà¦ĩà¦¨à¦¡":3187,"ĠØ§ÙĦÙħ":3188,"Ġ017":3189,"-%":3190,"Ġà¦¨à¦²à¦¡":3191,"à¦ĸà¦Ł":3192,"Ġà¦ıà¦ķà¦ĩà¦Ń":3193,"à¦ħà¦®":3194,"à¦ĩà¦Łà¦Ł":3195,"Ġà¦ıà¦¸à¦ıà¦®à¦ıà¦¸":3196,"Ġà¦¤à§İà¦ªà¦°à¦¤":3197,"Ġà¦¸à¦®à¦¤à¦²":3198,"à¦¼à¦¿-":3199,"Ġà§¬à§Ń":3200,"\"\"+":3201,"\",\"'\":":3202,"<=":3203,"à¦¶à¦ĵ":3204,"Ġà¦¦à¦Ĺ":3205,"Ġ2009":3206,"ĠØ§ÙĦØµ":3207,"à¦Īà¦²":3208,"à¦¥à¦Ń":3209,"Ġà¦¶à¦¸":3210,"Ġà¦¶à¦Ł":3211,"Ġà¦²à¦ĺ":3212,"Ġà¦ıà¦ķà¦®à¦¤":3213,"à¦ĩà¦¨à¦Ł":3214,"à¦ĩà¦²à¦¸":3215,"Ġà¦¸à¦¬à¦Ĺ":3216,"à¦¹à¦¨à¦ª":3217,"ĠØ¹ÙĨ":3218,"ĠâĹı":3219,"120":3220,">=":3221,"},":3222,"à§ģ.":3223,"Ġà¦¬à¦¬":3224,"à¦ļà¦£":3225,"à¦ĵà¦ķ":3226,"à¦łà¦ª":3227,"ÙĲØĮ":3228,"à¦¯à¦®à¦ķ":3229,"à¦ĩà¦ķà¦®":3230,"à§¨à§¦à§§à§¬":3231,"Ġà¦¤à¦ĸà¦¨à¦ĵ":3232,"à´¯":3233,"Ø®Ø±":3234,"Ø¡":3235,"à¦¯à¦ĸ":3236,"à¦ĩà¦ĺ":3237,"Ġà¦ħà¦£":3238,"Ġà¦ļà¦²à¦¨":3239,"Ġà¦ĸà¦°":3240,"ĠØ¯":3241,"Ġà¦ħà¦¬à¦Ĺà¦¤":3242,"Ġig":3243,"Ð½":3244,"à¦ĵà¦Ĺ":3245,"Ġà¦ĸà¦¨à¦¨":3246,"Ġà¦Ĩà¦²à¦¤":3247,"ĠØ§Ø¨":3248,"),=":3249,"Ġà¦ľà¦¨à¦Ĺà¦£à¦ķ":3250,"à¦¨à¦«":3251,"Ġà¦¸à¦°à¦¦":3252,"à¦ıà¦Ń":3253,"à§İà¦¸à¦°":3254,"à§¨à§¦à§¨à§¨":3255,"à§İà¦¸à¦ķà¦°":3256,"Ġà¦ıà¦ķà¦ľà¦¨à¦ķ":3257,"Ġco":3258,",:,:":3259,"à¦®à¦¶à¦¤à¦¬":3260,"à¦¦à¦¹":3261,"Ġà¦ĸà¦¡":3262,"à¦®à¦¨à¦ĩ":3263,"à¦¤à¦°à¦¨":3264,"Ġà¦¸à¦¹à¦¸":3265,"Ġà§¬à§¨":3266,"à°Ĺ":3267,"Ġ$('.-":3268,"áŀ":3269,"à¦¸à¦¬à¦¨":3270,"Ġà¦®à¦ĵà¦²":3271,"à¦¥à¦ķà¦°":3272,"Ġà¦¯à¦¤à¦ķ":3273,"à§Į-":3274,"Ġ.@.":3275,"à¦¦à¦ķà¦¦":3276,"à¤ł":3277,"Ġà¦ĩà¦¨à¦ľ":3278,"Ġà¦Ĩà¦¦à¦®":3279,"Ûģ":3280,"à¦¯à¦¸à¦®":3281,"Ġà¦¬à¦£":3282,"Ġà¦¬à¦°à¦£":3283,"Ġà¦®à¦¦à¦¨":3284,"Ġà¦¹à¦°à¦®":3285,"Ġà¦ħà¦¸à¦¨":3286,"Ġà¦ħà¦®à¦¸":3287,"à¦ĵà¦Ń":3288,"Ġ122":3289,"à§®à§¬":3290,"à¦¤à¦¬à¦¯":3291,"Ġà¦ħà¦ªà¦ª":3292,"àª¤":3293,"à¦°à¦°à¦®":3294,"Ġà¦®à¦¸à¦²":3295,"à¦īà¦¶":3296,"Ġà§§à§¦à§¦à§¦":3297,"Ġ='":3298,").('.___:(":3299,"Ġà¦¶à¦¤à¦¬à¦°":3300,"Ġ$(__":3301,"à¦²à¦ªà¦¥":3302,"ĠÙģÙĬ":3303,"à«ģ":3304,"Ġ+'.();});'":3305,"=\"\"":3306,"ÙĢ":3307,"à¦Ĭ":3308,"à¦Ĺà¦ĵ":3309,"à¦īà¦¨à¦¸":3310,"Ġà¦ħà¦¤à¦ıà¦¬":3311,"à¦°à¦®à¦£à¦ķ":3312,"Ġà§¨à§§à§¨":3313,"à¦ľà¦ªà¦¥":3314,"................................":3315,"Ġà¦°à¦ĵà¦¶à¦¨":3316,"!==":3317,",'":3318,"\\/":3319,"à¦¯à¦²":3320,"à¦ļà¦¤à¦°":3321,"Ġà¦ľà¦¨à¦¸à¦®":3322,"Ġà¦Łà¦¯":3323,"Ġà¦®à¦¤à¦ĩ":3324,"Ġà§¯à§«":3325,"à´Ĥ":3326,"à¦°à¦°à¦«":3327,"à¦²à¦¤à¦ª":3328,"Ġà¦ªà¦°à¦ªà¦°à¦ĩ":3329,"\"===":3330,"ľàª°":3331,"à¦¨à¦ļà¦°":3332,"à¦«à¦«":3333,"Ġà¦ľà¦¨à¦ªà¦¦":3334,"à¦¶à¦¨à¦ķ":3335,"à§¬à§¬":3336,"à¦ļà¦¨à¦ķ":3337,"à¦Ĺà¦°à¦ª":3338,"Ġà§¯à§¯":3339,"Ġà¦ıà¦¨à¦¸":3340,"Ġà¦¨à¦¬à¦¬à¦°":3341,"àªľàª°":3342,"9999":3343,"à´¾":3344,"áĥ":3345,"à¦¯à¦ķà¦²":3346,"à¦°à¦®à¦ª":3347,"à§«à§¦à§¦":3348,"Ġà¦Ĩà¦Ĺà¦·":3349,"à¦Īà¦¶":3350,";}":3351,"Ġà¦ķà¦ĩ":3352,"à¦Łà¦¹":3353,"à¦Łà¦¸à¦¹":3354,"à¦¼à§ĩ-":3355,"Ø§Ùĩ":3356,"à¦¸à¦¹à¦ķ":3357,"ÙĪØ±":3358,"=().(":3359,"à©Ģ":3360,"?:":3361,"áĢ":3362,"à¦¾à§į":3363,"Ġà¦®à¦ł":3364,"à¦Ĺà¦°à¦£":3365,"Ġ../":3366,"ĠØ§ÙĦØªØ±Ø§":3367,";(":3368,"{{":3369,"Ð»":3370,"à¦²à¦§à¦¨":3371,"à¦·à¦ĵ":3372,"Ġà¦¤à¦¤à¦ķ":3373,"Ġà¦ĩà¦¶":3374,"à¦łà¦¤":3375,"à¦ıà¦¶":3376,"à¦ĺà¦ķ":3377,"à¦¸à¦¬à¦ľ":3378,".(\"":3379,"à¦²à¦¬à¦ķ":3380,"Ġ}}":3381,"à¥ĩà¤Ĥ":3382,"à¦ķà¦ľà¦¨à¦ķ":3383,"Ġà¦ķà¦¦":3384,"Ġà¦¸à¦ĸ":3385,"Ġà¦¤à¦°à¦²":3386,"à¦§à¦¸":3387,"Ġà¦¶à¦®":3388,"à¦īà¦ªà¦°":3389,"Ġà¦«à¦°à¦¹":3390,"à¦¦à¦ķà¦¬":3391,"Ġà¦¢à¦²":3392,"à¦ıà¦¸à¦¡":3393,"à§¨à§¦à§§à§«":3394,"Ġà§Ńà§¯":3395,"Ġà§®à§©":3396,"à¦ĩà¦īà¦¤":3397,"ÙģØ§Ø³":3398,"à´²":3399,"ĠØ§ÙĦØ£Ø®Ø±":3400,"à¦Ĳà¦¤":3401,"ĠØ§ÙĦØªØ±Ø§Ø¬Ùħ":3402,"ÙģØ§Ø³ÙĬØ±":3403,"ĠØ§ÙĦØ£Ø®Ø±Ùī":3404,"600":3405,"âĺ":3406,"à¦¬à¦ĵ":3407,"à¦¶à¦Ļ":3408,"Ġà¦¤à¦²à¦¬":3409,"à¦§à¦¶":3410,"à¥¤\":":3411,"Ġà¦ıà¦ķà¦¨":3412,"ĠØ°":3413,"à§Ńà§¦":3414,"à¦ĺà¦²":3415,"à¦ħà¦ľ":3416,"Ø§Ùģ":3417,"à¦ªà¦ķà¦¥":3418,"Ġà§Ńà§®":3419,"0000":3420,"à¦®à¦¸à¦ľ":3421,"118":3422,"\",\"à¥¤\":":3423,"Ġà¦ľà¦Ĺà§İ":3424,"(,){":3425,"Ġà¦Ĩà¦īà¦¯":3426,"à¦Ĩà¦ĩà¦¯":3427,"Ġà¦Ĩà¦¨à¦¹":3428,"Ġà¦ĩà¦¨à¦Ń":3429,"à¦®à¦¦à¦ª":3430,"$(\"#":3431,"à¦Łà¦¬à¦²à¦ķ":3432,"à´³":3433,"Ġà®¤à®®":3434,"®à´²":3435,"Ñĥ":3436,"Ġ],":3437,"à¦¹à¦Ń":3438,"à§ĥà§ĥ":3439,"à¦Ĩà¦ĩà¦¬":3440,"Ġà§¬à§©":3441,"$().(":3442,"à¦¬à¦ĩà¦ªà¦¤":3443,"à¦¥à¦²à¦¬à¦¨":3444,"Ġ$('._":3445,"à¨¾":3446,"Ø¹Ø±Ø¶":3447,"à©°":3448,"Ø§ÙĦØªÙģØ§Ø³ÙĬØ±":3449,"®à´²à´¯":3450,"'://..//":3451,"Ġà¦Ĩà¦Łà¦Ł":3452,"à¦Ĩà¦¬à¦°":3453,"à¦®à¦¨à¦Ł":3454,"Ġà¦Ĩà¦°à¦¶":3455,"Ġà¦ıà¦ĩà¦Ń":3456,"à¦²à¦ķà¦ķ":3457,"Ġà¦®à¦¤à¦²à¦¬":3458,"ĠØ§ÙĦØ±":3459,"Ġà§®à§ª":3460,"Ġ47":3461,"à¨¬":3462,".[":3463,".[]":3464,".&&(":3465,"Ġ%":3466,"à§į-":3467,"à¦ķà¦ł":3468,"à¦ķà¦®à¦²":3469,"Ġà¦¤à§İà¦ªà¦°":3470,"Ġà¦°à¦¤à¦¨":3471,"Ġà¦ªà¦°à¦¶":3472,"à¦ĥ:":3473,"ĠØº":3474,"à¦°à¦¸à¦®":3475,"à¦·à¦ķà¦¥":3476,"Ġà§¦à§§à§ª":3477,"à¨ª":3478,"à¨ľ":3479,"à§¦à§§à§§à§®":3480,"ĠðŁĻ":3481,"ĠÌĩ":3482,"Ġà§¦à§§à§ªà§¦à§§à§§à§®":3483,")à¥¤":3484,"à¦¨à¦°à¦¸":3485,"à¦®à¦ªà¦°":3486,"à§ģ!":3487,"Ġà¦°à¦£":3488,"Ġà¦ĩà¦ķà¦°":3489,"à¦ıà¦¨à¦ı":3490,"Ġà§®à§¦à§¦":3491,"Ġà¦ĩà¦īà¦ıà¦¸":3492,"à¦Ĺà¦ľà¦ªà¦¤":3493,"Ø§Ø¦":3494,"'://..//.?=":3495,"Ðµ":3496,"à¦¾îłĥ":3497,"à¦°à¦īà¦ĩà¦¨":3498,"à¦¨à¦Ĩà¦ľ":3499,"à¦¤à¦Ľ":3500,"à¦®à¦¸à¦¹":3501,"à§ĭ...":3502,"Ġà¦¨à¦ĸ":3503,"Ġà¦ıà¦°à¦®à¦§":3504,"Ġà¦¦à¦ĩ":3505,"à¦Ľà¦¯":3506,"Ġà¦®à¦¹à¦¡":3507,"Ġà¦ĸà¦¬à¦°à¦Ł":3508,"Ġà§¯à§Ń":3509,"Ġà§¦à§§à§®":3510,"à¦¯à¦¥à¦Ń":3511,"à¦ľà¦ķà¦¥":3512,"à²¡":3513,"Ġ(!)":3514,"Ġà¦īà§İà¦ķà¦£":3515,"Ġïħ":3516,"à¦¦à¦°à¦ķà¦¥":3517,"âĢ":3518,"à¦ĩà¦¨à¦ķ":3519,"à¦ħà¦¸à¦®":3520,"à¦¸à¦¨à¦ķ":3521,"à¦ıà¦®à¦¡":3522,"Ġà§¨à§«à§¦":3523,".//":3524,"à¦ľà¦ĵ":3525,"à¦¹à¦ª":3526,"à¦Ĥ,":3527,"à¦ļà¦ķà¦°":3528,"à¦ĸà¦ľà¦¨à¦ķ":3529,"Ġ(-":3530,"Ġà¦ıà¦ĩà¦¬":3531,"à¦¤à¦°à¦ª":3532,"Ġ1000":3533,"à§¬à§ª":3534,"à¦®à¦¤à¦²":3535,"à¦¬à¦ķà¦°":3536,"à¦ªà¦ķà¦Ń":3537,"......":3538,"à¦Ĩà¦ĩà¦ıà¦¸":3539,"à¦¹à¦Ł":3540,"Ġà¦¹à¦¨à¦¨":3541,"à¦§à¦¬à¦ª":3542,"Ġà¦ļà¦¶à¦®":3543,"à¦«à¦ķ":3544,"Ġà¦ıà¦ķà¦ª":3545,"à§§à§¦à§¦":3546,"Ġà¦ľà¦¨à¦¬à¦²":3547,"à§¯à§¨":3548,"Ġà¦Ĩà¦¨à¦Ľ":3549,"Ġà¦ĩà¦¨à¦¶":3550,"à§¨à§¦à§§à§§":3551,"\"\"==":3552,"ĠÙĪØ§ÙĦ":3553,"Ġà¦ħà¦²à¦°":3554,"Ġcs":3555,"à¦¯à¦°à¦ķà¦®":3556,"à¦°à¦¬à¦¤":3557,"Ġà¦ħà¦Ńà¦¯":3558,"Ġ365":3559,"Ġà¦Ĳà¦¶":3560,"Ġà§§à§ªà§ªà§©":3561,"Ġ$('#":3562,"Ø¦":3563,"Ġà¦Ļ":3564,"Ġà¦ķà¦ĩà¦°":3565,"à¦ĩà¦īà¦ľ":3566,"Ġà¦¨à¦¸":3567,"à¦Ĩà¦ļ":3568,"Ġà¦ıà¦ĩà¦¡":3569,"à¦°à¦¸à¦¬":3570,"à§¬à§®":3571,"Ġà§®à§¨":3572,"Ġà¦Ĩà¦«à¦¸":3573,"à¦¯à¦®à¦¤":3574,"à¦ķà¦²à¦¨":3575,"à¦¸à¦«à¦Ł":3576,"à¦Łà¦ļ":3577,"à¦Ńà¦°à¦¯":3578,"Ġ();":3579,"à¦°à¦¤à¦²":3580,"à¦¬à¦°à¦ĩ":3581,"ÙĬÙĦ":3582,"Ġà§Ńà§¦à§¦":3583,"':":3584,"ķà²¨":3585,"à¦Łà¦ĩ":3586,"Ġà¦®à¦¹à¦®":3587,"à¦ªà¦ķà¦¥à¦¨":3588,"Ġà§¯à§§":3589,"Ø¯ÙĪ":3590,"Ġ.().();":3591,"Ġà¦¯à¦¤à¦¦":3592,"à¦ıà¦ĩà¦ļà¦¡":3593,"à±į":3594,"à²¨à²¡":3595,"122":3596,"à§°":3597,"Ġà¦Ĩà¦«à¦°":3598,"à¦·à¦¦à¦°":3599,"à¦¥à¦¦à¦£":3600,"Ġà¦¶à¦ĸ":3601,"Ġà¦¶à¦ĵ":3602,"Ġà¦ĩà¦²à¦®":3603,"Ġà¦ľà¦¨à¦Ĺà¦¨":3604,"Ġà¦Ĩà¦¸à¦ķ":3605,"]],":3606,"à¦¨à¦ľà¦¨à¦ķ":3607,"à¦¯à¦ľà¦¨":3608,"à¦¤à¦¯":3609,"Ġà¦¬à¦§":3610,"à¦ľà¦¨à¦¤":3611,"Ġà¦īà¦ªà¦ļ":3612,"Ġà¦ķà¦®à¦Ľ":3613,"à¦¦à¦¨à¦ªà¦¤":3614,"Ġà¦Ĩà¦ķà¦¤":3615,"ÙĬØ¯":3616,"à¦¸à¦ķà¦·":3617,"Ġà¦Ĺà¦£à¦Ńà¦¬à¦¨":3618,"Ġà¦¶à¦ĵà¦ķà¦¤":3619,"Ġà¦¨à¦ĵà¦¯":3620,"à¦¸à¦¬à¦ļ":3621,"Ø§Ø¹":3622,"),()":3623,"'')":3624,"à¦Ĺà¦łà¦¨à¦Ł":3625,"à¦ħà¦¬à¦¸à¦°":3626,",\"":3627,"/>":3628,"à¦®à¦ļà¦¨":3629,"Ġà¦¸à¦ĵà¦¯":3630,"à¦Ĺà¦ļ":3631,"Ġà¦¦à¦¡":3632,"à¦īà¦¦à¦ķ":3633,"à¦°à¦¤à¦°":3634,"à¦ľà¦¨à¦Ĺà¦°":3635,"à¦ĩà¦¨à¦¸à¦¹":3636,"Ġ.__');":3637,").(.());\"":3638,"Ġà§®à§Ń":3639,"Ġ.().'":3640,"Ġci":3641,"ĠÙĦØ§":3642,",:!":3643,"à¦°à¦ľà¦¨à¦¨":3644,"=.(\"":3645,"\"-\"),":3646,"Ġ$(__).('.___:(":3647,",\"\"":3648,"à¦¯à¦Ļ":3649,"à¦¤à¦ªà¦ķ":3650,"à¦®à¦¹à¦²":3651,"à§Ģ...":3652,"Ġà¦ĩà¦¡":3653,"Ġà¦²à¦¸":3654,"à¦Ĩà¦¨à¦¨":3655,"..)":3656,"098":3657,"Ġà¦¤à¦°à¦Ļ":3658,"à¦¹à¦¯à¦°à¦¤":3659,"Ġà°¤":3660,".]":3661,"640":3662,"Ø¤":3663,"à¦ķà¦£":3664,"Ġà¦ķà¦¤à¦ķ":3665,"Ġà¦¸à¦°à¦¬":3666,"Ġ(_":3667,"à¦¬à¦°à¦¡":3668,"à¦ıà¦Ĺ":3669,"à¦ľà¦¨à¦¦":3670,"à¦ħà¦Ĺ":3671,"à¦ĩà¦Łà¦¸":3672,"Ġà¦Ĩà¦¯à¦¹":3673,"Ġ[+":3674,"à¦¹à¦°à¦£à¦¸":3675,")[":3676,"400":3677,"àµ":3678,"à¦®à¦ĺ":3679,"Ġà¦ıà¦°à¦¦":3680,"à¦°à¦¶à¦¸":3681,"Ġà¦ħà¦ªà¦°à¦¦":3682,"à¦ķà¦¸à¦¨":3683,"à¦¬à¦Ĺà¦¨":3684,"à¦Łà¦ľ":3685,"Ġà¦Ĩà¦ł":3686,"à¦§à¦Ĺ":3687,"à¦¬à¦¸à¦¨":3688,"à¦¸à¦®à¦°":3689,"Ġà¦¯à¦ĸà¦¨à¦ĩ":3690,"180":3691,"========":3692,"ä¸Ń":3693,"Ġà´®à´²à´¯":3694,"));":3695,"</>":3696,"àº":3697,"à¦¸à¦Ľ":3698,"Ġà¦¤à¦¡":3699,"à¦īà¦ªà¦¦":3700,"à¦°à¦®à¦ľ":3701,"à¦¶à¦¨à¦Ł":3702,"à§¨à§¦à§§à§©":3703,"Ġà¦¸à¦¤à¦¤":3704,"ĠÙħÙĨ":3705,"æĸ":3706,"à¦¯à¦¸à¦¹":3707,"à¦®à¦«":3708,"à¦®à¦¸à¦¨":3709,"à§Ģ]":3710,"à¦Ĺà¦Ń":3711,"Ġà¦¨à¦¬à¦¬":3712,"Ġà¦¨à¦Łà¦°":3713,"Ġà¦ıà¦ķà¦¯":3714,"Ġà¦ıà¦ķà¦ĩà¦¸à¦Ļ":3715,"à¦łà¦¶":3716,"Ġà¦¸à¦¬à¦¶":3717,"Ġà§©à§§à§©":3718,"Ġà¦ªà¦¦à¦ª":3719,"Ġà§®à§¬":3720,"Ġà¦ķà¦®à¦²à¦Ĺà¦ŀ":3721,"à§ĩ/":3722,"à¦¨à¦°à¦¤":3723,"à¦Ĺà¦łà¦ķ":3724,"Ġà¦ıà¦¹":3725,"à¦īà¦ªà¦ķ":3726,"à§§à§¦à§¦à§¦":3727,"ĠØ§ÙĦÙĤ":3728,"Ġà¦¶à¦¤à¦ķà¦°":3729,"Ġ***":3730,"âĨĲ":3731,"Ġ......":3732,"Ġà¦ķà¦¬à¦°à¦¸":3733,"à¦¨à¦ķà¦°":3734,"à¦¸à¦ľ":3735,"Ġà¦ķà¦°à¦¨":3736,"Ġà¦Ľà¦¤":3737,"à§ªà§¦à§¦":3738,"à¦²à¦ķà¦¦":3739,"à¦¤à¦¨à¦ķ":3740,"à¦®à¦¤à¦¸à¦¹":3741,"à¦Ŀà¦°":3742,"à¦ıà¦«à¦ª":3743,",,,":3744,",,){":3745,"\"\"===..":3746,"\"\")+":3747,".$.(":3748,"Ġà¦Ĩà¦ĩà¦ķà¦¨":3749,"/.":3750,"à¦¼\"":3751,"à§ģ)":3752,"à¦¸à¦ĩ":3753,"à¦¸à¦°à¦¤":3754,"à¦¸à¦¦à¦°":3755,"Ġà¦ıà¦®à¦¦":3756,"Ġà¦¦à¦¨":3757,"à¦łà¦¸":3758,"à¦ıà¦®à¦¬":3759,"à¦²à¦ķà¦¡":3760,"à¦ªà¦£à¦¨":3761,"Ġ$().('');":3762,"};":3763,"à¦¨à¦ĩà¦®":3764,"Ġà¦ªà¦Ļ":3765,"Ġà¦¤à¦ªà¦¨":3766,"Ġà¦ªà¦°à¦²":3767,"à¦ĩà¦ķà¦Ĺ":3768,"à¦ıà¦¸à¦ıà¦¸":3769,"Ġà§¦à§¦":3770,"Ġ500":3771,"\"\").(":3772,"Ġ123":3773,"à¦¬à¦ľà¦¨à¦¦":3774,"Ġà¤®à¤°":3775,"?((":3776,"à¦¨à¦¤à¦°":3777,"à¦¨à¦Ĺà¦ŀ":3778,"à¦¬à§İ":3779,"à¦®à¦®à¦¤":3780,"à¦ľà¦ĩ":3781,"à¦Ĺà¦ľà¦¨à¦ķ":3782,"à¦Ľà¦ķ":3783,"à¦¡à¦¶":3784,"Ġà¦ħà¦°à¦£":3785,"Ġà¦°à¦¦":3786,"Ġà¦Ńà¦¨":3787,"à§¦à§§à§Ń":3788,"à¦°à¦£à¦¬":3789,"à§®à§Ń":3790,"Ġà¦¸à¦¬à¦¥":3791,"Ġà¦¬à¦Ľà¦°à¦ĩ":3792,"Ġà§§à§¯à§¯à§¬":3793,"Ġà¤¬":3794,"Ġ!!!":3795,"à¦°à¦Ľà¦¡":3796,"à¯Ĩ":3797,"Ġà§§à§¯à§Ńà§«":3798,"Ġà¦£":3799,"à¦Ĺà¦°à¦®":3800,"Ġà¦¨à¦ĩà¦²":3801,"à¦¼à§ĩ...":3802,"à¦ĸà¦¦":3803,"Ġà¦Ĺà¦¤à¦¬":3804,"à¦°à¦¤à¦®":3805,"..\")":3806,"Ġà¦Ĩà¦°à¦ľ":3807,"à§ªà§«à§«":3808,"à¦²à¦¨à¦ķà¦°":3809,"àªĹ":3810,"à¦Ĩà¦Ĺà¦·":3811,"Ġà¦¤à¦¤à¦ĩ":3812,"Ġà²ķà²¨":3813,"Åĵ":3814,"à§³":3815,"à¦¤à¦¬à¦°":3816,"Ġà¦®à¦ľà¦®":3817,"à¦·à¦°à¦£":3818,"à¦¡à¦ĵà¦¯":3819,"Ġà¦ĩà¦ľà¦¤":3820,"à¦ĺà¦¸":3821,"à¦²à¦¨à¦Ĺà¦°":3822,"à¦ĩà¦Łà¦Ĺ":3823,"Ġà§¬à§¦à§¦":3824,"Ġà§®à§§à§®":3825,"Ġà§¯à§¬à§§":3826,"à¦¿',":3827,"$(\".":3828,"Ġà¦ľà¦²à¦ª":3829,"à¦¦à¦ĵ":3830,"à§Ģ/":3831,"Ġà¦ļà¦ķà¦°":3832,"Ġà¦Ńà¦²":3833,"Ġà¦ªà¦°à¦®à¦¤à¦¸à¦¹":3834,"à¦«à¦ľà¦²":3835,"Ġà¦Ĩà¦²à¦ķ":3836,"Ġà¦ıà¦²à¦ľ":3837,"Ġ(),":3838,"Ġà¦ĺà¦Łà¦¬":3839,"Ġà¦¨à¦°à¦ĵà¦¯":3840,"<<":3841,"à¦²à¦°à¦ķ":3842,"Ġà¦¸à¦ĩ":3843,"Ġà¦ªà¦ļ":3844,"Ġà¦®à¦ľà¦²":3845,"à¦¹à¦ł":3846,"Ġà¦īà¦§":3847,"Ġà¦ĩà¦ª":3848,"Ġà¦Ĩà¦²à¦«":3849,"à¦ħà¦¦":3850,"à¦ıà¦¸à¦ıà¦®":3851,"Ġà¦¬à¦¸à¦Ľ":3852,"à¦¨à¦ĵà¦Ĺ":3853,"!=.(\"":3854,"Ġà¨ª":3855,"à¦¯à¦ªà¦¦":3856,"à¦¯à¦ªà¦£":3857,"à¦¤à¦Ĺà¦¤":3858,"Ġà¦®à¦ĵà¦¦":3859,"à¦¡à¦«":3860,"Ġà¦ħà¦ļà¦²":3861,"à¦£à¦Ĺ":3862,"à¦«à¦²à¦¨":3863,"à¦īà¦«à¦²":3864,"..+\"":3865,"Ġà¦ĺà¦·":3866,"Ġ.__":3867,"à§¬à§¨":3868,"à§¬à§«":3869,"Ġà¦Ĩà¦Ĺà¦¤":3870,"à¤ª":3871,"Ġà§¬à§¯":3872,"Ġà§®à§¯":3873,"\"\"===[":3874,"\"-\"),=().(":3875,"!=.(\"..\")":3876,"\">":3877,"\")}":3878,"à§į,":3879,"Ġà¦Ĩà¦ĩà¦«":3880,"à¦¶à¦ķà¦°":3881,"à¦¹à¦°à¦¨":3882,"Ġà¦°à¦¥":3883,"Ġà¦ıà¦ķà¦ªà¦°":3884,"Ġà¦ľà¦¨à¦¸à¦ļ":3885,"à¦Ĩà¦®à¦¦":3886,"à¦ĺà¦£":3887,"à¦ħà¦¡":3888,"Ġà¦ıà¦¸à¦ıà¦®":3889,"Ġà¦ħà¦¬à¦¸à¦°à¦ª":3890,"Ġà§¯à§©":3891,"Ġà¦ħà¦ªà¦ķà¦°":3892,"Ġ40":3893,"à¦®à¦Ĺà¦¡":3894,"247":3895,"Ġ!!":3896,"Ġ//.(":3897,"à«ĩ":3898,"âĢ²":3899,"220":3900,"Ð¼":3901,"à¦¯à¦°à¦¤":3902,"à§ģà§ģ":3903,"Ġà¦¬à§İà¦¸à¦°":3904,"Ġà¦ıà¦ķà¦ļ":3905,"à¦īà¦Ĺ":3906,"à¤Ĺ":3907,"à¦¬à¦²à¦Ľ":3908,"Ġ(){":3909,"Ġà¦ıà¦®à¦¨à¦Ń":3910,"à§İà¦¸à¦ķà¦¦":3911,"ĠØ§ÙĦÙĥ":3912,"à¦Ĩà¦°à¦ıà¦²":3913,"Ġâĸ":3914,"Ġà®ļ":3915,"ĠðŁĻĤ":3916,"=(){":3917,"à¦Łà¦®à¦¸":3918,"Ġà¦ªà¦°à¦Ĺà¦£":3919,"Ġ-,":3920,"à§®à§ª":3921,"à§¬à§¯":3922,"à¦¦à¦°à¦Ĺà¦ŀ":3923,"ĠØ§Ø±":3924,"ÙĩÙħ":3925,"Ġà¦Ŀà¦²à¦ķ":3926,"Ġà¦Ĩà¦¹à¦°à¦£":3927,"128":3928,"099":3929,"Ġis":3930,"Ġà§¨à§©à§ªà§¬":3931,"Ġà¦¸à¦«à¦²à¦Ń":3932,"').('');":3933,"Ġà§¨à§§à§®à§§":3934,"Ġà§¨à§§à§®à§¨":3935,"Ġà§¬à§¯à§¯à§¯":3936,"Ġà§¬à§¯à§¯à§¬":3937,"Ġà§©à§§à§©à§§":3938,"Ġà¦ĥ":3939,"à¦¼/":3940,"à¦®à¦Ĺà¦¤":3941,"Ġà¦¬à¦°à¦ķ":3942,"à¦ªà¦Ļ":3943,"à¦ĩà¦Ĩà¦Ĺà¦·":3944,"à¦§à¦¶à¦¤":3945,"à¦ļà¦ıà¦ª":3946,"Ġà¦Ĺà¦«":3947,"Ġà¦īà¦¸à¦ķ":3948,"Ġà¦ĩà¦¥":3949,"Ġà¦ĩà¦®à¦¦":3950,"à¦¬à¦°à¦¨à¦Ń":3951,"à¦¬à¦°à¦ħà¦ķ":3952,"à¦¬à¦¨à¦®":3953,"à§®à§«":3954,"à¦¦à¦ķà¦¸à¦¹":3955,"à¦ıà¦¸à¦ıà¦¸à¦¸":3956,"Ġà¦Ĺà¦£à¦Ł":3957,"Ġ).":3958,"à§ĩ?'":3959,"Ġà¦ľà¦²à¦¦à¦¸":3960,"Ġà¦®à¦ľà¦¬":3961,"Ġà¦Ĩà¦ĩà¦ıà¦¸à¦¬":3962,"Ġà¦Ĩà¦ļà¦®à¦ķ":3963,"{:\"\",:":3964,"!'":3965,"\";":3966,"à¦¬à¦ķà¦²":3967,"à¦¦à¦ķà¦°":3968,"Ġà¦¹à¦ĩà¦Ľ":3969,"Ġà¦ħà¦®à¦¨":3970,"Ġà¦ħà¦¬à¦²":3971,"Ġà¦¤à¦°à¦®":3972,"Ġà¦Łà¦¹à¦²":3973,"à¦°à¦£à¦Ń":3974,"Ġà¦Ĩà¦²à¦ľ":3975,"à¦¬à¦¸à¦¤":3976,"Ġà¦īà¦ªà¦¬":3977,"ĠØ¢":3978,"Ġà¦¸à¦¹à¦ª":3979,"Ġà¦¸à¦¹à¦¸à¦Ń":3980,"Ø§ÙĤ":3981,"à¦¨à¦¬à¦ľ":3982,"ĠØ§ÙĦØ¥":3983,"Ġà¤ı":3984,"107":3985,"à¦¬à¦ľà¦¨à¦°":3986,"Ġiii":3987,"-\":":3988,"Ġà¶":3989,"à¦²à¦Ĺà¦°":3990,"à¦ľà¦°à¦ľ":3991,"à¦ĩà¦®à¦°":3992,"Ġà¦°à¦£à¦¬":3993,"Ġà¦ļà¦ŀ":3994,"à¦łà¦¦":3995,"Ġà¦ħà¦¨à¦¶à¦¨":3996,"Ġà¦Ľà¦²":3997,"à¦ıà¦¨à¦¬":3998,"Ġ.)":3999,"à§¨à§¦à§§à§ª":4000,"à¦°à¦ļà¦²à¦¨":4001,"Ġà¦¬à¦ķà¦¶":4002,"Ġà¦ªà¦¥à¦ļ":4003,"Ø³ÛĮ":4004,"108":4005,"à®¸":4006,"Ġà¦¬à¦ĩà¦Ĺ":4007,"Ġà¦Īà¦¦à¦Ĺ":4008,"àªķ":4009,"Ġ://../":4010,"Ġà§¦à§§à§ªà§¦à§§à§§à§®à§ªà§«à§«":4011,">>":4012,"à¦¨à¦ĵà¦¯":4013,"à¦¯à¦ļ":4014,"à¦²à¦¬à¦¨":4015,"à¦Ĺà¦®à¦¯":4016,"Ġà¦ħà¦ľà¦¯":4017,"à¦°à¦¤à¦¬à¦°":4018,"à¦ĩà¦²à¦Ĺ":4019,"à¦¦à¦ķà¦ķ":4020,"à¦ķà¦²à¦®":4021,"ÙĬØ¨":4022,"Ġ=\"\"":4023,").().(":4024,"à®Ł":4025,"147":4026,"àª¸":4027,"à²°":4028,"/__":4029,"_:":4030,"ĠÛ":4031,"Ġà¦ŀ":4032,"à¦¤à¦ķà¦°":4033,"à¦ķà¦ĸ":4034,"à¦ķà¦¸à¦¬à¦ľ":4035,"à¦¬à¦Ĺà¦¤":4036,"Ġà¦¸à¦°à¦£":4037,"Ġà¦¬à¦ĸà¦¤":4038,"Ġà¦®à¦Ĺ":4039,"Ġà¦¹à¦¦":4040,"Ġà¦¹à¦Łà¦²":4041,"à¦¬à¦°à¦Ĺ":4042,"à¦¾à¦Ĥ-":4043,"à§¯à§©":4044,"Ġà¦®à¦¹à¦ķ":4045,"Ġà¦¬à¦¨à¦Ĺ":4046,"Ġ=(":4047,"Ġà¦«à¦²à¦¸":4048,"à¦ĩà¦¡à¦²":4049,"090":4050,"Ġà¦¶à¦¹à¦°à¦Ł":4051,"Ø§ÙĦÙĦ":4052,"Ġà¦¤à¦¤à¦Ł":4053,"){(":4054,"387":4055,"à§¨à§¦à§¨à§¦à§¨à§¦à§¨à§§":4056,"Ġàª¸":4057,"),()):":4058,"?((),()):":4059,"Ù±ÙĦ":4060,"âĹı":4061,"à¦²à¦ľà¦¬":4062,"à¦¸à¦¸à¦¹":4063,"à¦¸à¦ķà¦¦":4064,"à¦ľà¦²à¦¬":4065,"à¦Ĺà¦Ļ":4066,"à¦§à¦²":4067,"à¦¥à¦¹":4068,"Ġà¦Łà¦°":4069,"à¦°à¦¥à¦®à¦¦":4070,"à·Ĵ":4071,"à¦ĭà¦£":4072,"à¦°à¦«à¦°":4073,"à¦¤à¦¤à¦®":4074,"à¦¸à¦¦à¦¸":4075,"Ġà¦ķà¦¨à¦ķ":4076,"à¦Ĺà¦¸à¦¹":4077,"Ġà¦¹à¦ĵ":4078,"à¦¥à¦Ł":4079,"à¦£à¦ĺ":4080,"à§Ĥ-":4081,"à¦°à¦ķà¦¦":4082,"à¦¸à¦®à¦ķ":4083,"Ġ\").(":4084,"Ġ[];":4085,"Ġà¦Ĩà¦¹à¦¤à¦¦":4086,"Ġà§§à§¯à§Ńà§¨":4087,"Ġ-:;":4088,"Ġà¦¬à¦¦à¦²à¦Ĺ":4089,"?(=":4090,"Ø¢ÙĨ":4091,"%%%%%%%%%%%%%%%%%%%%%%%%%%%%%%%%":4092,"ÑĤ":4093,"ÙĹ":4094,"çļ":4095,"à¦°à¦īà¦¦":4096,"à¦¨à¦ĸ":4097,"à¦¨à¦®à¦¤":4098,"à¦®à¦ªà¦¨":4099,"à¦Łà¦Ĺà¦²":4100,"à¦ªà¦ĵ":4101,"Ġà¦®à¦°à¦£":4102,"à¦ĩà¦¸à¦°":4103,"Ġà¦ıà¦¨à¦¬":4104,"à¦Ńà¦Ł":4105,"Ġà¦ļà¦¬":4106,"Ġà¦ĸà¦¸à¦¡":4107,"à¦ıà¦ķà¦¬":4108,"à¦ľà¦¨à¦ĩ":4109,"à¦ĩà¦²à¦«":4110,"à¦¸à¦®à¦¤":4111,"à¦°à¦¨à¦¦":4112,"Ġà¦ħà¦¬à¦ľ":4113,"à¦ıà¦¸à¦Ł":4114,"Ġà§®à§§":4115,"Ġà§¯à§¯à§¯":4116,"Ġà¦ıà¦°à¦ªà¦°à¦ĩ":4117,"à¦¶à¦²à¦Ĺà¦¤":4118,"à¸²":4119,"Ġ<<<":4120,"Ġà¦¨à¦ĵà¦¶":4121,"Ġà¦ļà¦°à¦®à¦ªà¦¨":4122,"([^":4123,"æĸĩ":4124,"[],":4125,"]).();'":4126,"à¦¸à¦ł":4127,"à¦¸à¦īà¦¦":4128,"Ġà¦ķà¦ĵà¦¯":4129,"à¦ľà¦¸à¦¹":4130,"à¦¶à¦ļà¦¨":4131,"à¦Ĺà¦ĸ":4132,"à¦¼à§ĩ'":4133,"à¦£à¦Ĺà¦¤":4134,"Ġà¦Ĺà¦®à¦¨":4135,"à¦ıà¦®à¦¸":4136,"..//":4137,"Ġ'__":4138,"Ġà¦¹à¦²à¦¦":4139,"Ø§Ø¬":4140,"__);":4141,"à¦Ĩà¦ĩà¦Ĩà¦°":4142,"Ġà¦¦à¦°à¦ªà¦¤":4143,"Ġà§§à§©à§¦":4144,"278":4145,"').(___":4146,"Ġ$('.___":4147,"Ġ$('.___:(":4148,"Ġ.('___":4149,"Ġ.('__');":4150,"Ġ._').();":4151,"à¦®à¦ĩà¦°à¦¹":4152,"Ġ$(\".__":4153,"çļĦ":4154,"480":4155,"Î»":4156,"à¦ķà¦·":4157,"à¦®à¦ĸ":4158,"à§ĭ)":4159,"Ġà¦Ĩà¦°à¦ķ":4160,"Ġà¦Ĩà¦īà¦²":4161,"à¦¶à¦¬à¦ª":4162,"à¦Ĺà¦¢":4163,"à¦Ĺà¦ļà¦Ł":4164,"Ġà¦¨à¦²":4165,"Ġà¦¹à¦°à¦¤":4166,"Ġà¦ļà¦°à¦«":4167,"Ġà¦Ĩà¦®à¦ľ":4168,"à¦¶à¦¨à¦Ĺ":4169,"à§Ńà§ª":4170,"Ġà¦®à¦¹à¦¸":4171,"Ġà¦ıà¦¸à¦¡":4172,"Ġà§§à§¦à§§":4173,"ÙĪØ¯":4174,"à¦Ĩà¦°à¦ĩà¦ī":4175,"123":4176,"125":4177,"097":4178,"\\\"":4179,"à¦¨à¦¬à¦¸à¦®":4180,"à¦¦à¦¸à¦®":4181,"à¦ľà¦ĸ":4182,"à¦Ľà¦Ĺ":4183,"à¦ļà¦¦":4184,"Ġà¦¶à¦¶":4185,"à¦«à¦¯":4186,"à§¬à§©":4187,"à¦¤à¦¬à¦ķ":4188,"à§¨à§¦à§§à§¦":4189,"Ġà¦ķà¦¤à¦¦":4190,"\"://":4191,"à¦ķà¦®à¦²à¦Ĺà¦ŀ":4192,"ä¸Ńæĸĩ":4193,"(\".\").(":4194,"])":4195,"æľ":4196,"Ġà¬":4197,"ĵà¬":4198,"à¦ķà¦¤à¦°":4199,"Ġà¦ķà¦¸à¦®":4200,"Ġà¦ķà¦¦à¦®":4201,"à¦ªà¦ĩ":4202,"à¦ªà¦°à¦ķ":4203,"Ġà¦®à¦°à¦ķ":4204,"à¦¹à¦Ĺ":4205,"Ġà¦¹à¦¸à¦ª":4206,"à¦·à¦Ļ":4207,"Ġà¦¦à¦²à¦¨":4208,"Ġà¦ħà¦®à¦²":4209,"Ġà¦¤à¦¤à¦¦":4210,"à¦°à¦£à¦Ł":4211,"à§İà¦ĩ":4212,"Ġà¦¸à¦¬à¦Ł":4213,"Ø§ØŃ":4214,"Ġà¦ħà¦ªà¦°à¦ķ":4215,"Ġà¦ĺà¦°à¦Ł":4216,"Ġ://...":4217,"Ġà¦ıà¦«à¦¬":4218,"Ġà¦ıà¦«à¦¡":4219,"à¦¾.)-":4220,"à¬¿":4221,"ÙĦØ§Ùħ":4222,"ĠØ§Ø±Ø¯ÙĪ":4223,"Ġà¬ĵà¬":4224,"(=":4225,"309":4226,"767":4227,"Ġà¦ķà¦¦à¦°":4228,"à¦Ńà¦²":4229,"Ġà¦Ńà¦°à¦ª":4230,"Ġà¦ªà¦°à¦¨":4231,"à§®à§§":4232,"à§Ńà§¯":4233,"à¦ĺà¦¡":4234,"Ġ\",":4235,"Ġà¦ıà¦¸à¦ķ":4236,"Ġà¦ıà¦²à¦ª":4237,"à¦īà¦ľà¦ķ":4238,"),=(":4239,"Ġà§§à§§à§¦":4240,"Ġà¦¬à¦¹à¦¨à¦ķ":4241,"à¦ľà¦²à¦²à¦¤":4242,"111":4243,"à¦Ĺà¦łà¦¨à¦Ĺ":4244,"143":4245,"à¬Ĩ":4246,"à¦ĩà¦ĵà¦Ń":4247,"++'":4248,".,:.,:":4249,"****************":4250,"Ġà¬ĵà¬¡":4251,"à¦ķà¦ĵà¦¯":4252,"à¦¬à¦ļà¦°":4253,"Ġà¦ķà¦ĵà¦®":4254,"Ġà¦¸à¦ĵà¦¦":4255,"Ġà¦¬à¦¹à¦°":4256,"à§Ģ\"":4257,"Ġà¦®à¦ķà¦¬":4258,"Ġà¦®à¦«à¦¸":4259,"à¦¶à¦Ĺà¦¤":4260,"Ġà¦ıà¦ıà¦®":4261,"à¦¥à¦¡":4262,"à¦ĸà¦¡":4263,"à¦ĸà¦ķà¦Ń":4264,"Ġ(>=":4265,"à¥Ī":4266,"Ġà¦ĩà¦«":4267,"Ġà¦ªà¦°à¦¬":4268,"Ġà¦§à¦°à¦¬":4269,"à¦°à¦¬à¦§":4270,"à¦Łà¦¨à¦ķ":4271,"à¤¶":4272,"Ġà¦ħà¦ªà¦¶à¦ķ":4273,"1158":4274,"Ġâĺ":4275,"730":4276,"]*":4277,"à¦¨à¦¥":4278,"à§ģ?":4279,"Ġà¦¬à¦ľà¦²":4280,"à¦ªà¦Ń":4281,"à¦¹à¦¨à¦¬":4282,"à¦·à¦·":4283,"à¦īà¦Łà¦°":4284,"à¦Ĩà¦¬à¦¹":4285,"Ġà¦¡à¦Ĺ":4286,"Ġà¦¡à¦ľà¦¨":4287,"Ġ200":4288,"à§¯à§§":4289,"Ġà¦īà¦ªà¦ªà¦°":4290,"à§İà¦«":4291,"à§©à§¦à§¦":4292,"Ġà¦Ĩà¦ķà¦¨":4293,"Ġà¦Ĺà¦£à¦¶":4294,"à¦ĩà¦®à¦ļà¦°":4295,"Ġ978":4296,"à¦Ńà¦¬à¦ĺ":4297,"Ġà¦Ĩà¦«à¦ľ":4298,"à®¯":4299,"à¦ĩà¦īà¦ķ":4300,"250":4301,"Ġà§§à§¯à§®à§ª":4302,"),.(\"\"":4303,"ĠØ§ÙĦÙĤØ±":4304,"%;":4305,"'!":4306,"')":4307,".;":4308,"800":4309,"Ð±":4310,"×Ļ":4311,"Ġ~":4312,"à¦ķà¦ĸà¦¨":4313,"à¦¦à¦¸à¦¹":4314,"Ġà¦ıà¦¤à¦ķ":4315,"Ġà¦ľà¦ĵà¦¯":4316,"à¦ļà¦ª":4317,"à¦Ńà¦¦":4318,"à¦¬à¦°à¦ķ":4319,"Ġ===":4320,"Ġà§¯à§¨":4321,"Ġ?\"":4322,"Ġà§§à§¯à§¯à§¦":4323,"Ġà§§à§¯à§¯à§Ń":4324,"à§§à§¯à§¯à§¦":4325,"Ġ---:":4326,"à§¨à§¦à§§à§®à§¨à§¦à§§à§¯":4327,"à§¨à§¦à§§à§Ńà§¨à§¦à§§à§®à§¨à§¦à§§à§¯":4328,"$=":4329,"-'":4330,"¼à¬¿":4331,"à¦¤à¦ľà¦¨":4332,"Ġà¦¸à¦ªà¦°":4333,"à¦¦à¦ĩ":4334,"à¦¦à¦®à¦¤":4335,"Ġà¦Ĩà¦¦à¦¨":4336,"Ġà¦ıà¦¨à¦Ł":4337,"à§ĥà¦Ĥ":4338,"à¦°à¦ķà¦£":4339,"Ġà¦ľà¦¨à¦®à¦¤":4340,"à¦°à¦®à¦¬à¦°":4341,"à§¯à§Ń":4342,");(":4343,"Ġà§¯à§ª":4344,"Ġà¦¤à¦ĸà¦¨à¦ķ":4345,"ÙĪØ³":4346,"101":4347,"Ġ_<=":4348,"159":4349,"à¦®à¦£à¦ª":4350,")}),":4351,"!!!":4352,"&=&=":4353,"à§¨à§¦à§¦à§Ń":4354,"à¬¼à¬¿":4355,"Ġuuu":4356,"Ġ://..//":4357,"à§¨à§¦à§§à§Ńà§¨à§¦à§§à§®à§¨à§¦à§§à§¯à§¨à§¦à§¨à§¦à§¨à§¦à§¨à§§":4358,"Ð·":4359,"à¦¾(":4360,"à¦°à¦«à¦¤":4361,"à¦¿]":4362,"à¦¨à¦¸à¦¨":4363,"à¦²à¦ķà¦°":4364,"Ġà¦®à¦°à¦¸":4365,"à¦¶à¦Ń":4366,"à§ĥ'":4367,"Ġà¦ıà¦ķà¦Ĺ":4368,"à¦¤à¦°à¦Ł":4369,"à¦¿à¦Ĥ'":4370,"ĠØ·":4371,"Ġ\"-":4372,"Ġà¦ħà¦ªà¦ļ":4373,"Ġà¦ĵà¦ĩà¦¦":4374,"Ġà¦īà§İà¦ªà¦¨":4375,"Ġ80":4376,".......":4377,")'":4378,"-=":4379,"017":4380,"[\\":4381,"]à¥¤à¥¤":4382,"{}":4383,"Ð³":4384,"à¦¯à¦§":4385,"à¦¸à¦ªà¦¤":4386,"Ġà¦Ĩà¦ĩà¦°":4387,"Ġà¦®à¦°à¦¶":4388,"à¦ĩà¦¥":4389,"à¦ĩà¦®à¦¨":4390,"Ġà¦°à¦īà¦«":4391,"Ġ(\"":4392,"à¦¾à¦Ĥ,":4393,"à¦¬à¦¨à¦¬":4394,"à¦¬à¦¨à¦Ł":4395,"Ġ-;":4396,"à§¬à§Ń":4397,"Ġ\"'":4398,"Ġà§§à§¦à§¬":4399,"Ġà¦ħà¦ªà¦Ľà¦¨":4400,"ÙĪØ¨":4401,"Ġà¦ıà¦¡à¦®":4402,"282":4403,"231":4404,"\").((){":4405,"://.//":4406,"://../?=":4407,")](":4408,"Ġ$('._').(":4409,"Ġà¦°à¦£à¦ľ":4410,"à¦°à¦ªà¦ķ":4411,"Ġà¦¬à¦īà¦¦":4412,"à¦ľà¦¤à¦¨":4413,"Ġà¦°à¦®à¦¨":4414,"à¦Ńà¦°à¦¤":4415,"Ġà¦Ĺà¦Ĺà¦¨":4416,"Ġà¦Ĩà¦®à¦¤à¦²":4417,"à¦°à¦ķà¦¨":4418,"Ġà¦ħà¦¨à¦§":4419,"Ġà¥¤=":4420,"Ġà¦ĺà¦°à¦¬":4421,"à¦¤à¦°à¦Ļ":4422,"à§İà¦«à¦°":4423,"à§®à§©":4424,"ĠØ§ÙĦØ´":4425,"Ġ44":4426,"à§§à§¯à§Ńà§§":4427,"Ġ69":4428,"105":4429,"Ġà¦ľà¦²à¦¢":4430,"Ġ:##":4431,"à¦ĩà¦²à¦«à¦²à¦ķ":4432,"ĠØ§ÙĦÙĤØ±Ø¢ÙĨ":4433,"(..":4434,".+\"":4435,"/):":4436,">?(=":4437,"]?\"":4438,"à¦ķà¦¬à¦²":4439,"à¦ªà¦Ľ":4440,"Ġà¦®à¦Ĺà¦¬":4441,"à¦¼à¦¾à§ĩ":4442,"Ġà¦ľà¦ĺà¦¨":4443,"à¦Ńà¦§":4444,"Ġà¦īà¦Ł":4445,"Ġà¦ĩà¦¶à¦¤":4446,"Ġà¦ľà¦¨à¦ľ":4447,"à¦ľà¦¨à¦¸":4448,"à¦¤à¦°à¦¸":4449,"à¦ķà¦°à¦¨":4450,"à¦²à¦ķà¦ª":4451,"à¦²à¦¤à¦¦":4452,"à¦¨à¦¬à¦ª":4453,"à¦¬à¦¤à¦¤":4454,"Ġ55":4455,"Ø¨ÙĬ":4456,"Ġà¦Ĺà¦£à¦§à¦°":4457,"Ġà¤ħ":4458,"Ġ70":4459,"Ġ71":4460,"Ġiu":4461,"à§ĩ',":4462,"à¦ıà¦«à¦¡":4463,"à¦ĩà¦īà¦ıà¦¨":4464,"\":(":4465,"à¦ıà¦ĩà¦ļà¦ıà¦¸":4466,"Ġà¦¦à¦ĸà¦²à¦¦":4467,"Ġog":4468,"ðŁĵ":4469,"Ð°Ñ":4470,"ĠïĮ":4471,"?\"\":\"":4472,"=\"":4473,"Ð´":4474,"à¦¨à¦Ĺà¦¤":4475,"à¦¤à¦¬à¦¸":4476,"à¦²à¦§":4477,"à¦¬à¦ªà¦°":4478,"à¦¶à¦ªà¦¥":4479,"à¦·à¦ľà¦¨":4480,"Ġà¦¤à¦ķ":4481,"à¦ĵà¦ĵ":4482,"à¦«à¦ĩà¦¯":4483,"à¦®à¦¨à¦ľ":4484,"Ġà¦Ĩà¦°à¦Ł":4485,"à¦¾à¦ģ-":4486,"à§İà¦ľ":4487,"à§¨à§¦à§¨à§ª":4488,"à¦ļà¦²à¦®":4489,"à¦ķà¦¦à¦®":4490,"Ġà¦ªà¦¥à¦ļà¦²":4491,"Ġ$().();":4492,"à§§à§¨à§¨à§¯":4493,"Ġ(!=":4494,"ĠÙ±ÙĦÙĦ":4495,"--------------------------------":4496,"[\"\"+":4497,"à§ĩ),":4498,"à§į'":4499,"à¦¤à¦¹":4500,"à¦ķà¦§":4501,"à§ģ...":4502,"Ġà¦ħà¦¹à¦²":4503,"Ġà¦ħà¦Ĺà¦£":4504,"à¦ĸà¦Ń":4505,"à¦ĸà¦ķà¦¦":4506,"Ġà¦°à¦ľà¦¨":4507,"Ġà¦²à¦Ń":4508,"Ġà¦¬à¦²à¦¯":4509,"Ġà¦ĺà¦¨à¦¤":4510,"Ġà¦ıà¦ĩà¦¡à¦¸":4511,"à¦¬à¦¸à¦Ł":4512,"à¦ĩà¦¨à¦«":4513,"Ġà¦īà¦ªà¦Ĺ":4514,"ĠØĮ":4515,"Ġà¦Ĩà¦Ľà¦¡":4516,"Ġà¦ªà¦¦à¦¬":4517,"à¦°à¦Ĺà¦£":4518,"à¦Ĩà¦ªà¦¨à¦ľà¦¨":4519,"215":4520,"à§¨à§ªà§ª":4521,"Ġà¦Ĩà¦īà¦Łà¦¡":4522,"à¦¨à¦¬à¦¸":4523,"à¦¸à¦ŀ":4524,"Ġà¦¬à¦ĩà¦¤":4525,"à§ĭ\"":4526,"à¦Łà¦¶":4527,"Ġà¦®à¦¶à¦²":4528,"à¦¶à¦¬à¦¨":4529,"Ġà¦¤à¦«":4530,"Ġà¦ĩà¦°à¦¶":4531,"à¦īà¦Łà¦¨":4532,"Ġà¦«à¦°à¦ľ":4533,"à¦¬à¦¨à¦§":4534,"Ġà¦ıà¦ĩà¦ĸ":4535,"à¦¸à¦®à¦Ĺ":4536,"à¦¾à¦ĥ)-":4537,"à¦ıà¦¸à¦ı":4538,"Ġà¦Ĩà¦¦à¦²":4539,"ĠØ§ÙĦØ¯":4540,"Ġà§§à§¯à§ªà§Ń":4541,"à¦¿à¦ĥ-":4542,"à¦²à¦¦à¦¹":4543,",:(){":4544,"&&.(":4545,"Ġà¦¸à¦«à¦°à¦ķ":4546,"à§¨à§¦à§¦à§¬":4547,"Ġà§§à§¯à§¯à§§":4548,"ĠðŁĺĢ":4549,"!-":4550,"Ġ___":4551,"à¦¨à¦Ĺà¦£":4552,"Ġà¦ķà¦ķà¦Ł":4553,"Ġà¦Ĩà¦°à¦¤":4554,"à¦¼à¦¾!":4555,"Ġà¦ħà¦ľà¦¸":4556,"à¦§à¦ªà¦°":4557,"Ġà¦ĩà¦°à¦«":4558,"à¦ıà¦ľ":4559,"Ġà¦Ĩà¦°à¦ıà¦®à¦ª":4560,"Ġà¦®à¦¨à¦Ł":4561,"Ġà¦§à¦°à¦Ľ":4562,"à¦¦à¦¨à¦Ł":4563,"Ġà¦ıà¦²à¦¡":4564,"à¦ıà¦¸à¦ĩà¦¤":4565,"Ġ35":4566,"Ġ{:":4567,"à¦Ĩà¦²à¦®":4568,"ØŃÙħ":4569,"Ġ#;":4570,"à¦²à¦Ľà¦¡":4571,"Ġà¦Ķà¦ªà¦¨":4572,"ÑĢÑĥ":4573,"Ġ(!='')":4574,"!\"":4575,"210":4576,"ïĤ":4577,"à¦¬à¦¹à¦¤":4578,"à¦®à¦ĵà¦¯":4579,"Ġà¦ķà¦¸à¦¬":4580,"Ġà¦¸à¦¶à¦°":4581,"Ġà¦Ĩà¦ĵà¦¸":4582,"à¦ľà¦Ĺà¦¤":4583,"à¦ľà¦¤à¦²":4584,"à¦¥à¦ªà¦¤":4585,"Ġà¦°à¦ĵà¦¯":4586,"Ġà¦īà¦¯":4587,"Ġà¦«à¦ķà¦°":4588,"à¦Ĩà¦¹à¦®":4589,"à¦Ĩà¦°à¦ª":4590,"Ġ210":4591,"Ġà¦ıà¦¬à¦Ľà¦°":4592,"à¦ªà¦°à¦°":4593,"Ġà¦ĺà¦Łà¦ķ":4594,"Ġ'#":4595,"à¦ķà¦°à¦Ĺ":4596,"Ġà¦ķà¦®à¦ĩ":4597,"à¦ħà¦¥à¦ļ":4598,"à¤ľ":4599,"Ġà¦ıà¦ĸà¦¨à¦ķ":4600,"à¦¨à¦¬à¦¦":4601,"ĠØ§ÙĦØ¹":4602,"Ġ},":4603,"Ġ36":4604,"à¦ıà¦¨à¦Ł":4605,"à¦Ĺà¦£à¦¤à¦¨":4606,"150":4607,"à¯Ģ":4608,"à§®à§®à§¦à§¨à§¯":4609,"Ġà§§à§¯à§Ńà§¦":4610,"Ġà§©à§¬à§«":4611,"à¦®à¦®à¦Ń":4612,"à¸²à¸":4613,"?''":4614,"})}":4615,"¸ı":4616,"ï¸ı":4617,"à¦¨à¦ķà¦²":4618,"à¦¯à¦¬à¦°":4619,"à¦²à¦ľà¦¯":4620,"à§ĭà¥¤":4621,"à¦Łà¦ķà¦°":4622,"à¦ļà¦Ĺ":4623,"à¦£à¦ĵ":4624,"Ġà¦¯à¦¬":4625,"Ġà¦ĩà¦®à¦ª":4626,"Ġà¦²à¦¯":4627,"à§¨à§©à§¦":4628,"à§¦à§¦à§¦à§¦":4629,"à¦Ĩà¦°à¦ıà¦¸":4630,"à¦ıà¦®à¦ı":4631,"Ġà§§à§§à§¨":4632,"Ġà§§à§ªà§¦":4633,"Ġà§§à§ªà§ª":4634,"Ġà§§à§®à§¦":4635,"240":4636,"186":4637,"162":4638,"à§®à§®à§¦à§¨à§®":4639,"://./":4640,"à§Ńà§Ńà§©à§«":4641,"Ġà¦ĩà¦¨à¦«à¦°à¦®":4642,"à¤ļà¤¡":4643,"Ġà¦®à¦łà¦¬":4644,"Ġà¤ıà¤ļà¤¡":4645,"Ùĸ":4646,"à¦ķà¦Ľà¦¡":4647,"à¦¸à¦ĸ":4648,"à¦¶à¦ķà¦¤":4649,"Ġà¦ıà¦§à¦°à¦¨":4650,"à¦¹à¦£":4651,"Ġà¦ľà¦¬à¦¸":4652,"Ġ((":4653,"Ġà¦ĵà¦Ĺ":4654,"à¥¤:":4655,"à¦īà¦ķà¦¬":4656,"Ġà¦ĸà¦¸":4657,"à¦Ļà¦¤":4658,"Ġà¦Ľà¦Ł":4659,"à¦Ĩà¦¡":4660,"Ġ220":4661,"Ġ').((){":4662,"à¦¤à¦°à¦ŀ":4663,"Ġà¦īà¦ªà¦®à¦¨":4664,"à¦·à¦£à¦ķ":4665,"Ġ48":4666,"à¦Ĺà¦£à¦®":4667,"Ġà¦Ĩà¦¹à¦ķ":4668,"Ġà¦ķà¦¤à¦Ĺ":4669,"Ġâŀ":4670,"Ġ140":4671,"Ġà¦Ńà¦¬à¦ĺ":4672,"356":4673,"358":4674,"à§Ńà§Ńà§©à§«à§¯à§¨":4675,"$]":4676,"/}}":4677,"Ùĵ":4678,"Ġn":4679,"ĥł":4680,"à¦¾à¦¾":4681,"à§į...":4682,"à¦¿(":4683,"à¦¤à¦¸à¦¹":4684,"à§ģ\"":4685,"à¦¦à¦¶à¦®":4686,"à¦ľà¦¬à¦¸":4687,"à¦ĩà¦ĩ":4688,"à¦Ĺà¦¸à¦®":4689,"Ġà¦ıà¦ĵ":4690,"Ġà¦¤à¦ķà¦®":4691,"Ġà¦īà¦ĩà¦®":4692,"à¦ªà¦¨à¦ķ":4693,"Ġ':":4694,"Ġ'');":4695,"à¦ļà¦¨à¦ľà¦Ļ":4696,"ÙıØĮ":4697,"à¦¨à¦¬à¦ķ":4698,"Ġà¦¦à¦²à¦ªà¦¤":4699,"Ġà¦ħà¦¸à¦¤":4700,"à§¨à§¦à§¨à§©":4701,"Ġ=().(":4702,"),.":4703,"2018":4704,"Ġà¦ıà¦¤à¦ĩ":4705,"à¦Ĩà¦¨à¦¸":4706,"Ġà¦ĵà¦ĩà¦¸à¦¬":4707,"à¦¬à¦¶à¦¤":4708,"Ø¹Ø§ÙĦ":4709,"Ġ182":4710,"Ġà¦¦à¦ĸà¦²à¦®":4711,"à¯ĭ":4712,"Ġ$('.--":4713,"Ġà¦ªà¦Łà¦Ń":4714,"Ġà§©à§©à§©":4715,"Ġà®µ":4716,":)\").(":4717,"\\/)à¥¤":4718,"\"-\"),=().(\"-\"),=().(":4719,"Ġ//.();":4720,"?((),()):()":4721,"×Ļ×":4722,"\":(:)\").(":4723,"ĠïĮī":4724,"\\/)à¥¤(":4725,"-.":4726,"ÃĹ":4727,"Ûļ":4728,"ä½":4729,"Ġà¦¸à¦¹à¦®":4730,"Ġà¦¬à¦ĸ":4731,"Ġà¦¬à¦¦à¦¨":4732,"Ġà¦¦à¦²à¦¬":4733,"Ġà¦ļà¦¦":4734,"Ġà¦Ńà¦°à¦¤":4735,"à¦īà¦ĩà¦®":4736,"à¦Ĩà¦ĸ":4737,"à¦Ĩà¦ĩà¦Ń":4738,"Ġà¦īà¦¦à¦ĺ":4739,"Ġà¦ķà¦®à¦²à¦¨à¦Ĺà¦°":4740,"à¤¬":4741,"Ġà¦¬à¦¸à¦¤à¦¬":4742,"Ġà¦ıà¦¨à¦¡":4743,"Ġà¦ıà¦¨à¦Ĩà¦ĩà¦¡":4744,"Ġà¦Ĺà¦£à¦¬":4745,"Ġà¦ľà¦®à¦ľà¦®":4746,"Ġ_.(":4747,"Ġ153":4748,"à¦¨à¦Ĺà¦¦":4749,"à«į":4750,"ĠØ±Ø¶":4751,"à¦Ĺà¦łà¦¨à¦ķ":4752,"Ġà¦¨à¦¬à¦¬à¦§":4753,"970":4754,"ãģ":4755,"Ġîł":4756,"à¦ķà¦¸à¦®":4757,"à¦¸à¦ªà¦¨":4758,"à¦¦à¦Ĩà¦¤":4759,"à¦Ĺà¦®à¦¨":4760,"à¦·à¦¶":4761,"à¦¡à¦¹":4762,"à¦§à¦ĵ":4763,"à¦«à¦«à¦°":4764,"Ġà¦²à¦ĩà¦¯":4765,"Ġà¦ĸà¦¸à¦°":4766,"..()":4767,"à¦¿à¦Ĥ?":4768,"à¦¬à¦²à¦¹":4769,"à¦Łà¦ķà¦¯":4770,"Ġà¦ķà¦²à¦Ļ":4771,"à¦ıà¦¸à¦ķ":4772,"à§¨à§¦à§§à§¨":4773,"à§¨à§¦à§¨à§«":4774,"Ġà§§à§¦à§®":4775,"Ġà§¨à§ªà§©":4776,"Ġà¦ľà¦²à¦¸":4777,"à¦¨à¦Ńà¦°":4778,"à®¾":4779,"Ġ193":4780,"173":4781,"à¦ıà¦«à¦¸":4782,"288":4783,"à¦ıà¦²à¦¡":4784,"ĠÙĤØ§ÙĦ":4785,"Ġà§§à§¯à§Ńà§©":4786,"à§¨à§¦à§¦à§¯":4787,"à§¨à§¦à§¦à§®":4788,"ĠÂ°":4789,"Ġïĥł":4790,"à¦ħà¦¬à¦¸à¦°à¦ķ":4791,"Ġigi":4792,"Ġïħª":4793,"ĠïħŃ":4794,"ïĤļ":4795,"Ø¹Ø§ÙĦÙī":4796,"Ġîłģ":4797,"557":4798,"='":4799,"à¦°à¦¦à¦ķ":4800,"à¦°à¦Ŀ":4801,"à¦¤à¦®à¦¤":4802,"à¦®à¦°à¦ķ":4803,"Ġà¦¸à¦°à¦¸":4804,"à¦ľà¦ķà¦²":4805,"à¦¶à¦®à¦¨":4806,"Ġà¦¨à¦¹":4807,"à¦¹à¦īà¦¦":4808,"Ġà¦ıà¦ķà¦§":4809,"Ġà¦«à¦ľà¦°":4810,"à¦¬à¦°à¦Ł":4811,"à¦¬à¦¨à¦Ĺà¦°":4812,"Ġ-.":4813,"Ġà¦īà¦ªà¦¤":4814,"à¦¹à¦°à¦Ĺà¦ŀ":4815,"ÙĩØ§":4816,"Ġ33":4817,"à¦ıà¦¨à¦ıà¦¨":4818,"Ġà§§à§¦à§©":4819,"Ġ46":4820,"Ġ[[]":4821,"Ġà¦īà¦²à¦Ł":4822,"à¦Ĺà¦£à¦ªà¦°":4823,"126":4824,"Ġà¦ıà¦°à¦ªà¦°à¦ĵ":4825,"à¦ıà¦«à¦ı":4826,"ØµØ±":4827,"à¸¢":4828,"à¦¯à¦Łà¦ķà¦°":4829,"Ġà§¯à§®à§¨à§ªà§¦à§Ń":4830,"Ġàªµ":4831,"à¤ļà¤°":4832,"à¦ıà¦®à¦ĩà¦ı":4833,"âĺħ":4834,"ĠØ§ÙĦÙĥØ±":4835,"%)":4836,"\\\\":4837,"ä»":4838,"à¦¬à¦²à¦¨":4839,"à¦®à¦¦à¦ķ":4840,"à¦¦à¦Ľ":4841,"Ġà¦ªà¦¹":4842,"Ġà¦ıà¦ıà¦¸à¦Ĩà¦ĩ":4843,"à¦¹à¦ĩ":4844,"Ġà¦¦à¦°à¦ĸ":4845,"à¦£à¦¸":4846,"à¦īà¦Ľ":4847,"à§¨à§¦à§¦à§¦":4848,"à¦¶à¦¨à¦¸":4849,"à¦ħà¦¨à¦¨":4850,"à¦ķà¦Łà¦¬à¦°":4851,"à¦īà¦ľà¦«":4852,"Ġ/>":4853,"Ġà¦īà¦ªà¦°à¦¨":4854,"Ġà¦Ĺà¦£à¦«":4855,"Ġà¤¨":4856,"àª¡":4857,"ĠØªØ¹Ø§ÙĦÙī":4858,"à«ĭ":4859,"Ġà¦Ĩà¦īà¦Łà¦²":4860,"Ġà§§à§¯à§¯à§®":4861,"????":4862,"%-%":4863,"/\"+":4864,"cs":4865,"à¦¨à¦ıà¦Ł":4866,"à¦ķà¦ĩà¦¯":4867,"à¦¬à¦ªà¦¤":4868,"à¦¸à¦¶":4869,"Ġà¦¨à¦®à¦¨":4870,"à¦·à¦°à¦¤":4871,"à¦¼à§ĩ!":4872,"à¦ļà¦²à¦ķ":4873,"Ġà¦¥à¦®":4874,"Ġà¦¥à¦®à¦ķ":4875,"Ġà¦ıà¦ķà¦ľ":4876,"Ġà¦ľà¦¨à¦¸à¦Ń":4877,"Ġà¦Ĩà¦²à¦Ł":4878,"à§®à§¯":4879,"à¦¤à¦¨à¦¬":4880,"Ġà§«à§«à§¦":4881,"ĠØ§ÙĦØ¨":4882,"Ġ34":4883,"00000":4884,"à¦ĩà¦¸à¦Ĺ":4885,"à¦ªà¦¦à¦¤":4886,"ÙĪÙħ":4887,"Ġà¦ıà¦®à¦ı":4888,"Ġà§§à§Ńà§¬":4889,"242":4890,"Ġà¦Ĩà¦ĩà¦¸à¦²":4891,"Ġà¦¡à¦²à¦«":4892,"à§¨à§¦à§¦à§§":4893,"à¦ıà¦®à¦¨à¦ķ":4894,"Ġà¦īà¦ĩà¦¥":4895,"Ð¾Ð½":4896,"Ġ>>>":4897,"/___":4898,"818":4899,"829":4900,"Ð¹":4901,"ãĢ":4902,"ĠÚ©":4903,"à¦¾[":4904,"à¦¨à¦ĺà¦°":4905,"Ġà¦¸à¦¬à¦°":4906,"à¦¶à¦ļ":4907,"Ġà¦¹à¦ĩà¦ļ":4908,"Ġà¦ħà¦¯à¦¥":4909,"Ġà¦¤à¦ª":4910,"à¦īà¦ªà¦¨":4911,"à¦°à¦¤à¦¤":4912,"à¦Ĩà¦²à¦¬":4913,"Ġà¦Ĩà¦°à¦¸":4914,"Ġ2008":4915,"Ġ'=":4916,"à¦°à¦®à¦¤":4917,"Ġà¦īà¦ªà¦ķà¦®":4918,"à¦®à¦¤à¦²à¦¬":4919,"Ġà¦ıà¦¸à¦ıà¦®à¦ĩ":4920,"à¦¤à¦ķà¦¦":4921,"à¦ıà¦¸à¦Ĩà¦°":4922,"Ġà¦Ĩà¦ĩà¦¨à¦¸":4923,"Ġ300":4924,"Ġ400":4925,"Ġà¤²":4926,"à¦ıà¦®à¦Ĩà¦°":4927,"Ġà§§à§¬à§¬":4928,"157":4929,"1588":4930,"ĠØ¹ÙĦÙī":4931,"=.(/":4932,"556":4933,"à§¦à§«à§ª":4934,"à¦Ĭà¦¦":4935,"722":4936,"æĺ":4937,"à¦¯à¦«":4938,"à¦¬à¦ŀ":4939,"à¦Łà¦°à¦¦":4940,"à¦ªà¦¸à¦¹":4941,"à¦ªà§İà¦¸":4942,"à§Ģ;":4943,"Ġà¦Ĩà¦«à¦¤":4944,"à¦ľà¦ķà¦¤":4945,"Ġà¦¨à¦Ł":4946,"à¦¡à¦ĵ":4947,"Ġ([":4948,"Ġà¦Ĩà¦®à¦²à¦ķ":4949,"Ġà¦ħà¦¨à¦¬à¦¦":4950,"Ġà¦Łà¦ªà¦ķ":4951,"à¦°à¦¹à¦¸":4952,"à¦°à¦®à¦¬":4953,"Ġà¦®à¦¨à¦ķ":4954,"à¦ĺà¦¬à¦¦":4955,"à¦·à¦£à¦Ń":4956,"à¦¯à¦®à¦Ĺ":4957,"ÙĨØ§":4958,"Ġà¦ħà¦¸à§İ":4959,"Ġà¦ªà¦¦à¦ļ":4960,"Ġà¦īà§İà¦ķà¦°":4961,"Ġ64":4962,"à¦¤à¦²à¦®":4963,"à¦°à¦ªà¦°à¦ĩ":4964,"Ġà§§à§©à§Ń":4965,"Ġà¦ıà¦ķà¦¦à¦®à¦ĩ":4966,"à¦ªà¦¥à¦Ĺ":4967,"âĸĪ":4968,"294":4969,"à¸¥":4970,"Ġà¦īà§İà¦¸à¦¬à¦®":4971,"à¦¨à¦ªà¦ŀ":4972,"Ġà§§à§¯à§Ńà§ª":4973,"4795":4974,"Ġà¦¸à¦¨à¦¦à¦ªà¦¤":4975,"Ġà§¯à§®à§¨à§ªà§¦à§«à§ª":4976,"88017":4977,"Ġà§¯à§®à§¨à§ªà§¦à§¬à§¨":4978,"Ġà§¯à§®à§¨à§ªà§¦à§¬à§©":4979,"Ġà§¯à§®à§¨à§ªà§¦à§¬à§¬":4980,"à¦ĩà¦īà¦ıà¦¨à¦ĵ":4981,"Ġà§¯à§®à§¨à§ªà§¦à§Ńà§¨":4982,")').(___":4983,"+)":4984,"-').(":4985,":!":4986,"æĹ":4987,"à¦²à¦Ŀ":4988,"à¦®à¦¹à¦¸":4989,"Ġà¦ªà¦¶à¦®":4990,"à¦ľà¦Ĺà¦¨":4991,"Ġà¦ıà¦ıà¦¸à¦ª":4992,"Ġ(.)":4993,"à¦¬à¦°à¦¬":4994,"à§§à§§à§¦":4995,"à¦Ĩà¦Łà¦ķ":4996,"..:":4997,"à¦ªà¦°à¦®":4998,"Ġ'---":4999,"Ġ'++'":5000,"à¦¬à¦¸à¦¹":5001,"à¦ĩà¦¨à¦²":5002,"à§«à§«à§¦":5003,"à§®à§¨":5004,"à¦²à¦¨à¦°à¦¤":5005,"à¦¦à¦ķà¦¸":5006,"Ġà¦¬à¦¨à¦¬":5007,"ÙħØ±":5008,"002":5009,"Ġà§§à§¦à§«":5010,"Ġà¦Ĩà¦Łà¦ķà¦ķ":5011,"à§§à§¯à§¯à§¯":5012,"à¦ıà¦®à¦ıà¦ĩà¦ļ":5013,"à¦Ĩà¦ĩà¦ı":5014,"1236":5015,"Ġà¦¶à¦¹à¦°à¦Ĺ":5016,"160":5017,"266":5018,")},:":5019,"à§®à§®à§¦à§§à§¯":5020,"').(.());\"":5021,"').().(.());\"":5022,"';*/":5023,"Ġà§§à§¯à§¯à§©":5024,"\"\",!":5025,"\"\",\"\",":5026,"),().(":5027,"),(\".\").(":5028,"Ġ.--').();":5029,"\"===[":5030,"..)+\"":5031,"Ġ(_<=":5032,".$.(\".\").(":5033,"Ġà¦¬à¦°à¦ķà¦¤":5034,"/__',":5035,"7674795":5036,"Ġ$('._').().();":5037,"/___',":5038,"Ġà¦¹à¦ĩà¦ļà¦ĩ":5039,"15887674795":5040,"1588767479536":5041,"Ð¿":5042,"Ö´":5043,"äº":5044,"ĪĴ":5045,"à¦¿.)":5046,"à¦ķà¦¬à¦°":5047,"à¦Łà¦¡":5048,"Ġà¦Ĩà¦ĵà¦«":5049,"à¦ľà¦ĸà¦¬à¦°":5050,"à¦ĩà¦¬à¦¨":5051,"à¦§à¦ķà¦°":5052,"à¦ļà¦ĩ":5053,"Ġà¦°à¦ľ":5054,"Ġà¦¶à¦ļ":5055,"Ġà¦ıà¦ķà¦ĸ":5056,"Ġà¦ıà¦ķà¦°à¦ķà¦®":5057,"à¦łà¦Ń":5058,"Ġà¦ľà¦¨à¦¸à¦¨":5059,"Ġ250":5060,"Ġà¦ıà¦ĩà¦°à¦ķà¦®":5061,"à¦ĺà¦¤à¦®":5062,"Ġ\")":5063,"Ø§Ø©":5064,"ÙĬØ¹":5065,"Ġ=\"":5066,"Ġ=$(":5067,"ĠØ§ÙĦÙģ":5068,"à¦°à¦²à¦¸":5069,"Ġà§¯à§¦à§¦":5070,"Ġà§§à§¯à§¯à§¯":5071,"Ġà§§à§§à§¬":5072,"Ø¹ÙĦ":5073,"Ġà¦ľà¦²à¦¦":5074,"à®³":5075,"à¦ĩà¦īà¦Ĩà¦°à¦ıà¦²":5076,"ðŁĳ":5077,"Ġà¦ıà¦«à¦Ĩà¦ĩà¦Ĩà¦°":5078,"Ġ\"\")":5079,"Ġ@.,":5080,"Ġ.('__":5081,"à¦Ĩà¦ĩà¦¡à¦¬":5082,"\"-\");":5083,"Ġuus":5084,"Ġà¦¬à¦¦à¦°à¦Ĺà¦ŀ":5085,"à§§à§¨à§§à§«":5086,"à§¨à§¦à§¨à§¨à§¨à§¦à§¨à§©":5087,"à§¨à§¦à§§à§Ńà§¨à§¦à§§à§®à§¨à§¦à§§à§¯à§¨à§¦à§¨à§¦à§¨à§¦à§¨à§§à§¨à§¦à§¨à§¨à§¨à§¦à§¨à§©":5088,"à§¨à§¦à§¨à§ªà§¨à§¦à§¨à§«":5089,"ĠØ§ÙĦÙĥØ±ÙĬÙħ":5090,"à§¨à§¦à§§à§Ńà§¨à§¦à§§à§®à§¨à§¦à§§à§¯à§¨à§¦à§¨à§¦à§¨à§¦à§¨à§§à§¨à§¦à§¨à§¨à§¨à§¦à§¨à§©à§¨à§¦à§¨à§ªà§¨à§¦à§¨à§«":5091,"%,":5092,"(-":5093,")][":5094,".à¥¤à¥¤":5095,"Â¤":5096,"âĹ":5097,"âĿ":5098,"à¦°à¦ĩà¦¯":5099,"à¦°à¦ĭà¦£":5100,"à§ĩ--":5101,"à¦²à¦¬à¦°":5102,"à¦®à¦§à¦¨":5103,"à¦¸à¦«à¦²":5104,"à§Ģà¦Ĥ":5105,"Ġà¦Ĩà¦ĩà¦¬":5106,"à¦§à¦ª":5107,"à¦ļà¦²à¦¨":5108,"à¦ĸà¦¶":5109,"Ġà¦¸à¦®à¦·":5110,"à¦Ĩà¦Ľ":5111,"à¦Ĩà¦ĩà¦ķ":5112,"à¦Ĩà¦¸à¦¨":5113,"Ġà§§à§§à§¯":5114,"Ġà¦Ĩà¦²à¦¸":5115,"Ġà¦Ĩà¦²à¦Ĺ":5116,"Ġà¦®à¦¨à¦¨":5117,"à¦¦à¦°à¦Ĺ":5118,"Ġà¦¹à¦¤à¦¦à¦°":5119,"Ġà¦ķà¦²à¦¹":5120,"Ġà¦¦à¦²à¦ĩ":5121,"à§¨à§¦à§¨à§¬":5122,"Ġà¦ıà¦®à¦¨à¦ĵ":5123,"à¦ļà¦²à¦Ł":5124,"\"\"!=":5125,"à¦¨à¦¦à¦£":5126,"Ġà¦Ĳà¦ĸ":5127,"Ġà¤°":5128,"Ø³ÙĨ":5129,"Ġ99":5130,"à¦ıà¦®à¦ıà¦²":5131,"Ġà§§à§§à§Ń":5132,"à¦Ĩà¦ĩà¦ıà¦®":5133,"ĠØ£ÙĨ":5134,"Ġ1442":5135,"Ġ156":5136,"Ġà§¨à§Ńà§Ń":5137,"Ġug":5138,"===à¥¤à¥¤":5139,"à°ķ":5140,"Ġos":5141,"Ġà¦Ĩà¦īà¦Łà¦¸":5142,"Ġsis":5143,".,(){":5144,"Ġ{{/}}":5145,"Ġà¦¨à¦Ĺà¦°à¦¬":5146,"Ġà¦ļà¦²à¦¨à¦¬":5147,"Ġcii":5148,"Ġà¦°à¦¦à¦¬à¦¦à¦²":5149,"Ġâŀ¤":5150,"ãĢĤ":5151,")=":5152,"ÑĮ":5153,"à¦¤à¦ļà¦°":5154,"à¦ķà¦¤à¦¨":5155,"à¦¬à¦ļà¦¨":5156,"à¦¸à¦ķà¦°":5157,"à¦¦à¦ĸ":5158,"Ġà¦¬à¦Ľ":5159,"Ġà¦¬à¦ļ":5160,"Ġà¦¬à¦ļà¦¸":5161,"à¦Łà¦Ĩà¦ª":5162,"à¦¹à¦°à¦¦":5163,"à¦¼à¦¾...":5164,"à¦ĸà¦Ĺ":5165,"à¦£à¦¬à¦¨":5166,"Ġà¦ļà¦ķà¦¬":5167,"Ġà¦ıà¦ķà¦²":5168,"à¦°à¦£à¦Ĺ":5169,"Ġà§¨à§¦à§ªà§§":5170,"à¦°à¦®à¦ķ":5171,"à¦¿à¦Ĥ)":5172,"Ġà¦Ĩà¦Ĺà¦°à¦ĵà¦¯":5173,"Ġà¦¹à¦¤à¦¬":5174,"à¦Łà¦¨à¦®":5175,"Ġà¦¬à¦¨à¦Ń":5176,"Ø§ÙĪ":5177,"ÙĬØ«":5178,"Ġ38":5179,"Ġà§§à§¦à§¨":5180,"à¦Ĩà¦¨à¦ľ":5181,"Ġ800":5182,"Ġà§§à§¨à§«":5183,"Ġà§§à§¨à§©":5184,"Ġà§§à§¨à§¦à§¦":5185,"à¦ıà¦®à¦ĩà¦ī":5186,"Ġ102":5187,"Ġà¦ľà¦²à¦°":5188,"Ġà¦ķà¦¤à¦ľà¦¨":5189,"149":5190,"Ġà§¯à§®à§¨à§©à§¦":5191,"Ġà§¦à§§à§Ńà§§à§§":5192,"ĠØ¹ÙĨÙĩ":5193,"ÐµÐ´":5194,"Ġà§¯à§®à§¨à§©à§¦à§Ńà§©":5195,"${":5196,"-\"":5197,"747":5198,";++":5199,"=.-":5200,"ÒĽ":5201,"à¦°à¦ľà¦¨à¦ķ":5202,"à¦¨à¦īà¦¦":5203,"à¦²à¦ŀ":5204,"Ġà¦¬à¦ªà¦¨":5205,"à¦Łà¦°à¦ķ":5206,"à¦Łà¦ķà¦Ł":5207,"à¦ªà¦ªà¦¤":5208,"à¦ªà¦¸à¦®":5209,"à§Ģà¥¤":5210,"à¦¶à¦£":5211,"Ġà¦ıà¦®à¦°":5212,"Ġà¦ıà¦¨à¦ķ":5213,"Ġà¦¤à¦°à¦ķ":5214,"à¦§à¦¬à¦¦":5215,"à¦ļà¦¤à¦²":5216,"Ġà¦°à¦¡":5217,"Ġà¦Ńà¦¸":5218,"Ġà¦īà¦¤à¦¬":5219,"Ġà¦ĩà¦®à¦¤":5220,"Ġà¦ıà¦ķà¦§à¦°à¦¨":5221,"à¦ıà¦ı":5222,"à¦Ĩà¦Ł":5223,"à¦ĩà¦¨à¦ĺ":5224,"à§©à§ªà§¬":5225,"Ġ\".":5226,"Ġà¦®à¦¹à§İ":5227,"à¦§à¦¨à¦ķ":5228,"Ġà¦Ĩà¦ĩà¦¨à¦Ł":5229,"Ġ32":5230,"Ġ37":5231,"2016":5232,"Ġà¦ªà¦¥à¦Ń":5233,"à¦Ĩà¦ĩà¦ıà¦¸à¦¸":5234,"116":5235,"Ġ.....":5236,"à¦ĩà¦īà¦¸":5237,"àª¯":5238,"à¦¥à¦°à¦ĺ":5239,"Ġà§§à§¯à§Ńà§¯":5240,"Ø®Øª":5241,"Ġà§¨à§¦à§§à§¬à§¨à§¦à§§à§Ńà§¨à§¦à§§à§®à§¨à§¦à§§à§¯à§¨à§¦à§¨à§¦à§¨à§¦à§¨à§§à§¨à§¦à§¨à§¨à§¨à§¦à§¨à§©à§¨à§¦à§¨à§ªà§¨à§¦à§¨à§«":5242,"481":5243,"Ġà¦Ĩà¦īà¦Łà¦ª":5244,"Ġà§§à§¯à§¯à§ª":5245,"Ġà¦ĩà¦®à¦¨à¦ķ":5246,"Ġ471158":5247,"Ġà§®à§§à§®à§¯à§¯":5248,"àªķàª¸":5249,"Ġà§¨à§¦à§§à§¬à§¨à§¦à§§à§Ńà§¨à§¦à§§à§®à§¨à§¦à§§à§¯à§¨à§¦à§¨à§¦à§¨à§¦à§¨à§§à§¨à§¦à§¨à§¨à§¨à§¦à§¨à§©à§¨à§¦à§¨à§ªà§¨à§¦à§¨à§«à§¨à§¦à§¨à§¬":5250,"422":5251,"@..":5252,"Ħà¸":5253,"à¦¿à¦ĥ)":5254,"à¦¯à¦Ĺà¦¤":5255,"à§ģ/":5256,"Ġà¦ķà¦ĩà¦²":5257,"à§ĭ;":5258,"Ġà¦®à¦Łà¦°":5259,"à¦ľà¦ĺà¦°":5260,"Ġà¦¨à¦°à¦ķ":5261,"à¦·à¦¸à¦¹":5262,"à¦¡à¦ıà¦«":5263,"Ġà¦ħà¦ĸ":5264,"à¦§à¦ķà¦°à¦£":5265,"à¦Ĥ'":5266,"à¦£à¦Ł":5267,"Ġà¦Ĺà¦¹à¦¨":5268,"à¦Ļà¦°":5269,"Ġà¦§à¦®à¦ķ":5270,"à¦¿à¦Ĥà¦ĥ":5271,"à¦ĺà¦¬":5272,"Ġ,,":5273,"à¦·à¦£à¦Ĺ":5274,"à¦Ŀà¦ķ":5275,"Ġà¦ıà¦²à¦¬":5276,"ÙħÙĨ":5277,"Ġà¦Ŀà¦ķ":5278,"102":5279,"à¦Ĺà¦®à¦Ĺà¦ŀ":5280,"à¦ľà¦²à¦Ń":5281,"092":5282,"à¦łà¦ķà¦ķ":5283,"Ġ1440":5284,"Ġ1439":5285,"Ġ150":5286,"Ġ157":5287,"134":5288,"145":5289,"281":5290,"ÙģØ³":5291,"464":5292,"\".-":5293,"884":5294,"Ġà§§à§¯à§¯à§¨":5295,"Ġà¦¬à¦¸à¦¤à¦ĺà¦°":5296,"à¦°à¦¡à¦Ĺ":5297,"Ġà§®à§®à§Ń":5298,"Ġ%>":5299,"Ġ$('#_":5300,"))}":5301,"1000":5302,"336":5303,"700":5304,"]];":5305,"Ã¦":5306,"Î¹":5307,"áĪ":5308,"áĬ":5309,"é«":5310,"à¦¨à¦§":5311,"Ġà¦¸à§İà¦ķ":5312,"à¦ĸà¦ĸ":5313,"Ġà¦¶à¦²":5314,"à¦ĵà¦®à¦°":5315,"Ġà¦¯à¦®à¦ľ":5316,"Ġà¦ļà¦°à¦ķ":5317,"à¦ıà¦ķà¦¨":5318,"Ġ208":5319,"à¦ĩà¦¨à¦¦":5320,"à¦Ŀà¦ªà¦¥":5321,"Ġà¦Ĩà¦ľà¦¬":5322,"à¦¸à¦¹à¦ľ":5323,"--\",":5324,"Ġà§Ńà§¦à§Ń":5325,"),$().(":5326,"Ø±Ùĥ":5327,"Ġà§§à§¯à§®à§¦":5328,"Ġ52":5329,"//\"+":5330,"Ġ138":5331,"à¦¨à¦®à¦ľ":5332,"Ġ180":5333,"àª¿":5334,"à§¨à§¦à§¦à§ª":5335,"à§§à§¯à§¯à§Ń":5336,"Ġ$(\"#-\").(":5337,"Ġ='://.//":5338,"æľ¬":5339,")?":5340,"644":5341,"?.(":5342,"[^":5343,"±Û":5344,"Îµ":5345,"âĶ":5346,"à¦¯à¦°à¦¸":5347,"à¦Łà¦°à¦¬":5348,"Ġà¦Ĩà¦¬à¦°à¦£":5349,"à¦ĩà¦ŀ":5350,"à¦¹à¦ľà¦¨à¦ķ":5351,"à¦¼à§ĩ?":5352,"à¦¥à¦¦à¦¨":5353,"Ġà¦°à¦Ł":5354,"Ġà¦°à¦£à¦ķ":5355,"Ġà¦¯à¦ķ":5356,"Ġ('":5357,"Ġà¦ļà¦ķà¦²":5358,"Ġà¦ĵà¦ľ":5359,"Ġà¦īà¦ľà¦¬":5360,"Ġà¦ĩà¦¶à¦ķ":5361,"Ġà¦¥à¦²":5362,"à§ĥà¦ĥ":5363,"Ġà¦«à¦¸":5364,"à§®à§¦à§¦":5365,"à¦ħà¦ŀ":5366,"à¦ħà¦¥à¦¬":5367,"Ġà§©à§«à§¦":5368,"à¤Ł":5369,"...'":5370,"Ġà¦¸à¦¹à¦¨à¦¶":5371,"à¦¬à¦²à¦ĩ":5372,"Ġà¦¬à¦Ľà¦°à¦ĵ":5373,"à¦ĩà¦Łà¦ĵà¦¯":5374,"Ġà¦łà¦ķ":5375,"ĠØ§ÙĦØ·":5376,"à¦ıà¦¨à¦¡":5377,"Ġ019":5378,"Ġà¦«à¦²à¦¶":5379,"2017":5380,"Ġ41":5381,"Ġ42":5382,"Ġà§§à§§à§ª":5383,"Ġà§§à§¬à§¦":5384,"à®¤":5385,"Ġà¦ļà¦ķà¦ļà¦ķ":5386,"176":5387,"Ġà¦Ĺà¦łà¦¨à¦®":5388,"140":5389,"Ġà§¨à§©à§¦":5390,"à§§à§¨à§®":5391,"à²Ĥ":5392,"à§¨à§¨à§¨à§©":5393,"Ġà§§à§¯à§Ńà§¬":5394,"601":5395,"à¦Ĩà¦¤à¦Ļ":5396,"à³Ĩ":5397,"Ġâĸł":5398,"ÑĢÑĥÑģ":5399,"âĶĢ":5400,"();":5401,"(\"#":5402,":\"\")+":5403,";>":5404,"?..+\"":5405,"\\?":5406,"_=":5407,"à¦¨à¦¬à¦°":5408,"Ġà¦ķà¦¹":5409,"à¦Łà¦¯":5410,"à¦ľà¦¶à¦¨":5411,"à¦¶à¦¸à¦®":5412,"à¦¹à¦¤à¦°":5413,"Ġà¦¹à¦ĩà¦¨":5414,"à¦·à¦ľà¦¨à¦ķ":5415,"Ġà¦¤à¦²à¦¦":5416,"Ġà¦Ĺà¦¹":5417,"Ġà¦ĵà¦ıà¦®à¦ıà¦¸":5418,"Ġà¦ĩà¦¶à¦°":5419,"Ġà¦ľà¦¨à¦¶à¦ķ":5420,"Ġ'-":5421,"Ġ,,,":5422,"Ġà¦¸à¦¹à¦§à¦°":5423,"Ġà¦¸à¦¹à¦ľà¦²à¦Ń":5424,"Ø§Ùĥ":5425,"Ġà¦ıà¦¸à¦ķà¦²":5426,"Ġà¦ħà¦¸à¦Ļ":5427,"ĠØ§ÙĦØŃ":5428,"Ġ57":5429,"à¦Ĩà¦°à¦¡":5430,"Ġà§§à§«à§¦à§¦":5431,"Ġà¦Īà¦°":5432,"à¦Ĺà¦£à¦ķ":5433,"Ġà§§à§Ńà§¦":5434,"Ġà¦ħà¦²à¦¸":5435,"152":5436,"Ġà¦Ĩà¦ĩà¦¸à¦ķ":5437,"130":5438,"Ġà¦Ĺà¦łà¦¨à¦¤à¦¨":5439,"à¦¿?'":5440,"à¦¾!!":5441,"Ġà¦ĭà¦¨":5442,"===!":5443,"à°¸":5444,"à¦ĩà¦Ľà¦¡":5445,"à¥¤à¥¤-":5446,"ðŁĺ":5447,"697":5448,"'+(-":5449,"Ġà§§à§¯à§®à§§":5450,",=/):":5451,"ĠØ§ÙĦØ³ÙĦØ§Ùħ":5452,"ÑģÐºÐ¸Ð¹":5453,"..$:":5454,"\"===?\"":5455,"!=.(\"..\")?''":5456,"!=.(\"..\")à¥¤à¥¤-":5457,"-\":\"":5458,"(\".\").(\":(:)\").(":5459,"),.(\"\"),.(\"\"":5460,"-=\"+":5461,"æĹ¥":5462,"//\"+..:":5463,"?..+\"//\"+..:":5464,"!=.(\"..\")?'':\"\")+":5465,"/--":5466,"510":5467,"=..":5468,"]\"":5469,"}(":5470,"Â¦":5471,"ĠÑĤ":5472,"à§ĩ_":5473,"à¦¯à¦ŀ":5474,"à¦¬à¦²à¦ķ":5475,"Ġà¦¬à¦īà¦¯":5476,"à¦Łà¦§à¦°":5477,"Ġà¦®à¦¦à¦¦":5478,"à¦ĩà¦ªà¦°":5479,"à¦ĩà¦«à¦¤":5480,"à¦Ĺà¦¯":5481,"à¦·à¦¹":5482,"à¦·à¦ªà¦°":5483,"à¦·à¦ªà¦¥":5484,"à¦¡à¦¯":5485,"à¦¡à¦ľ":5486,"Ġà¦ĩà¦Ľ":5487,"à§ĥ-":5488,"à¦°à¦¤à¦¨":5489,"à¦łà¦Ĺà¦¡":5490,"Ġà¦ľà¦¨à¦®":5491,"à¦¾à¦ģ'":5492,"à¦¼à¦¿'":5493,"à§İà¦¬":5494,"Ġà¦¹à¦²à¦Ł":5495,"Ġà¦§à¦°à¦¨à¦Ł":5496,"à¦ħà¦ļ":5497,"à¦ħà¦Ļ":5498,"...)":5499,"à¦¨à¦¤à¦¤":5500,"à¦°à¦¨à¦¬":5501,"à¦®à¦²à¦¦":5502,".(\"\")":5503,"à¦ķà¦Łà¦¤à¦®":5504,"Ġà¦ħà¦§à¦°":5505,"ÙĨØª":5506,"à¦¸à¦¨à¦¬":5507,"à¦¦à¦¸à¦ĩ":5508,"Ġà¦Ŀà¦²":5509,"Ġà¦Ŀà¦²à¦¸":5510,"Ġà¦ħà¦ªà¦ļà¦¯":5511,"209":5512,"2022":5513,"2013":5514,"Ġ53":5515,"ÙĪÙĩ":5516,"à¦ĩà¦«à¦īà¦¦":5517,"à¦®à¦Ĺà¦£":5518,"à¦ĩà¦Ńà¦¸":5519,"Ġà§§à§®à§Ń":5520,"Ġ183":5521,"Ġà¦ĭà¦·":5522,"à¸±":5523,"à°¿":5524,"Ġà¦Ĩà¦Łà¦ľà¦¨":5525,"à¦ħà¦ªà¦°à¦¦":5526,"Ġà§©à§Ńà§¦":5527,"à¦¯à¦Łà¦ķà¦¬":5528,"à§§à§¯à§¯à§®":5529,"ÑĢÐ°Ñ":5530,"à§§à§¨à§¦à§©":5531,"Ð¼Ð°":5532,"(+":5533,".@.":5534,"})}}":5535,"¹ģ":5536,"Ñĭ":5537,"Ñĸ":5538,"Ùŀ":5539,"å¤":5540,"ç¹ģ":5541,"èª":5542,"Ļ¦":5543,"à¦°à¦²à¦¯":5544,"à¦¸à¦¦à¦ķ":5545,"Ġà¦¸à¦ľà¦²":5546,"à¦Łà¦Ļ":5547,"à¦Ĺà¦®à¦ķ":5548,"Ġà¦ıà¦®à¦¤":5549,"Ġà¦ħà¦¹à¦¨":5550,"à¦£à¦®à¦¨":5551,"Ġà¦ļà¦®à¦¤":5552,"Ġà¦ĩà¦Łà¦Ń":5553,"Ġà¦¥à¦¬à¦ķ":5554,"à¦°à¦¤à¦ķà¦°":5555,"à¦ıà¦²à¦¸":5556,"Ġà¦ľà¦¨à¦ĩ":5557,"Ġà¦īà¦ªà¦ª":5558,"Ġ.\").(":5559,"Ġ,\"":5560,"Ġ\"\".":5561,"à¤¼":5562,"Ġà§ªà§§à§©":5563,"à¦®à¦ķà¦Ń":5564,"à¦ļà¦²à¦ļ":5565,"à¦Ĺà¦²à¦¦":5566,"ÙĪÙģ":5567,"Ġà¤¦":5568,"Ġ91":5569,"Ġ703":5570,"à¦¨à¦°à¦ĵà¦¯":5571,"Ġ.((){":5572,"ĠâĹ":5573,"2550":5574,"à§¨à§¦à§¦à§©":5575,"à¦ıà¦ĸà¦¨à¦ĵ":5576,"ÙĮØĮ":5577,"\"\"===à¥¤à¥¤":5578,"ÐºÐ°":5579,"Ġà§§à§¯à§®à§¨":5580,"Ġà§§à§¯à§®à§¯":5581,"\"\",(){":5582,"à§Ńà§§à§§à§Ń":5583,"Ġà¦ħà¦ªà¦¹à¦°à¦£à¦ķ":5584,"99999":5585,"ÑĥÐº":5586,"ĠØ±Ø¶Ùī":5587,"=[]":5588,"_');":5589,"²àº":5590,"æĪ":5591,"ĹÐ½":5592,"à¦¾--":5593,"à¦¯à¦¹à¦¤":5594,"à¦¬à¦ĵà¦¯":5595,"à¦¸à¦¶à¦¸":5596,"Ġà¦Ĩà¦Łà¦²":5597,"Ġà¦¦à¦°à¦¸":5598,"Ġà¦ħà¦¦à¦®":5599,"à¦§à¦ĩ":5600,"à¦§à¦°à¦£":5601,"à¦¥à¦¸à¦®":5602,"à¦ĸà¦ķà¦°":5603,"à¦ĸà¦ķà¦ķ":5604,"à¦īà¦ªà¦¸":5605,"Ġà¦«à¦²à¦ķ":5606,"Ġà¦«à¦Łà¦ķ":5607,"à¦ıà¦¯":5608,"à¦¬à¦¨à¦¨à¦Ĺà¦°":5609,"Ġ'+":5610,"Ġà¦Ĩà¦²à¦®à¦ķ":5611,"Ġ,'":5612,"à¦¸à¦¬à¦¹":5613,".().(":5614,"Ġ39":5615,"Ġ350":5616,"à¦ļà¦²à¦Ĺ":5617,"Ġà§§à§¦à§Ń":5618,"Ġà§§à§¯à§®à§®":5619,"à§§à§¯à§¯à§¬":5620,"Ġà§¨à§ªà§¦":5621,"Ġà¤ľ":5622,"Ġà§§à§¨à§¯":5623,"228":5624,"à¦ıà¦®à¦ĵ":5625,"à§ĩ?\"":5626,"Ġà§§à§ªà§¬":5627,"à®ª":5628,"Ġà§¨à§©à§¯":5629,"Ø¬Ø¯":5630,"Ġà¦Ńà¦¬à¦¨à¦Ł":5631,"Ġà¦ªà¦¦à¦ķà¦ª":5632,"à¦¿.,":5633,"à¸ĩ":5634,"à¶±":5635,"Ġà¦¨à¦Ĺà¦°à¦ķ":5636,"àº²àº":5637,"[\\]]":5638,"Î¹Î":5639,"ÑĢÑĥÑģÑģÐºÐ¸Ð¹":5640,"æĹ¥æľ¬":5641,"ÑĢÐ°ÑĹÐ½":5642,"ĠâĹĪ":5643,"(,,){":5644,"ä¹":5645,"ĠÏ":5646,"à§±":5647,"à§ĩ(":5648,"à¦¿à¦¾":5649,"à¦¬à¦ªà¦ķ":5650,"à¦¦à¦®à¦¯":5651,"Ġà¦¹à¦īà¦ķ":5652,"Ġà¦¦à¦°à¦¦":5653,"à¦¼à¦¾?":5654,"à¦§à¦¯":5655,"à¦§à¦§à¦°":5656,"à¦ļà¦Ľ":5657,"Ġà¦¯à¦·":5658,"Ġà¦ļà¦£":5659,"à¦«à¦ľ":5660,"Ġà¦ıà¦ķà¦ĩà¦¸":5661,"à¦īà¦®à¦°":5662,"à¦łà¦¬":5663,"à¦Ĩà¦¹à¦¤":5664,"Ġà¦¡à¦°":5665,"à¦°à¦£à¦ĵ":5666,"à¦ªà¦°à¦¦":5667,"Ġ2007":5668,"à¦ĩà¦¨à¦Ĺ":5669,"à¦ĥ)'":5670,"Ġà¦¸à¦¹à¦¬":5671,"Ġà¦Ĩà¦¦à¦¬":5672,"à¦¶à¦ķà¦ķ":5673,"Ġ49":5674,"à¦¼à§ģ,":5675,"Ø¨Ø§Ø¨":5676,"Ġà¤ĩ":5677,"Ġ67":5678,"Ġà§§à§«à§«":5679,"Ġ108":5680,"103":5681,"à¦¿):":5682,"154":5683,"ĠØ¨ÙĨ":5684,"Ġà¦ĭà¦¦":5685,"Ġui":5686,"à¸£":5687,"574":5688,"\".-\").(":5689,"886":5690,"=(,){":5691,"Ġà¦¦à¦®à¦ķà¦²":5692,"à·Ģ":5693,"à·ı":5694,"ÑģÑĮ":5695,"Ġà°¸":5696,"8802550":5697,"999999999":5698,"à§®à§®à§¦à§¨à§¯à§©à§ªà§¬":5699,"à§®à§®à§¦à§¨à§®à§©":5700,"èªŀ":5701,"ÑĥÐºÑĢÐ°ÑĹÐ½":5702,"æĹ¥æľ¬èªŀ":5703,"8802550122":5704,"/]":5705,"321":5706,"Î¬":5707,"à¦°à¦¡à¦ķ":5708,"à¦¿[":5709,"à¦¤à¦Ńà¦°":5710,"à¦²à¦īà¦¦":5711,"à¦¬à¦¶à¦ķ":5712,"à¦ªà¦¦à¦ķ":5713,"Ġà¦¨à¦Īà¦®":5714,"Ġà¦ıà¦¹à¦¸":5715,"Ġà¦ıà¦ıà¦«à¦ª":5716,"à¦¹à¦ķà¦ķ":5717,"Ġà¦¹à¦°à¦£":5718,"Ġà¦ķà¦°à¦°":5719,"Ġà¦ħà¦°à¦ķ":5720,"à¦Ĥà¦ĥ":5721,"Ġà¦°à¦®à¦£":5722,"à¦£à¦ļ":5723,"Ġà¦ĩà¦¨à¦¬à¦ķ":5724,"Ġà¦¸à¦®à¦ªà¦°":5725,"Ġà¦ľà¦¨à¦¬":5726,"Ġà¦ľà¦¨à¦ķà¦²":5727,"Ġ229":5728,"Ġ226":5729,"Ġà¦§à¦®à¦¨":5730,"à¦ĩà¦¨à¦ļ":5731,"Ġà¦īà¦ªà¦®":5732,"à§Ńà§¦à§¦":5733,"Ġà¦Ĩà¦Ĺà¦°à¦¤à¦²":5734,"à¦ĺà¦¶":5735,"à¦īà¦¨à¦Ł":5736,"à¦ĩà¦²à¦ķ":5737,"Ġà¦¸à¦¬à¦ķà¦Ł":5738,"Ġà¦Ĩà¦¨à¦Ń":5739,"Ġà¦¸à¦¹à¦ļà¦°":5740,"Ġà¦¬à¦Ľà¦°à¦Ĺ":5741,"Ġà§ªà§«à§¦":5742,"ĠØ§ÙĦØ²":5743,"Ġ018":5744,"à¦ĩà¦¸à¦Ł":5745,"Ġ65":5746,"Ġ95":5747,"222":5748,"à¦¾.-":5749,"Ġà¦ķà¦¤à¦ĸ":5750,"Ġ190":5751,"à§§à§¨à§«":5752,"365":5753,"!!!!":5754,"à§©à§«à§¯":5755,"Ġà§©à§Ńà§¯":5756,"à·Ĭ":5757,"Ð°Ð·":5758,"Ġà§§à§¯à§®à§©":5759,"Ø§Ø±Ø³ÛĮ":5760,"ä¸į":5761,"à¹Ħà¸":5762,"Ġà¦¶à¦°à¦£à¦ĸ":5763,"à®ķà®³":5764,"________":5765,",,,,,,,,":5766,"à¦ıà¦¸à¦ıà¦®à¦ıà¦®à¦ĩà¦ī":5767,"âĿı":5768,"ÙģØ³ÙĬØ±":5769,"Ġà¦Ŀà¦²à¦®à¦²":5770,"ÑģÑĮÐºÐ°":5771,"ÑĥÐºÑĢÐ°ÑĹÐ½ÑģÑĮÐºÐ°":5772,"uc":5773,"ç®":5774,"à¦¨à¦®à¦¯":5775,"à¦¨à¦°à¦ķà¦®":5776,"à¦ķà¦ªà¦¥":5777,"à¦®à¦īà¦¦":5778,"Ġà¦ķà¦ĩà¦Ľ":5779,"Ġà¦¸à¦ĩà¦¤":5780,"à¦¦à¦ľ":5781,"à¦ªà¦²à¦¸":5782,"à¦ªà¦ļà¦°":5783,"Ġà¦Ĩà¦īà¦¸":5784,"à¦¶à¦§":5785,"à¦ĩà¦ı":5786,"à¦ĩà¦¶à¦¨":5787,"Ġà¦¹à¦°à¦ª":5788,"Ġà¦¹à¦°à¦ķà¦°":5789,"à¦·à¦ķà¦²":5790,"à¦¥à¦ĩ":5791,"Ġà¦°à¦Ĺ":5792,"à¦£à¦§":5793,"à¦ĵà¦Ĩà¦ĩ":5794,"Ġà¦ļà¦°à¦£":5795,"à¦łà¦®":5796,"Ġà¦ħà¦¨à¦¸":5797,"à¦ıà¦²à¦ª":5798,"à¦ıà¦°à¦ķà¦®":5799,"à¦°à¦®à¦¹":5800,"à¦ĥ)-":5801,"Ġà¦¸à¦¹à¦¨":5802,"à¦ķà¦Łà¦ª":5803,"à¦ıà¦¸à¦ĩà¦°":5804,"Ġà¦Ĩà¦ĩà¦¨à¦¤":5805,"Ġà§§à§¦à§ª":5806,"Ġà¦¶à¦°à§İ":5807,"Ġà§§à§¯à§ªà§®":5808,"Ġ43":5809,"à¦Łà¦°à¦°":5810,"à¦ħà¦¨à¦¶à¦¨":5811,"Ġ864":5812,"Ġà¤Ń":5813,"à¦ıà¦®à¦ľ":5814,"Ġà¦Ĩà¦¹à¦¹à¦¹":5815,"127":5816,"à¦Īà¦«":5817,"Ġà§§à§©à§ª":5818,"à§¨à§ªà§Ń":5819,"131":5820,"137":5821,"Ġà§¨à§¬à§§":5822,"],[\"\"+":5823,"272":5824,"à±ĭ":5825,"Ġ#>>":5826,"\"\"===.(,":5827,"ÐºÐµÐ´":5828,"Ð°ÑĢ":5829,"\")){":5830,"Ġà§§à§¯à§¬à§ª":5831,"Ð¸Ðº":5832,"à¹Ģ":5833,"},(,){":5834,"Ġà¦¨à¦Łà¦°à¦¡":5835,"Ð¾Ð½ÑģÐºÐ¸":5836,"é«Ķ":5837,"Ð¼Ð°ÐºÐµÐ´":5838,"Î¹Îº":5839,"\"\"===.(,\"\")":5840,"Ð¼Ð°ÐºÐµÐ´Ð¾Ð½ÑģÐºÐ¸":5841,".:":5842,"322":5843,"[[":5844,"~~":5845,"Ð²":5846,"áŁ":5847,"à¦°à¦Łà¦¨":5848,"à¦°à¦¡à¦¬":5849,"à¦¨à¦ªà¦¨":5850,"à¦¨à¦Ŀ":5851,"à¦¤à¦²à¦ķ":5852,"à¦¬à¦ĸ":5853,"Ġà¦®à¦°à¦®":5854,"à¦ĩà¦¶à¦¦":5855,"Ġà¦¤à¦ĵà¦¬":5856,"à¦§à¦Ĺà¦²":5857,"à¦ļà¦ķà¦¦":5858,"Ġà¦²à¦¬":5859,"à§ĥ.":5860,"Ġà¦ıà¦ķà¦ķà¦Ń":5861,"à¦°à¦ķà¦ķ":5862,"Ġà¦ħà¦¨à¦¡":5863,"Ġà¦Ľà¦¦":5864,"Ġà¦ľà¦¨à¦¦":5865,"Ġà¦Łà¦°à¦¨":5866,"Ġà¦§à¦²":5867,"Ġ'&=":5868,"à§ĩ,'":5869,"à¦ĩà¦¨à¦°":5870,"Ġà¦īà¦ªà¦¡":5871,"Ġà¦®à¦¨à¦ª":5872,"Ġà¦Ĩà¦¸à¦¸":5873,"à§¬à§¦à§¦":5874,"Ġà¦¸à¦¬à¦ĸ":5875,"à¦ħà¦¸à¦¹":5876,"à¦¬à¦²à¦ľ":5877,"ÙĬØª":5878,"ÙĬÙĥ":5879,"Ġà§®à§©à§©":5880,"à¦®à¦ķà¦¥":5881,"à¦¾'-":5882,"Ġà¦ĩà¦īà¦²":5883,"Ġà¦ĩà¦īà¦Ĩà¦ĩà¦ıà¦¸à¦¸":5884,"Ġà¦ħà¦ªà¦¹":5885,"Ġà§¦à§¯à§¬":5886,"Ġà¦ıà¦¨à¦Ń":5887,"ÙĪØª":5888,"Ġ89":5889,"Ġ62":5890,"Ġà§§à§¨à§§":5891,"Ġà§§à§§à§®":5892,"ĠØ¹Ø¨":5893,"Ġà¦Ĩà¦¹à¦ĵà¦¯":5894,"Ġà¦¹à¦ķà¦ķ":5895,"0985":5896,"216":5897,"Ġ195":5898,"Ġà¦ħà¦²à¦Ĩà¦īà¦Ł":5899,"243":5900,"151":5901,"Ġà¦Ĩà¦ĩà¦ļ":5902,"Ġ154":5903,"Ġ'',":5904,"Ġà§¨à§¨à§®":5905,"350":5906,"à§¨à§«à§¦":5907,"à¯ģ":5908,"à±Ģ":5909,"\"\",\"\"":5910,"ĠðŁĳ":5911,"Ġà¦°à¦®à¦°à¦®":5912,"Ġà§§à§¯à§¬à§¨":5913,"à¦£à¦ªà¦¦à¦ķ":5914,"Ġ$(\"#_":5915,"Ġà¦ķà¦¦à¦®à¦¤à¦²":5916,"Î»Î»":5917,"(\"\"===..":5918,"+='":5919,"-(":5920,"]:":5921,"]?\"\":":5922,"Î½":5923,"à¦ķà¦¨à¦¸":5924,"Ġà¦ķà¦¤à¦¬":5925,"Ġà¦®à¦Łà¦°à¦¸":5926,"à¦¶à¦ªà¦¤":5927,"à¦¹à¦¬à¦¨":5928,"à¦¡à¦²à¦¸":5929,"Ġà¦ħà¦¥":5930,"Ġà¦ħà¦°à¦¬":5931,"à¦§à¦Ľ":5932,"à¦¥à¦°à¦ķ":5933,"à¦ĸà¦ªà¦¤":5934,"Ġà¦°à¦ľà¦¬":5935,"à¦Ńà¦ª":5936,"Ġà¦ĸà¦¤à¦®":5937,"Ġà¦Ĩà¦®à¦¤":5938,"à¦Ĩà¦ŀ":5939,"à¦Ĩà¦¹à¦¸":5940,"à¦Ĩà¦ĵà¦«":5941,"Ġ257":5942,"Ùİ:":5943,"Ġà¦ıà¦ĩà¦°":5944,"Ġ').(":5945,"Ġ:;":5946,"à¦¬à¦²à¦²":5947,"Ġà¦¸à¦°à¦ĵà¦¯":5948,"à¦¹à¦°à¦ª":5949,"ĠØ§Ø³":5950,"Ġà¦ªà¦¦à¦Ĺ":5951,"Ġà¦ĩà¦īà¦ıà¦¸à¦¬":5952,"Ġà§§à§¯à§«à§¦":5953,"Ġà§¦à§¨à§¨à§¨à§©":5954,"à¦¹à¦¨à¦Ĺà¦ŀ":5955,"à¦°à¦ľà¦®":5956,"Ġà§§à§¨à§®":5957,"Ġà§§à§«à§Ń":5958,"109":5959,"Ġ131":5960,"\",\":":5961,"190":5962,"148":5963,"à¦ıà¦«à¦ĩà¦īà¦ľ":5964,".){":5965,"253":5966,"255":5967,"===[":5968,"Ġgs":5969,"373":5970,"ĠØªÙģØ³ÙĬØ±":5971,"Ġà¦Ĩà¦Łà¦ĺà¦°":5972,"ĠØ³Ú©":5973,"([$]":5974,"Ġà§©à§®à§Ń":5975,".,.,(){":5976,".-.":5977,"Ġ{{}}":5978,"Ġà¦®à¦«à¦®":5979,"à§§à§¨à§¦à§Ń":5980,"..$.(":5981,"!==[":5982,"[],=":5983,"Ð±Ñ":5984,"]à¥¤à¥¤\"\"===..":5985,"Ġà¦Ľà¦Łà¦«à¦Ł":5986,"?((),()):()&&":5987,"æĺ¯":5988,";>;++":5989,"ç¹ģé«Ķ":5990,"ç®Ģ":5991,".,.,(){..()":5992,"/%":5993,"524":5994,"µŃ":5995,"Î·":5996,"êµŃ":5997,"íķ":5998,"ľêµŃ":5999,"à¦°à¦¬à¦¸":6000,"à¦°Ã¦":6001,"à§ĩ..":6002,"à¦¨à¦ľà¦°":6003,"à¦ķà¦¸à¦¬":6004,"à¦®à¦¶à¦¤":6005,"Ġà¦¬à¦ĩà¦²":6006,"Ġà¦¬à¦°à¦¦":6007,"à¦ªà¦®à¦¨":6008,"à¦ľà¦°à¦¤":6009,"à¦Ĺà¦°à¦¦":6010,"à¦·à¦¡":6011,"Ġà¦ħà¦¸à¦®à¦¯":6012,"Ġà¦ħà¦¥à¦°":6013,"à¦§à¦¡":6014,"à¦§à¦Ĺà¦®":6015,"Ġà¦ľà¦ķ":6016,"à¦ĵà¦¬à¦¨":6017,"Ġà¦ļà¦ª":6018,"Ġà¦ĩà¦¤à¦°":6019,"à¦īà¦ĩà¦²":6020,"à¦¬à¦°à¦ĸ":6021,"Ġ221":6022,"Ġ-)":6023,"Ġ.'":6024,"à¦¦à¦°à¦Ń":6025,"à¦¦à¦¨à¦¬":6026,"à¦²à¦¨à¦ª":6027,"à¦¤à¦¨à¦¶":6028,"à¤Ī":6029,"à¤ı":6030,"Ġà§¨à§¦à§¨à§ª":6031,"Ġà¦ħà¦¬à¦¯":6032,"à¦²à¦¤à¦ĸ":6033,"à¦°à¦¥à¦®à¦Ł":6034,"à¦¤à¦ķà¦¥à¦¨":6035,"Ġà¦ħà¦¸à¦ļ":6036,"Ġà¦Ĩà¦¦à¦®à¦¦":6037,"Ġà§§à§¯à§«":6038,"Ġà§§à§¯à§©à§¦":6039,"Ġà§§à§¯à§«à§¨":6040,"205":6041,"Ġ59":6042,"Ġà¦ıà¦¨à¦Ĩà¦ĩà¦¬":6043,"Ġà¦Ĺà¦£à¦ľ":6044,"Ġ83":6045,"Ġà§§à§¨à§Ń":6046,"224":6047,"Ġà§§à§ªà§§":6048,"Ġ.(,'":6049,"à¦¯à¦¸à¦ļ":6050,"Ġà§¨à§§à§¦":6051,"Ġ1441":6052,"Ġà¦Ĩà¦ĩà¦ĩà¦¡":6053,"âĨĴ":6054,"à§ĩ!!":6055,"ĠÙĦÙĦÙħ":6056,"357":6057,"à¸Ļ":6058,"Ġ>=":6059,"').('":6060,"').((){":6061,"Ġ260":6062,"490":6063,"Ġà§¦à§§à§Ńà§§à§¬":6064,"ÙĦØ§Ø©":6065,"::>--":6066,"à¦ĭà¦¦":6067,"ä½ĵ":6068,"âĹķ":6069,"Ġ$('#_').((){":6070,"ÎµÎ»Î»":6071,"ç¹ģé«Ķä¸Ńæĸĩ":6072,"íķľêµŃ":6073,"Ġ.(,'_');":6074,"%';":6075,"380":6076,"550":6077,"></>":6078,"Â·":6079,"à¦¯à¦ªà¦ķ":6080,"à¦²à¦¸à¦®":6081,"à¦²à¦¸à¦¨":6082,"à¦¸à¦®à¦¨":6083,"à¦¸à¦°à¦¶":6084,"Ġà¦Ĩà¦ĵà¦²":6085,"à¦¶à¦§à¦°":6086,"à¦Ĺà¦²à¦¨":6087,"Ġà¦ıà¦ĵà¦¯":6088,"Ġà¦ıà¦®à¦¸":6089,"Ġà¦¦à¦ĸ":6090,"Ġà¦ħà¦Ľ":6091,"à¦¥à¦ªà¦°":6092,"à¦ĸà¦ļ":6093,"Ġ(:":6094,"Ġà¦ĵà¦¸à¦¬":6095,"Ġà¦ĩà¦ľà¦°":6096,"à¦«à¦¸à¦²":6097,"Ġà¦²à¦¬à¦¨":6098,"Ġà¦«à¦¡":6099,"à¦°à¦ķà¦Ł":6100,"Ġà¦ħà¦¨à¦®":6101,"à¦ıà¦ĩà¦Ł":6102,"à¦Ĩà¦°à¦ķ":6103,"à¦¬à¦¨à¦¸à¦Ļ":6104,"à¦ľà¦¨à¦Ĺà¦£":6105,"à¦¤à¦°à¦«":6106,"à¦°à¦¹à¦Ł":6107,"Ġà¦Ĩà¦¬à¦Ľ":6108,"Ġà¦¹à¦²à¦«à¦¨":6109,"à¦¤à¦¨à¦Ĺ":6110,"à¦¯à¦¬à¦¯":6111,"Ġà¦®à¦¹à¦¤":6112,"Ġà§¨à§¦à§¨à§©":6113,"Ġà¦¸à¦°à¦Ĺà¦°à¦®":6114,"à¦¸à¦¹à¦¯":6115,"à¦¸à¦¨à¦¤à¦¨":6116,"à¦¨à¦¬à¦¬":6117,"ÙħÙĦ":6118,"ĠØ§ÙĦØ¢":6119,"Ġ380":6120,"à¦Ĺà¦²à¦®à¦¹à¦²":6121,"Ġ68":6122,"Ġà§§à§¨à§ª":6123,"Ġ75":6124,"Ġ110":6125,"Ġà¦ķà¦¨à¦ľ":6126,"Ġà¦ħà¦Ĺà¦¸":6127,"Ġà§§à§¬à§ª":6128,"Ġ_>":6129,"à¦ĵà¦²à¦ľ":6130,"138":6131,"164":6132,"168":6133,".)-":6134,"Ġà§¨à§Ńà§©":6135,"Ġuc":6136,"Ġus":6137,"290":6138,"à¦ıà¦ĩà¦ļà¦ıà¦®":6139,"...............":6140,"à¸ģ":6141,"://.":6142,"&='":6143,"Ġà¦®à¦¦à¦¸à¦¹":6144,"à·ĥ":6145,"///\"+":6146,"Ġ.--.":6147,"Ġ((>=":6148,"Ø®ØªØµØ±":6149,"Î¹ÎºÎ¬":6150,"Î½Î¹ÎºÎ¬":6151,"Ġà§¦à§¨à§¨à§¨à§©à§©à§«à§¯":6152,"Î·Î½Î¹ÎºÎ¬":6153,"ÎµÎ»Î»Î·Î½Î¹ÎºÎ¬":6154,"+'":6155,"031":6156,"×¨":6157,"åı":6158,"ìĸ":6159,"ĠÑ":6160,"ĬÐ»":6161,"à¦¤à¦¡":6162,"à¦¤à¦¸à¦®":6163,"à¦ķà¦Ĩà¦īà¦Ł":6164,"à¦¬à¦ī":6165,"à¦¸à¦ľà¦¨":6166,"à¦¸à¦ĺ":6167,"à¦¦à¦°à¦¤":6168,"à§ĭ_":6169,"à§Ģ.":6170,"Ġà¦®à¦°à¦¤":6171,"à¦Ĺà¦ķà¦°":6172,"Ġà¦¨à¦¬à¦¦":6173,"Ġà¦ıà¦«à¦¸":6174,"à¦¹à¦¨à¦¤":6175,"Ġà¦¦à¦®à¦ķ":6176,"à¦¡à¦Łà¦ķà¦®":6177,"à¦£à¦ĩ":6178,"à¦£à¦ļà¦°":6179,"Ġà¦¶à¦°à¦¨":6180,"Ġà¦¯à¦¤à¦¬":6181,"Ġà¦ĩà¦ľà¦®":6182,"à¦«à¦ª":6183,"Ġà¦¬à¦²à¦§":6184,"Ġà¦Ĩà¦°à¦«":6185,"Ġ:))":6186,"à¦°à¦¬à¦ļ":6187,"à¦°à¦¬à¦®à¦¯":6188,"à¦·à¦£à¦¶":6189,".((){":6190,"ÙĨØ¯":6191,"ÙĨÙĥ":6192,"ÙĬØ³":6193,"à§İà¦¸à¦ķà¦ķ":6194,"à¦ıà¦°à¦ĩ":6195,"à¦¬à¦¤à¦¸":6196,"à¦¬à¦¤à¦ĩ":6197,"Ġ58":6198,"Ġà¦īà¦²à¦«":6199,"à¦ĩà¦®à¦§":6200,"Ġ84":6201,"Ġ61":6202,"Ġ63":6203,"Ġ97":6204,"Ġ73":6205,"Ġà§§à§ªà§¦à§¦":6206,"Ø¹Ø©":6207,"Ġà§§à§©à§©":6208,"Ġ196":6209,"Ġ199":6210,"Ġ142":6211,"ØŃØ©":6212,"136":6213,"Ġ247":6214,"à²¾":6215,"à²¿":6216,"***":6217,"à°¯":6218,"Ġà§§à§¯à§Ńà§Ń":6219,"à¦¬à¦Ľà¦°à¦ĩ":6220,"à§¨à§¦à§¦à§«":6221,"Ġà§©à§¬à§¦":6222,"ÑģÑĢ":6223,"à§§à§¯à§¯à§¨":6224,"ĠàªĹ":6225,"Ø¢Ø¡":6226,"âĢ²âĢ²":6227,"Ð³Ð°ÑĢ":6228,"Ġà¦¸à¦¹à¦®à¦¤":6229,"Ð¿ÑģÐºÐ¸":6230,"Ð±ÑĬÐ»":6231,"íķľêµŃìĸ":6232,"Ð³Ð°ÑĢÑģÐºÐ¸":6233,"Ð±ÑĬÐ»Ð³Ð°ÑĢÑģÐºÐ¸":6234,"íķľêµŃìĸ´":6235,"029":6236,">.":6237,"×¢":6238,"×ĳ":6239,"è¿":6240,"Ġà¦¼":6241,"Ġà¦Ĩà¦Łà¦ª":6242,"à¦ľà¦ķà¦¦":6243,"à¦¶à¦°à¦¤":6244,"à¦Ĺà¦¶":6245,"à¦¹à¦¶":6246,"à¦¹à¦ªà¦°":6247,"à¦¼à§ĩ)":6248,"à¦¼à§ĩà¦ĥ":6249,"Ġà¦ħà¦ªà¦ķ":6250,"à¦Ńà¦¶":6251,"à¦Ńà¦Ĺà¦¬":6252,"à¦£à¦ķà¦°":6253,"Ġà¦¶à¦°à¦¦":6254,"à¦ĵà¦ľ":6255,"à¦ĵà¦ľà¦¨":6256,"Ġ(..)":6257,"Ġà¦Ĺà¦¹à¦°":6258,"Ġà¦ļà¦Łà¦ķ":6259,"Ġà¦ļà¦ĵà¦¡":6260,"Ġà¦ĵà¦«":6261,"à¦«à¦¦":6262,"à¦«à¦°à¦®":6263,"Ġà¦ĸà¦ª":6264,"Ġà¦ħà¦¨à¦¤":6265,"Ġà¦ľà¦¨à¦®à¦¨":6266,"Ġà¦ľà¦¨à¦¸à¦¹":6267,"à¦Ĩà¦¦à¦°":6268,"Ġ217":6269,"Ġ')":6270,"à¦¤à¦°à¦®":6271,"à¦°à¦¹à¦ķ":6272,"à¤¥":6273,"Ġà¦ıà¦²à¦¸":6274,"Ġà¦Ĩà¦¦à¦¤":6275,"Ġ=\"://":6276,"Ġà¦ªà¦¦à¦¯":6277,"Ġà¦ªà¦¦à¦¸":6278,"Ġà§¨à§ªà§Ń":6279,"Ġ98":6280,"225":6281,"Ġà§§à§«à§¯":6282,"Ġà¦Ĩà¦ªà¦¸":6283,"à¦¬à¦¶à¦°":6284,"à¦ķà¦¸à¦Ļ":6285,"Ġà¦ıà¦®à¦ıà¦¸":6286,"Ġà¦Ĩà¦«à¦¨":6287,"Ġio":6288,"\",:":6289,"à¦ıà¦«à¦Ĩà¦ĩà¦¸":6290,"Ġ173":6291,"Ġà§¨à§¨à§Ń":6292,"à¦¾)-":6293,"à´¿":6294,"===.":6295,"Ġ<%":6296,"à°¤":6297,"679":6298,"375":6299,"à§¨à§Ńà§Ńà§§à§§à§Ń":6300,"Ġà§§à§¯à§®à§«":6301,"à¦ıà¦®à¦ıà¦¸à¦ıà¦¸":6302,"à¤®à¤°":6303,"à¹ī":6304,"Ġà§¦à§§à§¯à§¨à§Ńà§Ńà§§à§§à§Ń":6305,"à¦ĭà¦¤":6306,"Ġà§¦à§§à§ªà§¦à§§à§§à§®à§ªà§«":6307,"================":6308,"Ġà¦Ĺà¦«à¦°à¦Ĺ":6309,"×Ļ×ª":6310,"Ġ'=',":6311,"à¹Ħà¸Ĺ":6312,"ĠØ³Ú©Ø³ÛĮ":6313,"ĠÙĦÙĦÙħØ®ØªØµØ±":6314,"ÑģÑĢÐ¿ÑģÐºÐ¸":6315,",_=":6316,".).(":6317,"399":6318,"750":6319,"Â¬":6320,"åĽ":6321,"Ġà§ĩ":6322,"à¦¨à¦īà¦²":6323,"à¦¯à¦ªà¦°":6324,"Ġà¦ķà¦ĵ":6325,"Ġà¦¸à¦²à¦®à¦¨":6326,"à¦¦à¦ĺà¦°":6327,"Ġà¦ªà¦¬à¦¨":6328,"Ġà¦ªà¦ļà¦¨":6329,"à¦Łà¦ľà¦¨":6330,"Ġà¦Ĩà¦¥":6331,"à¦Ĺà¦¨à¦¸":6332,"Ġà¦¨à¦¸à¦°":6333,"Ġà¦ıà¦ıà¦ĩà¦ļà¦ıà¦®":6334,"à¦Ńà§İà¦¸":6335,"à¦ĵà¦·":6336,"à¦ĵà¦ıà¦¸":6337,"Ġà¦Ĺà¦¸":6338,"Ġà¦Ĺà¦¤à¦°":6339,"Ġà¦īà¦¶":6340,"Ġà¦²à¦²":6341,"à¦īà¦ĩà¦¦":6342,"Ġà¦ĸà¦¦":6343,"Ġà¦ħà¦¨à¦Ń":6344,"à¦Ĩà¦ĩà¦°":6345,"à¦Ĩà¦«à¦°":6346,"à¦¬à¦¨à¦Ĺ":6347,"Ġ225":6348,"Ġà¦¡à¦¨":6349,"Ġà¦Ĩà¦°à¦¡":6350,"Ġ2002":6351,"Ġ'.":6352,"à¦°à¦¹à¦¸à¦¨":6353,"à¦ªà¦¤à¦¨":6354,"à¦²à¦ķà¦¬":6355,"à¤ĸ":6356,".../":6357,"à¦®à¦¤à¦¤":6358,"Ġà§ªà§¨à§©":6359,"à¦¤à¦ķà¦¤":6360,"ÙħØ§":6361,"à¦ıà¦¸à¦ĩà¦¸":6362,"à¦īà¦ľà¦°":6363,"Ġà¦ħà¦«à¦²":6364,"Ġ}).(":6365,"Ġà§¦à§§à§¬":6366,"202":6367,"Ġà¦Ĳà¦ļ":6368,"Ġ76":6369,"à¦°à¦«à¦ķ":6370,"096":6371,"Ġ132":6372,"Ġà§§à§¬à§Ń":6373,"117":6374,"à®²":6375,"Ġà¦¬à¦ĩà¦Ľ":6376,"Ġ185":6377,"Ġ189":6378,"Ġ161":6379,"Ġ166":6380,"Ġ177":6381,"Ġ178":6382,"Ġ1728":6383,"Ġà¦Ĩà¦ļà¦°à¦¨":6384,"Ġà§§à§¯à§Ńà§®":6385,"Ġ278":6386,"à§¨à§¬à§©":6387,"').({":6388,"Ġà¦Ĩà¦ĸà¦¡":6389,"Ø§Ø·":6390,"Ġà¦Ĩà¦ļà¦°à¦£à¦¬":6391,"\"\",:\"\",:":6392,"à§§à§¨à§§à§Ń":6393,"Ġ$('#-').(":6394,"à¹Ħà¸Ĺà¸¢":6395,"\"]":6396,"((":6397,".);":6398,"688":6399,"Ûĸ":6400,"à¦Ķ":6401,"à¦°à¦¨à¦¤":6402,"à¦¨à¦¶à¦Ł":6403,"Ġà¦¸à¦¦à¦ķ":6404,"Ġà¦Ĩà¦·":6405,"Ġà¦®à¦²à¦¦":6406,"à¦ľà¦²à¦ķ":6407,"à¦ľà¦¤à¦¬":6408,"à¦ľà¦ķà¦¨":6409,"à¦¶à¦¶":6410,"à¦ĩà¦ıà¦¸":6411,"à¦ĩà¦ĩà¦ī":6412,"à¦ĩà¦ªà¦²":6413,"à¦Ĺà¦Ńà¦Ļ":6414,"Ġà¦¨à¦²à¦Ľ":6415,"à¦¹à¦°à¦ķ":6416,"à¦Ľà¦²à¦¤":6417,"à¦ļà¦¦à¦¶":6418,"Ġà¦¶à¦°à¦¤":6419,"à¦ĵà¦Ĩà¦ĩà¦ª":6420,"Ġà¦īà¦ĵà¦°":6421,"Ġà¦īà¦Ńà¦®":6422,"Ġà¦ıà¦ķà¦ĺ":6423,"à¦īà¦¸à¦®":6424,"Ġà¦«à¦°à¦¯":6425,"Ġà¦Ĩà¦®à¦Ĺ":6426,"Ġà¦Łà¦¬":6427,"Ġ219":6428,"Ġ215":6429,"Ġà¦Ĩà¦²à¦ªà¦¨":6430,"à§İà¦ªà¦¤":6431,"à¦¦à¦°à¦ľ":6432,"à¦¦à¦¨à¦ĵ":6433,"à¦·à¦£à¦ĩ":6434,"à¦ħà¦·":6435,"à¦¤à¦¨à¦Ń":6436,"Ġà§©à§®à§¦":6437,"Ġà¦¬à¦°à¦¯":6438,"à¦°à¦¶à¦®à¦¨":6439,".({":6440,"Ġà§«à§¦à§¦à§¦":6441,"Ġ326":6442,"Ġà§§à§¦à§¯":6443,"Ġà¦«à¦²à¦®":6444,"Ġ54":6445,"Ġà¦Ĺà¦£à¦ħà¦Ń":6446,"Ġ):":6447,"Ġà¦īà§İà¦ĸ":6448,"221":6449,"Ġà¦Ĩà¦ªà¦Ĺ":6450,"Ġ105":6451,"Ġà§§à§§à§©":6452,"Ø¯Ø«":6453,"Ġ74":6454,"Ġà§§à§®à§«":6455,"219":6456,"Ġ?'":6457,"Ġ184":6458,"Ġ186":6459,"Ġà¦Ĩà¦ĩà¦Ľ":6460,"Ġ155":6461,"Ġ169":6462,"Ġà¦ľà¦¨à¦ªà¦¥":6463,"Ġ242":6464,"Ġ243":6465,"Ġà§¨à§©à§§":6466,"Ġà¦ıà¦ĩà¦ļà¦ª":6467,"',':":6468,"âĸł":6469,"à²¤":6470,")};":6471,"à§¯à§¯à§¯":6472,"Ġ301":6473,"à¦ļà¦®à§İà¦ķ":6474,"Ġ277":6475,"Ġ-:#":6476,"à¦¬à¦°à¦£à¦ķ":6477,"à¦ľà¦¦à¦°à¦¬":6478,"Ġà§§à§¯à§¯à§«":6479,"Ġà¦ĩà¦īà¦ıà¦¨à¦ĵà¦°":6480,"à·Ħ":6481,"/-//":6482,"-\").((){":6483,"ĠØ§ÙĦØµÙģ":6484,"áŀ¶":6485,"áĢ¬":6486,"àµį":6487,"Ġà¦Ĺà¦¤à¦¬à¦Ľà¦°":6488,"Ġ=\"\"]":6489,"æĪĳ":6490,"ç®Ģä½ĵ":6491,".*":6492,"660":6493,"=>":6494,">]*":6495,"\\$":6496,"].(":6497,"âľ":6498,"ĠÛĮ":6499,"ı²":6500,"à¦¿à§į":6501,"à¦¯à¦Ĺà¦£":6502,"à¦ķà¦ªà¦ķ":6503,"à¦¬à¦¦à¦°":6504,"à¦¼),":6505,"à¦¦à¦Ń":6506,"à¦¦à¦ĺ":6507,"à¦¦à¦ĸà¦²":6508,"à¦Łà¦°à¦¯":6509,"Ġà¦Ĩà¦ĸà¦²":6510,"à¦ľà¦ľ":6511,"à¦¡à¦¦":6512,"à¦¼à§ĩ.":6513,"Ġà¦ķà¦°à¦®":6514,"Ġà¦ħà¦¦à¦ķ":6515,"Ġà¦ħà¦ķà¦²":6516,"à¦§à¦¸à¦¹":6517,"Ġà¦°à¦¹à¦¨à¦ª":6518,"Ġà¦¯à¦ľ":6519,"Ġ($().(":6520,"Ġà¦ĵà¦ĵà¦ĵ":6521,"Ġà¦īà¦ķà¦¬":6522,"Ġà¦ĩà¦Ľà¦²":6523,"à¦īà¦Ńà¦¯":6524,"à¦łà¦ķà¦°":6525,"à¦Ĩà¦²à¦¤":6526,"à¦Ĩà¦¸à¦¸":6527,"Ġ280":6528,"Ġà¦ıà¦ĩà¦Ĺ":6529,"Ġ',":6530,"à§Į'":6531,"Ġ-----":6532,"Ġ.@..":6533,"Ġà¦¸à¦¬à¦¬":6534,"à¦ħà¦®à¦°":6535,"Ġà§©à§¦à§¦à§¦":6536,"à¦¸à¦¬à¦¶":6537,"à¦¸à¦¨à¦ª":6538,"Ġà¦ĩà¦¨à¦ª":6539,"ÙĬÙĤ":6540,"à¦īà¦ľà¦ª":6541,"Ġà¦ªà¦¦à¦Ł":6542,"Ġà§§à§¯à§¬à§¦":6543,"à¦¸à¦ķà¦ķ":6544,"Ġà¦ıà¦¤à¦Ĺ":6545,"Ġ51":6546,"Ġ450":6547,"Ġ82":6548,"à¦ıà¦®à¦Ĩà¦ĩ":6549,"Ġà§§à§«à§©":6550,"Ġ106":6551,"Ġ72":6552,"Ġ720":6553,"Ġ111":6554,"Ġà§§à§ªà§«":6555,"094":6556,"Ġ139":6557,"à®¤à®®":6558,"241":6559,"245":6560,"Ø§ÙĦØ¹Ø±Ø¨ÙĬØ©":6561,"185":6562,"Ġ1443":6563,"à¦¸à¦Łà¦²":6564,"280":6565,"Ġà§¨à§Ńà§¦":6566,"Ġà§¨à§¬à§¬":6567,"Ġà¦ĸà¦°à¦ļà¦Ł":6568,"267":6569,"Ġà¦ıà¦ķà¦¬à¦Ľà¦°":6570,")})}":6571,"à¦īà¦¬à¦ĵà¦¯":6572,"Ġ304":6573,"'''":6574,"565":6575,"Ø´Ø±":6576,"à§©à§©à§©":6577,"Ġ.('---":6578,"Ġà§§à§¯à§®à§¬":6579,"à¶½":6580,"Ġà¦ħà¦ªà¦¶à¦¨à¦Ł":6581,"Ġà§§à§¯à§¬à§¬":6582,"Ġà°µ":6583,"................................................":6584,"000000":6585,"à¦ľà¦ķà¦¤à¦¤":6586,"ðŁĳī":6587,"\"};":6588,"$$":6589,"-%%%%%%%%%%%%%%%%%%%%%%%%%%%%%%%%":6590,".',":6591,"/))":6592,"016":6593,"328":6594,"340":6595,"<>":6596,"=[":6597,"?-=\"+":6598,"aa":6599,"ÛĴ":6600,"à¦°à¦ªà¦¨":6601,"à¦²à¦®à¦°":6602,"à¦®à§İà¦¸":6603,"à¦ªà¦ķà¦°":6604,"à¦ªà¦¦à¦¸":6605,"Ġà¦®à¦²à¦¯":6606,"à¦¶à¦Ľ":6607,"Ġà¦ħà¦¤à¦¨":6608,"Ġà¦ħà¦ĺà¦Łà¦¨":6609,"Ġà¦¤à¦¹":6610,"à¦§à¦ľ":6611,"à¦¥à¦¸à¦¹":6612,"à¦ĸà¦°à¦ļ":6613,"Ġà¦Ĺà¦ŀ":6614,"Ġà¦Ńà¦°à¦£":6615,"à¥¤)":6616,"à¥¤\\'":6617,"Ġà¦²à¦Ĺà¦¬":6618,"à¦ıà¦ľà¦¨":6619,"Ġà§¨à§§à§¯":6620,"à¦Ĩà¦Ļ":6621,"à¦Ĩà¦¦à¦¨":6622,"..);":6623,"..à¥¤à¥¤":6624,"..&&":6625,"Ġà¥¤'":6626,"Ġà¦¡à¦®":6627,"Ġà¦§à¦¨à¦ķ":6628,"à¦ĥ)]":6629,"Ġà¦ıà¦°à¦ĵ":6630,"Ġà¦Ĩà¦Ĺà¦²":6631,"Ġ\",:!":6632,"Ġà¦Ĩà¦¨à¦ľ":6633,"à¦¯à¦¬à¦ĩà¦¯":6634,"à¦®à¦²à¦®à¦¤":6635,"à¦ĩà¦ķà¦¬":6636,"à¦°à¦ªà¦²":6637,"Ġà¦ªà¦¦à¦®à¦°":6638,"ĠØ§ÙĦØ¸":6639,").(\"\")":6640,"Ġà¦¬à¦¸à¦¤à¦Ń":6641,"Ġà¦ĩà¦īà¦Ĩà¦°à¦ıà¦²":6642,"Ġà§§à§¯à§«à§©":6643,"2011":6644,"2014":6645,"Ġ56":6646,"Ø¨Ø±":6647,"à¦¨à¦¸à¦ĩ":6648,"Ġ)-":6649,"Ġ600":6650,"à¦Ĺà¦¨à¦Ń":6651,"à¦¾à¦ĥ-":6652,"Ġ77":6653,"Ġ78":6654,"à¦Ĩà¦²à¦®à¦Ĺ":6655,"Ġà¦¸à¦¦à¦°à¦ª":6656,"Ġ.(\"\")":6657,"Ġà¦ķà¦¨à¦¡":6658,"à¦¯à¦¸à¦Ń":6659,"Ġ$(\"":6660,"Ġ181":6661,"Ġ146":6662,"Ġà¦īà¦ªà¦ķà¦¥":6663,"178":6664,"ĠØ¨Ø§ÙĦ":6665,".)+\"":6666,"à¦¾!!!":6667,"à¦ıà¦²à¦ľ":6668,"\":\")){":6669,")}).((){":6670,"3636":6671,"Ġ293":6672,"708":6673,"475":6674,"à¦īà¦ªà¦Ń":6675,"à¦Ĩà¦¯à¦¹":6676,"à§ĭ?'":6677,"?=',":6678,"à¦¹à¦¹à¦¹à¦¹":6679,"Ġà¦ıà¦°à¦ķà¦®à¦ĩ":6680,"563":6681,"=(=.(/":6682,"\"\"===?\"\":":6683,")(\"\"==":6684,"Ġ(!=(=.(/":6685,"/-/\"+":6686,"à§§à§¯à§¯à§ª":6687,"Ġ$$":6688,"(.+\"":6689,"ĠðŁĺĽ":6690,",:,:,:,:":6691,"?:\\\"":6692,".&&(=":6693,"{:\"\",:\".":6694,"&=&=--\",":6695,"ðŁĵĸ":6696,"?\"\":\"/-/\"+":6697,"\\/)à¥¤(\\/)à¥¤(":6698,"âĸĪâĸĪ":6699,".$.(\".\").(),":6700,"===à¥¤à¥¤\"\"===à¥¤à¥¤":6701,"?..+\"//\"+..:..)+\"":6702,"Ġ'++\"":6703,".().(\":\")){":6704,"ĠØ§ÙĦØµÙģØŃØ©":6705,"à¥¤\\')?":6706,"?:\\\"à¥¤\\')?":6707,".().(\":\")){.(":6708,"\"}":6709,")),":6710,"+(":6711,".}":6712,"/=":6713,"669":6714,"709":6715,"757":6716,"ÉĻ":6717,"Õ¥":6718,"âı²":6719,"ĠÃĹ":6720,"à¦¾..":6721,"à¦¤à¦£":6722,"à¦ķà¦ªà¦£":6723,"à¦¬à¦¤à¦®":6724,"à¦®à¦°à¦¨":6725,"à¦¸à¦¤à¦°":6726,"Ġà¦¬à¦Łà¦¬":6727,"à§Ģ',":6728,"Ġà¦Ĩà¦ĸà¦¨":6729,"Ġà¦Ĩà¦īà¦¨":6730,"à¦ľà¦¸à¦®":6731,"à¦ĩà¦ķà¦°":6732,"Ġà¦ıà¦¤à¦¬":6733,"Ġà¦ıà¦ĸà¦¤":6734,"Ġà¦¹à¦ľà¦¯":6735,"à¦Ľà¦®":6736,"Ġà¦ħà¦¤à¦°":6737,"Ġà¦ħà¦ªà¦¤":6738,"Ġà¦ħà¦²à¦ķ":6739,"à¦ļà¦ķà¦Ń":6740,"à¦Ńà¦Ĺ":6741,"Ġà¦ĩà¦¦à¦°":6742,"Ġà¦ıà¦ķà¦¤à¦°à¦«":6743,"..,":6744,"Ġ'://":6745,"Ġà§¨à§¦à§«":6746,"Ġà¦ıà¦°à¦ĩà¦®à¦§":6747,"Ġ./":6748,"à¦ħà¦¯":6749,"à¦¤à¦¨à¦¯":6750,"Ø§Øµ":6751,"Ġà§«à§¨à§¦":6752,");}":6753,"Ġà¦ıà¦¸à¦ıà¦¸":6754,"à¦¬à¦ķà¦¨":6755,"Ġ().":6756,"Ġà¦Ĩà¦ĩà¦¨à¦¸à¦Ń":6757,"Ġà¦ħà¦¤à¦Ł":6758,"Ġà§Ńà§§à§¨":6759,"Ġ330":6760,"Ġà§¯à§«à§¦":6761,"Ġà§§à§¯à§¦":6762,"à¦ªà¦¦à¦Ĺ":6763,"à¦¨à¦¸à¦Ļ":6764,"Ġà¦ªà¦¥à¦¸à¦Ń":6765,"Ġ85":6766,"à¦¿'-":6767,"Ġ66":6768,"ĠÙĪØ£":6769,"Ġ101":6770,"Ġ109":6771,"à¦Ĩà¦²à¦ľ":6772,"Ġà¦¸à¦¦à¦°à¦ĺ":6773,"091":6774,"Ġà§§à§©à§«":6775,"Ġ$(_":6776,"Ġà¦¯à¦¤à¦Ĺ":6777,"Ġà§¨à§§à§©":6778,"184":6779,"Ġ152":6780,"1340":6781,"163":6782,"à¦ĩà¦īà¦ıà¦¸":6783,"à¦¾?\"":6784,"à°¡":6785,"à¦¬à¦§à¦²":6786,"à§¨à§«à§®":6787,"Ġà¦¨à¦ĵà¦«":6788,"Ġà¦¬à¦²à¦¬à§İ":6789,"676":6790,"à§¨à§¯à§®":6791,"Ġà¦ħà¦¸à¦¹à¦¯":6792,"[]+":6793,"à¦Łà¦«à¦°à¦®":6794,"à§¨à§¦à§¦à§¨":6795,"ĠÂ£":6796,"908":6797,"Ġà®ķ":6798,",=,=":6799,"Ġà§§à§¯à§¬à§¯":6800,"Ġ://..///":6801,"ĠÌĦ":6802,"Ġ:#;":6803,"(.==":6804,"Ġ$(\"#\").();":6805,"ĠØ§ÙĦØµÙĦØ§Ø©":6806,"1203":6807,"Ġ$('#').('":6808,"à¦Łà¦ĩà¦ªà¦¤":6809,"à¦¯à¦ľà¦¨à¦ķà¦Ń":6810,"Ġâĺµ":6811,"Ġà¦¸à¦¬à¦°à¦ķà¦®":6812,"Ø¹ÙĦÙĬÙĩ":6813,"Ġ,'://../":6814,"à¹Ģà¸":6815,"ç®Ģä½ĵä¸Ńæĸĩ":6816,"Ġ($().()":6817,"#à¥¤":6818,"&#":6819,"-,":6820,"-/":6821,".,=":6822,"/____":6823,"},:(){":6824,"áł":6825,"Ġ........":6826,"Ġà¸":6827,"à¦¤à¦ªà¦°":6828,"à¦ķà¦Ĺà¦¨":6829,"à¦¼--":6830,"à¦¼',":6831,"à¦®à¦ªà¦¤":6832,"à§Ģ),":6833,"Ġà¦Ĩà¦īà¦¶":6834,"Ġà¦®à¦ĩ":6835,"Ġà¦®à¦Ĺà¦ľ":6836,"Ġà¦ıà¦Ļ":6837,"Ġà¦ıà¦¹à¦¨":6838,"à¦¡à¦¸à¦¹":6839,"Ġà¦ħà¦Łà¦²":6840,"Ġà¦ľà¦¬à¦°":6841,"Ġà¦ľà¦¶à¦¨":6842,"à¦ļà¦ĵ":6843,"à¦¥à¦ķà¦¤":6844,"Ġà¦°à¦ļà¦¯":6845,"Ġà¦¶à¦¤à¦¬":6846,"Ġà¦¶à¦°à¦¬à¦¤":6847,"Ġà¦Ńà¦£":6848,"Ġà¦īà¦ĩà¦ľ":6849,"Ġà¦ĩà¦Łà¦¨":6850,"Ġà¦ªà¦°à¦ĸ":6851,"à¦īà¦¹":6852,"à¦°à¦¤à¦¬":6853,"à¦¬à¦°à¦¸à¦¬":6854,"à¦ģ-":6855,"Ġà¦ħà¦¨à¦°":6856,"à¦Ĩà¦°à¦®":6857,"..=(){":6858,"Ġà¦Ĩà¦°à¦ıà¦¸à¦ıà¦¸":6859,"à¦¤à¦°à¦ªà¦¤":6860,"à¦°à¦¹à¦¨à¦¯":6861,"à¦°à¦®à¦¯":6862,"à¦ķà¦°à¦¦":6863,"à¦¶à¦¨à¦ĵ":6864,"ĠØ¸":6865,"à¦¦à¦¨à¦®":6866,"à¦¦à¦¨à¦¹":6867,"à¦²à¦¨à¦®":6868,"Ġà¦Ĩà¦¨à¦¯":6869,"à¦®à¦¤à¦ķ":6870,"à¦¨à¦¤à¦²":6871,"à¦¯à¦®à¦ķà¦°":6872,"Ġà¦Ĩà¦ľà¦®à¦²":6873,"à¦ķà¦Łà¦¸":6874,"à¦¨à¦¬à¦®":6875,"--:":6876,"à¦Łà¦ķà¦ļ":6877,"à¦Łà¦ķà¦®à¦ķ":6878,"Ġà¦ĩà¦¨à¦Ł":6879,"Ġ=.(":6880,"),.+":6881,"Ġ360":6882,"ÙĳÙ°":6883,"Ġ00":6884,"Ġà§§à§¯à§¨":6885,"à¦®à¦¯à¦ľ":6886,"Ġà§¨à§ªà§®":6887,"à¦ĩà¦ľà¦®":6888,"Ġà§§à§¨à§¬":6889,"Ġ112":6890,"Ġà§§à§ªà§Ń":6891,"Ġ.(,":6892,"Ġ124":6893,"Ġ128":6894,"Ġ120000":6895,"124":6896,"093":6897,"0982":6898,"0983":6899,"à¦°à¦ĸà¦°":6900,"114":6901,"Ġà¦¨à¦¦à¦Ń":6902,"Ġà¦¸à¦¹à¦ľà¦¤à¦°":6903,"Ġ_'":6904,"à®°":6905,"199":6906,"170":6907,"169":6908,"Ġ1647":6909,"],=":6910,"299":6911,"303":6912,"âĨĳ]":6913,"233":6914,"263":6915,"à¸µ":6916,"à¸Ń":6917,"à¯Ī":6918,"à¦¬à¦ľà¦¨à¦ª":6919,"455":6920,"=.(,":6921,"=.(),=":6922,"392":6923,"Ø§ÙĨÙĬØ©":6924,"Ø§Ø²":6925,"Ġ100000":6926,"=(,,){":6927,"à¦Ĩà¦¸à¦Ľ":6928,"Ġà¦¬à¦Łà¦¤à¦²":6929,"&&(=":6930,"à¹Ī":6931,"Ġ$.(,":6932,"à¦§à¦¶à¦¤à¦ķ":6933,"ĠðŁĻģ":6934,"Ġ****":6935,"..//.?=":6936,"Ġ://.../":6937,"Ġà¦Ŀà¦ķà¦Ŀà¦ķ":6938,"\",\":\":":6939,"\").":6940,"$)":6941,"&à¥¤":6942,"&\");":6943,"&]\"":6944,"(,":6945,"+/,":6946,"/[\\":6947,"544":6948,"?&]\"":6949,"[?&]\"":6950,"].":6951,"].(/\\":6952,"å®":6953,"åħ":6954,"Ġ).();":6955,"à¦¾_":6956,"à§ĩà§ĩ":6957,"à§ĩ......":6958,"à¦¿..":6959,"à¦¨à¦¦à¦¨":6960,"à¦¯à¦¶à¦¸":6961,"à¦¤à¦«à¦¸":6962,"à¦²à¦°à¦¦":6963,"à¦¬à¦ľà¦²":6964,"Ġà¦ķà¦²à¦¤à¦²":6965,"Ġà¦¸à¦Ĺ":6966,"à¦Łà¦īà¦¡":6967,"Ġà¦®à¦²à¦¤":6968,"Ġà¦®à¦Ĺà¦¨":6969,"à¦ľà¦ªà¦°":6970,"à¦Ĺà¦Ńà¦¬à¦¨":6971,"Ġà¦¨à¦«à¦²":6972,"à¦¡à¦¡":6973,"Ġà¦¤à¦°à¦¬":6974,"Ġà¦¤à¦°à¦ľ":6975,"à¦Ĥ...":6976,"à¦ļà¦°à¦®":6977,"à¦ĸà¦ĵ":6978,"Ġà¦°à¦ľà¦Ń":6979,"Ġ(.('":6980,"Ġà¦ļà¦¸":6981,"Ġà¦īà¦°à¦¸":6982,"à¦īà§İà¦¸":6983,"Ġà¦ĸà¦°à¦Ĺ":6984,"Ġà¦«à¦£":6985,"Ġà§¨à§¨à§§":6986,"Ġà¦¬à¦²à¦Ł":6987,"Ġ230":6988,"Ġà¦¡à¦Łà¦ķà¦®à¦ķ":6989,"Ġà¦ıà¦ĩà¦¦":6990,"Ġ'?=":6991,"à¦¬à¦¸à¦ķ":6992,"à¦°à¦®à¦°":6993,"à¦°à¦¸à¦ļ":6994,"Ġ.);":6995,"Ġà¦īà¦¦à¦Ĺ":6996,"Ġà¦¸à¦¬à¦¦":6997,"à¦²à¦¨à¦ļ":6998,"à¦¦à¦ķà¦®à¦¨":6999,"à¦¼à§ĭ,":7000,"Ġ\"\":":7001,"Ġ\"));":7002,"Ġ\"(=":7003,"à¦¸à¦¬à¦ķ":7004,"Ġà¦¬à¦¨à¦²à¦¤":7005,"ÙĬØŃ":7006,"Ġ().()":7007,"Ġ3600":7008,"Ġ016":7009,"à¦°à¦²à¦¸à¦Ń":7010,"Ġà¦ħà¦ªà¦¦à¦¸":7011,"Ġà§§à§¯à§ªà§«":7012,"Ġà§§à§¯à§¬à§§":7013,"Ġà§§à§¯à§«à§ª":7014,"Ġà¦«à¦²à¦ª":7015,"Ġ...\")":7016,"Ġ[âĨĳ]":7017,"à¦Ĩà¦°à¦ľ":7018,"à§§à§¯à§Ńà§«":7019,"Ġà§¨à§ªà§¨":7020,"Ġ60000":7021,"Ġ92":7022,"Ġà§§à§«à§§":7023,"Ġ103":7024,"Ġ700":7025,"Ġ7200":7026,"Ġà¦¸à¦¦à¦°à¦¦à¦ª":7027,"à¦¯à¦¦à¦²":7028,"à¦ĩà¦Ńà¦ķ":7029,"Ġà§§à§ªà§©":7030,"Ġ.(/[\\":7031,"à¦ıà¦ķà¦®":7032,"Ġ_';":7033,"Ġ$();":7034,"Ġà¦Ĩà¦²à¦®à¦¡":7035,"Ġ??":7036,"197":7037,"ĠÙħØ¹":7038,"ĠâĪĴ":7039,"Ġà¦īà§İà¦ªà¦²":7040,"Ġ//$(":7041,"à¦¯à¦ķà¦°à¦Ń":7042,"Ġ170":7043,"Ġ\"\\\\$":7044,"'.__":7045,"232":7046,"334":7047,"';$(\"#":7048,"&=',":7049,"?=')":7050,"\"#\");":7051,"):.(":7052,"Ġà®ª":7053,"Ġ.('?'":7054,"Ġ.('?=',":7055,"Ġ.('&=',":7056,"Ġ(![":7057,"Ġà¦Ĺà¦ľà¦¦à¦¨":7058,"),.(\"":7059,"Ġà§§à§¨à§¦à§®":7060,"Ġ(.).();":7061,"à§Ńà§®à§¯":7062,")à¥¤&à¥¤":7063,"Ġ//.(.,":7064,"ĠÛ±Û":7065,"([^&#":7066,"Ġà¦¦à¦°à¦ªà¦¤à¦¨":7067,"]*)à¥¤&à¥¤":7068,"Ġ\"-\",":7069,"Ġ(\"[?&]\"":7070,"Ġ'#';":7071,"Ġ$('.--').('');":7072,"Ġà¦«à¦¸à¦«à¦°":7073,"[\\]]/,":7074,"365123":7075,"Ġ86400000":7076,"Ġ'&=_:":7077,"ĠðŁĳģ":7078,"Ġ}).(\"#\");":7079,"Ġ172800000":7080,"Ġà¦ħà¦ªà¦¤à§İà¦ªà¦°à¦¤":7081,"#à¥¤$)":7082,"].(/\\+/,":7083,"Ġ(.('?=')":7084,"Ġ'?=_:":7085,"Ġ\"(=([^&#":7086,"Ġ3600000":7087,"Ġ7200000":7088,"Ġ.(/[\\[\\]]/,":7089,"Ġ\"\\\\$&\");":7090,"';$(\"#\").();":7091,"Ġ.('?')":7092,"]*)à¥¤&à¥¤#à¥¤$)":7093,"Ġ\"(=([^&#]*)à¥¤&à¥¤#à¥¤$)":7094,"Ġ\"(=([^&#]*)à¥¤&à¥¤#à¥¤$)\"),":7095,"\"**":7096,"'',":7097,"('":7098,")*":7099,")');":7100,")).":7101,",...":7102,",),":7103,",(,,){":7104,".;(":7105,".=.-":7106,"212":7107,"312":7108,"318":7109,"770":7110,"930":7111,"932":7112,":[]":7113,">]":7114,"{:(":7115,"Û¹":7116,"à¦¿_":7117,"à¦¨à¦ĩà¦ī":7118,"à¦ķà¦Ļ":7119,"à¦ķà¦®à¦¨":7120,"à¦ķà¦ĺà¦°":7121,"à¦²à¦®à¦¤":7122,"à¦¸à¦°à¦¨":7123,"Ġà¦¸à¦¶":7124,"Ġà¦¸à¦īà¦¦":7125,"Ġà¦¬à¦«":7126,"Ġà¦¬à¦Łà¦Ĺ":7127,"Ġà¦¬à¦īà¦ķ":7128,"Ġà¦ªà¦Łà¦²":7129,"à¦ªà¦ĸ":7130,"à¦ªà¦ľà¦²":7131,"Ġà¦®à¦ĵà¦ķ":7132,"à¦ĩà¦¸à¦¹":7133,"à¦ĩà¦¶à¦¤":7134,"Ġà¦¨à¦¨à¦¦":7135,"Ġà¦¤à¦¦à¦¬":7136,"à¦Ĥ/":7137,"à¦ļà¦ªà¦°":7138,"à¦ļà¦ľà¦¨à¦ķ":7139,"à¦¥à¦ķà¦ķ":7140,"à¦¥à¦ªà¦¥":7141,"Ġà¦°à¦ĺ":7142,"à¦ĵà¦Ľ":7143,"Ġà¦ıà¦ķà¦¹":7144,"Ġà¦Ĩà¦®à¦¬":7145,"Ġà¦Ĩà¦®à¦«":7146,"à¦Ļà¦Ľ":7147,"Ġà¦Ľà¦¹":7148,"Ġà¦ľà¦¨à¦¬à¦¹":7149,"à¦ªà¦°à¦¬":7150,"Ġà¦§à¦ķà¦²":7151,"à¦ľà¦¨à¦¨":7152,"Ġà¦ĺà¦°à¦®":7153,"Ġ'___":7154,"Ġ:');":7155,"à¦ĩà¦¨à¦Ń":7156,"Ġ-'":7157,"à§ªà§ªà§®":7158,"Ġ.___":7159,"Ġ.&&(":7160,"Ġ./.":7161,"à¦·à¦£à¦®":7162,"à¦ħà¦¬à¦¹":7163,"Ġ\"+":7164,"Ġ\"\",":7165,"Ġà§©à§©à§¦":7166,"à¦ĩà¦Łà¦®":7167,");';*/":7168,"à¦²à¦¬à¦£":7169,"à¦ªà¦ķà¦¦":7170,"à¦¸à¦°à¦²":7171,"Ġ=''":7172,"Ġà¦Ĩà¦¶à¦«":7173,"),!=":7174,"Ġ356":7175,"à§ģà¦ģ'":7176,").(__);":7177,"Ø±ÙĤ":7178,"Ġà¦ĩà¦īà¦ıà¦ĩ":7179,"Ġà¦¶à¦°à¦¥":7180,"Ġà§§à§¯à§ªà§¨":7181,"Ġà¦Ĩà¦¤à¦¤":7182,"203":7183,"2023":7184,"__*/":7185,"Ġ470":7186,"\"\"},(,){":7187,"à¦Ĩà¦°à¦Ĩà¦ĩ":7188,"à¦Ĩà¦°à¦ıà¦«":7189,"Ġà¦īà¦²à¦Ļ":7190,"à§§à§¯à§®à§¦":7191,"Ġ86":7192,"Ġà¤Ĩ":7193,"Ġà¤Ĺ":7194,"à¦°à¦ľà¦Ĺà¦¤":7195,"Ġà¦ļà¦Łà¦ªà¦Ł":7196,"Ġ94":7197,"Ġà§§à§«à§®":7198,"Ġ104":7199,"Ġ107":7200,"Ġà§§à§§à§«":7201,"Ġ114":7202,"Ġ115":7203,"Ġà¦īà¦ªà¦¸à¦ļ":7204,"Ġ.(,,,":7205,"104":7206,"$('.__":7207,"129":7208,"()à¥¤à¥¤":7209,"à¦¿)-":7210,"Ġà§§à§Ńà§§":7211,"Ġ+'});'":7212,"Ġ$(,(,,){":7213,"Ġ?[]":7214,"à¦¨à¦®à¦£":7215,"193":7216,"196":7217,"Ġ!\"":7218,"ĠÙħØ§":7219,"15200":7220,"------":7221,"Ġ//$(\".":7222,"Ġ160":7223,"Ġà§¨à§®à§¨":7224,"],(,){":7225,"276":7226,"295":7227,"Ġà¦ħà¦ľà¦Ĺà¦°":7228,"à¦ıà¦ĩà¦ļà¦ª":7229,"'.__');":7230,"à´ķ":7231,"578":7232,"\").(__);":7233,"362":7234,"___);":7235,"___*/":7236,"').('')":7237,"').());":7238,"').(__);":7239,"').($('.__":7240,"').('.__');":7241,"Ġ______":7242,"&&\"\"===.(,\"\")":7243,"Ġ/*__*/":7244,"Ġ/*___*/":7245,"Ġà¦ıà¦«à¦ı":7246,"à§«à§«à§Ń":7247,"32050":7248,":(=":7249,"\"\",\"":7250,"Ġ+'.().();'+":7251,"à¶¸":7252,"Ġ._');":7253,"200908":7254,"Ġà¦ļà¦®à¦ķà¦ª":7255,"75159":7256,"),(),":7257,".('/'":7258,"à¦īà¦¥à¦ĩà¦¸":7259,"),.([":7260,"),.({:\"\",:":7261,"),=.(,\"\"":7262,".-.-":7263,"Ġ(__.('/'":7264,"Ġà¦Ĩà¦ĩà¦Ńà¦°":7265,"]]).();'":7266,"Ġ:-(":7267,"Ġ$('.__').();":7268,"Ġ$('.__').($('.__":7269,"Ġ.--').('')":7270,",,,,,":7271,"Ġ+'.();'":7272,").((){.(\"":7273,"Ġ[]).((){.(\"":7274,".+=\"\"":7275,".(,à¥¤à¥¤":7276,".(,\"\",!":7277,"\"\"+],[\"\"+":7278,"Ġ$(__).(__);":7279,"$(\"#--":7280,".[\"\"+],[\"\"+":7281,".[]=(){":7282,".[]=(,){":7283,".&&(.=.-":7284,"180145":7285,"Ġ.__').();":7286,"Ġ.__').());":7287,"\")});';*/":7288,"Ġ'__').(":7289,"Ġ'__').().(.());\"":7290,"Ġ$('.___').();":7291,"Ġ.('___');":7292,"Ġ$(\".__\").();":7293,"Ġ$(\".__\").":7294,"Ġ$(\".__\").(__);":7295,"********************************":7296,"Ġâĺħ":7297,"),.(\"\"),(":7298,"[\"\"+]:":7299,"Ġ/>:":7300,"82975159":7301,")},:(,){":7302,")=.;":7303,"Ġà¦¬à¦Ľà¦°à¦ķ":7304,"Ġ='://.//?=":7305,"ĠÏĢ":7306,"\"\",\"\"],(,){":7307,"Ġ').(___);":7308,"à¦®à¦¶à¦¤à¦¬à¦°":7309,"></><":7310,"Ġ.--.').();":7311,"ĠÑĺ":7312,">.</>":7313,"åĽ½":7314,"Ġ$(_).('.___:(":7315,"=.(,\"\",!":7316,"Ġ//$('.___:(":7317,"{:(,,){":7318,"Ġ'___').(.());\"":7319,"Ġ.&&(.+=\"\"":7320,"Ġ=''></><":7321,"),!=.&&(.=.-":7322,"1520082975159":7323,"Ġ//$(\".__":7324,"&&\"\"===.(,\"\"))=.;":7325,"),.({:\"\",:\"\"},(,){":7326,".-.-.(,\"\",!":7327,"Ġ(__.('/')[":7328,"Ġ[]).((){.(\"_":7329,"18014517":7330,"Ġ.&&(.+=\"\"),":7331,"),!=.&&(.=.-.+":7332,"329":7333,"634":7334,"Û¥":7335,"åľ":7336,"ĠæĹ¥æľ¬èªŀ":7337,"Ġà¦¿":7338,"à¦°à¦ĸà¦¨":7339,"à¦¤à§İà¦ķ":7340,"à¦ķà¦īà¦²":7341,"à¦®à¦·":7342,"Ġà¦ķà¦ĩà¦¤":7343,"à¦¦à¦ĵà¦¯":7344,"à¦¦à¦¶à¦ķ":7345,"à¦Łà¦ªà¦Ł":7346,"Ġà¦Ĩà¦¢":7347,"à¦Ĺà¦Ńà¦°":7348,"Ġà¦ıà¦¥":7349,"à¦·à¦¸à¦°":7350,"à¦Ńà¦°à¦ª":7351,"à¦ĵà¦¶":7352,"Ġà¦Ńà¦ľà¦¨":7353,"Ġà¦īà¦ĩà¦Ń":7354,"Ġà¦ĩà¦ĩà¦ī":7355,"Ġà¦²à¦£":7356,"à¦īà¦¤à¦¬":7357,"à§§à§§à§Ń":7358,"à¦Ļà¦¬":7359,"à¦ıà¦¤à¦¦":7360,"à¦Ĩà¦®à¦¨":7361,"à¦Ĩà¦ªà¦¤":7362,"à¦Ĩà¦ļà¦°à¦£":7363,"à¦Ĩà¦®à¦¤à¦²":7364,"à¦®à¦¨à¦ķ":7365,"Ġà¦§à¦¡":7366,"Ġ2000":7367,"Ġà§¨à§¦à§¬":7368,"Ġà¦Ĩà¦¬à¦¯":7369,"Ġà¦Ĩà¦¬à¦¹à¦®":7370,"à¦°à¦®à¦¹à¦²":7371,"à§İà¦²":7372,"Ġà¦¹à¦²à¦°":7373,"Ġà¦¹à¦²à¦Ĺ":7374,"à¦ĩà¦²à¦ļ":7375,"Ġà¦¸à¦¬à¦®":7376,"à¤§":7377,".../-":7378,"à¦¯à¦¬à¦¶à¦¤":7379,"Ġà§¨à§¦à§¨à§«":7380,"à¦°à¦¶à¦ķ":7381,"à¦¸à¦¨à¦¦":7382,"à¦®à¦°à¦¬à¦¨":7383,"Ġà¦ķà¦²à¦¸":7384,"Ġà¦ħà¦«à¦¬":7385,"Ġ316":7386,"Ġà¦ħà¦ķà¦ªà¦Ł":7387,"à¦Ĺà¦²à¦Ĺ":7388,"Ġà¦ķà¦¬à¦ľ":7389,"Ġ81":7390,"Ø³Ø¬Ø¯":7391,"Ġ900":7392,"à¦²à¦Ĺà¦Ł":7393,"Ġà§§à§«à§ª":7394,"Ġà¦¨à¦¬à¦Ĺà¦ł":7395,"Ġà§§à§§à§§":7396,"//://./":7397,"Ġ118":7398,"à¦Ĩà¦²à¦¹":7399,"Ġà¦Ĺà¦¡à¦«":7400,"Ġà¦ıà¦®à¦Ĩà¦ĩ":7401,"à¦Ĩà¦ĩà¦ĵ":7402,"à¦Ĩà¦ĩà¦¸à¦²":7403,"à¦¤à¦²à¦ľ":7404,"à¦łà¦ķà¦ª":7405,"Ġà§§à§¬à§§":7406,"Ġà§§à§¬à§¯":7407,"Ġà§§à§¬à§©":7408,"Ġà§§à§Ńà§«":7409,"Ġà§§à§©à§¬":7410,"à¦ľà¦®à¦¹à¦²":7411,"à®©":7412,"Ġ198":7413,"Ġ$('":7414,"Ġ240":7415,"Ġ241":7416,"283":7417,"à¦ķà¦°à¦£à¦Ł":7418,"Ġà§¨à§¨à§«":7419,"à¦¾?'":7420,"à§§à§¨à§©":7421,"âĸ¼":7422,"à§§à§«à§¬à§¦":7423,"à§¨à§¨à§¨":7424,"à§©à§¦à§«à§«à§Ń":7425,")}}}":7426,")})}}":7427,"à¦¹à¦ľà¦°à¦¤":7428,"''[":7429,"Ġ255":7430,"4514":7431,"à¦¯à¦Łà¦¨à¦ķ":7432,"Ġà¦ĩà¦Ńà¦Ł":7433,"786":7434,"ÙĮÙĳ":7435,"à§®à§®à§§à§¨":7436,"à§ªà§®à§©":7437,"'++'":7438,"Ġà¦¸à¦¨à¦¦à¦§":7439,"à³Ģ":7440,"ĠÙĩØ°":7441,"à¦Ĳà¦ķ":7442,"à¦ıà¦ķà¦¦à¦®":7443,"Ġà§§à§¯à§¬à§«":7444,"ÙĢÙĢ":7445,"à§ĥà§ĥà§ĥà§ĥ":7446,"à²°à²":7447,"Ġà§«à§«à§¦à§¨à§¯à§®":7448,"à§§à§§à§¦à§©à§¦à§«à§«à§Ń":7449,"à§®à§®à§¦à§§à§¯à§§à§«à§¬à§¦":7450,"à§®à§®à§¦à§§à§¯à§§à§§à§¦à§©à§¦à§«à§«à§Ń":7451,"âĶĢâĶĢ":7452,"Ð°Ð·Ð°":7453,"Ø¯Ø«ÙĨØ§":7454,"Ġà§«à§«à§¦à§¨à§¯à§®à§©à§¨":7455,"à§®à§®à§¦à§§à§¯à§§à§«à§¬à§¦à§®à§®à§§à§¨":7456,"\"!==":7457,"*)":7458,"._":7459,"649":7460,"713":7461,"824":7462,"872":7463,"Â¡":7464,"Ġ\\":7465,"ĠÛģ":7466,"à§ĩ[":7467,"à¦¨à¦ł":7468,"à¦¨à¦ĩà¦¯":7469,"à¦¨à¦Ľà¦¡":7470,"à¦¤à¦¸à¦²":7471,"à¦¬à¦ĩà¦Ł":7472,"à¦®à¦¹à¦°":7473,"à¦®à¦«à¦²":7474,"à§ģ;":7475,"à¦¸à¦Ĩà¦²":7476,"à¦¸à¦Ĩà¦¬":7477,"Ġà¦¸à¦¦à¦¯":7478,"à¦¦à¦¶à¦¨":7479,"à¦¦à¦¯à¦¨":7480,"Ġà¦¬à¦¤":7481,"à¦ªà¦Łà¦ķ":7482,"Ġà¦®à¦¥":7483,"Ġà¦®à¦ĸ":7484,"Ġà¦®à¦¶à¦ķ":7485,"Ġà¦®à¦°à¦²":7486,"à¦ĩà¦Łà¦¨":7487,"Ġà¦ıà¦·":7488,"à¦¹à¦Łà¦¨":7489,"à¦·à¦¤à¦¨":7490,"à¦¡à¦²à¦ķ":7491,"Ġà¦¤à¦ľ":7492,"Ġà¦¤à¦¤à¦¬":7493,"à¦§à¦¤à¦¨":7494,"Ġà¦ľà¦²à¦ķ":7495,"à¦¥à¦ĵ":7496,"à¦Ńà¦ľà¦¨":7497,"à¦£à¦ł":7498,"à¦£à¦¨à¦Ĺà¦°":7499,"à¦ĵà¦¹à¦°":7500,"Ġà¦īà¦«":7501,"Ġà¦ĩà¦Ĺ":7502,"Ġà¦¥à¦°":7503,"Ġà¦ĸà¦ļ":7504,"à¦¬à¦°à¦ĵ":7505,"à¦łà¦°":7506,"à¦łà¦Ł":7507,"à¦ıà¦°à¦¦":7508,"à¦ıà¦Ĩà¦°":7509,"à¦Ĩà¦¹à¦¬":7510,"Ġà¦¡à¦Ļ":7511,"à¦¤à¦°à¦ľ":7512,"Ġà§¨à§¦à§©à§¦":7513,"Ġà¦Ĩà¦¬à¦¬":7514,"Ġà¦īà¦ªà¦¶à¦®":7515,"Ġà¦īà¦ªà¦¶à¦¹à¦°":7516,"à§İà¦¦":7517,"à§İà¦¶":7518,"Ġà¦®à¦¨à¦®":7519,"Ġà¦®à¦¨à¦¨à¦¶":7520,"à¦°à¦¬à¦ķ":7521,"Ġ.[":7522,"Ġà¦Ĩà¦Ĺà¦¨":7523,"à¦¸à¦®à¦¤à¦²":7524,"Ġ\";":7525,"à¤ĩ":7526,"Ġà¦¬à¦¨à¦ľ":7527,"à¦¤à¦¬à¦¬":7528,"à¦¨à¦¤à¦ľ":7529,"à¦¬à¦²à¦¸":7530,"Ġà§ªà§ªà§®":7531,"Ġà¦ĩà¦¨à¦¹":7532,"ÙĬÙģ":7533,"Ġà¦ħà¦¸à¦¦":7534,"à¦īà¦ľà¦²":7535,"Ġà§Ńà§©à§Ń":7536,"Ġà¦ªà¦¦à¦¦à¦²":7537,"ĠØ§ÙĦØ«":7538,"Ġ320":7539,"à¦ıà¦¨à¦ıà¦¸":7540,"Ġ096":7541,"Ġà¦ħà¦ķà¦¥":7542,"Ġà§®à§ªà§®":7543,"Ġà§§à§¯à§«à§«":7544,"à¦ıà¦ĩà¦¬":7545,"ÙĪÙĤ":7546,"Ġà¦ĺà¦°à¦Ĺ":7547,"à¦ĩà¦¡à¦Ł":7548,"Ġà§§à§¨à§¨":7549,"Ġ93":7550,"à¦¨à¦ĵà¦Ń":7551,"Ġ119":7552,"Ġ1280":7553,"à¦Ĩà¦ĩà¦ĩà¦¡":7554,"1215":7555,"Ġà§§à§¬à§«":7556,"114514":7557,"Ġà¦ıà¦ķà¦ĩà¦°à¦ķà¦®":7558,"Ġ1970":7559,"ÙĥØ±":7560,"153":7561,"Ġà¦īà§İà¦ªà¦²à¦ķ":7562,"Ġà¦¶à¦¹à¦°à¦¤à¦²":7563,"à§§à§®à§§à§¯":7564,"141":7565,"Ø¬ÙĪØ¯":7566,"Ġà§¨à§Ńà§¨":7567,"Ġà§¨à§Ńà§«":7568,"à§§à§¨à§©à§¦":7569,"304":7570,"à§ĩ!\"":7571,",:\"":7572,"\":\"":7573,"405":7574,"\").(),":7575,"672":7576,"445":7577,"471158":7578,"?=--":7579,"\"#\").(":7580,"Ġ#>=\"\"":7581,"776":7582,"à¦ħà¦¤à¦ıà¦¬":7583,"Ġà§§à§¯à§®à§Ń":7584,"&&(=.(":7585,"Ø§Ø±Ø¯ÙĪ":7586,"\"\")+\"":7587,"à¦Ĩà¦¶à¦ľ":7588,"???":7589,"à¦ķà¦ľà¦®à¦ķ":7590,"Ð¾Ð²":7591,"Ġ47114514":7592,",\"\"),=(":7593,"Ġà¦ķà¦¤à¦ķà¦Ĺ":7594,"$(\".-\").(":7595,"à¦ļà¦ªà¦¦à¦¸":7596,"ØŃÙħØ¯":7597,"Ġà¦¦à¦²à¦¬à¦¦à¦²":7598,"à§«à§«à§¦à§§à§¨à§«":7599,"ÒĽÐ°Ð·Ð°":7600,"Ġ47115879":7601,"Ġ47115875":7602,"ĠØ¹Ø¨Ø¯":7603,"Ġà§Ńà§§à§¨à§¨à§¬":7604,"Ġ='://.//?=&=":7605,"47115865":7606,"Ġ#>=\"\"<#":7607,"ÒĽÐ°Ð·Ð°ÒĽ":7608,"!)":7609,"'?":7610,"(()":7611,"411":7612,"532":7613,"543":7614,"618":7615,"602":7616,"717":7617,"861":7618,"?[":7619,"âĪĴ":7620,"ãĤ":7621,"ĠÐ±":7622,"ĽáĪ":7623,"łáĪ":7624,"ŃáĬ":7625,"à§ĩ]":7626,"à§ĩ....":7627,"à¦¨à¦ĩà¦¬":7628,"à¦¯à¦ªà¦Ł":7629,"à¦¤à¦ĵà¦¯":7630,"à¦ķà¦°à¦ķ":7631,"à¦²à¦ªà¦°":7632,"à¦¬à¦īà¦¦":7633,"à¦®à¦īà¦¤":7634,"à§ģà¥¤":7635,"à¦¸à¦¤à¦¤":7636,"à¦ĩà¦ľà¦¨à¦ķ":7637,"à¦Ĺà¦¹":7638,"à¦Ĺà¦¬à¦¤":7639,"Ġà¦¨à¦¬à¦°":7640,"Ġà¦¨à¦®à¦¸":7641,"Ġà¦ıà¦Ĩà¦ĩ":7642,"Ġà¦ıà¦ıà¦«à¦¸":7643,"à¦¹à¦ĵ":7644,"Ġà¦¹à¦ª":7645,"Ġà¦¦à¦ĩà¦¯":7646,"à¦Ľà¦Ń":7647,"à¦¼à¦¾\"":7648,"Ġà¦°à¦ľà¦¤":7649,"à¦Ńà¦²à¦ªà¦®":7650,"à¦£à¦¸à¦¹":7651,"Ġà¦¶à¦®à¦¸":7652,"à¦ĵà¦¸à¦®":7653,"à¦ĵà¦ıà¦ĩà¦ļà¦ıà¦¸":7654,"Ġà¦ĩà¦ĵà¦°":7655,"à¦«à¦®":7656,"à¦«à¦¡":7657,"à¦«à¦ĸà¦°":7658,"à§Ĥ'":7659,"Ġà¦ıà¦ķà¦ķà¦¥":7660,"Ġà¦¸à¦®à¦ķà¦ķ":7661,"Ġà¦«à¦²à¦¤":7662,"à¦¬à¦°à¦¨":7663,"Ġà¦ľà¦¨à¦¶":7664,"à¦Ĩà¦¶à¦ª":7665,"Ġ216":7666,"../":7667,"à¦®à¦¨à¦Ń":7668,"à¦ªà¦°à¦¶":7669,"à¦ľà¦¨à¦ĵ":7670,"à¦ľà¦¨à¦ķà¦Ń":7671,"Ġà¦ĺà¦·à¦¤":7672,"Ġ2001":7673,"à¦¼à¦¿à¦ĥ":7674,"à¦¤à¦°à¦Ĺ":7675,"à¦°à¦¹à¦¶":7676,"à§ĩ,\"":7677,"à¦ķà¦°à¦¬":7678,"Ġ-(":7679,"Ġà¦Ĩà¦¸à¦¨à¦Ł":7680,"Ġà¦¸à¦¬à¦²":7681,"à¦²à¦ķà¦ļ":7682,"à¦¦à¦ķà¦®à¦£":7683,"Ġà¦¹à¦¤à¦Ńà¦®":7684,"à¦¼à§ĭ-":7685,"Ġ\":":7686,"Ġà§©à§§à§¯":7687,"à¤Ń":7688,"Ġà¦¬à¦¨à¦ª":7689,"à¦°à¦¨à¦®":7690,"Ġà¦Ĩà¦ľà¦Ĺà¦°":7691,"à¦Ĺà¦¤à¦¤":7692,"à¦¸à¦¨à¦Ł":7693,"à¦¨à¦¬à¦ľà¦®":7694,"ÙĬØ²":7695,"à¦§à¦¨à¦¶":7696,"à¦¬à¦¬à¦Ļ":7697,"à¦īà¦ľà¦¡":7698,"Ġà§¦à§§à§«":7699,"à¦¸à¦ķà¦Ń":7700,"Ġà¦īà¦ªà¦°à¦ĩ":7701,"Ġ480":7702,"Ġà¦Ĺà¦£à¦Ń":7703,"Ġà¦Ĺà¦£à¦ħà¦¨à¦¶à¦¨":7704,"à§§à§¯à§®à§®":7705,"Ġ87":7706,"Ġ617":7707,"////":7708,"Ġ79":7709,"Ġ113":7710,"Ġ117":7711,"Ġà¦ĵà¦ªà¦°à¦ĩ":7712,"Ġà§§à§ªà§®":7713,"Ġ129":7714,"Ġà¦ľà¦²à¦ľ":7715,"1244":7716,"à¦¿)[":7717,"113":7718,"Ġà§§à§©à§¨":7719,"Ġà¦¸à¦¹à¦ľà¦Ń":7720,"à®ļ":7721,"Ġ197":7722,"Ġà¦ħà¦²à¦Ļ":7723,"182":7724,"187":7725,"Ġ149":7726,"à¦®à¦¹à¦¨à¦¨":7727,"Ġà¦Ĩà¦ĩà¦ıà¦«à¦Ĩà¦ĩà¦¸":7728,"ĠÙģÛĮ":7729,"144":7730,".)'":7731,"Ġà§¨à§¬à§¨":7732,"Ġà¦ıà¦ĩà¦ļà¦Ĩà¦ĩà¦Ń":7733,"à¦ķà¦¶à¦ª":7734,"à²µ":7735,"à¦¼à¦ĥ-":7736,"à¤¾à¤Ĥ":7737,"485":7738,"491":7739,"Ġà¦Ĺà¦¨à¦¤à¦¨":7740,"à¦īà¦ªà¦¸à¦®":7741,"à¦¸à¦°à¦£à¦ķ":7742,"772":7743,"Ġà¦ľà¦¨à¦Ĺà¦¨à¦ķ":7744,"ĠðŁĵ":7745,"Ġà¦ķà¦®à¦¨à¦ĵà¦¯":7746,"à¶»":7747,"Ġà¦ħà¦¹à¦°à¦¹":7748,"Ġà¦Ĩà¦ĩà¦ıà¦¸à¦ıà¦²":7749,"Ġ1209":7750,"áĢĻ":7751,"âĺĳ":7752,"Ġà¦Ļà¦¸":7753,"à§¦à§§à§Ńà§§à§¨":7754,"ðŁĵļ":7755,"ØŃÙħØ©":7756,"áĬłáĪ":7757,"à¦ĩà¦ıà¦ĵ":7758,"ĽáĪŃáĬ":7759,"áĬłáĪĽáĪŃáĬ":7760,"áĬłáĪĽáĪŃáĬĽ":7761,"\"/,":7762,")+\"":7763,"/),(":7764,"/\">":7765,"1108":7766,"2000":7767,"655":7768,"716":7769,"727":7770,"=}":7771,"]+\"":7772,"]?!":7773,"Û¢":7774,"âĻ¦":7775,"ïģ":7776,"Ġà§ģ":7777,"à¦¾à¦¼":7778,"à¦°à§İ":7779,"à¦¯à¦¯à¦¨":7780,"à¦¤à¦§à¦¨":7781,"à¦ķà¦¸à¦®à¦¯":7782,"à¦®à¦¥":7783,"à¦®à¦²à¦ķ":7784,"à¦¸à¦¯à¦ľ":7785,"Ġà¦¸à¦¤à¦¨":7786,"à¦¦à¦¤à¦°":7787,"à¦¦à§İ":7788,"Ġà¦Ĩà¦¯à¦®":7789,"à¦ľà¦īà¦ķ":7790,"à¦ĩà¦°à¦¹":7791,"à¦ĩà¦Ŀ":7792,"Ġà¦¨à¦Ĺà¦£":7793,"à¦¹à¦ĵà¦¯":7794,"Ġà¦¹à¦°à¦Ń":7795,"à¦·à¦²":7796,"à¦Ľà¦¸à¦¹":7797,"à¦¼à§ĩà¥¤":7798,"Ġà¦ħà¦ĺ":7799,"à¦ĸà¦®à¦£":7800,"Ġà¦°à¦¸à¦¦":7801,"à¦£à¦ªà¦¤":7802,"Ġà¦īà¦Ĺà¦°":7803,"Ġà¦ĩà¦¬à¦¤":7804,"à¦ĥ]":7805,"Ġà¦ıà¦ķà¦¡":7806,"Ġà¦ĸà¦¯":7807,"à¦¬à¦°à¦ª":7808,"Ġà¦Ĩà¦®à¦¡":7809,"à¦Ĩà¦«à¦¸":7810,"Ġà¦¬à¦²à¦°":7811,"à¦¬à¦¨à¦¦":7812,"Ġ224":7813,"Ġ237":7814,"Ġà¦§à¦ĩà¦°":7815,"à¦ľà¦¨à¦¬":7816,"Ġà¦ıà¦ĩà¦§à¦°à¦¨":7817,"Ġ2004":7818,"Ġ:{":7819,"à¦°à¦®à¦¸":7820,"à¦ķà¦°à¦ª":7821,"Ġ-\"":7822,"Ġ----":7823,"à¦¿à¦Ĥ\"":7824,"Ġà¦®à¦¨à¦Ĺà¦¡":7825,"à¦°à¦¬à¦¦":7826,"Ġà¦Ĩà¦¨à¦²à¦ķ":7827,"à¤£":7828,"Ġà¦ķà¦¥à¦¨":7829,"Ġà¦¬à¦¨à¦¶":7830,"Ø§Ø°":7831,"Ø§Ø¶":7832,"à¦²à¦¤à¦ķ":7833,"Ġà¦®à¦¤à¦ª":7834,"Ġà¦ıà¦¸à¦¸":7835,"ÙĬØ§Øª":7836,"à¦²à¦¬à¦¯":7837,"à¦¤à¦ķà¦ķ":7838,"à¦®à¦¦à¦®":7839,"Ġà¦¦à¦²à¦Ĺà¦¤":7840,"ÙħØ¹":7841,"ĠØ§ÙĦØ®":7842,"Ġà¦ĩà¦¤à¦¸":7843,"Ġà¦ħà¦ªà¦°à¦Ł":7844,"à¦¨à¦Łà¦°":7845,"à¦¨à¦Łà¦°à¦¡":7846,"Ġ415":7847,"à¦¼à§ģà¦ĥ":7848,"à¦ªà¦¦à¦ľà¦¨à¦ķ":7849,"ÙĪØ¹":7850,"\"\").(/":7851,"\"\"){(":7852,"Ġà¦ĺà¦°à¦¬à¦¨":7853,"à§§à§¯à§Ńà§¨":7854,"Ġà§¨à§ªà§¬":7855,"ĠØ¹ÙħØ±":7856,"Ġ737":7857,"Ġà¦ĵà¦ªà¦°à¦ĵ":7858,"à¦Ĺà¦£à¦ª":7859,"1022":7860,"1018":7861,"1061":7862,"à¦ľà¦²à¦¦":7863,"à¦Ĩà¦ĩà¦ıà¦¨":7864,"1230":7865,"à¦ªà¦Łà¦²":7866,"1161":7867,"Ġà§§à§©à§§":7868,"à¦ķà¦®à¦²à¦¨à¦Ĺà¦°":7869,"Ġà§¨à§§à§Ń":7870,"195":7871,"1970":7872,"156":7873,"Ġ144":7874,"Ġ158":7875,"ÙĤØ±":7876,"Ġà¦¶à¦¹à¦°à¦ķ":7877,"135":7878,"1410":7879,"à¦ıà¦«à¦ĵ":7880,"166":7881,"à¦¿?\"":7882,"285":7883,"@.,":7884,"308":7885,",:.,:.,:":7886,"à¦ĩà¦ªà¦Ĺ":7887,"269":7888,"\"\":\"\")+":7889,"ÙįÙĳ":7890,"Ġà¦ĭà¦£à¦¦":7891,"575":7892,"à¦ĸà¦¬à¦°à¦Ł":7893,"Ġ256":7894,"Ġ294":7895,"/,\"\");":7896,"4888":7897,"------------":7898,"à§©à§«à§¦à§¦":7899,"\"\"===?\"":7900,"à§ªà§«à§¬":7901,"à¶º":7902,"Ġ$().(),$().(":7903,",=..":7904,"à³ģ":7905,"),(),(),":7906,"à§©à§¬à§¨":7907,"),=.(\"\"":7908,"\"),=":7909,".$).(":7910,"(.===!":7911,"Ġ$().('',':":7912,"..$.$":7913,",:,:!":7914,"Ġà¦®à¦¸à¦²à¦ķ":7915,"$(\"#----":7916,".[$]":7917,".[].":7918,".[].){":7919,"\"\"==?((),()):()&&":7920,"1229":7921,",\"\")}":7922,"à¦¹à¦¯à¦°à¦¤à¦ĵà¦¯":7923,"Ġ=(\"\",":7924,"%;');":7925,"(..?'":7926,"(..===!":7927,"à¦Ĩà¦¹à¦®à¦¦":7928,"Ġ=().(\"-\"),=().(\"-\"),=().(":7929,"Ġ=$();":7930,"à¦ļà¦²à¦¨à¦¬":7931,"),$().(),.(\"\"),.(\"\"":7932,"..$:\"\"":7933,"})}}{":7934,"Ġà¦¶à¦°à§İà¦ļà¦¨":7935,"(\"\"===..?..+\"//\"+..:..)+\"":7936,"]?\"\":\"\"===[":7937,"([$]===[":7938,"[],=[],=":7939,";>;++)(\"\"==":7940,".,.,(){..()})}}{":7941,"///\"+(..===!":7942,",_=/):":7943,"?\"\":\"/-/\"+..)+\"":7944,"(.==\"\"){(":7945,"Ġ16479":7946,">]+)":7947,"),.(\"\"),(,,":7948,"Ġ0961244":7949,"\"\").(/\"/,":7950,"Ġ$().(),$().(),$().(),.(\"\"),.(\"\"":7951,"),(),(),!":7952,"(\"\"===..?..+\"//\"+..:..)+\"///\"+(..===!":7953,"(.==\"\"){(.().(\":\")){.(":7954,"Ġ09612444888":7955,"Ġ$().(),$().(),$().(),.(\"\"),.(\"\"),.(\"\"),(,,":7956,"\"/":7957,")\"":7958,"/)":7959,"/[":7960,"446":7961,"726":7962,"702":7963,"_à¥¤à¥¤":7964,"Ö°":7965,"âĩ":7966,"å°":7967,"åį":7968,"åĲ":7969,"ĠÐ¼":7970,"à¦¨à¦ĺ":7971,"à¦¨à¦§à¦°":7972,"à¦²à¦ļà¦°":7973,"à¦¬à¦ĺ":7974,"à¦¬à¦ĩà¦®":7975,"à¦¼_":7976,"à¦®à¦®à¦¨":7977,"à¦®à¦Ĺà¦¨":7978,"Ġà¦ķà¦ľà¦¨":7979,"Ġà¦ķà¦ĩà¦¬":7980,"Ġà¦ªà¦¥à¦¨":7981,"à¦ªà¦²à¦ķ":7982,"à¦ªà¦¬à¦¯":7983,"Ġà¦®à¦ľà¦¨":7984,"à¦ĩà¦Ļ":7985,"à¦ĩà¦ļà¦Ł":7986,"à¦ĩà¦¶à¦°":7987,"Ġà¦ıà¦ŀ":7988,"Ġà¦ıà¦ĺà¦Łà¦¨":7989,"Ġà¦¦à¦®à¦¦à¦®":7990,"à¦¡à¦ĩ":7991,"à¦¼à¦¾/":7992,"à¦¼à¦¾;":7993,"Ġà¦¤à¦®à¦²":7994,"Ġà¦ľà¦ª":7995,"Ġà§±":7996,"à¦¥à¦ķà¦Ń":7997,"à¦ĵà¦¸à¦¹":7998,"Ġ([]":7999,"Ġà¦Ĺà¦ļ":8000,"Ġà¦ĵà¦Ŀ":8001,"Ġà¦ĵà¦Ĩà¦ĩà¦¸":8002,"Ġà¦īà¦¤à¦°":8003,"Ġà¦ıà¦ķà¦Ŀ":8004,"à¦°à¦ķà¦°à¦£":8005,"Ġà¦ħà¦¨à¦Łà¦¨":8006,"à¦ıà¦®à¦¦":8007,"à¦ıà¦®à¦ķ":8008,"à¦Ĩà¦ķà¦°":8009,"à¦Ĩà¦®à¦²":8010,"Ġà¦¡à¦¯":8011,"à¦°à¦£à¦°":8012,"Ġà¦§à¦¬":8013,"à¦ľà¦¨à¦Ł":8014,"Ġà¦ıà¦ĩà¦ľà¦¨":8015,"à¦¶à¦¨à¦¸à¦¹":8016,"à§İà¦¨":8017,"à¦°à¦¸à¦ª":8018,"Ġà¦¸à¦¬à¦§à¦°à¦¨":8019,"Ġ,,,,,,":8020,"à¦¦à¦°à¦¦":8021,"Ġ\"[":8022,"Ø§ÙĬ":8023,"Ġà¦¬à¦Ľà¦°à¦Ł":8024,"à¦¼à§Ģ-":8025,"Ġà¦ĸà¦¬à¦°à¦¬":8026,"à¦®à¦¦à¦Ńà¦Ĺà¦¬":8027,"ĠØ§ÙĦØ¬":8028,"ĠØ§ÙĦØ°":8029,"Ġ310":8030,"Ġ340":8031,"Ġ325":8032,"à¦ıà¦¨à¦Ĩà¦ĩ":8033,"à¦°à¦²à¦Ń":8034,"Ġà¦ħà¦ªà¦¹à¦°à¦¨":8035,"Ġà§§à§¯à§©":8036,"Ġà§§à§¯à§¨à§¯":8037,"Ġà§§à§¯à§ªà§¯":8038,"Ġà¦«à¦²à¦Ł":8039,"20200908":8040,"Ġ{\"":8041,"Ġ420":8042,"Ġ490":8043,"Ġ)?":8044,"à¦°à¦®à¦£à¦Ń":8045,"Ġà¤¶":8046,"Ġà§§à§¨à§Ńà§«":8047,"Ġ96":8048,"Ġà§§à§«à§¨":8049,"Ġ116":8050,"à¦Ńà¦¬à¦ªà¦°":8051,"à¦ıà¦ķà¦ķ":8052,"Ġà¦Ĩà¦¹à¦¤à¦°":8053,"Ġ121":8054,"Ġ125":8055,"Ġ1200":8056,"Ġà¦ķà¦¤à¦ĩ":8057,"0981":8058,"():":8059,"Ġ136":8060,"à¦ªà¦¸à¦Ł":8061,"Ġà§§à§©à§¯":8062,"188":8063,"ĠÙħØ±Ùĥ":8064,"1503":8065,"à¦¶à¦Ĺà¦¡":8066,"133":8067,"1316":8068,"ĠÙģÙĤ":8069,"Ġ244":8070,"à§§à§¦à§«":8071,"Ø¬ÙĦ":8072,"à¦¥à¦²à¦ľ":8073,"à¦ªà¦²à¦Łà¦¨":8074,"à§§à§«à§§":8075,",,,){":8076,"Ġà§¨à§¯à§§":8077,"251":8078,"à¸§":8079,"à¦®à¦°à¦£à¦¸à¦Ń":8080,"Ġ261":8081,"483":8082,"\",\"\\":8083,"Ø§Ø´":8084,"à¦ıà¦ĸà¦¨à¦ĩ":8085,"Ġà¦¨à¦ľà¦°à¦ķ":8086,"à¦ıà¦®à¦ıà¦¸à¦ıà¦«":8087,"à§Ńà§Ńà§Ń":8088,"à¦¥à¦ªà¦°à¦¤":8089,"Ġà§§à§¯à§¬à§Ń":8090,"Ġ.-\").(":8091,"à§§à§¨à§§à§¨":8092,"ĠðŁĺī":8093,"Ġà¦®à¦Īà¦¨à¦īà¦¦":8094,"Ð»Ñĸ":8095,"Ġ(-)":8096,"csc":8097,"ĠÑĤÑĸ":8098,"à¦°Ã¦à¦¤":8099,"...............................................................":8100,"ĠÙģÛĮÙĦÙħ":8101,"à§ªà§«à§¬à§Ńà§®à§¯":8102,"ĠÙħØ±ÙĥØ²":8103,"ĠÑĤÑĸÐ»Ñĸ":8104,"\"==":8105,",..()":8106,"900":8107,"Úº":8108,"ãĥ":8109,"à¦¾....":8110,"à¦¾\",":8111,"à¦¿à§ģ":8112,"à¦¨à¦Ĩà¦¯":8113,"à¦ķà¦¥à¦¨":8114,"à¦²à¦ªà¦¤":8115,"à¦¼]":8116,"à¦®à¦¹à¦®":8117,"à¦®à¦ļà¦°":8118,"à§ģà§Ĥ":8119,"Ġà¦ķà¦Łà¦ķ":8120,"Ġà¦¸à¦°à¦¤":8121,"à¦¦à¦®à¦ķ":8122,"à¦¦à¦¬à¦ª":8123,"Ġà¦¬à¦ļà¦¨":8124,"Ġà¦¬à¦¹à¦®":8125,"Ġà¦¬à¦°à¦ķà¦²":8126,"à¦Łà¦²à¦®":8127,"Ġà¦®à¦Ł":8128,"à¦¶à¦¬à¦ķ":8129,"Ġà¦¨à¦ļ":8130,"Ġà¦ıà¦²à¦ķ":8131,"Ġà¦ıà¦²à¦¨":8132,"à¦¹à¦¸à¦®":8133,"Ġà¦¹à¦īà¦¨":8134,"Ġà¦¹à¦Łà¦¸":8135,"à¦·à¦ĸ":8136,"Ġà¦¦à¦²à¦¤":8137,"Ġà¦¦à¦°à¦Ĺ":8138,"à¦¡à¦ī":8139,"à¦¼à§ĩà¦Ĥ":8140,"à¦¼à¦¾(":8141,"à¦¼à¦¾),":8142,"Ġà¦ħà¦¶à¦¨":8143,"Ġà¦¤à§İà¦¸":8144,"Ġà¦¤à¦ľà¦®":8145,"Ġà¦ľà¦®à¦¤":8146,"Ġà¦ľà¦¬à¦°à¦¦":8147,"à¦ĵà¦ĸ":8148,"Ġà¦Ĺà¦¨à¦¸":8149,"Ġà¦ĵà¦ĩà¦Ł":8150,"Ġà¦ĵà¦°à¦ķà¦®":8151,"Ġà¦ªà¦°à¦ª":8152,"Ġà¦ªà¦°à¦Ľ":8153,"Ġà¦ĸà¦¤à¦¨":8154,"à¦¬à¦°à¦ļà¦¨":8155,"Ġà¦ħà¦¨à¦¬à¦°à¦¤":8156,"à¦Ĩà¦¸à¦®":8157,"Ġà¦¬à¦²à¦ª":8158,"à¦¬à¦¨à¦¸":8159,"Ġ212":8160,"Ġ227":8161,"Ġ235":8162,"Ġ233":8163,"Ġ239":8164,"Ġ234":8165,"Ùİ-":8166,"à¦ªà¦°à¦¨":8167,"Ġà¦§à¦¨à¦¬":8168,"Ġ207":8169,"Ġ209":8170,"à¦ĩà¦¨à¦¶":8171,"à§ªà§ªà§©":8172,"Ġà¦īà¦ªà¦¶":8173,"ÙĦÙĥ":8174,"à¦°à¦¸à¦«":8175,"à¦ĩà¦²à¦¶":8176,"à¦¦à¦°à¦Ł":8177,"à¦·à¦£à¦ļ":8178,"Ġà¦¹à¦¤à¦Ń":8179,"Ġ\"?":8180,"à¦¤à¦¨à¦®":8181,"Ġà§©à§¨à§¬":8182,"à¤«":8183,"à¦¸à¦¬à¦Ĺ":8184,"à¦¬à¦²à¦¬":8185,"Ø§Ø«":8186,"à¦ĩà¦ķà¦¸à¦¹":8187,"Ġà¦ħà¦§à¦¸":8188,"ÙĨØ³":8189,"ÙĨÙģ":8190,"Ġà¦ıà¦²à¦ĩà¦¡":8191,"Ġà¦ĸà¦¬à¦°à¦ĩ":8192,"Ġà¦ĸà¦¬à¦°à¦Ĺ":8193,"à¦¾-à§ĩ":8194,"ÙħØ©":8195,"Ġ++)":8196,"à¦ıà¦¸à¦ıà¦¨":8197,"à¦ıà¦¸à¦ıà¦²":8198,"ĠØ§ÙĨ":8199,"Ġà§¬à§«à§¦":8200,"Ġà§¬à§ªà§¦":8201,"Ġ=[]":8202,"à¦°à¦ªà¦¥":8203,"Ġà¦Ĩà¦¶à¦Ĩà¦°":8204,"Ġ}*/":8205,"Ġ329":8206,"Ġ335":8207,"Ġ370":8208,"Ġ361":8209,"Ø±ØŃÙħØ©":8210,"à¦°à¦Ńà¦ķ":8211,"à¦¹à¦²à¦¦":8212,"à¦¸à¦ķà¦¨":8213,"Ġà¦Ĺà¦²à¦¦":8214,"2015":8215,"à¦ıà¦ĩà¦¡":8216,"Ġ413":8217,"Ġ440":8218,"Ġ448":8219,"Ġà¦ıà¦¨à¦Ĩà¦°à¦¸":8220,"Ġà¦Ĺà¦£à¦§":8221,"ØªØ±":8222,"Ġà¦Ĳà¦¸à¦¬":8223,"Ġà¦ªà¦¥à¦ª":8224,"Ġà¤ļ":8225,"Ø³ÙĪÙĦ":8226,"Ġ990":8227,"à¦ıà¦®à¦ıà¦®":8228,"à¦ıà¦®à¦¡à¦¬":8229,"ĠÙĪÙħ":8230,"Ġà§§à§ªà§¯":8231,"106":8232,"Ġ126":8233,"à§¨à§§à§«":8234,"à§¨à§§à§¦à§Ń":8235,"Ġ134":8236,"Ġà§§à§Ńà§¯":8237,"Ġà§§à§Ńà§ª":8238,"Ġà§§à§Ńà§Ń":8239,"115":8240,"Ġà¦¸à¦ļà¦°":8241,"Ġà§§à§©à§®":8242,"2467":8243,"Ġà¦ıà¦¡à¦ĵà¦¯":8244,"Ġà§¨à§§à§«":8245,"ĠØ£Ø¨ÙĬ":8246,"181":8247,"1854":8248,"à§ĩ'-":8249,"Ġâī":8250,"ĠâĻ¦":8251,"Ġ145":8252,"Ġ1500":8253,"à§§à§®à§¦":8254,"à§§à§®à§§à§¨à§®":8255,"à¦ıà¦«à¦¬":8256,"Ġ164":8257,"à¦ĩà¦īà¦Ń":8258,"à§§à§¦à§©":8259,"Ġà§¨à§¬à§ª":8260,"à§§à§¨à§©à§¨":8261,"302":8262,"ĠÙĦØ£":8263,"à²§":8264,"ĠÙĬØ¹":8265,"à¦ıà¦ĩà¦ļà¦Ĩà¦°":8266,"260":8267,"===?\"\":":8268,"à¸ļ":8269,"(){(":8270,"à¦ĩà¦Ľà¦²":8271,"Ġ270":8272,"Ġ274":8273,"à¥¤à¥¤(.":8274,"Ġ290":8275,"Ġ291":8276,"Ġ296":8277,"Ġà¦¸à¦«à¦°à¦°à¦¤":8278,"3333":8279,"ĠØ¥ÙĦÙī":8280,"=.();":8281,"&=//":8282,"à§ĭ?\"":8283,"à§©à§«à§®à§®":8284,"592":8285,"ĠÙĥÙĦ":8286,"ÙĭÙĳ":8287,"à·Ķ":8288,"à§§à§¯à§¯à§©":8289,"ĠÙ±ÙĦØ³":8290,"à¦Ĳà¦¶":8291,"Ġà²ª":8292,"://..//%":8293,"ĠÌĪ":8294,"à¦Łà¦ĵà¦Ń":8295,"...............................................................................................":8296,"à§¨à§¦à§§à§«à§¨à§¦à§§à§¬":8297,"ÐµÐ»":8298,"Ġcsi":8299,"ÙĩÙħØ§":8300,"à§¨à§¦à§§à§ªà§¨à§¦à§§à§«à§¨à§¦à§§à§¬":8301,")}),$(\".":8302,"à§®à§®à§¦à§¨à§¯à§©à§«à§®à§®":8303,"à§®à§®à§¦à§¨à§®à§©à§«à§¦à§¦":8304,"à§®à§®à§¦à§¨à§¯à§©à§ªà§¬à§ªà§ªà§®":8305,"à§®à§®à§¦à§¨à§¯à§©à§ªà§¬à§©à§¬à§¨":8306,"à§®à§®à§¦à§¨à§®à§©à§¨à§§à§¦à§Ń":8307,"à§®à§®à§¦à§¨à§®à§©à§§à§®à§§à§¨à§®":8308,"880255012281":8309,"880255012286":8310,"Ġgss":8311,"ç®Ģä½ĵä¸Ńæĸĩç¹ģé«Ķä¸Ńæĸĩ":8312,"Ġà¦¹à¦°à¦Ńà¦ľà¦¨":8313,"âĩĴ":8314,"à§®à§®à§¦à§¨à§¯à§©à§«à§®à§®à§¬à§¨":8315,"à§®à§®à§¦à§¨à§®à§©à§«à§¦à§¦à§§à§©":8316,"à§®à§®à§¦à§¨à§®à§©à§¨à§§à§¦à§Ńà§©":8317,".\"":8318,"110":8319,"230":8320,"635":8321,"742":8322,"952":8323,"982":8324,"^à¦¾":8325,"ºï¸ı":8326,"ÌĪ":8327,"ÛŁ":8328,"á®":8329,"æī":8330,"à¦Į":8331,"à¦¿+":8332,"à¦¯à¦Ľ":8333,"à¦¯à¦ĵà¦¯":8334,"à¦¤à¦ĸ":8335,"à¦²à¦¹à¦¤":8336,"à¦¬à¦ķà¦Ł":8337,"à¦¬à¦ľà¦¯":8338,"à¦®à¦®à¦¦":8339,"Ġà¦ķà¦ĩà¦¯":8340,"à¦¦à¦ļ":8341,"à¦¦à¦°à¦®à¦¹à¦²":8342,"Ġà¦¬à¦Łà¦®":8343,"Ġà¦¬à¦¦à¦®":8344,"à§ĭ/":8345,"à¦Łà¦®à¦°":8346,"à¦ªà¦¤à¦°":8347,"à§Ģ(":8348,"Ġà¦Ĩà¦ªà¦¦":8349,"Ġà¦Ĩà¦¹à¦¨":8350,"Ġà¦®à¦ķà¦¸":8351,"à¦Ĺà¦ĺà¦¨":8352,"Ġà¦ıà¦ªà¦°":8353,"à¦¹à¦Ĩà¦²à¦®":8354,"Ġà¦¦à¦¬":8355,"à¦¼à§ĩ;":8356,"à¦£à¦¬à¦¯":8357,"Ġà¦Ĺà¦¸à¦ª":8358,"Ġà¦ļà¦ªà¦²":8359,"Ġà¦ĵà¦ĩà¦¨":8360,"à¥ĥ":8361,"à¥ī":8362,"à¦«à¦ķà¦°":8363,"Ġà¦ĸà¦Łà¦ķ":8364,"Ġà¦«à¦ķà¦¨":8365,"à¦¬à¦°à¦ļ":8366,"à§§à§¨à§ª":8367,"Ġà¦Ĩà¦®à¦ľà¦¨à¦¤":8368,"à¦Ĩà¦Ń":8369,"à¦Ĩà¦Ĩ":8370,"à¦Ĩà¦¨à¦ķ":8371,"Ġà¦¬à¦²à¦¨":8372,"Ġ214":8373,"Ġ228":8374,"Ġ267":8375,"Ġà¦¡à¦Ĺà¦®":8376,"à¦ªà¦¨à¦¸à¦¹":8377,"Ġà¦Ĩà¦°à¦¬à¦¦":8378,"Ġ205":8379,"Ġà§¨à§¦à§ª":8380,"à¦ĩà¦¨à¦¡":8381,"Ġà¦īà¦ªà¦²":8382,"Ġà¦īà¦ªà¦²à¦Ń":8383,"à§İà¦ļ":8384,"Ġà¦®à¦¨à¦¯":8385,"ĠØ¶":8386,"Ġà¦Ĩà¦ªà¦¨à¦ľà¦¨":8387,"à¦ĺà¦°à¦Ł":8388,"à¦²à¦ķà¦¨":8389,"à¦ħà¦°à¦£":8390,"Ġ\"]":8391,"Ġà¦Ĩà¦¨à¦ķ":8392,"Ġà¦Ĩà¦¨à¦®":8393,"Ġà¦Ĩà¦¨à¦ļ":8394,"à¦¤à¦¨à¦Ł":8395,"à¤ģ":8396,"Ġà¦®à¦¹à¦°":8397,"à¦Ŀà¦Ľ":8398,"à¦°à¦¨à¦ķ":8399,"à¦°à¦¶à¦¤":8400,".()}":8401,"Ġà¦¸à¦°à¦·":8402,"à¦ķà¦Łà¦°":8403,"Ġà§ªà§¦à§¦à§¦":8404,"à¦¹à¦¤à¦Ń":8405,"à¦Ĺà¦¤à¦¦":8406,"à¦¨à¦¬à¦Ĺ":8407,"--.":8408,"ĠØ§Øª":8409,"Ġ///":8410,"à¦¶à¦ķà¦¶":8411,"Ġ321":8412,"Ġ315":8413,"Ġ399":8414,"Ġ345":8415,"Ġ354":8416,"Ġ394":8417,"Ġ391":8418,"à¦ıà¦¨à¦ķ":8419,"à¦®à¦¸à¦ķ":8420,"Ġà¦ĩà¦īà¦Ń":8421,"Ġà§§à§¯à§«à§¬":8422,"Ġà§§à§¯à§«à§Ń":8423,"Ġà§§à§¯à§©à§ª":8424,"à¦¨à¦ķà¦¶":8425,"à¦¬à¦ªà¦¦":8426,"Ġà¦Ĺà¦²à¦«":8427,"2010":8428,"2059":8429,"Ġà¦ıà¦ķà¦ľà¦¨à¦ĵ":8430,"Ġ{-:":8431,"à¦ıà¦ĩà¦ļà¦ķ":8432,"Ġ550":8433,"Ġà¦īà¦ªà¦°à¦ĵ":8434,"Ġ425":8435,"Ġ435":8436,"à§§à§¯à§Ńà§®":8437,"à¦Łà¦°à¦Ĺ":8438,"à¦ĩà¦ľà¦¦":8439,"Ġà¦īà§İà¦ķà¦¨":8440,"Ġà¦Ĳà¦Ł":8441,"à¦°à¦ľà¦¯":8442,"à¦¨à¦ĵà¦¦":8443,"Ġ760":8444,"Ġà¦Ĩà¦«à¦Ł":8445,"à¦ľà¦²à¦¢":8446,"121":8447,"à¦Īà¦®à¦ķ":8448,"0987":8449,"Ġ135":8450,"Ġà§§à§¬à§¦à§¦":8451,"Ø§ÙĦÙĨ":8452,"Ġà§¨à§§à§ª":8453,"Ġà¦Ĩà¦ĩà¦°à¦¨":8454,"ØŃÙĦ":8455,"165":8456,"167":8457,"à¦¾!'":8458,"Ġà¦§à¦¨à¦°à¦¤":8459,"Ġà¦§à¦¨à¦ŀ":8460,"àª¨":8461,"Ġà¦ıà¦ĩà¦ļà¦Ĩà¦°":8462,"à§§à§§à§ª":8463,"Ġà§¨à§¯à§¬":8464,"à²²":8465,"à§§à§¬à§¦":8466,"à§§à§¬à§¬":8467,"à§§à§ªà§¨à§ª":8468,"'.-').(":8469,"Ġà§ªà§¦à§§":8470,"à¸ª":8471,"à°°":8472,"Ġ303":8473,"Ġ308":8474,"à§®à§®à§¦à§§à§Ń":8475,"Ġ275":8476,"Ġ279":8477,"Ġ253":8478,"Ġ254":8479,"Ġ258":8480,"ĠØªØ±":8481,"ĠØ±ÙĪØ§":8482,"ĠØ±Ø³ÙĪÙĦ":8483,"Ġà¦Ĩà¦ĸà¦īà¦¡":8484,"Ġà§©à§©à§Ń":8485,"Ġà¦¦à¦¶à¦ľà¦¨":8486,"'-');":8487,"'-'+":8488,"à§ªà§¦à§ª":8489,"Ġà§¦à§§à§Ńà§§à§¨":8490,"662":8491,"à¶Ĥ":8492,"2007":8493,"ĠØ§ÙĦÙĨØ¨ÙĬ":8494,"Ġà¦Ŀà¦°à¦Ŀà¦°":8495,"Ġà§§à§¯à§¬à§©":8496,"à¹ģ":8497,"ĠâĿ¶":8498,"ĠâĿ·":8499,"ĠâĿ¸":8500,"ĠâĿ¹":8501,"ĠâĿº":8502,"ĠâĿ»":8503,"ĠâĿ¼":8504,"ĠâĿ½":8505,"ĠâĿ¾":8506,"ĠØ®ÙĦ":8507,"Ġ[].":8508,"áĥĲ":8509,"Ġà¦ĩà¦īà¦ıà¦¸à¦ı":8510,"àµĭ":8511,"2203":8512,").().().(":8513,"ĠÛļ":8514,"Ġ=(),=.(":8515,"\"://..//":8516,"áŁĴ":8517,"Ġà§®à§©à§©à§¨à§¯":8518,"ĠÙĩØ°Ùĩ":8519,"à§¨à§¦à§§à§ªà§¨à§¦à§§à§«à§¨à§¦à§§à§¬à§¨à§¦à§§à§Ńà§¨à§¦à§§à§®à§¨à§¦à§§à§¯à§¨à§¦à§¨à§¦à§¨à§¦à§¨à§§":8520,"'>.</>":8521,".=":8522,"/.?=":8523,"112":8524,"519":8525,"?)":8526,"[...]":8527,"[/]":8528,"\\/\\":8529,"³Û¹":8530,"Û²":8531,"Û±Û":8532,"ä¼":8533,"ĠÐº":8534,"à¦¨n":8535,"à¦¨à¦Łà¦¨":8536,"à¦¤à¦ĺ":8537,"à¦¬à¦¹à¦°":8538,"à¦®à¦Ĩ":8539,"à¦®à¦°à¦¹":8540,"à¦¸à¦ħà¦°":8541,"Ġà¦ªà¦Łà¦ķ":8542,"à¦Łà¦ķà¦²":8543,"à¦ªà¦¹":8544,"Ġà¦Ĩà¦ķà¦²":8545,"Ġà¦®à¦¬":8546,"Ġà¦®à¦ĸà¦¦":8547,"à¦¶à¦²à¦Ĺ":8548,"à¦ĩà¦°à¦¯":8549,"à¦ĩà¦¸à¦¨":8550,"à¦ĩà¦¸à¦®à¦¯":8551,"Ġà¦ıà¦§à¦°à¦£":8552,"à¦¹à¦ľà¦®":8553,"Ġà¦¹à¦°à¦Ĺ":8554,"Ġà¦ħà¦ĩà¦²":8555,"Ġà¦¤à¦¬à¦²":8556,"à¦§à¦¬à¦¨":8557,"à¦§à¦®à¦¨":8558,"à¦ĸà¦«":8559,"Ġà¦°à¦²":8560,"Ġà¦°à¦Łà¦¨":8561,"Ġà¦°à¦¥à¦¬":8562,"Ġà¦°à¦ĩà¦Ľ":8563,"Ġà¦¯à¦¯":8564,"Ġà¦Ńà¦¡":8565,"Ġà¦ĵà¦¤à¦ª":8566,"Ġà¦īà¦°à¦«":8567,"Ġà¦īà¦¶à¦°":8568,"Ġà¦īà¦«à¦«":8569,"à¥¤=":8570,"Ġà¦²à¦ĸà¦¨":8571,"Ġà¦²à¦¬à¦Ļ":8572,"à¦īà¦£":8573,"à¦łà¦¤à¦®":8574,"à¦°à¦ķà¦¬":8575,"Ġà¦ħà¦¨à¦Ĺ":8576,"à¦ıà¦ķà¦¸à¦Ļ":8577,"Ġà¦ľà¦¨à¦¬à¦¸à¦¤":8578,"à¦Ĩà¦¹à¦²":8579,"à¦Ĩà¦ªà¦¦":8580,"Ġà¦¬à¦²à¦¦":8581,"Ġ222":8582,"Ġ211":8583,"Ġ218":8584,"Ġ213":8585,"Ġ223":8586,"Ġ238":8587,"Ġ231":8588,"..]":8589,"à¦ľà¦¨à¦¸à¦¹":8590,"Ġà¦ıà¦ĩà¦®":8591,"Ġ206":8592,"Ġ'-'":8593,"Ġ'/.?=":8594,"à¦¤à¦°à¦ĵ":8595,"à§ĩ,,":8596,"à§©à§¬à§¦":8597,"à§©à§Ńà§§":8598,"Ġ.\").((){":8599,"à¦·à¦£à¦¸à¦¹":8600,"à¦¸à¦®à¦¬":8601,"à¦¸à¦¬à¦²":8602,"Ġà¦®à¦¹à¦°à¦°à¦®":8603,"à¦®à¦¤à¦Ń":8604,"à¦¨à¦¤à¦¤à¦°":8605,"à¦¬à¦²à¦¯":8606,"Ġà§«à§®à§¦":8607,"Ġà§ªà§ªà§Ń":8608,"à¦Łà¦ķà¦¹":8609,"à¦ªà¦ķà¦¤":8610,"à¦¹à¦°à¦ĩ":8611,"Ġ():":8612,"Ġà¦Ĩà¦ĩà¦¨à¦ķ":8613,"Ġ=;":8614,"Ġ=.(\"":8615,"Ġà¦ħà¦«à¦¸":8616,"à¦°à¦ªà¦Ł":8617,"Ġà§Ńà§§à§¦":8618,"Ġà§Ńà§«à§¦":8619,"Ġ311":8620,"Ġ327":8621,"Ġ346":8622,"Ġ344":8623,"Ġ349":8624,"Ġ331":8625,"Ġ339":8626,"Ġ388":8627,"Ġ332":8628,"Ġ343":8629,"Ġ358":8630,"Ġ378":8631,"Ġ390":8632,"Ġ392":8633,"Ġ363":8634,"Ġ397":8635,"Ġ384":8636,"Ġ398":8637,"Ġà¦Ŀà¦Łà¦ªà¦Ł":8638,"à¦®à¦¸à¦ļ":8639,"Ġà¦ħà¦ªà¦°à¦ľà¦¨":8640,"Ġà§§à§¯à§¨à§®":8641,"Ġà§§à§¯à§«à§¯":8642,"Ġ{\"\":":8643,"Ġ530":8644,"Ġ533":8645,"Ġ438":8646,"à¦¼à§ģ-":8647,"Ġà¦ıà¦¨à¦°":8648,"Ġà¦ıà¦¨à¦Ĩà¦°à¦¬":8649,"ÙĪØ¬":8650,"à¦ĩà¦¡à¦¸":8651,"à¦¯à¦¤à¦¦":8652,"Ġ888":8653,"Ġ650":8654,"Ġ914":8655,"Ġ999":8656,"à¦²à¦Ĺà¦£":8657,"à¦ıà¦®à¦Ĩà¦ĩà¦¡":8658,"à§ĩ??":8659,"à§ģ',":8660,"à¦ıà¦ķà¦ĩà¦Ń":8661,"à¦ıà¦ķà¦¸à¦®à¦¯":8662,"Ġ127":8663,"Ġà¦ıà¦®à¦Ń":8664,"Ġà¦ľà¦²à¦®à¦¯":8665,"Ġà¦ľà¦²à¦®à¦¹à¦²":8666,"0999":8667,"0995":8668,"0986":8669,"0993":8670,"0997":8671,"0989":8672,"à¦¤à¦²à¦¸à¦¹":8673,"à¦ľà¦¸à¦ľ":8674,"Ġà§§à§®à§¨":8675,"Ġà§§à§®à§®":8676,"à¦¨à¦Ńà¦Ļ":8677,"Ġ1961":8678,"Ġ1971":8679,"\",\"\");":8680,"Ø§ÙĦÙĬØ©":8681,"à¦¤à¦¤à¦ªà¦ķ":8682,"1973":8683,"Ġ!'":8684,"ĠÙħØŃÙħØ¯":8685,"155":8686,"Ġà¦Ĩà¦ĩà¦īà¦¬":8687,"Ġ151":8688,"à§¨à§ªà§©":8689,"à§§à§®à§Ń":8690,"Ġ168":8691,"Ġ172":8692,"Ġ175":8693,"à¦ĩà¦īà¦Ĩà¦ĩ":8694,"Ġà¦īà¦®à¦®à¦®":8695,"Ġà¦§à¦¨à¦¸à¦®":8696,"Ġà§¨à§©à§®":8697,"Ġà§¨à§©à§Ń":8698,"ÙģØ±":8699,"Ġà§¨à§¯à§¯":8700,"Ġà§¨à§¯à§ª":8701,"à¦ıà¦ĩà¦ļà¦¸":8702,"à§§à§ªà§¯":8703,"à¦ĩà¦ªà¦®":8704,"à§¨à§¨à§¨à§¦":8705,"à´®à´²à´¯":8706,"à§ĩ...\"":8707,"à¸ķ":8708,"à¦Ĩà¦ĩà¦¨à¦¶":8709,"'';":8710,"Ġ276":8711,"à¦¼?'":8712,"Ġ252":8713,"Ġ281":8714,"Ġ282":8715,"Ġ286":8716,"Ġ265":8717,"Ġ268":8718,"Ġ269":8719,"Ġà¦ļà¦°à¦®à¦Ń":8720,"Ø§ÙĨÙĬ":8721,"'+;":8722,"à¶ļ":8723,"à¥ĭà¤Ĥ":8724,"Ġà§©à§®à§¬":8725,"ä¸Ģ":8726,"Ġ$.({":8727,"]]>":8728,"Ġà¦Ĩà¦ĩà¦ıà¦¸à¦ĵ":8729,")]}":8730,"Ð¾Ð»":8731,"Ġà¤ªà¤°":8732,"Ġ[].,":8733,"Ġà¦ĸà¦¨à¦¨à¦ķ":8734,"áŀĺ":8735,"áŀļ":8736,"áŀŁ":8737,"âĺºï¸ı":8738,"à§ĥà§ĥà§ĥ":8739,"à¦īà¦ªà¦ķà¦°à¦£":8740,"Ġà§®à§§à§®à§¯":8741,"ĠØ¢Ùħ":8742,"Ġà¤ħà¤¶":8743,"Ð°Ñı":8744,"Ġà¦¸à¦¹à¦®à¦°":8745,"Ġ[[]];":8746,"8801711":8747,"å¤§":8748,"à¸Ńà¸ĩ":8749,"Ð¾Ð²Ð°":8750,"ÐµÐ»Ð°":8751,"³Û¹Û":8752,"\"(":8753,"450":8754,"é¦":8755,"ĠÊ":8756,"à¦¾----":8757,"à§į!":8758,"à¦¨à¦°à¦ķ":8759,"à¦¨à¦ªà¦²":8760,"à¦¤à¦§":8761,"à¦¤à¦Ļ":8762,"à¦ķà¦¤à¦ķ":8763,"à¦ķà¦Ĺà¦£":8764,"à¦²à¦¹à¦ľ":8765,"à¦²à§±":8766,"à¦¼'-":8767,"à¦®à¦¦à¦°":8768,"à¦®à¦®à¦°":8769,"à¦¸à¦¬à¦¸à¦®à¦¯":8770,"Ġà¦¸à¦ĩà¦«":8771,"Ġà¦¬à¦ĩà¦¨":8772,"Ġà¦¬à¦Ĺà¦²":8773,"Ġà¦¬à¦īà¦®":8774,"Ġà¦ªà¦¸":8775,"à¦Łà¦ªà¦¤":8776,"à¦Łà¦¸à¦¨":8777,"à¦ªà¦Łà¦¨":8778,"Ġà¦Ĩà¦ĩà¦¤":8779,"à¦ĩà¦¸à¦®":8780,"à¦ĩà¦®à¦²":8781,"à¦Ĺà¦¨à¦ķ":8782,"Ġà¦¨à¦²à¦ķ":8783,"à¦¡à¦¸à¦®":8784,"à¦¼à¦¾à¥¤":8785,"à¦¼à¦¾',":8786,"Ġà¦¤à¦²à¦ª":8787,"à¦§à¦ĸ":8788,"à¦ļà¦¸à¦¹":8789,"à¦ĸà¦¸à¦¹":8790,"à¦£à¦Ĺà¦¤à¦®":8791,"Ġ(...":8792,"Ġ((){":8793,"Ġà¦Ĺà¦ľà¦²":8794,"Ġà¦ĩà¦°à¦®":8795,"Ġà¦ĩà¦¹à¦ľ":8796,"Ġà¦ıà¦ķà¦«":8797,"Ġà¦¸à¦®à¦®à¦¨":8798,"à¦īà¦ıà¦«à¦ª":8799,"Ġà¦ĸà¦²à¦¨":8800,"Ġà¦«à¦¸à¦ķ":8801,"à¦°à¦ķà¦Ĺ":8802,"à¦ıà¦ıà¦¸":8803,"à¦ıà¦ıà¦¸à¦Ĩà¦ĩ":8804,"Ġà§¨à§®à§¦":8805,"Ġà¦Łà¦¨à¦ķ":8806,"Ġ299":8807,"Ġ236":8808,"à¦ľà¦¨à¦Ĺ":8809,"Ġ204":8810,"à¦¤à¦°à¦Ń":8811,"Ġà§¨à§¦à§Ń":8812,"à¦°à¦®à¦¦":8813,"à¦°à¦®à¦Ł":8814,"à¦ķà¦°à¦²":8815,"à¦ĸà¦¨à¦¨":8816,"à§®à§§à§Ń":8817,"à¦īà¦¨à¦ķ":8818,"à¦·à¦£à¦ª":8819,"à¦ħà¦¹":8820,"à¦ķà¦²à¦¸":8821,"Ġà¦Ĩà¦¨à¦®à¦¨":8822,"Ġà§©à§§à§¨":8823,"Ġà§©à§¨à§«":8824,"à¤ĵ":8825,"à¦¯à¦¬à¦ļ":8826,"Ġà¦¬à¦¨à¦§":8827,"à¦¯à¦®à¦Ł":8828,"Ġà§ªà§§à§§":8829,"Ġà§ªà§ªà§©":8830,"à¦¤à¦®à¦¯":8831,"Ġà¦ĸà¦¬à¦°à¦¦":8832,"--/":8833,"à§¦à§¦à§¬":8834,"Ġà¦ħà¦¤à¦²":8835,"ÙĩÙĦ":8836,"à§İà¦¸à¦Ļ":8837,"Ġà¦ªà¦¦à¦ĵ":8838,"Ġ312":8839,"Ġ324":8840,"Ġ313":8841,"Ġ302":8842,"Ġ333":8843,"Ġ352":8844,"Ġ341":8845,"Ġ364":8846,"Ġ368":8847,"Ġ381":8848,"Ġ386":8849,"Ġ366":8850,"Ġ387":8851,"Ġ393":8852,"Ġ375":8853,"Ġ373":8854,"Ġ376":8855,"Ġà¦Ŀà¦°à¦¨":8856,"à¦¾'!":8857,"Ġà§§à§¯à§¦à§¦":8858,"Ġà§§à§¯à§¨à§¬":8859,"Ġà§§à§¯à§©à§Ń":8860,"à¦ķà¦¦à¦²":8861,"à¦¸à¦ķà¦Ĺ":8862,"207":8863,"2012":8864,"Ġ559":8865,"Ġ587":8866,"Ġ410":8867,"Ġ428":8868,"Ġ429":8869,"Ġ430":8870,"Ġ446":8871,"Ġ445":8872,"Ġ441":8873,"Ġ406":8874,"Ġà¦ıà¦¨à¦ıà¦¸":8875,"ÙĪØŃ":8876,"Ġà¦Ĺà¦£à¦Ĺ":8877,"à§§à§¯à§ªà§¬":8878,"à§§à§¯à§¬à§ª":8879,"à§§à§¯à§Ńà§ª":8880,"Ġ))":8881,"à¦ĩà¦ľà¦°":8882,"Ġà¦Ĳà¦¨":8883,"Ġà¦ªà¦¥à¦Ł":8884,"Ġ818":8885,"Ġà¤ī":8886,"Ġ640":8887,"Ø³Ø¨":8888,"Ġ988":8889,"Ġ995":8890,"à¦ıà¦®à¦ıà¦«":8891,"ĠÙĪØª":8892,"Ġ1080":8893,"à¦Ĩà¦²à¦«":8894,"Ġà§§à§ªà§¨à§¦":8895,"Ø¹Ùħ":8896,"Ø¹Ø¯":8897,"à¦ıà¦ķà¦¶à¦¤":8898,"à¦ıà¦ķà¦ĩà¦¸à¦Ļ":8899,"Ġ1282":8900,"Ġà¦ıà¦¸à¦¬à¦ĩ":8901,"à¦¥à¦¬à¦¹":8902,"à¦ľà¦¸à¦Ń":8903,"Ġ133":8904,"Ġà§§à§¬à§®":8905,"Ġ191":8906,"248":8907,"194":8908,"Ġ143":8909,"Ġ159":8910,"139":8911,"Ġ1628":8912,"Ġ176":8913,"Ġ245":8914,"Ġ248":8915,"à§§à§¦à§®":8916,"Ġà¦ĭà¦·à¦Ń":8917,"Ġà§¨à§¨à§¯":8918,"à¦°à¦ķà¦®à¦ĩ":8919,"274":8920,"à§ĩ!'":8921,"Ġà§¨à§¯à§«":8922,",:\"\",:\"\",:":8923,"Ġà¦ľà¦¨à¦Ĺà¦£à¦ĩ":8924,"402":8925,"Ġà¦°à¦ķà¦®à¦ĩ":8926,"à§§à§¬à§®":8927,"261":8928,"264":8929,"âĸºâĸº":8930,"à¦Ĩà¦ĩà¦¨à¦ľ":8931,"à¦Łà¦¤à¦ĩ":8932,"Ġ305":8933,"Ġ271":8934,"Ġ272":8935,"Ġ@_":8936,"Ġ@..":8937,"Ġ264":8938,"){=":8939,"Ġà§¬à§¦à§©":8940,"Ġà¦Ĩà¦ĩà¦¡à¦²":8941,"Ø§Øº":8942,"Ġ508":8943,"Ġà¦Ĩà¦¬à¦¹à¦®à¦¨":8944,"Ġà®ħ":8945,"Ġà®Ĩ":8946,"Ù°Ùĵ":8947,"Ġà¦«à¦¤à¦ĵà¦¯":8948,",=!":8949,"Ġà¦¤à¦°à¦«à¦¦":8950,"à§§à§¯à§¯à§§":8951,"à§©à§¯à§ª":8952,"ÙĬØ±Ø©":8953,"Ġà¤ķà¤°":8954,"Ġà§ªà§Ńà§¦":8955,"Ġà§§à§¯à§¬à§®":8956,"ä¸Ĭ":8957,"Ġà¦¬à¦¶à¦¬à¦°":8958,"://..///":8959,"à¹Į":8960,"Ġà´µ":8961,"áŀģ":8962,"Ġ.@.,":8963,"Ġà¦ıà¦ķà¦¨à¦ľà¦°":8964,"à§¦à§§à§Ńà§§à§ª":8965,"Ġà¦ħà¦Ĺà¦£à¦¤":8966,"ÑĢÑĥÑģÐº":8967,"ä»¬":8968,"äºĨ":8969,"áŁĤ":8970,"Ġ$(\"#_\").(":8971,"Ġ$(\"#_\").();":8972,"ĠØ§ÙĦØ¢ÙĬØ§Øª":8973,"Ġà§¦à§¨à§¨à§¨à§©à§©à§«à§¯à§ªà§¦à§ª":8974,"Ġà§¦à§¨à§¨à§¨à§©à§©à§«à§¯à§©à§¯à§ª":8975,"à¦Ķà¦·à¦§":8976,"âľħ":8977,"ĠÛ±Û³Û¹Û":8978,"Ġà¦ıà¦«à¦ıà¦ĵà¦°":8979,"ĠÐ¼Ð¾Ð²Ð°":8980,"Ġà¦¹à¦°à¦Ĺà¦Ļ":8981,"âĺºï¸ıâĺºï¸ı":8982,"##":8983,"')[":8984,")/":8985,"*:":8986,"+=(":8987,"-//":8988,".>":8989,"342":8990,"599":8991,"710":8992,">)":8993,"?[]":8994,"io":8995,"£áĥ":8996,"¥áĥĲ":8997,"¾Ú":8998,"æ¸":8999,"Ĺáĥ":9000,"ļáĥ":9001,"Ŀà¤µ":9002,"łáĥ":9003,"à§ĩ\",":9004,"à¦¨à¦¸à¦ª":9005,"à¦¯à¦¤à¦¬":9006,"à¦ķà¦°à¦¤":9007,"à¦ķà¦ļà¦ķ":9008,"à¦ķà¦°à¦ķà¦®":9009,"à¦²à¦ļà¦¨":9010,"à¦¬à¦Ĺà¦£":9011,"à¦®à¦ªà¦ķ":9012,"à¦®à¦®à¦¯":9013,"à¦¸à¦Ĩà¦ª":9014,"Ġà¦ķà¦²à¦¤":9015,"à¦¦à¦°à¦¸":9016,"à¦¦à¦²à¦ķ":9017,"à¦¦à¦²à¦¨":9018,"Ġà¦ªà¦Łà¦¨":9019,"à¦Łà¦²à¦ķ":9020,"à¦Łà¦¤à¦®":9021,"à¦ªà¦§":9022,"à¦ªà¦Ľà¦¨":9023,"Ġà¦®à¦°à¦Ĺ":9024,"Ġà¦®à¦¸à¦¨à¦¦":9025,"à¦¶à¦¬à¦°":9026,"à¦¶à¦ĵà¦¯":9027,"à¦Ĺà¦Ĩ":9028,"à¦Ĺà¦¤à¦°":9029,"à¦Ĺà¦¬à¦¸":9030,"Ġà¦¨à¦ĵà¦°":9031,"à¦¹à¦ĸ":9032,"Ġà¦¹à¦Łà¦¨":9033,"Ġà¦¹à¦Łà¦¤":9034,"à¦Ľà¦ªà¦Ł":9035,"à¦Ľà¦Ńà¦°":9036,"Ġà¦ķà¦°à¦¸":9037,"Ġà¦ħà¦®à¦¤":9038,"Ġà¦¤à¦°à¦¤":9039,"Ġà¦¤à¦¹à¦®":9040,"Ġà¦ľà¦®à¦ķ":9041,"à¦¥à¦¯":9042,"Ġà¦°à¦¨à¦ľ":9043,"Ġà¦°à¦Ĺà¦ķ":9044,"à¦Ńà¦¬à¦ķ":9045,"à¦£à¦®à¦¤":9046,"à¦ĵà¦ł":9047,"à¦ĵà¦°à¦Ĺ":9048,"Ġ(*)":9049,"Ġà¦ļà¦¹":9050,"Ġà¦ĵà¦¶":9051,"Ġà¦īà¦¥":9052,"Ġà¦ĩà¦°à¦¬":9053,"Ġà¦ĸà¦¬":9054,"Ġà¦Ĩà¦®à¦ª":9055,"Ġà§¨à§¨à§¦":9056,"Ġà¦ľà¦¨à¦°à¦¬":9057,"à¦Ĩà¦¶à¦°":9058,"à¦¬à¦¨à¦ĩ":9059,"Ġ232":9060,"Ġà¦¡à¦°à¦®":9061,"à¦°à¦£à¦®":9062,"à¦°à¦£à¦ĩ":9063,"Ġà¦ıà¦ĩà¦ļà¦Ł":9064,"à¦¬à¦¸à¦¬":9065,"à§Į,":9066,"à§¯à§§à§®":9067,"à¦¿à¦Ĥ/":9068,"à§İà¦§":9069,"à¦¾,'":9070,"Ġ.{":9071,"Ġà¦īà¦¦à¦°":9072,"à¦ĩà¦²à¦¨":9073,"Ġ\"(":9074,"Ġ\").":9075,"Ġ\").((){":9076,"...\"":9077,"à¦¬à¦²à¦¶":9078,"Ġà¦Ĩà¦Ľà¦®":9079,"à¦ĩà¦Łà¦°":9080,".({:":9081,"à¦¯à¦®à¦£":9082,"Ġà¦®à¦¤à¦Ń":9083,"Ġà§ªà§¨à§¦":9084,"Ġà¦ıà¦¸à¦ĩà¦īà¦Ń":9085,"à¦¤à¦®à¦ŀ":9086,"ÙĨØ²":9087,"Ġà¦ıà¦²à¦ı":9088,"Ġà¦ıà¦²à¦ıà¦¸à¦¡":9089,"à¦²à¦¬à¦¦à¦²":9090,"Ġà¦°à¦¯à¦Ń":9091,"à¦·à¦ķà¦®à¦¨":9092,"à¦·à¦ķà¦¸à¦¹":9093,"Ġà¦¸à¦¨à¦®":9094,"à§¦à§¦à§¯":9095,"à§¦à§¦à§§à§§":9096,"Ġà¦ħà¦¸à¦Ń":9097,"Ġ////":9098,"Ġ=..":9099,"Ġà¦Ĩà¦¯à¦°":9100,"Ġ322":9101,"Ġ309":9102,"Ġ319":9103,"Ġ318":9104,"Ġ357":9105,"Ġ336":9106,"Ġ337":9107,"Ġ348":9108,"Ġ338":9109,"Ġ355":9110,"Ġ342":9111,"Ġ379":9112,"Ġ351":9113,"Ġ372":9114,"Ġ353":9115,"Ġ395":9116,"Ġ382":9117,"Ġ396":9118,"Ġ385":9119,"Ġ383":9120,").(\"\"":9121,"Ġà¦Ŀà¦Łà¦ķ":9122,"Ġà§§à§¯à§©à§«":9123,"Ġà§§à§¯à§«à§®":9124,"Ġà§§à§¯à§ªà§ª":9125,"à¦°à¦Ńà¦Ļ":9126,"à¦Ĺà¦²à¦®à¦¹":9127,"Ġà¦°à¦ķà¦¸":9128,"Ġà¦Ĺà¦²à¦ª":9129,"201":9130,"Ġ...\"":9131,"Ġ520":9132,"Ġ510":9133,"Ġ512":9134,"Ġ540":9135,"Ġ502":9136,"Ġ560":9137,"Ġ541":9138,"Ġ412":9139,"Ġ424":9140,"Ġ419":9141,"Ġ416":9142,"Ġ423":9143,"Ġ436":9144,"Ġ431":9145,"Ġ439":9146,"Ġ455":9147,"Ġ460":9148,"Ġ442":9149,"Ġ479":9150,"Ġ468":9151,"Ġ405":9152,"Ġ486":9153,"Ġ404":9154,"Ġà¦¶à¦¤à¦¤à¦®":9155,"Ø¨ÙĪ":9156,"ÙĪØ¡":9157,"ÙĪØ§Ø¦":9158,"à¦ĸà¦²à¦®":9159,"Ġà¦ĵà¦ĩà¦ĸ":9160,"à§§à§¯à§Ńà§©":9161,"à¦ĩà¦ľà¦²":9162,"à¦ĩà¦ľà¦Ń":9163,"à¦ķà¦¨à¦ľ":9164,"Ġà¦Ĳà¦¦":9165,"Ġ820":9166,"Ġ897":9167,"Ġà¤¤":9168,"Ġ655":9169,"Ġ686":9170,"à¦¬à¦¦à¦Ĺ":9171,"à¦°à¦ľà¦²":9172,"à¦°à¦ľà¦¬":9173,"Ġ911":9174,"Ġ980":9175,"Ġ930":9176,"Ġ944":9177,"à¦¨à¦ĵà¦Ł":9178,"Ġ787":9179,"Ġ789":9180,"à¦Ĩà¦²à¦®à¦¡":9181,"à¦Ĺà¦£à¦¤":9182,"Ø¹Ø¨":9183,"Ġ.(\"\");":9184,"Ġà¦Ĩà¦«à¦«":9185,"à¦łà¦ķà¦ĵ":9186,"Ġic":9187,"Ġà§§à§®à§¯":9188,"218":9189,"Ġà¦®à¦°à¦Ľ":9190,"à¦ļà¦ķà¦ķ":9191,"à¦²à¦®à¦£":9192,"à¦¯à¦°à¦ŀ":9193,"Ġà§©à§¦à§¯":9194,"Ġ194":9195,"Ġ1999":9196,"Ġ1997":9197,"Ġ1991":9198,"24109":9199,"Ġ???":9200,"Ġà¦ıà¦¡à¦Ĺ":9201,"Ø§ÙĦØ³":9202,"Ġss":9203,"ĠØ£ÙĪ":9204,"Ġ187":9205,"Ġ147":9206,"Ġ148":9207,"à§§à§Ńà§«":9208,"Ġ//]]>":9209,"177":9210,"à¦ıà¦«à¦Ĩà¦ĩ":9211,"à¦ıà¦«à¦ıà¦²":9212,"Ġ167":9213,"à¦¶à¦²à¦Ł":9214,"Ġ179":9215,"Ġ246":9216,"à§§à§¦à§¬":9217,"Ġcg":9218,").();.(":9219,"Ġ'''":9220,"Ġà§¨à§¨à§©":9221,"Ġà§¨à§¨à§®à§¬":9222,"Ġà§¨à§¬à§¯":9223,"Ġuo":9224,"âĸ²":9225,"à§§à§«à§¦":9226,"404":9227,"à§§à§¬à§¨à§¬à§©":9228,"Ġà¦ĸà¦°à¦ļà¦ĵ":9229,"237":9230,"Ġà§ªà§¦à§¯":9231,")})}),":9232,"Ġà¦īà§İà¦¸à¦¬à¦Ł":9233,"5015":9234,"Ġ307":9235,"''];":9236,"Ġ273":9237,"à¦¼?\"":9238,"Ġ251":9239,"Ġ259":9240,"Ġ292":9241,"Ġ297":9242,"Ġ298":9243,"444":9244,"44200":9245,"Ġ283":9246,"Ġ284":9247,"Ġ288":9248,"Ġ289":9249,"Ġ263":9250,"ðŁ¤":9251,"Ġ://.//":9252,"à§¯à§¬à§ª":9253,"Ġà¦Ĭà¦ªà¦¦":9254,"Ġà¦Ķà¦·":9255,"..(\"":9256,"Ġ501":9257,"Ġ505":9258,"Ġ507":9259,"):(":9260,"à§©à§©à§¨à§¨à§¨":9261,"Ġà§¦à§§à§Ńà§¨à§«à§®":9262,"à·Ļ":9263,"Ġiis":9264,"à§§à§¯à§¯à§«":9265,"à§©à§Ńà§¦à§¦à§¦à§¦":9266,"à§«à§ªà§ª":9267,"Ġà¦ħà¦¹à¦Ļ":9268,"Ġà§®à§«à§¦à§¦":9269,"Ġà¦¸à§İà¦ķà¦°":9270,"Ġà§¦à§§à§¯à§ªà§ªà§©":9271,"Ġà§¦à§§à§¯à§©à§Ńà§§":9272,"Ġà§¦à§§à§¯à§©à§Ńà§¦à§¦à§¦à§¦":9273,"Ġ0981":9274,"88024109":9275,"à§Ńà§¬à§¯à§¬à§ª":9276,"à¦ıà¦®à¦ĩà¦ıà¦°":9277,"().().(":9278,"Ġouu":9279,"Ġigc":9280,"\\/(":9281,"áĥ¥áĥĲ":9282,"áĥłáĥ":9283,";}(":9284,"Ġà¦¨à¦ĸà¦¦à¦°":9285,"Ġà§¦à§§à§®à§ª":9286,"à¦¸à¦«à¦Łà¦ĵà¦¯":9287,"àµĢ":9288,"à§¬à§¯à§¨à§¨à§¨à§¦":9289,"Ġà§¦à§§à§ªà§¦à§§à§§à§®à§ªà§«à§«à§§":9290,"Ġà§¦à§§à§ªà§¦à§§à§§à§®à§ªà§«à§«à§¯":9291,"Ġà§¦à§§à§ªà§¦à§§à§§à§®à§ªà§«à§«à§ª":9292,"Ġà§¦à§§à§ªà§¦à§§à§§à§®à§ªà§«à§«à§«":9293,"Ġà§¦à§§à§ªà§¦à§§à§§à§®à§ªà§«à§«à§¬":9294,"Ù±ÙĦÙĦ":9295,"à¦¸à¦ķà¦¦à¦²":9296,"à·Ĵà¶Ĥ":9297,"Ġà¦ķà¦¨à¦ķà¦¨":9298,"Ġ://...///":9299,"15944200":9300,")]();":9301,"Ġogu":9302,"----------------------------------------------------------------":9303,"Ġà¦¦à¦²à¦¬à¦¦":9304,"8801715944200":9305,"Ġ.('__')[":9306,"Ġuusio":9307,"Ġosi":9308,"116094":9309,"Ġucuc":9310,"Ġà§¦à§§à§¯à§¨à§Ńà§Ńà§§à§§à§Ńà§®à§ª":9311,"Ġà§¦à§§à§¯à§¨à§Ńà§Ńà§§à§§à§Ńà§®à§«":9312,"Ġà§¦à§§à§ªà§¦à§§à§§à§®à§ªà§«à§¬à§¦":9313,"Ġà§¦à§§à§ªà§¦à§§à§§à§®à§ªà§«à§¬à§®":9314,"Ġà¦ıà¦¤à¦¬à¦¡":9315,"Ø±ÙĤÙħ":9316,"à²°à²¬":9317,"à§¦à§§à§Ńà§§à§¨à§¬à§¯à§¨à§¨à§¨à§¦":9318,"\"/\"==":9319,"Ġâī£":9320,"\\/\\/\\":9321,"8801711116094":9322,"ÐµÐ»Ð°ÑĢÑĥÑģÐº":9323,"£áĥļáĥ":9324,"Ĺáĥ£áĥļáĥ":9325,"à¦Ĺà¦²à¦®à¦¹à¦²à¦ķ":9326,"Ġà§¦à§§à§Ńà§¨à§«à§®à§Ńà§¬à§¯à§¬à§ª":9327,"Ġà§¦à§§à§¯à§ªà§ªà§©à§©à§©à§¨à§¨à§¨":9328,"Ġà§¦à§§à§¯à§©à§Ńà§§à§¦à§¦à§§à§§":9329,"Ġà§¦à§§à§¯à§©à§Ńà§¦à§¦à§¦à§¦à§§à§§":9330,"880241095015":9331,"áĥ¥áĥĲáĥłáĥ":9332,"ÐµÐ»Ð°ÑĢÑĥÑģÐºÐ°Ñı":9333,"Ĺáĥ£áĥļáĥĺ":9334,"áĥ¥áĥĲáĥłáĥĹáĥ£áĥļáĥĺ":9335,",(){":9336,"/(":9337,"/^":9338,"/_":9339,"018":9340,"326":9341,"348":9342,"<\\":9343,"\\-":9344,"]+":9345,"_)":9346,"{};":9347,"¡Õ":9348,"¢ĵ":9349,"¥àº²àº":9350,"Õ¡Õ":9351,"Û¦":9352,"Ġ\\\"":9353,"ĠÑĢÑĥÑģÑģÐºÐ¸Ð¹":9354,"ĥ½":9355,"Ġà¦Ĥ":9356,"à¦¿--":9357,"à¦¤à¦¸à¦°":9358,"à¦¤à¦ľà¦¨à¦ķ":9359,"à¦ķà¦¤à¦®":9360,"à¦ķà¦¨à¦ķ":9361,"à¦®à¦ľà¦®":9362,"à¦¸à¦¯à¦¨":9363,"Ġà¦¸à¦ľà¦¨":9364,"Ġà¦¬à¦¸à¦°":9365,"Ġà¦ªà¦®":9366,"Ġà¦Ĩà¦ľà¦¨":9367,"Ġà¦Ĩà¦ĵà¦°":9368,"Ġà¦Ĩà¦ĵà¦¨":9369,"Ġà¦®à¦ª":9370,"Ġà¦®à¦°à¦¬":9371,"à¦ľà¦ļ":9372,"à¦ľà¦¬à¦¨":9373,"à¦ľà¦ĺ":9374,"à¦¶à¦ªà¦°":9375,"à¦ĩà¦®à¦¤":9376,"à¦ĩà¦ķà¦Ł":9377,"à¦ĩà¦ªà¦ķ":9378,"à¦Ĺà§İ":9379,"à¦Ĺà¦¤à¦¬":9380,"à¦Ĺà¦°à¦ķà¦¨":9381,"à¦¹à¦·":9382,"Ġà¦¹à¦¡":9383,"à¦·à¦¬à¦°à¦£":9384,"Ġà¦ħà¦Ĺà¦¤":9385,"à¦§à¦ķà¦²":9386,"à¦¥à¦²à¦Ń":9387,"à¦ĸà¦ĩ":9388,"à¦ĸà¦²à¦¨":9389,"Ġà¦°à¦¸à¦¨":9390,"à¦Ńà¦¡":9391,"à¦£à¦ªà¦£":9392,"Ġà¦¶à¦®à¦¶":9393,"Ġà¦ļà¦°à¦ª":9394,"Ġà¦ĵà¦¤":9395,"Ġà¦ĵà¦²à¦Ł":9396,"Ġà¦ĵà¦¹à¦¹":9397,"à§¦à§§à§¯":9398,"à¥¤(":9399,"à¥¤.":9400,"Ġà¦ĩà¦¨à¦¤":9401,"à§Ĥ,":9402,"à§Ĥà§į":9403,"à¦ĥ+":9404,"Ġà¦ıà¦ķà¦¶à¦¤":9405,"à¦īà¦Ń":9406,"à¦īà¦ł":9407,"à¦īà¦ĩà¦°":9408,"à¦¬à¦°à¦«":9409,"à¦ıà¦ķà¦²":9410,"à¦Ĩà¦ł":9411,"à¦Ĩà¦ĸà¦¤":9412,"à¦Ĩà¦¦à¦®":9413,"Ġà¦¬à¦²à¦¶":9414,"Ġà¦¡à¦¬à¦²":9415,"à¦°à¦£à¦¸à¦¹":9416,"à¦ªà¦¨à¦Ĺ":9417,"Ġà¦Ĩà¦°à¦Ĩà¦°":9418,"Ġà¦§à¦¬à¦²":9419,"Ġà¦ıà¦ĩà¦¤":9420,"Ġ203":9421,"Ġ2003":9422,"à¦°à¦®à¦ĵ":9423,"à¦ķà¦°à¦°":9424,"à§Īà¦ĥ":9425,"à§İà¦®":9426,"à¦ĩà¦²à¦°":9427,"à¦²à¦ķà¦®":9428,"Ġ,,,,,,,,,":9429,"Ġà¦ķà¦®à¦²à¦ķ":9430,"à¦²à¦¨à¦ķà¦¶":9431,"à¦·à¦£à¦Ł":9432,"à¦·à¦£à¦§à¦°":9433,"à¦¸à¦®à¦®":9434,"Ġ\"*":9435,"à¦¤à¦¨à¦ĩà¦¤":9436,"à¦Łà¦¨à¦Ł":9437,"à¤Ľ":9438,"à¦ĩà¦Łà¦ķ":9439,"Ġà¦Ĩà¦ľà¦Ĺ":9440,"Ġà§ªà§¬à§¦":9441,"Ġà¦ıà¦¸à¦ı":9442,"à¦¯à¦¨à¦Ĺà¦°":9443,"à¦·à¦ķà¦Ĺà¦£":9444,"à¦¤à¦ķà¦£":9445,"Ġà§¬à§¨à§©":9446,"Ġ=[":9447,"Ġ317":9448,"Ġ314":9449,"Ġ328":9450,"Ġ323":9451,"Ġ367":9452,"Ġ347":9453,"Ġ334":9454,"Ġ359":9455,"Ġ369":9456,"Ġ377":9457,"Ġ371":9458,"Ġ362":9459,"Ġ374":9460,"Ġ389":9461,"à¦¨à¦¨à¦Ĺà¦°":9462,"Ġà¦Ŀà¦¨":9463,"Ø±Ø¶":9464,"Ø±ÙĪÙĨ":9465,"Ġà§®à§«à§¦":9466,"Ġà§¯à§«à§¬":9467,"Ġà§§à§¯à§ªà§§":9468,"Ġà§¦à§¨à§¦":9469,"Ġà§¦à§§à§©":9470,"à¦ıà¦°à¦Ĩà¦Ĺ":9471,"Ġ...,":9472,"Ġ526":9473,"Ġ567":9474,"Ġ549":9475,"Ġ555":9476,"Ġ422":9477,"Ġ409":9478,"Ġ418":9479,"Ġ414":9480,"Ġ467":9481,"Ġ437":9482,"Ġ449":9483,"Ġ432":9484,"Ġ443":9485,"Ġ407":9486,"Ġ477":9487,"Ġ401":9488,"Ġ408":9489,"Ġ466":9490,"Ġ487":9491,"Ġà¦Ĺà¦£à¦¹":9492,"à¦Ľà¦¨à¦Ľ":9493,"à§§à§¯à§ªà§Ń":9494,"Ġà§¨à§ªà§«":9495,"Ġà¦īà§İà¦°":9496,"Ġà¦ªà¦¥à¦¶":9497,"à¦°à¦Ĺà¦¨":9498,"Ġ809":9499,"Ġ850":9500,"Ġ870":9501,"Ġ858":9502,"Ġ610":9503,"Ġ629":9504,"Ġ667":9505,"Ġ660":9506,"Ġ652":9507,"à¦īà¦Łà¦¸":9508,"Ġ943":9509,"à¦ĩà¦«à¦Ł":9510,"ĠÙĪÙĤ":9511,"Ġ1095":9512,"à§ĭ,,":9513,"Ġ712":9514,"Ġ780":9515,"Ġ740":9516,"Ġ750":9517,"Ġ777":9518,"Ġ1133":9519,"à¦Ĺà¦£à¦¨":9520,"Ġà¦ıà¦®à¦«":9521,"Ġà¦ıà¦®à¦ıà¦²":9522,"Ġ1314":9523,"Ġà§§à§¬à§¨":9524,"Ġà§§à§®à§§":9525,"Ġà§§à§®à§¬":9526,"213":9527,"214":9528,"à¦¯à¦°à¦ļà¦¨":9529,"à®µ":9530,"Ġ192":9531,"Ġ1988":9532,"Ġ1969":9533,"Ġ1990":9534,"Ø§ÙĦØµ":9535,"189":9536,"Ġ!==":9537,"Ġ188":9538,"Ġ141":9539,"Ġà¦ĩà¦¸à¦¤":9540,"à¦ĩà¦¦à¦Ĺ":9541,"à¦ıà¦«à¦ıà¦«":9542,"Ġ162":9543,"Ġ16222":9544,"Ġ174":9545,"à¦¦à¦¶à¦Ł":9546,"Ġ249":9547,"àªª":9548,"Ġà§¨à§®à§¬":9549,"à§§à§¨à§¨":9550,"','":9551,"âĸ¬":9552,"298":9553,"à¦īà¦°à¦ĵà¦¯":9554,"à§§à§§à§¬":9555,"ĠÙĦÙĦ":9556,"à¦Īà¦¦à¦Ĺ":9557,"à´¸":9558,"355":9559,"à¦Ĩà¦ĩà¦¨à¦¸":9560,"Ġà¦°à¦Ļà¦Ł":9561,"\").()}":9562,"à°Ĥ":9563,"à§¨à§«à§«":9564,"Ġ306":9565,"à¦®à¦¡à¦®":9566,"à¥¤à¥¤.":9567,"Ġ295":9568,"://.../":9569,"Ġ285":9570,"Ġ287":9571,"Ġ@.)":9572,"Ġ262":9573,"Ġ266":9574,"ĠØ¥ÙĦØ§":9575,"=.({}":9576,"à§¨à§Ńà§©":9577,"Ġà¦¦à¦¶à¦ķà¦¸":9578,"---------":9579,"ĠØ³Ø¨":9580,"Ġà¦ıà¦«à¦ıà¦®":9581,"Ġà¦Ķà¦¦":9582,"ĠÙĥØª":9583,"Ġà®®":9584,"Ġà§¦à§§à§Ńà§§à§®":9585,"à·ļ":9586,"Ø¥ÙĨ":9587,"/-.":9588,"à¦ıà¦°à¦ªà¦°à¦ĩ":9589,"Ġà§§à§¨à§¦à§«":9590,"à¦ıà¦¸à¦ĩà¦ıà¦ķ":9591,"Ġà§¦à§§à§¯à§Ń":9592,"Ġ1205":9593,"Ġà¦°à¦ĵà¦¨à¦ķ":9594,"Ġà´¸":9595,"Ġ$(\"#\").(":9596,"à§§à§¨à§¦à§«":9597,"à§§à§¨à§¦à§®":9598,"áŀĹ":9599,"Ġà§¦à§§à§®à§§à§¯":9600,"Ġâĸ²":9601,"à¦¨à¦¬à¦¸à¦Ń":9602,"????????":9603,"à¦ıà¦ķà¦¨à¦ľà¦°":9604,"[^>]*":9605,"/--.":9606,"Ġà¦¦à¦ĸà¦²à¦ķ":9607,"à·Ħà¶½":9608,"Ġà¦Ńà¦°à¦£à¦ª":9609,"à¦¡à¦īà¦ĩà¦ļ":9610,"ĠØ±ÙĪØ§Ø¯":9611,"<\\[^>]*":9612,"¥àº²àº§":9613,"=.({},,":9614,"<\\[^>]*>":9615,"!(){":9616,"!&&":9617,"\"):":9618,"\"/\"+":9619,"\"),(\".\").(":9620,"#\\":9621,"$\"":9622,"&)":9623,"&\\\"":9624,"&\\?":9625,"&-=\"+":9626,"(\"\"===":9627,"((.":9628,")...":9629,")&&":9630,")),=(":9631,"+.":9632,"+>":9633,",..":9634,",=.(\"":9635,".,,":9636,".\")}":9637,".?..+\"//\"+..:":9638,"657":9639,"6281":9640,":,:":9641,"=\",":9642,"=\"\"===[":9643,"={:\"\",:":9644,">&&(=":9645,"?([^":9646,"\\??":9647,"\\?(":9648,"]:(":9649,"].(\"":9650,"]?\"\":\"":9651,"].&&(=":9652,"_à¥¤":9653,"}{":9654,"}).().(":9655,"Ã·":9656,"å¹":9657,"î¢ĵ":9658,"Ġd":9659,"Ġ\\\\":9660,"ĩÐ°":9661,"ļØª":9662,"à¦°à¦°à¦ķ":9663,"à§įà§į":9664,"à¦¨à¦¨à¦¬":9665,"à¦¯à¦¸à¦¬":9666,"à¦¯à¦ļà¦°":9667,"à¦¤à¦ļà¦ķ":9668,"à¦ķØµÙĦÙī":9669,"à¦ķà¦ĩà¦¨à¦«":9670,"à¦®à§İ":9671,"à¦®à¦Ŀ":9672,"à§ģ.(":9673,"à§ģ*:":9674,"Ġà¦¸à¦¸à¦®":9675,"à¦¦à¦ªà¦°à¦¬à¦°":9676,"Ġà¦ªà¦¸à¦°":9677,"Ġà¦ªà¦łà¦¨":9678,"Ġà¦ªà¦ĩà¦¡":9679,"à¦Łà¦§":9680,"à¦Łà¦¸à¦ķ":9681,"à¦ªà¦Ŀ":9682,"à¦ªà¦¸à¦¨":9683,"Ġà¦Ĩà¦Ľà¦°":9684,"Ġà¦Ĩà¦¹à¦°":9685,"Ġà¦Ĩà¦ĸà¦°":9686,"Ġà¦Ĩà¦£à¦¬":9687,"à¦¶à¦¡":9688,"à¦ĩà¦ļà¦ķ":9689,"à¦ĩà¦°à¦ķà¦®":9690,"à¦ĩà¦Ĩà¦¤":9691,"Ġà¦¨à¦ľà¦¦":9692,"Ġà¦ıà¦Ĺà¦°":9693,"Ġà¦ıà¦ªà¦¸":9694,"à¦·à¦¬à¦°":9695,"à¦·à§İ":9696,"à¦¡à¦ķà¦Ń":9697,"Ġà¦ķà¦°à¦ľ":9698,"à¦¼à¦¾à¦ģ":9699,"Ġà¦ħà¦¹à¦®":9700,"Ġà¦ħà¦ĩà¦¯":9701,"Ġà¦ħà¦¹à¦°":9702,"Ġà¦¤à¦ªà¦¤":9703,"Ġà¦¤à¦²à¦ķ":9704,"Ġà¦¤à¦²à¦¸":9705,"Ġà¦¤à¦Ľà¦¨à¦Ľ":9706,"à¦§à¦²à¦ķ":9707,"à¦ļà¦°à¦ķ":9708,"à¦ļà¦°à¦¨":9709,"à¦ļà¦¢":9710,"à¦ĸà¦²à¦¤":9711,"à¦Ńà¦ĵ":9712,"Ġà¦¶à¦¤à¦°":9713,"Ġ(...)":9714,"Ġà¦Ĺà¦¨à¦ľ":9715,"Ġà¦ĩà¦ĸà¦²":9716,"Ġà¦ĩà¦¹à¦¸":9717,"Ġà¦ĩà¦«à¦«":9718,"Ġà¦ĩà¦¸à¦ķà¦¨":9719,"Ġà¦ªà¦°à¦·":9720,"Ġà¦ıà¦ķà¦ĺà¦°":9721,"à¦īà¦ī":9722,"à¦īà¦ıà¦®à¦ıà¦ĩà¦ļ":9723,"Ġà¦«à¦°à¦¸":9724,"à¦°à¦¤à¦¸à¦¹":9725,"à¦¬à¦°à¦²":9726,"à§§à§§à§®":9727,"à§§à§§à§¨":9728,"à¦ıà¦ıà¦¸à¦ıà¦®":9729,"Ġà¦Łà¦ķà¦Łà¦ķ":9730,"à¦Ĩà¦īà¦¨":9731,"..){":9732,"..=(,,){":9733,"Ġà¦Ĩà¦°à¦ª":9734,"Ġà¦Ĩà¦°à¦Ń":9735,"Ġà¦§à¦®":9736,"Ġà¦§à¦¨à¦¤":9737,"Ġà¦§à¦¨à¦Ł":9738,"Ġ2006":9739,"Ġ2005":9740,"Ġ'++":9741,"à¦°à¦¹à¦®":9742,"à§¯à§«à§¬":9743,"Ġà¦īà¦ªà¦§":9744,"à§Ńà§«à§¦":9745,"Ġ.\")":9746,"à¦ĺà¦¸à¦®à¦¯":9747,"à¦²à¦ķà¦§":9748,"à¦²à¦ķà¦®à¦²":9749,"à¦·à¦£à¦¬":9750,"à¦ħà¦ªà¦®":9751,"Ġ\"++":9752,"Ġ\")[":9753,"à¦¤à¦¨à¦ĵ":9754,"à¦¸à¦¬à¦ĩ":9755,"Ġà¦¬à¦°à¦¨":9756,"à¦¬à¦²à¦¦":9757,"à¦°à¦¨à¦¯":9758,"à¦¯à¦ķà¦¨":9759,"à¦¯à¦ķà¦¤":9760,"à¦¯à¦ķà¦°à¦£":9761,"Ġà¦¸à¦°à¦²à¦¤":9762,"Ġà¦Ĩà¦ľà¦°":9763,"Ġà¦Ĩà¦ľà¦®à¦¤":9764,");&&":9765,"Ġà§ªà§§à§ª":9766,"Ġà§ªà§ªà§¬":9767,"Ġà§ªà§¬à§§":9768,"Ġà¦Ĩà¦ķà¦®à¦²":9769,"Ġà¦ıà¦¸à¦ıà¦®à¦ª":9770,"Ġà¦ıà¦¸à¦ıà¦¸à¦ķ":9771,"à¦ªà¦ķà¦¬":9772,"à¦·à¦ķà¦ĩ":9773,"Ġà¦¸à¦¨à§İà¦ķ":9774,"Ġà§¬à§©à§¬":9775,"Ġ=,=":9776,"Ġ=(.":9777,"Ġ=$().(":9778,"Ġ=.;":9779,"à¦°à¦ªà¦ļ":9780,"à¦¨à¦®à¦¨à¦¸":9781,"),$(\".":9782,"à¦ķà¦¬à¦Ľà¦°":9783,").('":9784,").(.()":9785,").(\".-":9786,"à¦ıà¦¨à¦ĩà¦ī":9787,"Ø±Ø¯":9788,"à¦ļà¦²à¦Ľ":9789,"Ġà§¯à§«à§«":9790,"Ġà§§à§¯à§ªà§¬":9791,"à¦Ĺà¦²à¦ª":9792,"à¦¨à¦Łà¦ĺ":9793,"Ġ509":9794,"Ġ511":9795,"Ġ514":9796,"Ġ516":9797,"Ġ528":9798,"Ġ580":9799,"Ġ527":9800,"Ġ599":9801,"Ġ570":9802,"Ġ545":9803,"Ġ539":9804,"Ġ564":9805,"Ġ421":9806,"Ġ411":9807,"Ġ417":9808,"Ġ427":9809,"Ġ499":9810,"Ġ426":9811,"Ġ402":9812,"Ġ444":9813,"Ġ433":9814,"Ġ447":9815,"Ġ434":9816,"Ġ454":9817,"Ġ469":9818,"Ġ464":9819,"Ġ465":9820,"Ġ481":9821,"Ġ403":9822,"Ġ451":9823,"Ġ495":9824,"Ġ463":9825,"Ġ482":9826,"Ġ471":9827,"Ġ493":9828,"Ġ494":9829,"Ġ484":9830,"Ġ485":9831,"Ġ473":9832,"Ġ498":9833,"Ġ[{":9834,"\"\"++'":9835,"\"\"),.":9836,"à§§à§¯à§Ńà§¦":9837,"à§§à§¯à§®à§§":9838,"à§§à§¯à§Ńà§¯":9839,"à¦ħà¦¨à¦Łà¦¨":9840,"Ġ840":9841,"Ġ895":9842,"Ġà¤§":9843,"Ġà¤Ķ":9844,"Ġà¤ĸ":9845,"Ġ628":9846,"Ġ630":9847,"Ġ657":9848,"Ġ670":9849,"Ġ690":9850,"Ġ608":9851,"Ġ663":9852,"Ġ912":9853,"Ġ917":9854,"Ġ950":9855,"Ġ947":9856,"Ġ961":9857,"Ġ985":9858,"223":9859,"226":9860,"à¦ĩà¦«à¦ķ":9861,"==[":9862,"==..":9863,"à¦ıà¦®à¦ıà¦¨":9864,"ĠÙĪØ§ÙĦØª":9865,"Ġà¦¨à¦¬à¦Ĺ":9866,"Ġ1020":9867,"Ġ714":9868,"Ġ767":9869,"Ġ770":9870,"Ġ743":9871,"Ġ1100":9872,"Ġ1169":9873,"à¦Ĺà¦£à¦¬":9874,"à§ĭà¦ĥ-":9875,"à¦ıà¦ķà¦¶":9876,"Ġ1216":9877,"Ġà¦ķà¦¨à¦¡à¦®":9878,"à¦Īà¦¦à¦ķ":9879,"à¦¤à¦²à¦Ł":9880,"Ġ137":9881,"Ġ1320":9882,"Ġ1315":9883,"Ġà§§à§Ńà§©":9884,"à¦Ĺà¦łà¦¨à¦¸à¦®":9885,"Ġ1960":9886,"Ġ1998":9887,"Ġà¦¬à¦ĩà¦ªà¦¤":9888,"Ġà¦¬à¦ĩà¦ªà¦¡":9889,"à¦Ĩà¦ľà¦¬":9890,"\",.$).(":9891,"Ġà§¨à§«à§¨":9892,"Ġà§¨à§«à§«":9893,"183":9894,"Ġ!;":9895,"158":9896,"à¦ĸà¦ķà¦Ĺà¦£":9897,"ØŃØ¯":9898,"Ġ&#":9899,"172":9900,"142":9901,"Ġ163":9902,"Ġ165":9903,"Ġ171":9904,"à¦¨à¦Ĺà¦°à¦¬":9905,".)}}":9906,"à§§à§¦à§ª":9907,"Ġà¦ĵà¦łà¦²":9908,"ÙģØ§Ø±Ø³ÛĮ":9909,"Ġà§«à§¦à§«":9910,"Ġà§¨à§Ńà§ª":9911,"Ġà§¨à§¬à§®":9912,"],:":9913,"Ġà¦Ńà¦¬à¦¨à¦Ĺ":9914,"à¦īà¦°à¦¡":9915,"à§§à§«à§¨à§§à§«":9916,"ÙĬÙĩØ§":9917,",:.,:":9918,",:})}":9919,"à²ķà²¨":9920,"\":\"\"===[":9921,"990":9922,"à§§à§©à§¦":9923,"à§§à§ªà§ª":9924,"à´¡":9925,"Ġà§ªà§¦à§¬":9926,"===?":9927,"===?!":9928,"à¸´":9929,"Ġà¦ĭà¦£à¦Ĺ":9930,"505":9931,"à¦¬à¦ľà¦Ĺà¦¤":9932,"(){\"\":":9933,"(){(\"#":9934,"\".\",.$).(":9935,"à¥¤à¥¤à¥¤)":9936,"371":9937,"/,\"/\"+":9938,"ĠØ¥ÙĦ":9939,"&&.$.(\".\").(),":9940,"&&\"/\"==":9941,"[].[$]":9942,"452":9943,"458":9944,"---.":9945,"Ġà¦°à¦«à¦īà¦²":9946,").*/":9947,"Ġ://.":9948,"Ġ://....":9949,"Ġà¦®à¦¦à¦¤":9950,"?=])":9951,"?=à¥¤(":9952,"?=?([^":9953,"..(,":9954,"Ġ504":9955,"\\'>]+)":9956,"ĠÙĥØ§ÙĨ":9957,"\"#_":9958,"à¦¾][":9959,"=(?:\\\"à¥¤\\')?":9960,"à¦²à¦¶à¦¹à¦°":9961,"Ø¬ÙħØ§Øª":9962,")(?:\\\"à¥¤\\')?":9963,"à¦¾\"-":9964,"Ġà¦¬à¦¦à¦¹à¦ľà¦®":9965,"'++\"":9966,"'+..+\"":9967,"'+.+\"":9968,"'+(..?'":9969,"\"\",=\"\"===[":9970,"&&(=.-":9971,"Ġ._\"),=":9972,"Ġà§©à§ªà§¨":9973,"\"\")&&(=.-":9974,",=\"\"===[":9975,",=/),(":9976,"/-/":9977,"\")+":9978,"),(\"#":9979,"),(.).(":9980,"{:===à¥¤à¥¤\"\"===à¥¤à¥¤":9981,"{:,:})}":9982,"\"+[":9983,"\"+.+\"":9984,"\"+(\"\"===..":9985,"];}(":9986,"à¦¯à§İà¦¬":9987,"))([^":9988,"))\\??":9989,"/'/,\"\");":9990,"ä¸º":9991,"Ġà²®":9992,"Ġà²ħ":9993,"Ġà²ľ":9994,"),.(),.(":9995,"Ġàªª":9996,"Ġàª¬":9997,"),=.(\"\");":9998,"Ø¢Ø®":9999,"Ġà¦ĩà¦¸à¦®à¦¤":10000,"Ġà¦īà¦ªà¦ķà¦°à¦£à¦Ĺ":10001,"à¦Īà¦¨à¦īà¦¦":10002,"Ġà§§à§¨à§¦à§§":10003,".,:!":10004,"\"\",:!":10005,"à¦īà§İà¦¸à¦¬à¦®":10006,"Ð¾ÑĢ":10007,"Ġà¦Ĩà¦²à¦¬à¦¦à¦°":10008,"(.\\/":10009,"à¦ıà¦¸à¦Ĩà¦ĩà¦Ĩà¦°":10010,").((){(\".\").(\":(:)\").(":10011,"Ġ[]?[]":10012,"().(),(\".\").(":10013,"\"\"+([$]===[":10014,"ĠØ¹ÙĨÙĩÙħØ§":10015,"),=.+":10016,"),=.[":10017,"!==&&":10018,"\\/].(":10019,"\\/))([^":10020,"à§¬à§¬à§¬":10021,"ÙĪØ±Ø©":10022,"?:\"\")+":10023,"?:à¥¤à¥¤à¥¤)":10024,";(\"#\").(":10025,"\"\"==?((),()):":10026,"..)&&.$.(\".\").(),":10027,"Ġ(_)":10028,"ä¸ŃåĽ½":10029,",,,)}":10030,".$.(\".":10031,".$.(\"\").(":10032,"};=.({},,":10033,"\"\").(/'/,\"\");":10034,"Ġ12345":10035,"\"-\"),=().(\"-\");":10036,"Ġ(){!(){":10037,"\";=":10038,"\";=(":10039,"-\":\"\"===[":10040,"-\":\"\"===?\"":10041,"([^>]*":10042,"..//.":10043,"(\".\").('":10044,"(\".\").(),.+":10045,"),=(().(),(\".\").(":10046,".,:.,:!":10047,"]*).*/":10048,"\").((){(":10049,".+\"&=&=--\",":10050,"&&.(\"\",":10051,"ĠØ§ÙĦØ¹ÙħÙĦ":10052,"Ġ=().(),=(().(),(\".\").(":10053,"),.&&.(\"\",":10054,"\"-\"),=().(\"-\"),=().(\"-\");":10055,"?((),()):()?((),()):()":10056,"=.(/<\\[^>]*>":10057,"à¦Ĩà¦Łà¦ķà¦ķ":10058,"),().(\".-\").(":10059,"),(\".\").({:,:})}":10060,".à¥¤à¥¤(":10061,"\"\"!=?((),()):()&&":10062,")=[":10063,"Ġ,,=(":10064,"[^[\\]]":10065,"[^\\/].(":10066,"(\"#\").()}":10067,"\\?&\\\"":10068,"\\?))\\??":10069,",=/):(=":10070,"..$:\"\",\"":10071,"(\".\").(\":(:)\").()}).((){":10072,"!=.(\"..\")?'':\"\")+'":10073,"!=.(\"..\")?'':\"\")+\"\"++'":10074,"=..;(":10075,"Ġ.\").({:\"\",:\".":10076,"=[]..$.(":10077,"Ġà¦Ĩà¦¹à¦¹à¦¹à¦¹":10078,"Ġà§¦à§¯à§¬à§¯à§¬":10079,"([$]!==[":10080,"]à¥¤à¥¤\"\"===..à¥¤à¥¤.":10081,";>;++){(":10082,".,.,(){..()}).().(":10083,"ĠØ§ÙĦØ¢Ø®":10084,"-\").((){(\".\").(\":(:)\").()}).((){":10085,".*&)":10086,".*((.":10087,"].(/^":10088,"/))){":10089,"/)))=[":10090,"?-=\"+..+\"":10091,"?-=\"+.+\"&=&=--\",":10092,"à¥¤)\\/))([^":10093,"..);.(":10094,"..&&\"":10095,"\"\"===?\"\":\"\"===?\"\":":10096,"Ġ(!=(=.(/=(?:\\\"à¥¤\\')?":10097,"Ġ(!=(=.(/(.\\/":10098,",:,:,:,:,:,:":10099,"\\/)à¥¤(\\/)à¥¤(\\/\\/\\":10100,"\\/)à¥¤(\\/)à¥¤(\\?))\\??":10101,")),+>":10102,"+(?=])":10103,"Ġà¦ľà¦¬à¦°à¦¦à¦¸":10104,"åľ¨":10105,"Ġ.[''];":10106,"à¦ķà¦ľà¦®à¦ķà¦ª":10107,"ĠÐ±ÐµÐ»Ð°ÑĢÑĥÑģÐºÐ°Ñı":10108,"ĠðŁĵļ":10109,")+\"...":10110,"]+\"/":10111,"\"\":\"\")+(..":10112,",=..;>;++)(\"\"==":10113,".[].;}(":10114,".[].){=":10115,"\"\"==?((),()):()&&\"\"==?((),()):()&&":10116,"Ġ=().(\"-\"),=().(\"-\"),=().(\"-\"),=().(\"-\"),=().(\"-\");":10117,".,.,(){..()})}}{(.==\"\"){(.().(\":\")){.(":10118,"?\"\":\"/-/\"+..)+\"?-=\"+..+\"":10119,"\"\").(/\"/,\"\").(/'/,\"\");":10120,"\"://..//\"+[":10121,"é¦Ļ":10122,"ĠÊ»":10123,"+=(..":10124,"¾ÚļØª":10125,"Ġ\").>":10126,"\\/(\\?(":10127,"Ġà§¦à§§à§®à§ªà§§à§«à§¨à§§à§«":10128,"à¥¤.\\/(\\?(":10129,"\"),(\".\").(\":(:)\").(":10130,"#\\&\\?":10131,"(\"\"===.?..+\"//\"+..:":10132,")),=((\".\").(),.+":10133,":,:===à¥¤à¥¤\"\"===à¥¤à¥¤":10134,"=\",\"\").(/\"/,\"\").(/'/,\"\");":10135,"].(\"=\",\"\").(/\"/,\"\").(/'/,\"\");":10136,"].&&(=\"://..//\"+[":10137,"Ġ=,={:\"\",:":10138,"Ġ=(.);(":10139,"?=à¥¤(à¥¤)\\/))([^":10140,"?=?([^#\\&\\?":10141,"\\'>]+)/))){":10142,")(?:\\\"à¥¤\\')?/)))=[":10143,"Ġ._\"),=$(\"#--":10144,"\"\")&&(=.-(+":10145,"),(.).(\"\").(":10146,"];}(=\"\"":10147,").((){(\".\").(\":(:)\").().(\"\"":10148,"),=.[(,":10149,"?:\"\")+'":10150,"?:à¥¤à¥¤à¥¤))(?:\\\"à¥¤\\')?/)))=[":10151,";(\"#\").(\"\")&&(=.-(+":10152,"..)&&.$.(\".\").(),.$.(\".\").(),":10153,"([^>]*[^\\/].(":10154,"]*).*/);&&":10155,"Ġ=().(),=(().(),(\".\").()),=((\".\").(),.+":10156,"=.(/<\\[^>]*>/,":10157,"),(\".\").({:,:})}).((){(\".\").(\":(:)\").().(\"\"":10158,"[^[\\]]+(?=])":10159,"\\?&\\\"\\'>]+)/))){":10160,"..$:\"\",\"$\"":10161,"-\").((){(\".\").(\":(:)\").()}).((){(\".\").(\":(:)\").(":10162,".*&)?=à¥¤(à¥¤)\\/))([^":10163,".*((.\\/)à¥¤(\\/)à¥¤(\\/\\/\\":10164,"].(/^.*((.\\/)à¥¤(\\/)à¥¤(\\/\\/\\":10165,"Ġ(!=(=.(/=(?:\\\"à¥¤\\')?([^>]*[^\\/].(":10166,"Ġ(!=(=.(/(.\\/à¥¤.\\/(\\?(":10167,"\\/)à¥¤(\\/)à¥¤(\\?))\\???=?([^#\\&\\?":10168,")),+>?=--":10169,"Ġ=().(\"-\"),=().(\"-\"),=().(\"-\"),=().(\"-\"),=().(\"-\");(\".\").('":10170,"(\"\"===.?..+\"//\"+..:.)+\"":10171,"[^[\\]]+(?=])/":10172,".*&)?=à¥¤(à¥¤)\\/))([^\\?&\\\"\\'>]+)/))){":10173,"].(/^.*((.\\/)à¥¤(\\/)à¥¤(\\/\\/\\\\/)à¥¤(\\/)à¥¤(\\?))\\???=?([^#\\&\\?":10174,"Ġ(!=(=.(/=(?:\\\"à¥¤\\')?([^>]*[^\\/].(?:à¥¤à¥¤à¥¤))(?:\\\"à¥¤\\')?/)))=[":10175,"Ġ(!=(=.(/(.\\/à¥¤.\\/(\\?(.*&)?=à¥¤(à¥¤)\\/))([^\\?&\\\"\\'>]+)/))){":10176,"].(/^.*((.\\/)à¥¤(\\/)à¥¤(\\/\\/\\\\/)à¥¤(\\/)à¥¤(\\?))\\???=?([^#\\&\\?]*).*/);&&":10177,"#-":10178,"%=":10179,"%-%%%%%%%%%%%%%%%%%%%%%%%%%%%%%%%%":10180,".),":10181,"432":10182,"5000":10183,"744":10184,":-":10185,";:":10186,"<%=":10187,"=$(":10188,"\\';":10189,"};(":10190,"¡Ù":10191,"¤ï¸ı":10192,"°ç":10193,"°Õ¡Õ":10194,"µÕ¥":10195,"ÃŁ":10196,"ÌĦ":10197,"Õ¶":10198,"Õ°Õ¡Õ":10199,"ÖĢ":10200,"Ù±":10201,"ÙĶ":10202,"å¿":10203,"åİ":10204,"çº":10205,"è¯":10206,"èĢ":10207,"Ġ................":10208,"ĠÑģ":10209,"Ġà·Ģ":10210,"Ġà·ĥ":10211,"ĹáĢĻ":10212,"à¦°à¦«à¦²":10213,"à§ĩ^":10214,"à¦¿\",":10215,"à¦¨à¦¹à¦¤":10216,"à¦¯à¦¨à¦¤":10217,"à¦¤à¦¤à¦°":10218,"à¦¤à¦¬à¦¸à¦®":10219,"à¦²à¦¤à¦¬":10220,"à¦²à¦°à¦¸à¦¹":10221,"à§ģ),":10222,"à¦¸à§İ":10223,"Ġà¦¸à¦ªà¦ķ":10224,"Ġà¦¸à¦¯à¦¤":10225,"Ġà¦¬à¦°à¦¬":10226,"Ġà¦¬à¦¶à¦¤":10227,"à¦Łà¦¤à¦°":10228,"à¦Łà¦¶à¦¨":10229,"à¦Łà¦¤à¦¤":10230,"Ġà¦Ĩà¦ī":10231,"Ġà¦Ĩà¦īà¦«":10232,"Ġà¦®à¦Łà¦ķ":10233,"Ġà¦®à¦ĵà¦¸":10234,"à¦ľà¦ªà¦¤":10235,"à¦ľà¦®à¦ķ":10236,"à¦Ĺà¦°à¦ķ":10237,"Ġà¦ıà¦°à¦ķ":10238,"Ġà¦ıà¦«à¦Ł":10239,"à¦¹à¦Ļ":10240,"Ġà¦¹à¦°à¦«":10241,"à¦·à¦Ľ":10242,"à¦¡à¦īà¦¡":10243,"Ġà¦ħà¦ĩà¦¬":10244,"Ġà¦ħà¦ĩà¦Ľ":10245,"Ġà¦ľà¦Łà¦²":10246,"à¦ĸà¦¸à¦¡":10247,"Ġà¦°à¦£à¦¦":10248,"à¦£à¦¶":10249,"à¦£à¦®à¦¯":10250,"Ġà¦Ĺà¦ª":10251,"Ġà¦Ĺà¦Ĺ":10252,"Ġà¦ļà¦°à¦¬":10253,"Ġà¦Ńà¦°à¦¦":10254,"Ġà¦ĩà¦ķà¦¨":10255,"Ġà¦ĩà¦ĩà¦īà¦°":10256,"Ġà¦ªà¦°à¦ĵà¦¯":10257,"à¦«à¦¹":10258,"à¦«à¦¨à¦¦":10259,"Ġà¦¸à¦®à¦Ń":10260,"Ġà¦¸à¦®à¦¬à¦¯":10261,"à¦łà¦ļà¦ķ":10262,"à¦°à¦ķà¦¤":10263,"à¦ıà¦°à¦¶":10264,"à¦ıà¦ķà¦¸":10265,"Ġà¦ľà¦¨à¦¹":10266,"Ġà¦Łà¦°à¦ķ":10267,"à¦Ĩà¦ĩà¦®":10268,"à¦Ĩà¦ľà¦®":10269,"à¦ªà¦¨à¦¸à¦°":10270,"Ġà¦ıà¦ĩà¦¸":10271,"Ġà¦ıà¦ĩà¦¸à¦®à¦¯":10272,"à¦¤à¦°à¦¯":10273,"à¦°à¦¹à¦ª":10274,"à¦°à¦¹à¦¨à¦ķ":10275,"à§ĩ,...":10276,"Ġà¦Ĩà¦¬à¦Ĺ":10277,"à§İà¦ķà¦°":10278,"à§«à§¨à§¯":10279,"ÙĦØ¨":10280,"ÙĦÙĤ":10281,"à§©à§§à§©":10282,"à§¬à§«à§¦":10283,"à¦²à¦ķà¦¸à¦¹":10284,"à¦¦à¦¨à¦¨à¦Ĺà¦°":10285,"à¦ħà¦£":10286,"Ġ\"#":10287,"Ġà¦Ĩà¦¨à¦ĵà¦¯":10288,"à¦¤à¦¨à¦¦":10289,"Ġà§©à§§à§¦":10290,"Ġà§©à§§à§«":10291,"Ġà§©à§ªà§«":10292,"à¦®à¦¤à¦¦":10293,"Ø§Ø®":10294,"Ġà¦ħà¦°à¦ĵà¦¯":10295,"à¦ĩà¦Łà¦²":10296,"Ġà§«à§¯à§¯":10297,"Ġà§«à§¬à§¦":10298,"à¦¯à¦®à¦ľ":10299,"Ġà¦Ĩà¦ľà¦²":10300,"Ġà¦Ĩà¦ľà¦«":10301,"à¦¼à§Ģ)":10302,"à¦¸à¦¹à¦¸":10303,"ÙĨÙĬ":10304,"Ġà¦ıà¦²à¦Ĩà¦°à¦¬":10305,"à¦¸à¦¨à¦ĵ":10306,"à¦¸à¦¨à¦¸à¦¹":10307,"Ġà¦ĸà¦¬à¦°à¦¸":10308,"à¦²à¦¬à¦¦":10309,"Ġà¦¦à¦²à¦ĵ":10310,"à¦¬à¦ķà¦¬":10311,"Ġ()-":10312,"Ġ=\"#":10313,"ÙĩØ¯":10314,"Ġà¦Ĩà¦¶à¦ķ":10315,"Ġ})":10316,"),\"\"":10317,"Ġà¦Ŀà¦ŀ":10318,"Ġà¦Ŀà¦°à¦²":10319,"Ø±Ø³":10320,"001":10321,"à¦ļà¦²à¦Ń":10322,"Ġà§§à§¯à§ª":10323,"Ġà§§à§¯à§§à§¯":10324,"Ġà§§à§¯à§¨à§«":10325,"Ġà§§à§¯à§ªà§¦":10326,"Ġà§§à§¯à§©à§¬":10327,"Ġà§§à§¯à§©à§®":10328,"Ġà§¦à§§à§¨à§©":10329,"Ġà¦Ĩà¦¤à¦¶à¦¬":10330,"à¦¹à¦²à¦Ń":10331,"Ġ522":10332,"Ġ521":10333,"Ġ517":10334,"Ġ535":10335,"Ġ557":10336,"Ġ544":10337,"Ġ531":10338,"Ġ532":10339,"Ġ543":10340,"Ġ552":10341,"Ġ561":10342,"Ġ554":10343,"Ġ568":10344,"Ġ590":10345,"Ġ577":10346,"Ġ565":10347,"Ġ553":10348,"Ġ582":10349,"Ġ571":10350,"Ġ593":10351,"Ġ562":10352,"Ġ585":10353,"Ġ598":10354,"Ġ457":10355,"Ġ488":10356,"Ġ458":10357,"Ġ452":10358,"Ġ456":10359,"Ġ459":10360,"Ġ461":10361,"Ġ478":10362,"Ġ472":10363,"Ġ453":10364,"Ġ497":10365,"Ġ462":10366,"Ġ475":10367,"Ġ491":10368,"Ġ476":10369,"Ġ474":10370,"Ġ489":10371,"Ġ483":10372,"Ġà¦¶à¦¤à¦¶à¦¤":10373,"Ġà¦Ĺà¦£à¦Ĩà¦¨":10374,"à¦¿à¦ĥ:":10375,"à§§à§¯à§¬à§¦":10376,"à§§à§¯à§Ńà§¬":10377,"Ġà§¨à§ªà§§":10378,"à¦ĩà¦¡à¦¬":10379,"Ġà¦īà§İà¦«":10380,"à¦®à¦ķà¦°à¦¨":10381,"ØªÙī":10382,"Ġà¦Ĳà¦¹":10383,"Ġà¦ªà¦¥à¦°":10384,"Ġà¦ªà¦¥à¦ĩ":10385,"Ġ810":10386,"Ġ824":10387,"Ġ829":10388,"Ġ830":10389,"Ġ857":10390,"Ġ833":10391,"Ġ855":10392,"Ġ860":10393,"Ġ856":10394,"Ġ879":10395,"Ġ890":10396,"Ġ892":10397,"Ġ882":10398,"Ġ875":10399,"Ġà¤¯":10400,".........":10401,"Ġ620":10402,"Ġ622":10403,"Ġ680":10404,"Ġ699":10405,"Ġ635":10406,"Ġ661":10407,"Ġ669":10408,"Ġ603":10409,"Ġ693":10410,"Ø³ÙĦØ§Ùħ":10411,"Ġà¦ļà¦Łà¦ľà¦²à¦¦":10412,"Ġà§§à§¨à§§à§«":10413,"Ġ920":10414,"Ġ910":10415,"Ġ918":10416,"Ġ928":10417,"Ġ940":10418,"Ġ946":10419,"Ġ970":10420,"Ġ960":10421,"Ġ934":10422,"Ġ959":10423,"Ġ953":10424,"Ġ982":10425,"Ġ984":10426,"Ġ998":10427,"Ġ989":10428,"227":10429,"Ġ1010":10430,"Ġ1021":10431,"Ġ1024":10432,"Ġ1019":10433,"Ġ1028":10434,"Ġ1025":10435,"Ġ1035":10436,"Ġ1037":10437,"Ġ1044":10438,"Ġ1072":10439,"Ġ1066":10440,"Ø¯Ø±":10441,"Ġ710":10442,"Ġ713":10443,"Ġ728":10444,"Ġ730":10445,"Ġ736":10446,"Ġ747":10447,"Ġ755":10448,"Ġ788":10449,"Ġ732":10450,"Ġ756":10451,"Ġ769":10452,"Ġ790":10453,"Ġ765":10454,"Ġ781":10455,"Ġ786":10456,"Ġ798":10457,"Ġ783":10458,"Ġ1137":10459,"Ġ1181":10460,"à¦¤à¦°à¦£à¦ķ":10461,"à¦¦à¦²à¦ªà¦¤":10462,"Ġà¦Ĩà¦¹à¦¹":10463,"Ġà¦Ĩà¦¹à¦Ľ":10464,"Ġ1220":10465,"Ġ1219":10466,"Ġ1215":10467,"Ġ1240":10468,"Ġ1244":10469,"Ġà¦ıà¦®à¦ıà¦®":10470,"à¦īà¦¦à¦¯":10471,"à¦¸à¦¦à¦¦":10472,"0990":10473,"à¦łà¦ķà¦ĩ":10474,"Ġà§įÌĦ":10475,"Ġ1310":10476,"Ġ1311":10477,"Ġ1325":10478,"Ġ1381":10479,"119":10480,"à¦ªà¦¸à¦Ĺ":10481,"à¦¯à¦¸à¦Ļ":10482,"Ġà¦ªà¦¶à¦¤":10483,"Ġà¦¸à¦¹à¦ľà¦¬":10484,"Ġ1977":10485,"Ġ1995":10486,"Ġà¦ħà¦²à¦¸à¦¤":10487,"ÙĥÙħ":10488,"Ġ?,":10489,"à¦ķà¦ķà¦ķ":10490,"à§§à§Ńà§¬":10491,"à¦¬à¦¹à¦Ń":10492,"Ġà¦Ĩà¦ĩà¦ĵ":10493,"Ġà¦Ĩà¦ĩà¦ĵà¦¸":10494,"Ġà¦Ĩà¦ĩà¦ıà¦¸à¦ª":10495,"Ġà¦Ĩà¦ĩà¦ıà¦®à¦ıà¦«":10496,"à§ĩà¦ĥ-":10497,"ĠÙģÙĪØ§Ø¦":10498,"à¦ıà¦«à¦Ł":10499,"à§§à§¦à§¨":10500,"Ġà§¨à§©à§«":10501,").();().(":10502,"à¦¶à¦°à¦¥":10503,"Ġà¦ķà¦ķà¦ª":10504,"à¦Łà¦®à¦¹à¦²":10505,"à¦°à¦®à¦¨à¦ķ":10506,"à¦ıà¦¬à¦Ľà¦°":10507,"à²¦":10508,"Ġà¦°à¦ķà¦®à¦«":10509,"à§¨à§¨à§©":10510,"à§¨à§¨à§Ń":10511,"234":10512,")});":10513,"Ġà¦īà§İà¦¸à¦Ĺ":10514,"à¸¡":10515,"à¸«":10516,"à¦¿!!":10517,"à¤¾à¤ģ":10518,"ðŁĻ":10519,"à§¨à§Ńà§¨":10520,"Ġà¦°à¦«à¦¯":10521,"Ġ/*!":10522,"à¦¸à¦«à¦°à¦®":10523,"ĠØ³Ø¬ÙĪØ¯":10524,"%%%%%%%%%%%%":10525,"à¦¡à¦Ńà¦£":10526,"..(\"\")":10527,"Ġ506":10528,"Ġà§©à§¬à§®":10529,"Ġà§©à§Ńà§«":10530,"Ġà§¦à§§à§Ńà§§à§«":10531,"ÙĦØ§ØŃ":10532,"ÙĦØ§ÙĤ":10533,"à§ĭà¦Ĥ-":10534,"'+().(":10535,"à¦ĩà¦ĵà¦ķ":10536,"à§Ńà§Ńà§¬":10537,"'#-":10538,"à¦ıà¦®à¦¨à¦Ł":10539,"à§©à§®à§ª":10540,"Ġà¦īà¦ĩà¦²à¦¸à¦¨":10541,"à¹Ĥ":10542,"ÙĬÙħØ§ÙĨ":10543,"ÙĥØªØ±ÙĪÙĨ":10544,"Ġà¦¸à§İà¦ªà¦¥":10545,"Ġaa":10546,"à¦¯à¦ĸà¦¨à¦ĩ":10547,"à¦Ĩà¦īà¦Łà¦¸":10548,"Ġà¦Ńà¦Ĺà¦¬à¦¤":10549,"Ġà¦Ńà¦Ĺà¦¬à¦¦à¦Ĺ":10550,"Ġ$(\"#__":10551,"Ġ01777":10552,"Ġà¦®à¦¦à¦¨à¦ª":10553,"áĢħ":10554,"áĢĹáĢĻ":10555,"Ġ$('._').();":10556,"ĠÙĪØ§ÙĦØ£":10557,"Ġà¦°à¦¥à¦¯":10558,"Ġà¤ıà¤ķ":10559,"Ġà¶ļ":10560,"Ġà¦®à¦°à¦£à¦«":10561,"æľī":10562,"Ð³Ð¾Ð»":10563,"Ġ$('._').({":10564,"Ġ=().().();().(":10565,"ĠØ±Ø¶ÙĬ":10566,"Ġà¦¥à¦®à¦¥à¦®":10567,"Ð¾Ð½Ð³Ð¾Ð»":10568,"Ġ$(\"#-\").('#-":10569,"Ġà¦¥à¦¬à¦ķà¦¶":10570,"Ð°Ð·Ð¸Ðº":10571,"è¿Ļ":10572,"Â¬à¦¾":10573,"Õ¥Õ¶":10574,"ĠÑĺÐ°Ð·Ð¸Ðº":10575,")})}}();":10576,"µÕ¥ÖĢ":10577,"Õ°Õ¡ÕµÕ¥ÖĢ":10578,"Ġ=\"#\"]":10579,"Ġà§¦à§§à§¨à§©à§ªà§«à§¬à§Ńà§®à§¯":10580,"ĠÙģÙĪØ§Ø¦Ø¯":10581,"Õ°Õ¡ÕµÕ¥ÖĢÕ¥Õ¶":10582,"(!":10583,"(=.(":10584,"(=().(":10585,"(,,,){":10586,")[]+":10587,")=.();":10588,"+=\"":10589,"+=.(,\"\",!":10590,",\"\":":10591,",..(":10592,",)}}":10593,",?:":10594,"/----":10595,"4000":10596,"849":10597,":.-.-.(,\"\",!":10598,";?.(":10599,";.[]=(){":10600,"<(+":10601,"=à¥¤à¥¤":10602,"=),=":10603,"=,=.(\"":10604,"=..(\"\")":10605,"?.(,":10606,"?.:":10607,"?[\"\"+]:":10608,"[.,,":10609,"]){":10610,"])]":10611,"])})}),":10612,"eà¨ª":10613,"{(":10614,"{=.(),=":10615,"}:":10616,"ªàº²àº":10617,"·Ð¸Ðº":10618,"Ò·Ð¸Ðº":10619,"Ó£":10620,"Û°":10621,"Ûµ":10622,"á´":10623,"åĪ":10624,"æ³":10625,"æĢ":10626,"çĪ":10627,"ŀàº²àº":10628,"à¦¾*":10629,"à¦¾&=":10630,"à¦°à¦ĩà¦²":10631,"à¦¿Â¤":10632,"à¦¯à¦¬à¦¨":10633,"à¦¯à¦¤à¦ķ":10634,"à¦¤à¦ªà¦¨":10635,"à¦ķà¦ªà¦°":10636,"à¦ķà¦Łà¦¨":10637,"à¦ķà¦®à¦°":10638,"à¦²à¦°à¦°":10639,"à¦¬à¦®à¦¯":10640,"à¦¬à¦Ī":10641,"à¦®à¦¤à¦°":10642,"à¦®à¦ĩà¦¯":10643,"à¦¸à¦§":10644,"à¦¸à¦°à¦¦":10645,"à¦¦à¦®à¦¸":10646,"à¦¦à¦ĺà¦¨":10647,"Ġà¦¬à¦¤à¦¸":10648,"à¦ªà¦«":10649,"à¦ªà¦°à¦¤":10650,"Ġà¦Ĩà¦¤à¦°":10651,"Ġà¦®à¦ķà¦°":10652,"Ġà¦®à¦°à¦ľ":10653,"Ġà¦®à¦²à¦®":10654,"Ġà¦®à¦ķà¦Ľ":10655,"à¦ľà¦Ĺà¦¦":10656,"à¦¶à¦°à¦®":10657,"à¦Ĺà¦¦à¦°":10658,"à¦Ĺà¦°à¦¨":10659,"Ġà¦¨à¦ĵà¦®":10660,"Ġà¦ıà¦¹à¦¤":10661,"à¦Ľà¦ĵ":10662,"à¦¡à¦ķà¦°":10663,"Ġà¦ķà¦°à¦¹":10664,"à¦¼à¦¾.":10665,"à¦¼à¦¾à¦¾":10666,"Ġà¦ħà¦Ŀ":10667,"Ġà¦ħà¦®à¦Ĺ":10668,"Ġà¦¤à§İ":10669,"à¦§à¦¸à¦¤":10670,"Ġà¦ľà¦«":10671,"à¦ļà¦²à¦¬":10672,"à¦ļà¦ķà¦¤":10673,"à¦ļà¦°à¦«":10674,"Ġà§İ":10675,"Ġà¦°à¦¨à¦ķ":10676,"à¦£à¦ĸ":10677,"à¦£à¦¸à¦®":10678,"à¦£à¦¤à¦®":10679,"à¦£à¦ªà¦¦":10680,"à¦ĵà¦ªà¦°":10681,"Ġ(>":10682,"Ġà¦Ĺà¦ľà¦¨":10683,"Ġà¦ĵà¦¨à¦²":10684,"Ġà¦īà¦Ľ":10685,"Ġà¦ĩà¦Łà¦ª":10686,"Ġà¦ªà¦°à¦ľ":10687,"à¦ĥ,":10688,"à§ĥà§į":10689,"Ġà¦¸à¦®à¦ª":10690,"à¦īà¦ıà¦¸":10691,"à¦¬à¦°à¦®":10692,"à¦¬à¦°à¦ķà¦£":10693,"à¦łà¦ªà¦°":10694,"Ġà¦Ľà¦®":10695,"Ġà¦Ľà¦²à¦Ľ":10696,"à¦ıà¦ķà¦¤":10697,"Ġà¦Łà¦ķà¦¶":10698,"à¦Ĩà¦¸à¦°":10699,"à¦Ĩà¦ĩà¦«":10700,"à¦Ĩà¦¯à¦¦":10701,"à¦Ĩà¦¸à¦«":10702,"..=\"\"":10703,"..),.":10704,"..[\"\"+]:":10705,"Ġà¦Ĩà¦°à¦ıà¦¸":10706,"Ġà¦§à¦¨à¦Ń":10707,"à¦¾à¦ģ)":10708,"Ġà¦ĺà¦°à¦ķ":10709,"Ġà¦ĺà¦¨à¦ķ":10710,"Ġà¥¤à¥¤})}}":10711,"à¦¬à¦¸à¦Ń":10712,"à§¯à§¦à§¦":10713,"à¦¶à¦¨à¦ľà¦Ł":10714,"Ġà¦īà¦ªà¦²à¦¦":10715,"Ġà¦Ĩà¦¸à¦Ĩà¦¦":10716,"à¦¾,,":10717,"à¦ĺà¦·":10718,"Ġ,,=":10719,"à¦¦à¦ķà¦®":10720,"à¦·à¦£à¦¸":10721,"à¦·à¦£à¦¦":10722,"à¦ħà¦²à¦ľ":10723,"Ġà¦ªà¦¡à¦ķ":10724,"Ġ\"),(":10725,"Ġ\".(\"":10726,"Ġà§©à§¨à§¦":10727,"Ġà§©à§ªà§¬":10728,"...(":10729,"...=(){":10730,"Ġà¦®à¦¹à¦°à¦®":10731,"à¦®à¦¤à¦¬":10732,"à¦°à¦¨à¦Ł":10733,"Ġà¦ħà¦¬à¦¬":10734,".([":10735,".().":10736,".(\"\",":10737,".(.[\"\"+],[\"\"+":10738,"Ġà¦¸à¦°à¦«à¦°":10739,"Ġà§«à§©à§¯":10740,"Ġà§ªà§©à§¦":10741,"Ġà§ªà§¨à§Ń":10742,"Ġà§ªà§ªà§¦":10743,"Ġà¦Ĩà¦ķà¦ĵà¦¯":10744,"Ġà¦ıà¦¸à¦ıà¦¸à¦Ĩà¦°":10745,"à¦Łà¦ķà¦ķ":10746,"Ġà¦ĩà¦¨à¦Ńà¦¯":10747,"Ġà¦¦à¦²à¦®à¦¤":10748,"à¦¬à¦ķà¦¤":10749,"Ġ()?":10750,"Ġ().(":10751,"ĠØ§Ùħ":10752,"à¦īà¦ľà¦¸":10753,"à¦īà¦ľà¦Ĺ":10754,"Ġ=\"\"===":10755,"Ġ=.&&(":10756,"Ġ=========":10757,"Ġ=.;(":10758,"Ġà§Ńà§Ńà§Ń":10759,"Ġà¦Ĩà¦¶à¦ľ":10760,"),..(":10761,"),à¥¤à¥¤(.":10762,"),:.-.-.(,\"\",!":10763,").(à¥¤à¥¤":10764,").():":10765,").(&&(":10766,").(),.(":10767,").()[]+":10768,"Ġà§®à§®à§¦":10769,"Ġà§®à§©à§¦":10770,"008":10771,"à¦ļà¦²à¦¸à¦®":10772,"Ġà§¯à§Ńà§¨":10773,"Ġà¦ĩà¦īà¦¡":10774,"Ġà§§à§¯à§¨à§§":10775,"Ġà§§à§¯à§§à§®":10776,"Ġà§§à§¯à§ªà§©":10777,"Ġà§§à§¯à§©à§¯":10778,"à¦Ĺà¦²à¦Ł":10779,"204":10780,"208":10781,"Ġà¦ıà¦¤à¦¸à¦¬":10782,"à¦ıà¦ĩà¦Ń":10783,"Ġ524":10784,"Ġ519":10785,"Ġ518":10786,"Ġ515":10787,"Ġ513":10788,"Ġ529":10789,"Ġ525":10790,"Ġ523":10791,"Ġ536":10792,"Ġ546":10793,"Ġ537":10794,"Ġ548":10795,"Ġ547":10796,"Ġ538":10797,"Ġ588":10798,"Ġ542":10799,"Ġ558":10800,"Ġ534":10801,"Ġ556":10802,"Ġ578":10803,"Ġ579":10804,"Ġ569":10805,"Ġ551":10806,"Ġ572":10807,"Ġ563":10808,"Ġ586":10809,"Ġ566":10810,"Ġ575":10811,"Ġ591":10812,"Ġ596":10813,"Ġ576":10814,"Ġ492":10815,"Ġ496":10816,"Ġà¦ıà¦¨à¦ĵà¦¸":10817,"Ġà¦ıà¦¨à¦ıà¦ĩà¦ļà¦ıà¦¸":10818,"Ġà¦Ĺà¦£à¦ħà¦§":10819,"Ġà¦ľà¦®à¦ľ":10820,"à§§à§¯à§ª":10821,"à§§à§¯à§©à§¦":10822,"à§§à§¯à§«à§®":10823,"à§§à§¯à§®à§¯":10824,"à¦¹à¦¨à¦Ĺ":10825,"à¦ĩà¦ľà¦Ł":10826,"à¦ķà¦¨à¦Ĺà¦°":10827,"Ġà¦ªà¦¥à¦ķ":10828,"Ġ812":10829,"Ġ811":10830,"Ġ819":10831,"Ġ817":10832,"Ġ814":10833,"Ġ816":10834,"Ġ828":10835,"Ġ825":10836,"Ġ899":10837,"Ġ835":10838,"Ġ802":10839,"Ġ836":10840,"Ġ867":10841,"Ġ848":10842,"Ġ852":10843,"Ġ869":10844,"Ġ807":10845,"Ġ868":10846,"Ġ865":10847,"Ġ803":10848,"Ġ851":10849,"Ġ853":10850,"Ġ808":10851,"Ġ871":10852,"Ġ893":10853,"Ġ896":10854,"Ġà¤¡":10855,"Ġà¤Ŀà¤µ":10856,"à¦¿')":10857,"Ġ612":10858,"Ġ609":10859,"Ġ624":10860,"Ġ615":10861,"Ġ613":10862,"Ġ623":10863,"Ġ633":10864,"Ġ648":10865,"Ġ645":10866,"Ġ638":10867,"Ġ631":10868,"Ġ639":10869,"Ġ632":10870,"Ġ642":10871,"Ġ643":10872,"Ġ658":10873,"Ġ668":10874,"Ġ677":10875,"Ġ665":10876,"Ġ601":10877,"Ġ651":10878,"Ġ695":10879,"Ġ666":10880,"Ġ671":10881,"Ġ675":10882,"Ġ676":10883,"Ġ674":10884,"Ġ698":10885,"Ø³Ùħ":10886,"Ø³Øª":10887,"Ġ915":10888,"Ġ929":10889,"Ġ957":10890,"Ġ948":10891,"Ġ931":10892,"Ġ955":10893,"Ġ932":10894,"Ġ958":10895,"Ġ956":10896,"Ġ906":10897,"Ġ907":10898,"Ġ977":10899,"Ġ981":10900,"Ġ901":10901,"Ġ903":10902,"Ġ908":10903,"Ġ986":10904,"Ġ987":10905,"Ġ994":10906,"Ġ962":10907,"Ġ974":10908,"à¦ĩà¦«à¦·":10909,"Ġà§§à§«à§¬":10910,"Ġà¦Īà¦¦à¦ķ":10911,"Ġ1017":10912,"Ġ1014":10913,"Ġ1027":10914,"Ġ1029":10915,"Ġ1030":10916,"Ġ1040":10917,"Ġ1023":10918,"Ġ1057":10919,"Ġ1067":10920,"Ġ1055":10921,"Ġ1042":10922,"Ġ1079":10923,"Ġ1090":10924,"Ġ1077":10925,"Ġ1086":10926,"Ġ1097":10927,"Ġ1083":10928,"Ġà§§à§§à§¦à§¦":10929,"Ø¯ÛĮ":10930,"à¦ķà¦¸à¦Ĺ":10931,"Ġ717":10932,"Ġ716":10933,"Ġ727":10934,"Ġ799":10935,"Ġ702":10936,"Ġ748":10937,"Ġ749":10938,"Ġ742":10939,"Ġ734":10940,"Ġ759":10941,"Ġ768":10942,"Ġ701":10943,"Ġ751":10944,"Ġ753":10945,"Ġ763":10946,"Ġ771":10947,"Ġ794":10948,"Ġ762":10949,"Ġ784":10950,"Ġ796":10951,"Ġ785":10952,"Ġ1120":10953,"Ġ1121":10954,"Ġ1119":10955,"Ġ1128":10956,"Ġ1180":10957,"Ġ1140":10958,"Ġ1135":10959,"Ġ1167":10960,"Ġ1145":10961,"Ġ1160":10962,"Ġ1158":10963,"Ġ1134":10964,"Ġ1156":10965,"Ġ1168":10966,"Ġ1108":10967,"Ġ1192":10968,"Ġ1162":10969,"Ġ1176":10970,"Ġ1198":10971,"Ġ.(,,":10972,"Ġ.(.,(){":10973,"Ġ.().(à¥¤à¥¤":10974,"Ġ1213":10975,"Ġ1217":10976,"Ġ1237":10977,"Ġ1249":10978,"Ġ1245":10979,"Ġ1239":10980,"Ġ1260":10981,"Ġ1258":10982,"Ġ1254":10983,"Ġ1264":10984,"Ġ1293":10985,"Ġ1297":10986,"Ġ1275":10987,"Ġ1274":10988,"Ġ1298":10989,"à¦Ĩà¦ĩà¦¦":10990,"à§¨à§§à§©":10991,"à¦¿)'":10992,"Ġ1300":10993,"Ġ1312":10994,"Ġ1318":10995,"Ġ1313":10996,"Ġ1317":10997,"Ġ1340":10998,"Ġ1346":10999,"Ġ1337":11000,"Ġ1349":11001,"Ġ1347":11002,"Ġ1345":11003,"Ġ1388":11004,"Ġ1358":11005,"Ġ1359":11006,"Ġ1307":11007,"Ġ1390":11008,"Ġ1377":11009,"Ġ1382":11010,"Ġ1304":11011,"Ġ1362":11012,"Ġ1375":11013,"Ġ1383":11014,"Ġà§§à§®à§©":11015,"217":11016,"à®£":11017,"Ġ1979":11018,"Ġ1975":11019,"Ġ1974":11020,"2400":11021,"ÙĥÙĬØ©":11022,"Ġ?..(,":11023,"Ġ?.().":11024,"à¦²à¦Ńà¦ª":11025,"\",)},:(,){":11026,"Ø§ÙĦØ·":11027,"ĠØ£ÙĩÙĦ":11028,"Ġâľ":11029,"Ġà¦ĺà¦¨à¦¬à¦¸à¦¤":11030,"à¦°à¦°à¦ŀ":11031,"Ġà¦Ĩà¦ĩà¦Ĩà¦ĩà¦Ł":11032,"Ġ1548":11033,"ØŃØ±":11034,"ØŃØ¯Ø«ÙĨØ§":11035,"à¦¸à¦Łà¦ª":11036,"à§¨à§ªà§¦":11037,"à§¨à§ªà§«":11038,"132":11039,"1323":11040,"ĠÙģØ§Ø±Ø³ÛĮ":11041,"175":11042,"161":11043,".)));":11044,".):[]":11045,".):(=":11046,".)&&\"\"===.(,\"\"))=.;":11047,"à§§à§¦à§¯":11048,"Ġà§¨à§®à§ª":11049,"ØµÙĦ":11050,"],,),":11051,"],.[\"\"+],[\"\"+":11052,"273":11053,"Ġà¦ªà¦¦à¦ķà¦ľà¦¯":11054,"Ġ;(()":11055,"à¦ķà¦ľà¦¨à¦ĵ":11056,",,?:":11057,",,.({":11058,",,):.(":11059,",,)});":11060,",:,\"\":":11061,"à²®":11062,"à²¯":11063,"à²Ĺ":11064,"252":11065,"254":11066,"265":11067,"\"\":})}":11068,")}),.([":11069,")}).(&&(":11070,"===)":11071,"===?:":11072,"===.&&(":11073,"===.à¥¤à¥¤":11074,"===?.(":11075,"===.(\"\")":11076,"===.&&(=":11077,"===..),.":11078,"===.)&&\"\"===.(,\"\"))=.;":11079,"à¸Ķ":11080,"\").(.()":11081,"à°¾":11082,"à¥¤à¥¤\"\"!=":11083,"://...":11084,"à§¨à§¬à§¯":11085,"à§¨à§¬à§¬":11086,"Ø°Ø§":11087,"à¦°à¦¬à¦¨à¦¤":11088,"&&.&&(":11089,"&&!==&&":11090,"Ġà¦Ĺà¦¨à¦¹à¦¤":11091,"à§¨à§©à§¬":11092,"à¦īà¦ªà¦¯":11093,"à¦īà¦ªà¦¹":11094,"=.()).":11095,"=.(,\"\"),=(":11096,"386":11097,"ðŁĩ":11098,"Ġà¦¯à¦¶à¦ª":11099,").},":11100,").=..":11101,"Ġà§©à§©à§ª":11102,"à§©à§«à§«":11103,"?=:":11104,"Ġ1001":11105,"Ġ1003":11106,"Ġ1009":11107,"à§«à§«à§«":11108,"([],,),":11109,"..(,,)});":11110,"Ġ503":11111,"Ġà¦Ĩà¦ļà¦°à¦£à¦ķ":11112,"Ġà§©à§«à§¨":11113,"):{:":11114,"):=),=":11115,"=(=..(\"\")":11116,"=(=.()).":11117,"ÙĭØĮ":11118,"\"\"===&&(":11119,"\"\"===)&&":11120,"Ġà§¦à§§à§Ńà§§à§Ń":11121,"Ġà§¦à§§à§Ńà§§à§©":11122,":(\"\"==":11123,"à§ªà§Ńà§¦":11124,"&&(===.à¥¤à¥¤":11125,"à¶ľ":11126,"Ġ._{":11127,"2006":11128,",=()à¥¤à¥¤":11129,",=.):(=":11130,"),(\"\"===à¥¤à¥¤":11131,".()?(":11132,".())}}":11133,"{:.+":11134,"{:.-.-.(,\"\",!":11135,"{:(){(":11136,"Ġà§©à§¯à§¦":11137,"Ġà§©à§¯à§©":11138,"\"++":11139,"Ġà§ªà§¯à§«":11140,"Ġ\");-":11141,"à¦ĩà¦ľà¦¨à¦ĩ":11142,"Ġà§¬à§ªà§¨":11143,"Ġà§¬à§ªà§ª":11144,"?(=.(),=":11145,"?(=(=.()).":11146,"))),!=.&&(.=.-.+":11147,"))?[":11148,"ÑĢÐ³":11149,"Ġ&&(=":11150,"),=.(),=.(,\"\"":11151,".,(,){":11152,".,.(.[\"\"+],[\"\"+":11153,"Ġà§«à§Ńà§¦":11154,"Ġ(@_)":11155,",){.((){":11156,",){.[]=(,){":11157,"Ġ),=à¥¤à¥¤":11158,"Ġ.-{":11159,")}}),.(\"":11160,")}}),..(":11161,".,:.+":11162,"Ġà¦ľà¦Ĺà¦¦à¦²":11163,"à§§à§¨à§§à§¬":11164,"à¦Ĺà¦«à¦°à¦Ĺ":11165,"Ð¾Ò·Ð¸Ðº":11166,"!=-":11167,"\"\"+},(,){":11168,"\"\"+,:,\"\":":11169,"à¦¶à¦ĵà¦ķà¦¤":11170,"},..=(,,){":11171,"},...=(){":11172,"},))),!=.&&(.=.-.+":11173,"ĠØ§Ø¨ÙĨ":11174,"),={};":11175,"Ġ1225":11176,"Ġà¦ľà¦¨à¦¸à¦®à¦ķ":11177,"$(\"#-":11178,".[/]":11179,".[]=$(":11180,"Ġà¦Ļà¦®":11181,"),()&&(=.(":11182,"àµĨ":11183,"àºŀàº²àº":11184,",,,.)}}":11185,"?((=(=..(\"\")":11186,"Åĵà¦¤":11187,"ĠØ§ÙĦØ¥ÙĨ":11188,"Ġ=(,),":11189,"?(=.,.(.[\"\"+],[\"\"+":11190,"[],(=.(":11191,"[],.)));":11192,"])):":11193,"Ġ===.}":11194,")},:(,,){":11195,")},:(,,,){":11196,"\"\",\"\",\"\",\"\",":11197,".à¥¤à¥¤.;(":11198,"Ġà¦®à¦¨à¦¨à¦ľà¦¯":11199,"ĠØ£ÙĨÙĩ":11200,"===à¥¤à¥¤!":11201,"Ġà¦¬à¦Ľà¦°à¦¬":11202,"Ġ,,},..=(,,){":11203,"))}{:.-.-.(,\"\",!":11204,"336135":11205,"ĠØ§ÙĦØ·ÙĦØ§ÙĤ":11206,"Ġ,,,=[":11207,"Ġ,,,=,=.(\"":11208,"ÑĭÐ·":11209,"ÑĭÑĢÐ³":11210,"],[\"\"+])):":11211,"\"\"===.(,\"\"))=.();":11212,"Ġ.'\"":11213,"âĹķâĶĢâĶĢ":11214,".((){..(,,)});":11215,"===.?.(,":11216,"===.?(=.,.(.[\"\"+],[\"\"+":11217,").(\"\")).=..":11218,").(\"\")?(=(=.()).":11219,".}):{:":11220,"..,{:.+":11221,".,=.à¥¤à¥¤.;(":11222,"},:(){([":11223,"),.+=.(,\"\",!":11224,"Ġ.(,)}}),..(":11225,"],={:":11226,"=(,,){\"\"!=":11227,"\"**\"):":11228,"\"**\",)},:(,){":11229,")).+=.(,\"\",!":11230,":[];?.(":11231,"Ġ.(,,,)},:(,){":11232,"Ġ.(,,,)},:(,,){":11233,"Ġ?[]:(\"\"==":11234,"Ġ?[]:[];?.(":11235,":(=([],,),":11236,"),.([\"\",\"\"],(,){":11237,"),=.(,\"\"),(\"\"===à¥¤à¥¤":11238,".(,à¥¤à¥¤[.,,":11239,".(,à¥¤à¥¤\"**\",)},:(,){":11240,"\"\",\"\"],(,){.[]=(){":11241,"),.({:\"\",:\"\"},(,){.({:":11242,"Ġ.&&(.+=\"\"),\"\"==":11243,"Ġ.&&(.+=\"\"),.())}}":11244,"),!=.&&(.=.-.+),\"\"":11245,")}}},:(){":11246,"=},,,.)}}":11247,"Ġ,,,,,,=.(,\"\"),=(":11248,",..()):=),=":11249,"===?\"\":\"\");":11250,"Ġà¦Ĩà¦ĩà¦°à¦¨à¦¸":11251,"'-'+.);":11252,").().().('-'+.);":11253,".={:(,,){":11254,"ä¼ļ":11255,"Ġà®Ĩà®ª":11256,"):(\"\"==":11257,"âĸ¬âĸ¬":11258,"!&&[],(=.(":11259,"Ġà¤Ķà¤°":11260,",,,)},,?:":11261,"};(\"\"===.(,\"\"))=.();":11262,"Ġ01777336135":11263,"(=().()).+=.(,\"\",!":11264,",..({:(){(":11265,",)}})}),.([":11266,",?:.):[]":11267,"<(+).(\"\")?(=(=.()).":11268,"?.:,?:.):[]":11269,"?[\"\"+]:..[\"\"+]:":11270,"])]:(=([],,),":11271,"])})}),},...=(){":11272,"{=.(),=.,=.à¥¤à¥¤.;(":11273,"ªàº²àº¥àº²àº§":11274,"Ġà¦Ľà¦²à¦Ľà¦²":11275,"..=\"\"),=.(),=.(,\"\"":11276,"Ġà¥¤à¥¤})}}),.({:\"\",:\"\"},(,){":11277,"Ġ,,=[":11278,"à¦ħà¦²à¦ľà¦¬à¦¸":11279,"Ġ\"),(,){.[]=(,){":11280,"Ġ=\"\"===;.[]=(){":11281,"Ġ=.&&(à¥¤à¥¤\"\"!=":11282,"Ġ=.;(&&\"\"===.(,\"\"))=.;":11283,"),à¥¤à¥¤(.?((=(=..(\"\")":11284,").():)}).(&&(":11285,").(),.([],.)));":11286,").()[]+\"\":})}":11287,"Ġ.(,,)},:(,,,){":11288,"Ġ.().(à¥¤à¥¤)}}),.(\"":11289,"Ġ?..(,):(\"\"==":11290,"Ġ?.().?(=.(),=":11291,"],.[\"\"+],[\"\"+],[\"\"+])):":11292,"Ġ;(()?=:":11293,",,.({},))),!=.&&(.=.-.+":11294,",,):.(,,,)},,?:":11295,"===?:.((){..(,,)});":11296,"===.&&((=().()).+=.(,\"\",!":11297,"===?.(,,):.(,,,)},,?:":11298,"===.(\"\")?[\"\"+]:..[\"\"+]:":11299,"===.&&(=.),":11300,"===..),.=(,,){\"\"!=":11301,"===.)&&\"\"===.(,\"\"))=.;&&!==&&":11302,"\").(.()).():)}).(&&(":11303,"&&.&&().(),.([],.)));":11304,").},.={:(,,){":11305,"\"\"===&&(..=\"\"),=.(),=.(,\"\"":11306,"\"\"===)&&-":11307,"&&(===.à¥¤à¥¤===.)&&\"\"===.(,\"\"))=.;&&!==&&":11308,",=.):(=()à¥¤à¥¤":11309,".()?().()[]+\"\":})}":11310,"))?[.([":11311,"Ġ&&(=,=!":11312,".,(,){()":11313,",){.((){.(,à¥¤à¥¤[.,,":11314,"Ġ),=à¥¤à¥¤(!":11315,".,:.+.}):{:":11316,"Ð¾Ò·Ð¸ÐºÓ£":11317,"\"\"+},(,){.[]=(,){":11318,"\"\"+,:,\"\":\"\"+},(,){.[]=(,){":11319,"),={};\"\"===&&(..=\"\"),=.(),=.(,\"\"":11320,".[]=$(.,(,){()":11321,"),()&&(=.(,,.({},))),!=.&&(.=.-.+":11322,"àºŀàº²àºªàº²àº¥àº²àº§":11323,"Ġ=(,),.()?().()[]+\"\":})}":11324,"Ġ===.}).},.={:(,,){":11325,"\"\",\"\",\"\",\"\",\"\",\"\"],(,){.[]=(){":11326,"ÑĭÑĢÐ³ÑĭÐ·":11327,"===.?.(,\"**\"):":11328,"===.?(=.,.(.[\"\"+],[\"\"+],.[\"\"+],[\"\"+],[\"\"+])):":11329,").(\"\")).=..,..()):=),=":11330,"..,{:.+.,:.+.}):{:":11331,"Ġ.(,)}}),..({:(,,){":11332,"Ġ?[]:[];?.(?.:,?:.):[]":11333,"),.([\"\",\"\"],(,){.[]=$(.,(,){()":11334,"),=.(,\"\"),(\"\"===à¥¤à¥¤\"\"===)&&-":11335,"),.({:\"\",:\"\"},(,){.({:\"\"+,:,\"\":\"\"+},(,){.[]=(,){":11336,"Ġ.&&(.+=\"\"),.())}},..({:(){(":11337,"=},,,.)}}),.([\"\",\"\"],(,){.[]=$(.,(,){()":11338,"Ġ,,,,,,=.(,\"\"),=(),={};\"\"===&&(..=\"\"),=.(),=.(,\"\"":11339,"!&&[],(=.())?[.([":11340,"};(\"\"===.(,\"\"))=.();{=.(),=.,=.à¥¤à¥¤.;(":11341,",)}})}),.([\"\",\"\",\"\",\"\",\"\",\"\"],(,){.[]=(){":11342,"<(+).(\"\")?(=(=.()).,=.):(=()à¥¤à¥¤":11343,"])]:(=([],,),&&.&&().(),.([],.)));":11344,"),à¥¤à¥¤(.?((=(=..(\"\")).(\"\")).=..,..()):=),=":11345,"Ġ?.().?(=.(),=..,{:.+.,:.+.}):{:":11346,"\").(.()).():)}).(&&(,){.((){.(,à¥¤à¥¤[.,,":11347,"),()&&(=.(,,.({},))),!=.&&(.=.-.+),!=.&&(.=.-.+),\"\"":11348,"Ġ=(,),.()?().()[]+\"\":})}),.({:\"\",:\"\"},(,){.({:\"\"+,:,\"\":\"\"+},(,){.[]=(,){":11349,"===.?.(,\"**\"):.(,à¥¤à¥¤\"**\",)},:(,){":11350,"Ġ?[]:[];?.(?.:,?:.):[]=},,,.)}}),.([\"\",\"\"],(,){.[]=$(.,(,){()":11351,"Ġ.&&(.+=\"\"),.())}},..({:(){(.)":11352,"Ġ,,,,,,=.(,\"\"),=(),={};\"\"===&&(..=\"\"),=.(),=.(,\"\"),=.(,\"\"),(\"\"===à¥¤à¥¤\"\"===)&&-":11353,"};(\"\"===.(,\"\"))=.();{=.(),=.,=.à¥¤à¥¤.;(&&(===.à¥¤à¥¤===.)&&\"\"===.(,\"\"))=.;&&!==&&":11354,"),à¥¤à¥¤(.?((=(=..(\"\")).(\"\")).=..,..()):=),=!&&[],(=.())?[.([":11355,"\").(.()).():)}).(&&(,){.((){.(,à¥¤à¥¤[.,,])})}),},...=(){":11356,"\"[":11357,"*,":11358,"+=":11359,",[":11360,"019":11361,"032":11362,"Î±":11363,"ÏĦ":11364,"ÑĩÐ°":11365,"ÚĮ":11366,"Û¤":11367,"Û¶":11368,"å·":11369,"åº":11370,"æĬ":11371,"æĿ":11372,"é»":11373,"ĠÎµÎ»Î»Î·Î½Î¹ÎºÎ¬":11374,"à¦°à¦īà¦²":11375,"à§ĩÂ¡":11376,"à¦¿à§ĩ":11377,"à¦¨à¦Ĩà¦²":11378,"à¦¯à¦£":11379,"à¦¯à¦ªà¦¤":11380,"à¦¯à¦§à¦°":11381,"à¦¤à¦¤à¦ķ":11382,"à¦¤à¦ªà¦Ł":11383,"à¦¤à¦¯à¦¶":11384,"à¦ķà¦®à¦ª":11385,"à¦ķà¦Ĩà¦¤":11386,"à¦²à¦¸à¦ķ":11387,"à¦¬à¦ħà¦²":11388,"à¦¼(":11389,"à¦¼[":11390,"à¦¼!!":11391,"à¦®à¦¬à¦ķ":11392,"à¦®à¦ľà¦²":11393,"à¦¸à¦¤à¦®":11394,"à¦¸à¦Ĩà¦®":11395,"à¦¸à¦«à¦°":11396,"à¦¸à¦Ĭà¦¦":11397,"Ġà¦¸à¦ĸà¦°":11398,"Ġà¦¸à¦ĵà¦Ĺ":11399,"Ġà¦¬à¦īà¦Ł":11400,"à¦Łà¦ªà¦°":11401,"à¦Łà¦ħ":11402,"à¦Łà¦ľà¦¨à¦¦":11403,"à¦ªà¦°à¦£":11404,"Ġà¦Ĩà¦ĵà¦¡":11405,"Ġà¦Ĩà¦ĵà¦ĵ":11406,"à¦ľà¦Ĩà¦ª":11407,"à¦¶à¦°à¦£":11408,"à¦ĩà¦Ĩà¦ĩà¦Ĩà¦°":11409,"à¦Ĺà¦ĵà¦¯":11410,"Ġà¦¨à¦ľà¦®":11411,"à¦¹à¦Ľ":11412,"à¦¹à¦ļ":11413,"à¦¹à¦°à¦¤":11414,"Ġà¦¹à¦°à¦¹":11415,"à¦·à¦°à¦ķ":11416,"à¦·à¦¦à¦ķ":11417,"à¦·à¦¤à¦¬":11418,"à¦·à¦§à¦°":11419,"à¦¡à¦¤":11420,"à¦¡à¦īà¦ĩ":11421,"Ġà¦ħà¦ĵà¦¨":11422,"à¦§à¦¹":11423,"à¦§à¦¬à¦ķ":11424,"Ġà¦ľà¦Ĺà¦²":11425,"à¦ļà¦¤à¦®":11426,"à¦¥à¦·":11427,"à¦¥à¦¬à¦°":11428,"à¦ĸà¦Ī":11429,"Ġà¦°à¦ĩ":11430,"Ġà¦°à¦¸à¦¬":11431,"à¦Ńà¦°à¦¨":11432,"à¦Ńà¦²à¦ª":11433,"Ġà¦¯à¦®à¦°":11434,"Ġà¦Ĺà¦ľà¦¬":11435,"Ġà¦Ĺà¦ĵà¦¹à¦°":11436,"Ġà¦ĵà¦ķà¦°":11437,"Ġà¦ĵà¦²à¦¨":11438,"Ġà¦ĵà¦ıà¦¸":11439,"Ġà¦ĵà¦¹à¦¬":11440,"Ġà¦īà¦Ńà¦ķ":11441,"Ġà¦ĩà¦²à¦¨":11442,"Ġà¦ĩà¦¤à¦¬":11443,"Ġà¦ĩà¦¹à¦ķ":11444,"à¦«à¦Ń":11445,"Ġà¦²à¦Łà¦ķ":11446,"à¦īà¦·":11447,"Ġà¦ĸà¦°à¦¸":11448,"Ġà¦«à¦¸à¦«":11449,"à§§à§§à§«":11450,"à¦°à¦ķà¦ª":11451,"à¦°à¦ķà¦Ń":11452,"à¦ıà¦ķà¦°":11453,"à¦ıà¦°à¦ĵ":11454,"à¦ıà¦Ĩà¦ĩ":11455,"à¦ıà¦¡à¦Ń":11456,"Ġà¦Łà¦¨à¦¸":11457,"à¦Ĩà¦¸à¦ķ":11458,"à¦Ĩà¦īà¦¦":11459,"Ġà¦¬à¦²à¦ķ":11460,"Ġà¦¡à¦Łà¦¨":11461,"à¦°à¦£à¦¦":11462,"à¦°à¦£à¦ľ":11463,"à¦°à¦£à¦¬à¦¶à¦¤":11464,"à¦ľà¦¨à¦ªà¦¦":11465,"Ġà§¨à§¦à§¯":11466,"Ġà¦Ĩà¦¬à¦ĩà¦¯":11467,"Ġ:)":11468,"à¦°à¦®à¦¥":11469,"à¦ķà¦°à¦Ł":11470,"à¦¶à¦¨à¦ª":11471,"à¦¶à¦¨à¦ĩ":11472,"Ġà¦īà¦ªà¦¸à¦¹à¦ķ":11473,"ĠØķ":11474,"Ġà¦Ĩà¦¸à¦Ĺà¦°":11475,"à¦¾,\"":11476,"Ġà¦ıà¦°à¦ļ":11477,"Ġà¦¹à¦²à¦¨":11478,"Ġà¦¹à¦²à¦ķ":11479,"à¦ĺà¦²à¦ķ":11480,"à¦ĺà¦°à¦Ĺ":11481,"Ġà¦ķà¦®à¦¬à¦¯":11482,"à¦¦à¦¨à¦ª":11483,"à¦¦à¦¨à¦ĩ":11484,"à¦¦à¦¨à¦Ĺ":11485,"à¦·à¦£à¦ĵ":11486,"à¦ħà¦¬à¦°":11487,"à¦¹à¦®à¦¯":11488,"à¦¼à§ĭ'":11489,"Ġ\"%":11490,"Ġà¦Ĩà¦¨à¦«":11491,"Ġà§©à§§à§®":11492,"à¤·":11493,"à¦¿,'":11494,"Ġà¦¸à¦¹à¦¶":11495,"Ġà¦¸à¦¹à¦Ĺ":11496,"à¦°à¦¶à¦ª":11497,"Ġà§«à§§à§®":11498,"Ġà§«à§¯à§¬":11499,"Ġà¦®à¦¤à¦®":11500,"Ġà§ªà§§à§Ń":11501,"Ġà§ªà§®à§®":11502,"Ġà¦ıà¦¸à¦Ł":11503,"à¦¤à¦®à¦£":11504,"ÙĨØ©":11505,"à¦Łà¦ķà¦Ĺ":11506,"à¦·à¦ķà¦¦à¦²":11507,"à¦¸à¦°à¦°":11508,"à¦¤à¦ķà¦¨":11509,"Ġà¦¦à¦²à¦¸à¦®":11510,"Ġà¦¦à¦²à¦¬à¦²":11511,"à¦§à¦¨à¦Ĺ":11512,"à¦ıà¦¸à¦¡à¦¬":11513,"Ġà¦Ĩà¦¦à¦®à¦¶":11514,"ĠØ§Ø¯":11515,"Ġà§¬à§¨à§¦":11516,"Ġà§¬à§§à§¬":11517,"Ġà§¬à§¦à§¦à§¦":11518,"Ġà¦²à¦ķà¦Ĺ":11519,"Ġà¦Ĩà¦ĩà¦¨à¦ª":11520,"Ġà¦Ĩà¦ĩà¦¨à¦Ĺà¦¤à¦Ń":11521,"Ġà¦ħà¦¬à¦¸à¦¨":11522,"Ġà§Ńà§¨à§¦":11523,"à¦Ĩà¦®à¦²à¦ķ":11524,"Ġà¦Ĩà¦¯à¦¦":11525,"ĠØ§ÙĦØ¶":11526,"Ġà¦Ĩà¦¶à¦¤":11527,"Ġà¦Ĩà¦¶à¦Ĩà¦¸":11528,"à¦ķà¦¬à¦ļ":11529,"Ġà§¯à§Ńà§®":11530,"Ġà¦ĩà¦īà¦Ľ":11531,"Ġà¦ĩà¦īà¦ĸ":11532,"Ġà¦¶à¦°à¦«":11533,"Ġà§§à§¯à§¦à§«":11534,"à¦Ĺà¦²à¦¸":11535,"à¦®à¦ªà¦ļ":11536,"à¦Ĩà¦¨à¦Ĩà¦®":11537,"Ġ581":11538,"Ġ595":11539,"Ġ592":11540,"Ġ594":11541,"Ġ597":11542,"Ġ584":11543,"Ġ573":11544,"Ġ574":11545,"Ġ589":11546,"Ġ583":11547,"Ġà¦ıà¦¨à¦«":11548,"Ġà¦Ĺà¦£à¦¯":11549,"à¦Ĩà¦°à¦Ĩà¦°":11550,"Ġà¦ľà¦®à¦Ľ":11551,"Ġà¦ĵà¦ĩà¦Ń":11552,"à§§à§¯à§®à§«":11553,"à§§à§¯à§®à§©":11554,"à¦«à¦²à¦Ł":11555,"ØªÙĩ":11556,"Ġà¦ªà¦¥à¦ĵ":11557,"à¦°à¦®à¦£à¦°":11558,"à¦°à¦®à¦£à¦¬":11559,"Ġ822":11560,"Ġ821":11561,"Ġ815":11562,"Ġ813":11563,"Ġ827":11564,"Ġ823":11565,"Ġ826":11566,"Ġ846":11567,"Ġ837":11568,"Ġ844":11569,"Ġ849":11570,"Ġ847":11571,"Ġ845":11572,"Ġ838":11573,"Ġ831":11574,"Ġ839":11575,"Ġ832":11576,"Ġ842":11577,"Ġ843":11578,"Ġ834":11579,"Ġ859":11580,"Ġ861":11581,"Ġ841":11582,"Ġ878":11583,"Ġ854":11584,"Ġ806":11585,"Ġ877":11586,"Ġ881":11587,"Ġ801":11588,"Ġ872":11589,"Ġ805":11590,"Ġ863":11591,"Ġ886":11592,"Ġ866":11593,"Ġ887":11594,"Ġ894":11595,"Ġ804":11596,"Ġ862":11597,"Ġ884":11598,"Ġ891":11599,"Ġ885":11600,"Ġ873":11601,"Ġ876":11602,"Ġ874":11603,"Ġ898":11604,"Ġ889":11605,"Ġ883":11606,"Ġ621":11607,"Ġ611":11608,"Ġ619":11609,"Ġ618":11610,"Ġ614":11611,"Ġ616":11612,"Ġ627":11613,"Ġ625":11614,"Ġ626":11615,"Ġ602":11616,"Ġ636":11617,"Ġ646":11618,"Ġ637":11619,"Ġ644":11620,"Ġ649":11621,"Ġ647":11622,"Ġ688":11623,"Ġ634":11624,"Ġ656":11625,"Ġ659":11626,"Ġ641":11627,"Ġ678":11628,"Ġ654":11629,"Ġ606":11630,"Ġ679":11631,"Ġ607":11632,"Ġ664":11633,"Ġ681":11634,"Ġ672":11635,"Ġ653":11636,"Ġ692":11637,"Ġ605":11638,"Ġ682":11639,"Ġ687":11640,"Ġ694":11641,"Ġ697":11642,"Ġ662":11643,"Ġ684":11644,"Ġ691":11645,"Ġ696":11646,"Ġ685":11647,"Ġ673":11648,"Ġ689":11649,"Ġ683":11650,"Ġ922":11651,"Ġ909":11652,"Ġ921":11653,"Ġ924":11654,"Ġ919":11655,"Ġ913":11656,"Ġ916":11657,"Ġ927":11658,"Ġ925":11659,"Ġ923":11660,"Ġ926":11661,"Ġ935":11662,"Ġ902":11663,"Ġ936":11664,"Ġ967":11665,"Ġ937":11666,"Ġ933":11667,"Ġ949":11668,"Ġ945":11669,"Ġ938":11670,"Ġ939":11671,"Ġ942":11672,"Ġ952":11673,"Ġ941":11674,"Ġ954":11675,"Ġ979":11676,"Ġ969":11677,"Ġ964":11678,"Ġ968":11679,"Ġ965":11680,"Ġ951":11681,"Ġ972":11682,"Ġ992":11683,"Ġ905":11684,"Ġ963":11685,"Ġ966":11686,"Ġ971":11687,"Ġ993":11688,"Ġ997":11689,"Ġ975":11690,"Ġ991":11691,"Ġ996":11692,"Ġ973":11693,"Ġ976":11694,"Ġ983":11695,"à¦²à¦Ĺà¦¡":11696,"ĠÙĪØ³":11697,"Ġà¦Īà¦Ĺà¦²":11698,"Ġ1022":11699,"Ġ1012":11700,"Ġ1011":11701,"Ġ1018":11702,"Ġ1015":11703,"Ġ1013":11704,"Ġ1016":11705,"Ġ1099":11706,"Ġ1026":11707,"Ġ1050":11708,"Ġ1036":11709,"Ġ1046":11710,"Ġ1070":11711,"Ġ1033":11712,"Ġ1048":11713,"Ġ1049":11714,"Ġ1047":11715,"Ġ1045":11716,"Ġ1038":11717,"Ġ1031":11718,"Ġ1039":11719,"Ġ1088":11720,"Ġ1032":11721,"Ġ1060":11722,"Ġ1043":11723,"Ġ1058":11724,"Ġ1052":11725,"Ġ1034":11726,"Ġ1056":11727,"Ġ1059":11728,"Ġ1061":11729,"Ġ1041":11730,"Ġ1078":11731,"Ġ1054":11732,"Ġ1069":11733,"Ġ1064":11734,"Ġ1068":11735,"Ġ1065":11736,"Ġ1081":11737,"Ġ1051":11738,"Ġ1053":11739,"Ġ1092":11740,"Ġ1063":11741,"Ġ1082":11742,"Ġ1071":11743,"Ġ1087":11744,"Ġ1093":11745,"Ġ1094":11746,"Ġ1062":11747,"Ġ1075":11748,"Ġ1084":11749,"Ġ1091":11750,"Ġ1096":11751,"Ġ1085":11752,"Ġ1073":11753,"Ġ1076":11754,"Ġ1074":11755,"Ġ1098":11756,"Ġ1089":11757,"à¦¨à¦ĵà¦°à¦ķà¦®":11758,"Ġ722":11759,"Ġ709":11760,"Ġ721":11761,"Ġ711":11762,"Ġ724":11763,"Ġ719":11764,"Ġ718":11765,"Ġ715":11766,"Ġ729":11767,"Ġ725":11768,"Ġ723":11769,"Ġ726":11770,"Ġ735":11771,"Ġ757":11772,"Ġ746":11773,"Ġ744":11774,"Ġ733":11775,"Ġ745":11776,"Ġ738":11777,"Ġ731":11778,"Ġ739":11779,"Ġ758":11780,"Ġ752":11781,"Ġ761":11782,"Ġ741":11783,"Ġ778":11784,"Ġ754":11785,"Ġ706":11786,"Ġ779":11787,"Ġ707":11788,"Ġ764":11789,"Ġ772":11790,"Ġ708":11791,"Ġ795":11792,"Ġ792":11793,"Ġ705":11794,"Ġ766":11795,"Ġ782":11796,"Ġ793":11797,"Ġ797":11798,"Ġ704":11799,"Ġ775":11800,"Ġ791":11801,"Ġ773":11802,"Ġ776":11803,"Ġ774":11804,"Ġ1122":11805,"Ġ1110":11806,"Ġ1112":11807,"Ġ1109":11808,"Ġ1111":11809,"Ġ1124":11810,"Ġ1118":11811,"Ġ1115":11812,"Ġ1113":11813,"Ġ1117":11814,"Ġ1114":11815,"Ġ1116":11816,"Ġ1127":11817,"Ġ1129":11818,"Ġ1130":11819,"Ġ1125":11820,"Ġ1199":11821,"Ġ1123":11822,"Ġ1126":11823,"Ġ1150":11824,"Ġ1157":11825,"Ġ1102":11826,"Ġ1136":11827,"Ġ1146":11828,"Ġ1144":11829,"Ġ1170":11830,"Ġ1148":11831,"Ġ1149":11832,"Ġ1147":11833,"Ġ1138":11834,"Ġ1131":11835,"Ġ1139":11836,"Ġ1155":11837,"Ġ1188":11838,"Ġ1132":11839,"Ġ1142":11840,"Ġ1143":11841,"Ġ1152":11842,"Ġ1159":11843,"Ġ1161":11844,"Ġ1141":11845,"Ġ1178":11846,"Ġ1154":11847,"Ġ1106":11848,"Ġ1179":11849,"Ġ1107":11850,"Ġ1164":11851,"Ġ1190":11852,"Ġ1177":11853,"Ġ1165":11854,"Ġ1101":11855,"Ġ1103":11856,"Ġ1151":11857,"Ġ1172":11858,"Ġ1153":11859,"Ġ1195":11860,"Ġ1105":11861,"Ġ1163":11862,"Ġ1186":11863,"Ġ1166":11864,"Ġ1182":11865,"Ġ1171":11866,"Ġ1187":11867,"Ġ1193":11868,"Ġ1194":11869,"Ġ1197":11870,"Ġ1104":11871,"Ġ1175":11872,"Ġ1184":11873,"Ġ1191":11874,"Ġ1196":11875,"Ġ1185":11876,"Ġ1173":11877,"Ġ1174":11878,"Ġ1189":11879,"Ġ1183":11880,"Ġà§§à§ªà§¨":11881,"Ġ1210":11882,"Ġ1212":11883,"Ġ1211":11884,"Ġ1218":11885,"Ġ1214":11886,"Ġ1230":11887,"Ġ1299":11888,"Ġ1235":11889,"Ġ1250":11890,"Ġ1257":11891,"Ġ1236":11892,"Ġ1246":11893,"Ġ1267":11894,"Ġ1270":11895,"Ġ1233":11896,"Ġ1248":11897,"Ġ1247":11898,"Ġ1238":11899,"Ġ1231":11900,"Ġ1255":11901,"Ġ1288":11902,"Ġ1232":11903,"Ġ1242":11904,"Ġ1243":11905,"Ġ1252":11906,"Ġ1234":11907,"Ġ1256":11908,"Ġ1259":11909,"Ġ1261":11910,"Ġ1241":11911,"Ġ1278":11912,"Ġ1279":11913,"Ġ1269":11914,"Ġ1268":11915,"Ġ1290":11916,"Ġ1277":11917,"Ġ1265":11918,"Ġ1281":11919,"Ġ1251":11920,"Ġ1272":11921,"Ġ1253":11922,"Ġ1295":11923,"Ġ1292":11924,"Ġ1263":11925,"Ġ1286":11926,"Ġ1266":11927,"Ġ1271":11928,"Ġ1287":11929,"Ġ1294":11930,"Ġ1262":11931,"Ġ1284":11932,"Ġ1291":11933,"Ġ1296":11934,"Ġ1285":11935,"Ġ1273":11936,"Ġ1276":11937,"Ġ1289":11938,"Ġ1283":11939,"Ġà¦ľà¦²à¦§":11940,"Ġà¦ľà¦²à¦ĸ":11941,"à¦Ĩà¦ĩà¦Ĩà¦ĩ":11942,"à¦Ĩà¦ĩà¦ıà¦¸à¦ª":11943,"à§¨à§§à§§à§ª":11944,"à§¨à§§à§®à§§à§Ń":11945,"Ġà¦ķà¦¤à¦¶à¦¤":11946,"095":11947,"Ġ1322":11948,"Ġ1309":11949,"Ġ1321":11950,"Ġ1324":11951,"Ġ1319":11952,"Ġ1316":11953,"Ġ1328":11954,"Ġ1380":11955,"Ġ1327":11956,"Ġ1329":11957,"Ġ1330":11958,"Ġ1323":11959,"Ġ1326":11960,"Ġ1335":11961,"Ġ1350":11962,"Ġ1357":11963,"Ġ1302":11964,"Ġ1336":11965,"Ġ1367":11966,"Ġ1344":11967,"Ġ1370":11968,"Ġ1333":11969,"Ġ1348":11970,"Ġ1338":11971,"Ġ1331":11972,"Ġ1339":11973,"Ġ1355":11974,"Ġ1332":11975,"Ġ1360":11976,"Ġ1342":11977,"Ġ1343":11978,"Ġ1352":11979,"Ġ1334":11980,"Ġ1356":11981,"Ġ1361":11982,"Ġ1341":11983,"Ġ1378":11984,"Ġ1354":11985,"Ġ1306":11986,"Ġ1379":11987,"Ġ1369":11988,"Ġ1364":11989,"Ġ1368":11990,"Ġ1365":11991,"Ġ1301":11992,"Ġ1303":11993,"Ġ1351":11994,"Ġ1372":11995,"Ġ1353":11996,"Ġ1308":11997,"Ġ1392":11998,"Ġ1305":11999,"Ġ1363":12000,"Ġ1386":12001,"Ġ1366":12002,"Ġ1371":12003,"Ġ1387":12004,"Ġ1393":12005,"Ġ1384":12006,"Ġ1391":12007,"Ġ1385":12008,"Ġ1373":12009,"Ġ1376":12010,"Ġ1374":12011,"Ġ1389":12012,"Ġà§§à§®à§ªà§¦":12013,"Ġà§§à§®à§Ńà§¨":12014,"Ġà§§à§Ńà§®":12015,"Ġà§©à§¦à§ª":12016,"Ġà§©à§¦à§¬":12017,"à®Ļ":12018,"Ġ1900":12019,"Ġ1919":12020,"Ġ1925":12021,"Ġ1968":12022,"Ġ1994":12023,"Ġ1996":12024,"Ġà¦¬à¦ĩà¦ĵ":12025,"à¦²à¦Ńà¦°":12026,"Ø§ÙĦÙħ":12027,"ĠØ£Ø¨ÙĪ":12028,"Ġà§¨à§«à§¬":12029,"Ġà¦ĺà¦¨à¦ĺà¦Ł":12030,"Ġà¦Ĩà¦ĩà¦ĵà¦ıà¦¸":12031,"ØŃÙĬØŃ":12032,"1312":12033,"146":12034,"à¦¿??":12035,"à¦¾!\"":12036,"à§§à§¦à§§":12037,"à§§à§¦à§§à§¦":12038,"Ġà¦§à¦¨à¦ĸà¦¡":12039,"à¦ıà¦²à¦ĵ":12040,"à¦Ĺà¦¬à¦Ĺ":12041,"Ġà¦¨à¦Ĺà¦°à¦ľ":12042,"29120":12043,"ĠÙĦÙħ":12044,"Ġà§¨à§¯à§¦":12045,"à¦ıà¦ĩà¦ļà¦ľ":12046,"258":12047,"999":12048,"239":12049,"à¸°":12050,"à¸Ĺ":12051,"à¸Ľ":12052,"à¦Ĩà¦ĩà¦¨à¦®à¦¨":12053,"501":12054,"570":12055,"à§¯à§¯à§¦":12056,"à¯ĩ":12057,"''+":12058,"à§¨à§¬à§§":12059,"ÙĲÙĳØĮ":12060,"à§¨à§¯à§§":12061,"à§¨à§¯à§¨":12062,"ĠØŃØ¯Ø«ÙĨØ§":12063,"à§ªà§©à§¯":12064,"Ġà¦ªà¦Łà¦¶":12065,"Ġà¦ħà¦¸à¦¹à¦¨":12066,"---:":12067,"ĠØ±Ø¨":12068,"à§¨à§Ńà§¬":12069,"Ġà¦ħà¦¸à¦®à¦¤":12070,"Ġà§¬à§¦à§§":12071,"Ġà§©à§©à§¯":12072,"Ġà¦¸à¦«à¦ĵà¦¯":12073,"à¦¸à¦«à¦²à¦¤":12074,"à¤°à¤£":12075,"Ġ1002":12076,"Ġ1004":12077,"Ġ1005":12078,"Ġ1006":12079,"Ġ1007":12080,"Ġ1008":12081,"Ġà§¨à§¦à§§à§©à§¨à§¦à§§à§ªà§¨à§¦à§§à§«à§¨à§¦à§§à§¬à§¨à§¦à§§à§Ńà§¨à§¦à§§à§®à§¨à§¦à§§à§¯à§¨à§¦à§¨à§¦à§¨à§¦à§¨à§§":12082,"Ġà¦ľà¦Ĺà¦¤à¦ķ":12083,"Ġà§ªà§«à§¦à§¦":12084,"681":12085,"Ġà¦¦à¦®à¦¬à¦¨":12086,"Ġ.......":12087,"666":12088,"Ġ604":12089,"Ġ904":12090,"à¶¯":12091,"2009":12092,"Ø§Ø±Ø©":12093,"Ġà§ªà§ªà§§":12094,"à¦ıà¦®à¦¨à¦ĩ":12095,"à¦īà¦¥à¦ĵà¦¯":12096,"Ġà¦«à¦²à¦¨à¦¶":12097,"ä¸ª":12098,"Ġà²¬":12099,"Ġà²ļ":12100,"à§ªà§¯à§¦":12101,"Ġà¦Ĩà¦Ĺà¦®à¦¨à¦ķ":12102,"à¦ľà¦Ńà¦¬à¦¨":12103,"ĠâĨĵ":12104,"à¦Ĩà¦°à¦¬à¦ª":12105,"Ġà§®à§®à§©":12106,"88019":12107,"à¦Ĩà¦īà¦Łà¦¡":12108,"Ġà§Ńà§¬à§«":12109,"Ġ1201":12110,"Ġ1202":12111,"Ġ1203":12112,"Ġ1204":12113,"Ġ1206":12114,"Ġ1207":12115,"Ġ1208":12116,"à¦¤à¦ĸà¦¨à¦ĩ":12117,"à§¯à§¦à§§à§Ń":12118,"Ġ01716":12119,"Ġ01745":12120,"Ġ1221":12121,"Ġ1222":12122,"Ġ1223":12123,"Ġ1224":12124,"Ġ1226":12125,"Ġ1227":12126,"Ġ1228":12127,"Ġ1229":12128,"à¦Ĭà¦°":12129,"à¦Ĭà¦¸":12130,"Ġà¦ľà¦¨à¦¸à¦®à¦°":12131,"Ġà¦°à¦£à¦¤à¦°":12132,"ÐµÐ·":12133,"Ġà§®à§§à§®à§¯à§¦à§§à§Ń":12134,"Ð¼Ð¾Ð½Ð³Ð¾Ð»":12135,">>>":12136,"ĠÛĸ":12137,"Ø§ÙĦÙĦÙĩ":12138,"à¥Īà¤Ĥ":12139,"×Ļ×©":12140,"Ġ/>[[":12141,"ĠÚ©ÛĮ":12142,"à¦ıà¦®à¦ıà¦²à¦ıà¦®":12143,"Ġà§®à§§à§®à§¯à§¯à§¬à§¦":12144,"Ġà§®à§§à§®à§¯à§¯à§Ńà§§":12145,"Ġà§®à§§à§®à§¯à§¯à§Ńà§©":12146,"Ġà§®à§§à§®à§¯à§¯à§Ńà§¨":12147,"ĠØ§ÙĦØŃØ¬":12148,"ĠÑĤÐ¾Ò·Ð¸ÐºÓ£":12149,"________________":12150,"×¨×Ļ×ª":12151,"×¢×ĳ":12152,"à¦¹à¦¹à¦¹à¦¹à¦¹":12153,"ĠÑĺÐµÐ·":12154,"à§«à§«à§¦à§§à§¨à§«à§¨à§®":12155,"à§«à§«à§¦à§§à§¨à§«à§¨à§Ń":12156,"Ġà§Ńà§§à§¨à§¨à§¬à§¬à§¦":12157,"Ġà§Ńà§§à§¨à§¨à§¬à§¬à§ª":12158,"Ġà¦§à¦¬à¦§à¦¬":12159,"Ġà¦ľà¦¬à¦°à¦¦à¦ĸà¦²":12160,"Ġà§®à§§à§®à§¯à§©à§®à§ª":12161,"à§¦à§§à§Ńà§§à§ªà§¨à§§à§®à§§à§Ń":12162,"æ¸¯":12163,"ðŁ¤Ķ":12164,"Ġà§¦à§§à§¯à§Ńà§¨à§§à§§à§ª":12165,"Ġà§¦à§¯à§¬à§¯à§¬à§§à§¦à§§à§¦":12166,"é¦Ļæ¸¯":12167,"ÚĮÙĬ":12168,"Ġà¦Ĩà¦ĵà¦ĵà¦Ĩà¦®":12169,"×¢×ĳ×¨×Ļ×ª":12170,"ĠÑĺÐµÐ·Ð¸Ðº":12171,"à§¦à§§à§Ńà§§à§ªà§¨à§§à§®à§§à§Ńà§©":12172,"Ġà§¦à§§à§¯à§Ńà§¨à§§à§§à§ªà§¨à§«à§«":12173,"Ġà§¦à§¯à§¬à§¯à§¬à§§à§¦à§§à§¦à§¬à§¦":12174,"\"<#":12175,"$.(\"":12176,"%-":12177,"'à¦¾":12178,"'${":12179,")){":12180,")&&(":12181,",=.(":12182,",\"\");":12183,",._":12184,"512":12185,"509":12186,"636":12187,";;":12188,"ncs":12189,"Ú¾":12190,"âŀ":12191,"å¦":12192,"å¼":12193,"å½":12194,"åĨ":12195,"ç§":12196,"çĶ":12197,"ê¦":12198,"ĠÐ±ÑĬÐ»Ð³Ð°ÑĢÑģÐºÐ¸":12199,"ĠíķľêµŃìĸ´":12200,"ĠÑģÑĢÐ¿ÑģÐºÐ¸":12201,"ģ£":12202,"Ĥ¹":12203,"ĵ×Ļ×©":12204,"à¦¾à¦¿":12205,"à¦°à¦²à¦ķ":12206,"à¦°à¦Ĺà¦°":12207,"à¦°à¦ĺà¦°":12208,"à¦¿à¥¤à¥¤":12209,"à¦¨à¦®à¦²":12210,"à¦¨à§İà¦¸":12211,"à¦¯à¦«à¦²":12212,"à¦¤à¦¦à¦²":12213,"à¦²à¦¦à¦²":12214,"à¦²à¦ĺà¦°":12215,"à¦®à¦ĺà¦°":12216,"à¦®à¦łà¦¬":12217,"à§ģ(":12218,"à§ģà¦¾":12219,"à§ģ\"-":12220,"à¦¸à¦¥":12221,"à¦¸à¦ļà¦²":12222,"Ġà¦ķà¦ªà¦Ł":12223,"Ġà¦¸à¦Ł":12224,"Ġà¦¬à¦ĩà¦¬":12225,"Ġà¦¬à¦ľà¦°":12226,"Ġà¦¬à¦¶à¦°":12227,"à§ĭ',":12228,"à¦Łà¦Ŀ":12229,"à¦ªà¦Łà¦¨à¦ķ":12230,"à¦ľà¦®à¦¨":12231,"à¦ĩà¦¶à¦ķ":12232,"à¦ĩà¦ĵà¦°":12233,"Ġà¦¨à¦¶":12234,"Ġà¦¨à¦²à¦¤":12235,"Ġà¦¨à¦Ĺà¦¨":12236,"Ġà¦¨à¦ĸà¦°":12237,"Ġà¦ıà¦£":12238,"Ġà¦ıà¦ĸà¦²":12239,"Ġà¦ıà¦ıà¦¸à¦ıà¦®":12240,"Ġà¦ıà¦ıà¦¨à¦Ĩà¦ĩ":12241,"à¦¹à¦¨à¦ķ":12242,"Ġà¦ħà¦ĩà¦¤":12243,"Ġà¦ħà¦ĸà¦£":12244,"à¦§à¦ķà¦°à¦¨":12245,"Ġà¦ľà¦ŀ":12246,"Ġà¦ľà¦¹à¦°":12247,"Ġà¦ľà¦ĵà¦¹à¦°":12248,"à¦ļà¦¹":12249,"à¦¥à¦°à¦Ł":12250,"à¦¥à¦¸à¦Ń":12251,"à¦ĸà¦®à¦¨":12252,"Ġà¦¶à¦¬à¦°":12253,"Ġà¦¶à¦¬à¦¨à¦®":12254,"à¦ĵà¦¥":12255,"Ġà¦¯à¦Īà¦«":12256,"Ġà¦Ĺà¦¨à¦¤":12257,"Ġà¦ļà§İ":12258,"Ġà¦īà¦¥à¦°":12259,"à§¦à§§à§¦":12260,"à§¦à§§à§®à§§à§¯":12261,"Ġà¦ĩà¦ıà¦®à¦Ĩà¦ĩ":12262,"Ġà¦ªà¦°à¦ļà¦°":12263,"à¦«à¦Ĺ":12264,"Ġà¦ıà¦ķà¦¨à¦®":12265,"à¦īà¦²à¦ķ":12266,"à¦īà¦¦à¦°":12267,"à¦īà¦°à¦¨":12268,"à¦īà¦Ĩà¦°":12269,"à¦īà¦ıà¦²":12270,"à¦īà¦ĩà¦Łà¦¸":12271,"Ġà¦ĸà¦Ĺ":12272,"Ġà¦«à¦°à¦ļ":12273,"à¦°à¦¤à¦ĵ":12274,"à¦łà¦¤à¦°":12275,"à¦Ļà¦Ł":12276,"à¦°à¦ķà¦ļà¦ķ":12277,"à¦ıà¦®à¦¤":12278,"à¦ıà¦¤à¦ķ":12279,"à¦ıà¦ıà¦¸à¦ª":12280,"Ġà¦Łà¦¬à¦²":12281,"Ġà¦Łà¦ķà¦Ł":12282,"à¦Ĩà¦¬à¦¶":12283,"Ġà¦¬à¦²à¦¸":12284,"..\"":12285,"..///":12286,"à¦ªà¦¨à¦¬":12287,"à¦ªà¦¨à¦¦":12288,"à¦ªà¦¨à¦ĵ":12289,"Ġà¦Ĩà¦°à¦¦":12290,"à¦ľà¦¨à¦ªà¦°":12291,"à¦¾à¦ģà¦ģ":12292,"à¦¼à¦¿)":12293,"Ġ'(":12294,"à¦¤à¦°à¦¸à¦®":12295,"Ġà¦Ĩà¦²à¦Ń":12296,"à¦¬à¦¸à¦¬à¦°":12297,"à¦°à¦¹à¦Ĺ":12298,"à¦°à¦¹à¦®à¦¤":12299,"Ġ:(":12300,"à¦ĩà¦¨à¦ĵ":12301,"à¦ĩà¦¨à¦Ĩà¦ª":12302,"Ġà¦īà¦ªà¦¸à¦®":12303,"Ġà¦īà¦ªà¦ķà¦°à¦¨":12304,"à§İà¦Ł":12305,"ÙĦØ©":12306,"ÙĦØº":12307,"à§©à§©à§¦":12308,"à¦°à¦¬à¦ļà¦¨":12309,"Ġ.:":12310,"Ġà¦Ĩà¦Ĺà¦°":12311,"à¦ĺà¦¤":12312,"à¦ĺà¦°à¦¸à¦¹":12313,"à¦īà¦¨à¦¬":12314,"à¦¦à¦°à¦¨à¦Ĺà¦°":12315,"à¦¦à¦ķà¦¨":12316,"Ġ\",\"":12317,"Ġ\"','":12318,"Ġà§©à§¯à§¬":12319,"...!":12320,"à¦¯à¦¬à¦²":12321,"Ġà¦ķà¦¥à¦ķà¦¤":12322,"ÙĲÛļ":12323,"Ġà¦¬à¦¨à¦«":12324,"Ġà¦¬à¦¨à¦¦à¦¸":12325,"à¦®à¦¤à§İà¦ªà¦°à¦¤":12326,"à¦¤à¦¬à¦®":12327,"à¦¨à¦¤à¦ķ":12328,"à¦°à¦¯à¦¨":12329,"à¦¬à¦²à¦§":12330,"Ġà¦ħà¦¬à¦ļ":12331,"Ġà¦ħà¦¬à¦¦à¦®":12332,"ĠÙ±":12333,"Ġà¦ħà¦°à¦«":12334,"à¦¯à¦ķà¦¥":12335,"à¦ĩà¦Łà¦¯":12336,"à¦ĩà¦Łà¦¹":12337,".(\"-":12338,".(\"\").(":12339,"Ġà§«à§©à§¦":12340,"Ġà§«à§©à§©":12341,"à¦ķà¦Łà¦ľà¦¨à¦ķ":12342,"à¦¼à§Ģ'":12343,"à¦¼à§Ģà¦ĥ":12344,"Ġà§ªà§§à§¦":12345,"Ġà¦¢à¦ķ":12346,"Ġà¦Ĩà¦ķà¦¡":12347,"ÙĨØ¨":12348,"Ġà¦ıà¦²à¦ıà¦¨à¦ľ":12349,"à¦¸à¦¨à¦¸":12350,"à¦¸à¦¨à¦Ĺ":12351,"à¦¾à¦ĥ),":12352,"à¦¨à¦¬à¦¶":12353,"à¦Łà¦ķà¦°à¦£":12354,"Ġà¦¨à¦¯à¦°":12355,"à¦·à¦ķà¦¬":12356,"Ġà¦¦à¦²à¦Ĺà¦¤à¦Ń":12357,"à¦§à¦¨à¦ª":12358,"à¦¬à¦ķà¦¶":12359,"Ġ()\"":12360,"Ġà¦Ĩà¦¦à¦®à¦ľ":12361,"Ġà§¬à§ªà§Ń":12362,"à§¨à§¦à§¬":12363,"Ġ/**":12364,"Ġ=))":12365,"Ġ=================":12366,"Ġà¦ħà¦«à¦¨":12367,"Ġà¦ªà¦¦à¦Ń":12368,"à¦ıà¦¨à¦ıà¦®":12369,"à¦ıà¦¨à¦ıà¦«":12370,"à¦ıà¦¨à¦Ĩà¦ĩà¦¡":12371,"Ġà¦Ŀà¦°à¦¤":12372,"Ġà¦Ŀà¦ķà¦®":12373,"Ø±ÙĬØ±Ø©":12374,"006":12375,"Ġà§¯à§©à§©":12376,"Ġà¦īà¦łà¦¨":12377,"Ġà§§à§¯à§§à§¬":12378,"Ġà§§à§¯à§¦à§®":12379,"Ġà¦«à¦²à¦ľ":12380,"à¦¨à¦ķà¦ķ":12381,"Ġà§¦à§¦à§¦":12382,"à¦°à¦ĵà¦¶à¦¨":12383,"à¦¸à¦ķà¦²à¦ķ":12384,"à¦Ĩà¦¨à¦«":12385,"à¦¬à¦¤à¦¶":12386,"à¦ıà¦ĩà¦¸à¦¬":12387,"Ġ[..]":12388,"Ġà¦ıà¦¨à¦Ĺ":12389,"à¦ªà¦¦à¦¬":12390,"ÙĪÙĥ":12391,"Ġà¦Ĺà¦£à¦ķà¦¬à¦°":12392,"Ġà¦ĵà¦ĩà¦¬":12393,"à§§à§¯à§Ńà§Ń":12394,"à§§à§¯à§«à§¨":12395,"à§§à§¯à§®à§ª":12396,"à¦«à¦²à¦ĵ":12397,"à¦«à¦²à¦¸à¦®":12398,"Ġ)à¥¤":12399,"à¦Łà¦°à¦Ł":12400,"Ġà¦Ĩà¦¹à¦®à¦¦à¦ķ":12401,"Ġà§¨à§ªà§ª":12402,"à¦¯à¦¤à¦Ł":12403,"à¦·à¦¦à¦Ń":12404,"à¦ĩà¦®à¦Ł":12405,"à¦¿'!":12406,"à¦²à¦Ĺà¦ĩà¦¨":12407,"à¦¾à¦ĥ:":12408,"à¦ıà¦®à¦ĸ":12409,"ĠÙĪÙĩ":12410,"à¦Ńà¦¬à¦ĵ":12411,"à¦Ĺà¦£à¦¸":12412,"Ø¹ÙĨ":12413,"à¦¦à¦²à¦Ł":12414,"1010":12415,"à§¨à§§à§Ń":12416,"0998":12417,"()}":12418,"Ġà¦ħà¦Ĺà¦Ń":12419,"Ġ1394":12420,"Ġà§§à§®à§ª":12421,"à¦°à¦ªà¦°à¦¨":12422,"Ġà§§à§©à§¦à§¦":12423,"à¦Ĺà¦łà¦¨à¦¸à¦¹":12424,"Ġà§©à§¦à§§":12425,"Ġ1937":12426,"Ġ1945":12427,"Ġ1992":12428,"Ġ1987":12429,"Ġ1993":12430,"à¦²à¦ªà¦¡":12431,"à¦¨à¦®à¦§":12432,"à¦Ĩà¦ľà¦ĵ":12433,"198":12434,"Ġà§¨à§«à§§":12435,"ĠÙħØ±":12436,"Ġ1857":12437,"à¦¯à¦®à¦¨à¦¸":12438,"à¦ĸà¦ķà¦ĩ":12439,"Ġ1429":12440,"à§§à§Ńà§¦à§¦à§¬":12441,"Ġà¦ĺà¦¨à¦«":12442,"Ġ**/":12443,"Ġà¦Ĩà¦ĩà¦¦":12444,"Ġà¦Ĩà¦ĩà¦ıà¦ıà¦¸":12445,"Ġ#:":12446,"à§¨à§ªà§¬":12447,"Ġ1660":12448,"Ġ1686":12449,"Ġ1753":12450,"Ġ1794":12451,"Ġà¦Ĩà¦§à¦ĺà¦£":12452,"Ġà§¨à§©à§ª":12453,"à¦ıà¦²à¦ı":12454,"ÙģÙĬ":12455,"ÙģØ¹":12456,"à¦¬à¦¹à¦¨à¦Ĺ":12457,"àªĵ":12458,"Ġà¦®à¦¯à¦¹":12459,"Ġà§¨à§¬à§¦":12460,"Ġà§¨à§¬à§Ń":12461,"275":12462,"Ġà¦ıà¦ĩà¦ļà¦¬":12463,"Ġà¦ıà¦ĩà¦ļà¦ľ":12464,"Ġà¦·à¦§":12465,"Ġ;))":12466,"à§§à§«à§®":12467,"à§§à§§à§§":12468,"Ġà§¨à§¯à§©":12469,"Ġà§¨à§¦à§§à§¯à§¨à§¦à§¨à§¦à§¨à§¦à§¨à§§":12470,"à§§à§©à§«":12471,"2651":12472,"Ġà§ªà§¦à§¨":12473,"à¸·":12474,"à§¯à§¯à§¨":12475,"3647":12476,"à§Ģà¦ĥ,":12477,"''}":12478,"://.-":12479,"à§¨à§¬à§Ń":12480,"à§¨à§¬à§®à§Ń":12481,"705":12482,"à§Ģ'-":12483,"339":12484,"ĠØŃØ³ÙĨ":12485,"à§¦à§Ńà§¨à§Ń":12486,"Ġà¦ħà¦¦à¦²à¦¬à¦¦à¦²":12487,"à¦īà¦ªà¦®à¦¹":12488,"à§¨à§Ńà§¦":12489,"à§¨à§Ńà§«":12490,"à§¨à§Ńà§Ń":12491,"882":12492,"4220":12493,"Ġà¦Ĩà¦Łà¦ļà¦²":12494,"à¦ľà¦Ĺà§İ":12495,"Ġà¦ķà¦ĸà¦¨à¦ĵà¦ĩ":12496,"-----------":12497,"\",\"=":12498,"Ġà§ªà§«à§§":12499,"\"#--":12500,"à¦¾]]":12501,"Ġ#>=\"":12502,"687":12503,"à§©à§©à§©à§©":12504,"Ġà§©à§Ńà§¨":12505,"Ġ.('://.//":12506,"052651":12507,"Ġà¦¬à¦¦à¦ħà¦Ń":12508,"ÛĮÚº":12509,"Ġ--=\"\"":12510,"\"\",);":12511,"à¶Ń":12512,"2008":12513,"à³ĩ":12514,"ĠØ§ÙĦÙĨØ§Ø³":12515,"à§©à§Ńà§¯":12516,"Ø§Ø³Øª":12517,"ĠØ§ÙĦØ£Ø°":12518,"Ġà§«à§®à§ª":12519,"ĠÙĩØ±ÙĬØ±Ø©":12520,"Ġà¤ķà¤¹":12521,"Ġà§«à§¯à§¦":12522,"Ġà²°":12523,".(/\\/[":12524,"Ø§Ø¯Ø©":12525,"Ġ${(":12526,"Ġ),''}":12527,"Ġ.-.":12528,"ĠâĿ¤ï¸ı":12529,"Ġacs":12530,"Ġà§¦à§§à§¯à§¨à§¬à§®à§Ń":12531,"Ġà§Ńà§¬à§Ń":12532,"à¦ķà¦ĵà¦ıà¦¸":12533,")]=":12534,"Ġe×Ļ":12535,"Ġeuc":12536,"à§§à§¨à§§à§©":12537,"1007":12538,"à¦ıà¦®à¦ĩà¦Ĩà¦ĩ":12539,"Ġà¦Ĩà¦ĩà¦ķà¦¨à¦Ł":12540,"ÙĪØ±Ø¯ÛĮ":12541,"{{{":12542,"{{}}":12543,".(\"--":12544,"Ġ}}\"<#":12545,"Ø§ÙģØ±":12546,"ĠÙĪØ§ÙĦÙħ":12547,"ĠØ¢Øª":12548,"ĠØ¢Ø®":12549,"à¦¤à¦ķà¦°à¦¨":12550,"%%%%%%%%%%%%%%%%%%%%%%%%%%%%%%%%%%%%%%%%%%%%%%%%":12551,"à¦ķà¦ĸà¦¨à¦ĵ":12552,"$=$=":12553,"://../?=-":12554,"Ġà¦ıà¦ķà¦§à¦°à¦£":12555,"Ġà¦ıà¦®à¦ıà¦ıà¦ĩà¦ļ":12556,"à¦ıà¦®à¦Ĩà¦°à¦ĩ":12557,"Ġ=$(),=.(":12558,"ĠØ§ÙĦÙģØ±":12559,"Ø³ÙĨÚĮÙĬ":12560,"Ġ$('#_').();":12561,"Ġ$(\"#-\").(\"-\");":12562,"ÑĢÑĥÑģÑģÐºÐ¸Ð¹ÑģÑĢÐ¿ÑģÐºÐ¸":12563,"ä¹Ī":12564,"ÑĥÐºÑĢÐ°ÑĹÐ½ÑģÑĮÐºÐ°Ø§Ø±Ø¯ÙĪ":12565,"ÎµÎ»Î»Î·Î½Î¹ÎºÎ¬Ð±ÑĬÐ»Ð³Ð°ÑĢÑģÐºÐ¸":12566,"åı°ç":12567,"à¦ĩà¦ĩà¦īà¦¬":12568,"aaÑĢÑĥÑģÑģÐºÐ¸Ð¹":12569,"[]+'';":12570,"ĠÙħØ¹Ø§ÙĨÙĬ":12571,"à¦ıà¦¨à¦ıà¦¸à¦ĩà¦ī":12572,"ÙĬØ²ÙĬØ©":12573,"Ġà§¦à§§à§«à§«à§®":12574,"à²µà²¨":12575,"áĬłáĪĽáĪŃáĬĽØ§ÙĦØ¹Ø±Ø¨ÙĬØ©":12576,"),=.(\"\"),=.(\"\"":12577,"Ø¬ÙĦÙĬØ²ÙĬØ©":12578,"ĠÑĤÑĸÐ»ÑĸáŀĹ":12579,"ĠÐºÑĭÑĢÐ³ÑĭÐ·":12580,"áŀļíķľêµŃìĸ´":12581,"à§¯à§§à§®à§§à§Ńà§¦à§¦à§¬":12582,"ĠÙĥØªØ§Ø¨":12583,"à·Ħà¶½csc":12584,"Ġ=$().(\"\");":12585,"ÙĦØ§ØŃØ¸":12586,"çĪ¸":12587,"ĠØ§ÙĦØ¥ÙĨØ¬ÙĦÙĬØ²ÙĬØ©":12588,"Ġà²ļà²°":12589,"ncsu":12590,"Ġà¦ľà¦ĵà¦¹à¦°à¦²":12591,"Ġ\"','\"":12592,"Ġ#>=\"{{":12593,"Ġà§¦à§§à§¯à§¨à§¬à§®à§Ńà§¦à§Ńà§¨à§Ń":12594,"ĠeucÎµÎ»Î»Î·Î½Î¹ÎºÎ¬Ð±ÑĬÐ»Ð³Ð°ÑĢÑģÐºÐ¸":12595,"Ø³ÙĨÚĮÙĬà·ĥ":12596,"åı°çģ£":12597,"ĠÐºÑĭÑĢÐ³ÑĭÐ·ÑĩÐ°":12598,"à§¯à§§à§®à§§à§Ńà§¦à§¦à§¬à§©à§©à§©à§©":12599,"'...":12600,")+":12601,"+%":12602,",+":12603,",-":12604,".--":12605,"439":12606,"646":12607,"637":12608,"745":12609,"961":12610,"_\"":12611,"_'":12612,"_.":12613,"_/":12614,"aÑģÑĢÐ¿ÑģÐºÐ¸":12615,"aç®Ģä½ĵä¸Ńæĸĩç¹ģé«Ķä¸Ńæĸĩ":12616,"ua":12617,"´¾":12618,"´¿":12619,"ËĪ":12620,"ØĽ":12621,"Ù¾ÚļØª":12622,"Û³":12623,"Ûĥ":12624,"å¥":12625,"å¯":12626,"å±":12627,"æĥ":12628,"æł":12629,"ç»":12630,"çİ":12631,"çľ":12632,"è®":12633,"è´":12634,"ï´¾":12635,"Ġz":12636,"ĠÚ":12637,"ĠÑĢ":12638,"ĠÑĥÐºÑĢÐ°ÑĹÐ½ÑģÑĮÐºÐ°":12639,"ĠÐ¼Ð°ÐºÐµÐ´Ð¾Ð½ÑģÐºÐ¸":12640,"à¦°à¦Ĩà¦®":12641,"à¦°à¦Ĺà¦²":12642,"à§ĩ........":12643,"à¦¿=":12644,"à¦¿&=":12645,"à¦¨à¦ļà¦¨":12646,"à¦¨à¦¶à¦¤":12647,"à¦¯à¦ªà¦¨":12648,"à¦¯à¦ĺ":12649,"à¦¯à¦¸à¦¨":12650,"à¦¤à¦°à¦¤":12651,"à¦¤à¦®à¦²":12652,"à¦¤à¦Ĺà¦£":12653,"à¦ķà¦ķà¦°":12654,"à¦ķà¦ĵà¦®":12655,"à¦¬à¦®à¦¨":12656,"à¦¬à¦¤à¦ķ":12657,"à¦¬à¦ľà¦¨à¦ķ":12658,"à¦®à¦ł":12659,"à¦®à¦¦à¦¨":12660,"à¦®à¦Īà¦¨":12661,"Ġà¦ķà¦ļà¦²":12662,"Ġà¦¸à§İà¦¸à¦Ļ":12663,"à¦Łà¦®à¦¨":12664,"à¦Łà¦¬à¦¦":12665,"Ġà¦Ĩà¦ĩà¦®":12666,"Ġà¦®à¦¶à¦Ĺ":12667,"à¦¶à¦¤à¦®":12668,"à¦ĩà¦ªà¦¤":12669,"à¦Ĺà¦ľà¦Ł":12670,"Ġà¦ıà¦¸à¦®":12671,"à¦Ľà¦Ľ":12672,"à¦Ľà¦Ĩà¦²":12673,"à¦Ľà¦¤à¦²":12674,"à¦¡à¦¸à¦¨":12675,"Ġà¦ħà¦ķà¦°":12676,"Ġà¦ħà¦ĸà¦¨":12677,"Ġà¦ħà¦®à¦¦":12678,"Ġà¦¤à¦¨à¦¯":12679,"à¦§à¦¨à¦¬":12680,"à¦§à¦®à¦ķ":12681,"Ġà¦ľà¦¶":12682,"Ġà¦ľà¦²à¦¨":12683,"à¦Ĥ)":12684,"à¦ļà¦Ń":12685,"à¦ļà¦Ĺà¦¤":12686,"à¦ļà¦®à¦ķ":12687,"à¦¥à¦£":12688,"à¦¥à¦ªà¦¨":12689,"à¦ĸà¦ľ":12690,"à¦ĸà¦¬à¦¨":12691,"à¦ĸà¦°à¦¨":12692,"à¦ĸà¦ľà¦¨à¦ķà¦Ń":12693,"Ġà¦°à¦¥à¦®":12694,"à¦Ńà¦ĩ":12695,"à¦£à¦ľ":12696,"à¦£à¦ªà¦°":12697,"à¦£à¦¶à¦ķ":12698,"Ġà¦¶à¦£":12699,"Ġà¦¶à¦Łà¦Ĺ":12700,"Ġà¦¶à¦¤à¦°à¦ŀ":12701,"à¦ĵà¦¦à¦°":12702,"Ġà¦¯à¦®à¦¦":12703,"Ġà¦¯à¦¶à¦°":12704,"Ġ(.,":12705,
[...]
